#version: 0.2 - Trained by `huggingface/tokenizers`
h e
i n
a n
t he
r e
an d
t o
in g
t h
a s
m e
o u
o n
a t
e r
e d
w as
i t
a l
i s
a r
o r
e n
o f
s e
l e
s t
w e
a d
o w
i d
s o
b e
a c
o o
T he
m y
a y
k e
al l
th at
l d
v e
i c
u t
l l
w i
ou t
g e
g h
l i
g o
wi th
so me
r o
v er
a m
r i
c h
w h
e s
i r
we re
h ad
the r
u p
on e
l y
f or
a b
n d
o t
b ut
c o
a re
n e
h a
h i
the re
d o
k ing
gh t
th ing
s a
en t
he r
ou ld
f e
u s
p e
c a
th is
u r
ac k
m o
l o
li ke
u n
ge t
se e
o p
m an
s he
t i
p l
w he
t r
H e
s h
k ed
hi m
W e
in d
ar t
l oo
o ther
an t
the y
I t
t e
the m
w o
id e
t er
ow n
en d
ou nd
n ot
h is
ab out
r oo
roo m
ver y
i f
c e
n ow
b ack
r a
b o
sa id
w ay
ha ve
all y
u st
n t
d e
t ing
i on
a in
e l
d id
s ay
the n
y ou
u se
The re
ro m
d own
h o
a p
ar d
go ing
d re
f rom
a ke
m b
S he
w ent
g u
p o
g r
h ou
op le
c on
go t
w al
s s
in to
s ide
e t
some thing
w ant
c ar
w ould
ou gh
The n
be ca
whe re
pe ople
wh o
c ould
i ll
th in
a g
j ust
er s
n o
f ri
w or
beca use
of f
hou se
at e
re d
m p
o ver
ac e
v ing
on g
b y
s u
fri end
e x
c an
i l
e p
s to
. "
k now
wh at
ar ound
i g
c k
as s
did n
i e
s it
d on
q u
ti me
tr y
t al
to o
The y
ic e
at er
a ir
dre am
ic h
ou r
A nd
as t
st art
p p
co me
S o
wh ich
thin k
i z
ca me
oo d
s p
u l
an y
h ow
ir l
or t
f o
k s
do or
c he
it t
g irl
me nt
b l
ur n
i ght
mb er
f t
whe n
th r
in e
ac h
me d
r y
re me
a ve
oo l
c l
M y
co m
re al
c lo
b u
t wo
i le
it e
at ion
ou ght
ab le
r an
ou s
be en
p re
p ut
ic k
b ed
t u
t urn
te ll
s m
fe el
itt le
gu y
p ro
wo man
p art
i ld
l ittle
reme mber
is t
s c
re ally
i ve
a f
_ _
h as
ne w
o ld
v en
pl ace
t y
pl ay
sa w
y e
st u
a ge
le ft
t ake
ri ght
c all
se l
f r
loo k
d ri
ho me
thr ough
a u
d i
b r
try ing
c t
re e
mo re
to ld
an other
me n
a me
say s
ch ool
loo ked
d y
k ind
So me
u ll
start ed
f ind
th ought
to r
loo king
r un
m s
thing s
in t
d is
h and
b ig
a way
c ou
re ad
l ong
fo re
ri ed
v ed
o m
s chool
f f
b le
sel f
ti on
u nd
x t
wal k
l ot
some one
at ch
c le
as ked
st and
w ater
ag ain
want ed
w a
es s
he l
p t
ad e
ir st
on t
real iz
tal king
a th
be ing
op en
an g
p er
sm all
p r
de c
sh ow
ne xt
the ir
he ad
al so
bo y
f i
ar k
fr ont
m ake
T his
s ed
se t
ha pp
t a
u ch
the se
r u
at ed
l ar
li ght
to w
on ly
i m
d ay
le t
p ic
g ood
f irst
wor k
- -
a ther
hel p
f lo
s ort
t able
e very
th ough
sit ting
n ing
out side
wi ll
mo ther
he d
wal king
be fore
M om
he re
was n
m a
d if
und er
ac t
he n
) .
is h
air s
j o
cl ass
it y
get ting
w on
ne ed
h u
m ay
st re
bu ild
u e
do ing
fe re
p h
re st
ne ar
B ut
le ave
f in
p le
could n
d er
p s
n g
w ind
ar s
m uch
b oo
af ter
build ing
too k
st ill
flo or
l t
b ab
l ow
po int
m ade
n er
O ne
d d
w atch
g re
bo dy
e ach
see med
r ow
w r
ll ow
wh ile
do es
A s
re s
my self
n ight
p ers
e ven
b us
i es
W hen
b ro
as k
dif fere
k new
stu ff
at t
wa it
be t
b it
we ll
ar y
come s
p ar
sh ould
at ing
co mp
st e
an ce
st airs
co l
lar ge
hi gh
c or
ro ss
. .
i ly
differe nt
s ing
th an
to p
wind ow
C h
ke t
h at
I n
f ound
c tion
w all
com ing
an s
s up
p ull
mo st
a k
s ur
bl ack
i ous
as e
stre et
friend s
pers on
a w
us ed
A n
l ad
you ng
? "
ke ep
d es
ha ving
c er
N ow
re n
s pe
gr ou
f am
el se
tal k
su re
le ep
ke pt
l ed
dre ss
wal ked
h ind
happ en
ro ad
read y
en e
le s
pp ed
v ie
c re
n ame
wh ite
ar m
stand ing
be hind
con t
A t
fe lt
turn ed
me r
m ar
se s
o l
are d
ve s
l au
grou p
sa me
g ive
ar ing
is ter
th ree
wh y
s k
f ather
realiz ed
st ay
D ad
ho ld
call ed
fe w
m in
thin king
t ried
__ __
s er
n a
sto re
in side
ard s
o b
ch ild
ir d
en ce
ha ir
i mp
see ms
d ark
u ck
e st
ing s
t en
j u
ge ther
am p
f l
be g
to gether
b all
wo ke
b re
al ong
any thing
are nt
f ul
say ing
may be
bab y
c i
other s
id ed
play ing
u re
E z
dri ving
sh op
Ez ra
b ath
man y
watch ing
clo se
pre t
g s
are a
f ace
c ur
l and
k en
bro ther
po sed
an ge
b ad
h ard
g l
v is
l ast
s leep
pl an
p ap
ac ross
c li
k id
gr ound
ig n
tow n
g er
al e
f ull
e v
wor king
h ur
li e
as on
s l
st ep
does n
pr is
p ass
hu ge
mo ve
k ill
s on
s ister
lo ve
ver al
loo ks
, "
c ut
it s
f all
fam ily
realiz e
dec ided
p ed
dd en
in k
bo x
j e
g ave
sto p
se x
ac tu
h all
dri ve
d ing
se at
some where
ir t
bo th
a v
ph one
p arent
fin ally
run ning
sup posed
sh o
boo k
u g
re l
pl ain
Y ou
t ri
m ust
us h
e ar
ra w
u m
oo t
cou n
k is
n y
end ed
ly ing
m is
c ked
m on
ne ver
pic tu
e le
d ro
off ice
clo the
Some one
m ine
che d
wo men
fo llow
g ame
se veral
h ot
con d
c are
w ood
u al
re ason
y es
he ar
h it
r id
girl s
lad y
for m
l ater
actu ally
" .
g i
b and
feel ing
in ce
J o
b ot
f un
lau gh
m ou
ch air
time s
clothe s
see m
ta king
ap pe
in ter
a tor
h or
c r
i an
un ch
bath room
s at
in s
li fe
we en
p ie
s hi
L ater
mo vie
would n
cou ple
g one
n ice
lot s
we aring
qu ite
to n
l ay
0 0
dec ide
part y
sur pris
way s
ap art
an c
N o
i gh
b or
l ine
gr y
id d
c ent
pap er
s wi
id ent
en s
won der
c tor
n ed
ac her
s ha
d one
d in
al most
ju mp
wait ing
m or
ye ars
pret ty
t ain
en ough
bet ween
p ain
t re
st ru
s ent
he ard
happ y
n u
che s
is e
happen ed
p ick
lo ck
you r
g g
l ing
iz e
i ther
ma king
dden ly
f ast
one y
tr ain
m ind
ran ge
d s
b ag
bl ue
li ving
m ight
s qu
ro ll
as h
t s
m ate
b ar
se cond
ic ul
po l
o se
go es
T hat
i a
gr ab
ch ange
hi ll
fe et
t ed
ry ing
bet ter
c at
sh ort
ou ble
e mp
g un
swi m
need ed
fi re
d u
le ss
re w
in v
st r
f ood
cle an
ke y
ti l
an gry
te acher
bo at
di re
p ast
k it
m oney
up set
idd le
a ut
every one
he s
who le
sto pped
fi gu
want s
P e
ic al
ter s
h al
che n
child ren
l ate
un til
l ist
not ic
apart ment
with out
kit chen
' .
p ort
e at
ur ch
se en
a med
wi fe
qu est
o d
tell ing
f ar
h ang
ra ther
d r
bo ard
ion s
l a
e ither
cli mb
be aut
g n
gre en
m ale
bed room
it ing
hand s
ch o
g y
do g
kid s
Ch ar
m iddle
get s
surpris ed
s w
con cer
ra id
hal f
m at
al ready
ct ed
s ince
tr uck
c our
O h
ac es
f our
in te
door s
m ing
ant s
de ad
col or
ce pt
A f
u ally
mo ved
af raid
O n
an k
dream t
e mb
ye ll
r ound
d ent
p ool
c us
Af ter
li ve
p a
p ing
ver s
m us
on es
p ho
h us
guy s
qu ick
it ed
oo k
c es
e re
k n
not ice
got ten
some how
te st
gu ess
jo b
A ll
al s
as ks
st range
mo ving
f oot
cor ner
or m
ste ad
s ound
beaut if
every thing
s n
min ut
ra in
le a
notic ed
A l
hus band
i ke
pull ed
inte rest
we ird
sh irt
s low
cont in
dress ed
i x
th ose
! "
w ard
au ght
s ign
y et
re ss
sh ot
p at
pho to
p ri
pol ice
le y
beautif ul
e yes
mo m
room s
hur t
cl u
col le
g ra
wr ong
d raw
m ach
y ed
parent s
ex plain
ch ang
v in
fe ll
c u
st er
sc re
ar r
un t
c row
dre amed
me t
con f
H ow
ve red
d ed
i o
ar ri
a h
il ing
cle ar
ta ken
p ay
us ing
boy friend
beg an
d ist
bu y
comp ut
ro ck
plan e
an no
bre ak
p ark
me an
r s
had n
com for
B e
ch ar
pictu re
pic ked
[ "
tow ard
ile s
i ver
tell s
M ar
again st
gl ass
s y
al one
p ack
s en
is hed
1 0
be lie
tr ouble
sp it
p or
ac hed
f ight
open ed
hot el
is n
le ad
l s
co vered
b er
whe el
f ish
H is
po sit
ty pe
n ie
m as
B ill
thr ow
S e
p ur
li ked
i ble
W hat
t all
g ar
su ch
pie ce
ic ally
i re
p an
to m
wor ried
c y
c ase
stu dent
i p
p en
b ase
on to
s ion
) ,
ye ar
r and
sc ene
step s
a z
al ways
ele v
at ive
a ur
t ree
E ug
ie ld
Eug ene
as ed
me et
to ile
ex c
? ?
old er
quick ly
p u
gre at
. )
v o
E very
T V
id es
je ct
m ain
co ver
comput er
some body
M ary
y ard
no thing
C al
i ent
su ddenly
d aught
ne igh
hold ing
z y
ed ge
lea ving
ch urch
d ad
r ide
l ou
s we
elev ator
f ield
ap pro
boy s
sc ared
c ess
Ch r
D o
light s
mus ic
car s
spit al
c al
on d
ate ly
e ting
Pe ople
des k
o k
mar ried
D ar
f ill
s now
comp le
st ation
st age
l in
bab ly
so on
re turn
any way
neigh bor
S te
emb arr
c ed
pre sent
s ad
t ic
F ran
e ating
embarr ass
in stead
nu mber
me eting
a il
st ra
bot tom
shi p
." ]
ment s
pro ble
lo st
figu re
f ly
ho spital
au di
er ing
di ed
boo ks
We ll
re co
pro bably
v i
as king
tow ards
show ed
fi x
es ca
as ses
e k
belie ve
ex cept
kis s
U n
c ity
c ross
pe t
itt en
ang er
up stairs
ent ion
an e
ast ic
in ally
iz ed
list en
de red
clo sed
on s
vie w
f ac
sp ace
toile t
f low
reco gn
r ing
ans w
id ing
ve l
H er
ge st
br own
daught er
on ce
nt ain
f le
mor ning
c atch
che ck
anno yed
et c
u ght
beg in
full y
chang ed
n ess
su b
H o
ti ve
swim ming
s and
start s
per i
e ver
dro ve
pre ss
d ance
be ach
were n
girl friend
c as
en g
b unch
S t
e as
ca ught
concer ned
a head
f air
in y
coun ter
ar ms
be st
b as
tal ked
at es
end ing
c amp
sit y
ci al
or g
ed ding
.. .
put ting
r ad
Cal vin
s ong
y s
su it
ex t
tri p
c ra
see ing
se ction
emp ty
c ri
ye llow
in a
or der
le ast
ur ing
a ul
m ot
F inally
c ir
me ss
appe ared
p ow
at tr
3 0
comfor table
o c
rest aur
ent er
f ree
an a
le gs
cour se
embarrass ed
an im
c king
sleep ing
v al
window s
R o
A r
kill ed
1 9
de ep
h op
br ought
c ard
sto ry
point ed
cer tain
re call
hang ing
s li
restaur ant
he ld
l aw
sp ot
w at
co ld
ho le
mou th
minut es
f act
h n
li ved
ri ver
par king
f ing
h y
i li
she l
icul ar
F or
N e
f it
i al
tr ack
act ed
id ge
pictu res
k no
wor ds
p ush
tu re
it ion
o dd
take s
o ve
ev ent
sa fe
h un
us hed
ation s
under stand
ap parent
ll y
iver sity
sho es
ag ed
v an
lo g
c ident
ide a
ex p
c ab
to uch
Jo hn
D on
age s
S am
ex act
dream s
gi ving
b al
me s
w in
w ake
we ar
lo cked
inv ol
M at
it ch
ar row
dire ction
s un
mou ntain
comple te
e f
com m
c up
colle ge
S u
do ctor
wor ked
su g
2 0
jo in
h ide
ha ps
wall s
v ious
rid ing
sug gest
g en
ket s
stra ight
g ed
the w
din ner
n ce
u d
in ess
Some thing
p y
whe ther
dri ver
vo ice
f urn
b ow
re ach
mb ers
hor se
f li
l ake
p ath
tre es
Fran k
apparent ly
Mat thew
gr and
part icular
J ere
be red
c rying
po ss
loo d
pl astic
str ong
br ing
mach ine
v ide
a king
thr u
t le
help ing
a go
le g
show er
R e
te am
who m
M o
pp ing
att ention
d anger
f at
m bered
grab bed
ex am
J ust
f er
re sp
all ow
reme mbered
G rand
i et
w ar
in clu
coun try
s of
s ize
squ are
p ants
r or
gu e
proble m
T wo
f re
m ad
l unch
esca pe
cou ch
ti red
C o
w ave
al though
d anc
ir th
ust r
gi ven
M ay
r ic
do ll
day s
pass ed
f ive
ac ters
wr iting
b ur
ag re
we ver
le an
any one
R am
gr ass
ar ch
we l
af f
dis cus
exact ly
read ing
r ace
f ur
leave s
p air
beca me
ro of
n orm
ab ove
b irth
gar age
c ous
____ ____
quest ion
s or
s mo
of fe
fin ished
s al
near by
aw are
Chr ist
te mp
fam ili
young er
er y
sh ut
won dered
make s
se ated
D e
th rew
per haps
f lying
wr ite
A unt
m ag
na ked
jump ed
b lock
st ick
pl aces
con ne
turn s
table s
An other
ex peri
br idge
un k
sa ge
f ence
na med
re mind
lo red
class mate
imp ress
b are
le ar
wal ks
re ce
exc ited
h ood
mo ment
b ra
il ed
interest ed
contin u
us ual
dif f
org an
b ic
as leep
ri es
tr ave
fe ct
n arrow
ear ly
pow er
vide o
ru b
p es
t w
ro l
down stairs
B L
I f
re cor
spe ak
fun ny
gu lar
stay ing
me tal
com plain
laugh ing
invol ved
c and
sh oot
student s
wor d
wa king
lou d
answ er
b ird
re nt
bro ken
diff icul
* *
i b
w arm
as ter
con vers
pie ces
e red
med i
play ed
par ked
gra ph
en jo
vis it
Jere my
b ought
p ill
as ing
sing ing
M r
t iny
bus iness
ll ing
i er
fe llow
ne ck
E ll
crow d
d ru
it ure
ke s
ok ay
g ing
he av
ent ly
hi le
kn own
to ry
ca p
furn iture
B ob
z e
ac cident
co lored
wr itten
slow ly
v ar
ce an
g ro
ch airs
him self
1 2
ex pe
de al
gr am
Su ddenly
F e
sk y
W hile
f ine
cent er
b ul
s il
set ting
J u
is ed
she et
sto od
Every one
w ra
d ie
ac king
pr of
sex ual
sen se
s ick
li er
co at
base ment
ta pe
w edding
le vel
box es
e ye
me ant
ha ven
T h
st ri
end s
men tion
convers ation
s car
5 0
k ne
s im
he ll
ter ri
stu ck
t un
il s
complete ly
v ice
cou nt
fl at
dr ink
te le
lay ing
Dar ren
C ity
J ack
en ed
spe cial
re at
gr ad
P aul
imp ort
c ting
g as
th ird
fill ed
May be
D or
M e
ate ver
show ing
famili ar
p ot
friend ly
o cean
we ek
un iversity
cab in
ch ick
fo ld
wood en
wat ched
T hou
seat s
quest ions
B ri
s ix
y ing
O K
contin ue
inclu ding
not e
al ley
com ment
b urn
fe male
off ic
follow ed
pat ient
por ch
F ather
c ket
m ir
v ac
st air
ac tion
bas ket
p ink
se arch
we t
po se
pro per
so l
ag ree
dist ance
b lood
g lad
s light
u ation
li br
i th
long er
pr act
How ard
v ous
cir cle
re ct
at ure
ic an
ste ep
se cre
Ste p
hu g
sk in
hall way
to u
shi ft
d am
d ra
cur tain
f il
te e
wonder ing
in stru
give s
Step hen
a x
s po
ne l
audi ence
gr ade
import ant
W ill
c raw
side walk
il t
Ell ie
L y
b right
i red
m ix
se par
et ting
every body
s ou
ce ll
cra zy
M rs
be low
v ent
il ar
An n
cut e
hou rs
heav y
was h
are n
ple as
fall ing
M ic
o s
in es
te ach
ner vous
din ing
C ar
b ike
i fe
wor ld
su dden
or ange
car rying
posit ion
n ur
conf used
cous in
emp lo
g ather
ma il
building s
c ool
i ed
s ides
wh atever
wheel chair
sim ilar
B o
libr ary
secre t
c ture
The se
ap o
fin ish
norm al
ne y
fr ustr
pap ers
?? ?
be long
some what
scre am
rad io
N ana
b a
in form
qu iet
danc ing
Fe el
E ng
And rew
anc y
Char la
recogn ize
p ile
some times
cre am
Christ mas
f u
j ac
te en
bus y
ev in
gr ow
rel ation
J e
ic ks
show s
ci ally
oo se
b ill
th ick
clo ser
call ing
se es
house s
bl an
S etting
T o
g hed
l er
w ards
li ft
car ry
pro gram
cont ain
1 5
M el
ou n
hou r
came ra
follow ing
bot tle
o h
p ushed
start ing
clo set
b en
o mb
re g
sel ves
appe ar
d ate
ho pe
ear lier
sha pe
sof t
? )
A mer
K evin
re ached
ic le
but ton
feel s
ght s
open ing
y cle
lau ghed
arri ved
er t
be come
c ook
l ap
ir ty
m it
n ic
er al
ce iling
mis sed
f ra
s us
ca use
ag er
st ate
ack s
w ide
class room
mo tor
cont rol
stay ed
danger ous
medi ately
sit s
b ing
fac ing
c ards
h am
sn ake
mot ion
so ld
climb ed
Some how
z omb
Thou ghts
th a
ap er
d orm
id er
po st
Un cle
B on
S chool
c ry
l it
on y
every where
Char acters
G in
m il
or s
un i
dro p
Feel ings
u ff
for got
su m
s ne
in king
anim als
d irt
m ater
clo ck
near ly
cho col
prof ess
L e
ac ed
ap ped
hur ry
kis sed
1 1
b ank
d uring
n or
r up
des cri
bic ycle
var ious
th s
ic s
no ise
gy m
c ul
p op
rock s
M other
S h
bre a
F irst
in ches
fe ar
tr a
scre en
a is
mir ror
inform ation
at ur
es pe
sm ile
name s
il ity
minut e
attr acted
G e
al i
att ack
ca ke
shop ping
s le
crow ded
espe cially
he sit
to ri
ne t
un comfortable
feel ings
need s
ph ys
sur round
mat ter
clean ing
emplo ye
ti ght
qu e
listen ing
C ol
r is
for ward
sh oo
bed s
im mediately
c ast
m ud
led ge
. ,
ve h
go ld
ant ly
che st
B en
tri es
h iding
exp lo
lo ad
pro te
sl ide
fur ther
slight ly
b an
re lie
gg ed
yell ed
ac ting
let ter
T om
d irty
v a
z z
it ies
for gotten
ra il
comp any
.. ..
relation ship
B ar
D r
ro pe
am az
pe e
te red
ck s
run s
cli ff
apo log
v ol
we ight
part s
I nd
on a
er ry
tu b
key s
Grand ma
e qu
ad d
pl ate
room mate
hop ing
big ger
agre ed
" ,
l ic
m ist
sp r
most ly
An y
kn ife
N ot
R ob
tr ail
con sc
dy ing
keep s
fing er
birth day
re pe
ly n
bo ss
continu ed
l u
p ian
bl ow
Jo e
chocol ate
m all
se a
op er
con s
dec or
pull ing
gl asses
mat es
difficul t
scar y
Dor a
st y
jo ke
offe e
an n
as hed
fere nce
ste m
happen ing
b ri
ut e
know s
Ne w
he art
al ive
cl ou
ist s
bre ast
S c
l ish
st all
were d
mis sing
d ouble
re f
re gular
pre gn
c offee
en se
ra ge
sp ir
M c
r ush
s ses
w ish
ac ter
her self
Al so
mention ed
W hy
an tha
me mbers
li ves
swe et
Sam antha
mes sage
sor ry
c her
ame s
g her
frustr ated
do gs
ca fe
lin es
. ]
O ur
s ink
re p
ar gu
new sp
should er
comm un
poss ible
tee th
for th
pl at
point s
ob ject
sw ing
color s
L u
at u
ig no
att ached
consc ious
ic es
co p
tr aff
flow ers
traff ic
b by
t ur
w and
spe ed
vis iting
pain t
c oo
break fast
al arm
ill y
pro ject
j am
l an
ha el
sit uation
char acter
pl ant
own er
dream ing
even ing
drive way
T e
b at
f light
n s
ch at
call s
chick en
H igh
Y es
ou se
want ing
int ro
small er
wave s
Mic hael
W ally
c tive
f ro
s had
us ually
tr ans
if ic
qu art
bl on
sy stem
ent ran
bu ilt
low er
ren ch
ben ch
pregn ant
E li
lo gy
bu mp
put s
let s
dro pped
S and
c ow
g ard
ve lo
loo se
bro ke
bag s
Ram ona
E ve
b s
sup er
pris on
appe ars
figu red
photo s
shoo ting
be at
s me
en n
lo ved
ti es
de ath
sha ped
pian o
lo c
ps y
shel f
m id
ch asing
gu ard
th reat
g if
u mb
be side
bare ly
N or
se mb
dis ap
eas y
th y
is on
or ge
ri ous
there d
wait ed
interest ing
a woke
use s
intro du
D wi
to ur
ot s
po cket
know ing
ple ased
lad der
blon de
Dwi ght
c tr
di es
Eng lish
4 0
m ark
he al
ch oose
su lt
wood s
fle w
W h
find ing
O ther
street s
An nie
be ll
should n
de li
ap s
ic a
no se
pre p
fall s
N ext
f as
in ting
cl asses
yell ing
ib ly
Any way
S tre
p age
ho wever
Se e
d run
is land
se ll
kind s
Amer ican
p up
v id
be er
ust ed
fair ly
ac tive
mo de
un usual
think s
sk irt
smo ke
entran ce
D ere
] .
r it
or k
su c
sto r
hand ed
happen s
care ful
photo graph
Dere k
C D
o st
p tion
re turned
to day
man aged
air port
stand s
lar ger
pleas ant
c ru
sp ort
row s
ball s
rain ing
pu bl
Stre et
gr ay
any more
head ed
fi ed
ele ctr
ash ing
pa id
fish ing
vious ly
n al
s imp
climb ing
char ge
Chr is
veh icle
c ig
d ry
ch ance
dis tr
gg ing
g ay
l en
s pl
roll ing
sum mer
ex tra
arri ve
Gin ny
G od
v ies
turn ing
pic king
help ed
vis ion
kis sing
lead ing
posit e
l ab
sto ne
our s
pre par
ms on
ug ly
h id
en ger
lo se
fri ght
pull s
hor ri
Bon nie
! ".
a wa
re ar
sa ve
pro du
high way
dr inking
pen is
Ho wever
19 9
as su
co ll
fight ing
cal m
begin ning
un g
ti ll
de part
H all
pe ct
sm iles
pain ting
stru gg
draw ing
pur se
oc cur
gard en
f ancy
ro te
rel ative
ens ive
la id
ais le
E ach
it a
st up
ver t
stre t
tic ket
J im
M s
hi on
mo vies
mis sion
throw ing
relie ved
an x
me ans
are t
wor ks
sk i
pass enger
gro cer
i um
op posite
av o
dire ct
anim al
event ually
enjo y
P o
be ar
ic ked
pl aced
sing le
fing ers
impress ed
tun nel
al d
ic king
ch an
no body
dis hes
pr int
inv ited
fil m
nur se
drun k
w rote
or d
ac cept
sho cked
law n
suggest ed
k y
con ference
let ters
cand y
Bri mson
blan ket
G o
cor n
ext reme
sty le
newsp aper
c art
s ight
for mer
ent ire
ent ered
not es
ven ue
dis play
ser ious
surpris e
zomb ies
p rom
in ed
wi ld
co stu
ho l
wor ry
stup id
C an
T ho
end er
ste al
ev il
av or
squ e
bow l
lear n
accident ally
A pp
by e
fore st
appro ach
neighbor hood
particular ly
basket ball
disap pointed
b read
r am
down town
I s
f aces
p acking
at s
co st
ti v
We st
au to
hor ses
nu mbers
ar p
mo ves
gu il
track s
fli r
tou ched
D an
st ro
for ce
hi gher
sto ps
tori um
m ur
w ing
ac tor
co mb
gu est
hand le
flo ating
des ign
rel ated
** **
P at
g ently
un cle
con v
dis h
roll ed
direction s
Eve lyn
M er
r ough
jo king
audi torium
wra pped
t ally
in ation
ain t
pre s
home town
open s
care fully
recogn ized
jac ket
M on
am ong
her s
hu man
change s
va gue
guil ty
d uck
ac qu
ag on
bl ind
kno cked
mil k
z a
like s
te xt
coun sel
tw ice
C l
d en
g ate
to tally
li es
ite ms
ob ser
shel ves
allow ed
L et
f arm
g a
man age
tr ay
de ta
tal ks
cor rect
gun s
Be fore
Ge orge
S p
l f
n on
ac ing
up on
man ager
ro t
ne ath
sh out
re t
lead er
experi ence
199 7
F rench
c tu
i tor
iz ing
tu be
dis g
per fect
im age
ser vice
B ig
G er
n one
s illy
sh are
new s
mis s
game s
inter view
amaz ed
publ ic
E ven
c ing
clear ly
conne cted
gather ing
depart ment
J ane
the ater
st it
clu b
eas ily
hi p
ind a
sto mach
pain ted
mag az
sme ll
W here
g ang
en ing
un known
par ti
step ped
sho re
1 00
g ri
n i
ac hes
ac tiv
bab ies
bad ly
inter rup
foot ball
rece i
trave ling
le cture
ir on
sto n
ang le
pic nic
under neath
lau nd
1 8
A re
is sa
ar ry
im ag
ans wered
arent ly
anc es
chang ing
proper ly
Col le
App arently
a to
b other
min i
m and
p as
re cent
wi re
lo ves
rel ax
equ ip
R edding
n ge
it self
is o
Ch urch
lou nge
extreme ly
equip ment
S tu
m ap
p it
st ran
ch i
ti e
sp read
hit ting
bal con
teach ing
plat form
E d
v il
ter n
sp end
sc ra
ser ies
breast s
L ook
M ike
W ith
b ran
li ed
for get
ep iso
aw ake
terri ble
N ate
O ak
a im
k itten
n atur
s i
in ing
wh is
ho les
stre am
grou ps
cat s
concer t
pur ple
pill ow
scream ing
p i
or ig
ad ul
no on
cy cle
poss ibly
Ly n
W il
me mor
ch ased
dre sses
Do ctor
A venue
i am
be l
bit s
hard ly
base ball
mountain s
stor m
2 5
per for
ear th
agre es
atu res
p in
st ar
ur b
play er
mean ing
eng ine
ef fect
strugg le
k itt
at temp
can not
pri v
Ram os
fas hion
m i
ti ed
who se
off er
ma id
spe c
attr active
resp on
Ind ian
spr ay
laund ry
V alley
ca ge
lo ving
tr an
fix ed
kne es
Paul ina
prepar ing
E l
b ite
d ust
ce ment
di a
head s
cig aret
p is
to wel
ree k
tic kets
hun g
spo ke
a unt
c red
g ain
w are
clo th
part ner
br ush
sw itch
balcon y
D av
m ill
t ent
t les
keep ing
camp us
e g
g on
p al
r amp
ca ve
real ity
____ __
sister s
e se
h ar
s lo
t ap
of ten
che cked
follow s
sound s
explain ed
proble ms
fre sh
mater ial
Colle ge
S pan
re main
to y
ad ed
tr ue
ho st
push ing
remind s
avo id
B l
r out
re sult
st ab
mon ths
offe red
anx ious
2 nd
M ill
me at
us ion
ind ic
con stru
ist ed
tor n
roll er
vi ol
remind ed
tele phone
nor th
suc cess
C art
m ic
r ich
ou nt
pl ants
de f
sm iling
sc rew
should ers
land ed
gi ant
cr ack
cabin et
C A
C enter
J ames
ce ed
stu dy
comp an
sound ed
exp ensive
sil ver
descri be
Dav id
Span ish
er o
ap p
ap py
land s
recor d
en er
se lling
them selves
own ed
back wards
dis covered
lin ed
press ed
separ ate
mist ake
B u
k er
ro be
fe ed
He ather
can o
sc ri
spe aking
buy ing
sand w
pract ice
parti ally
G re
g ent
z en
sm iled
sne ak
awa ken
B y
S imp
z ed
co ps
boo th
sli p
C or
a ks
e ks
v y
ic ip
man ce
any body
dis ab
der n
beg ins
sha ke
bar n
lean ing
discus sing
Simp son
W al
d ig
re semb
en ces
ter ia
pre vious
cre ep
plan ning
cus to
profess or
D re
M ark
z zy
ch ain
no is
As ian
dire ctor
flow er
curtain s
f aster
g own
v re
me mber
bo mb
ass ign
sp an
sc en
person al
R u
f ut
l eng
he aring
th ro
itt ed
dis appeared
cour t
E r
H ill
H appy
me al
we st
for ms
ne at
ction s
hell o
O ut
m atch
n ap
re port
bo ards
po or
dri ves
wa ist
att end
pass ing
love ly
sho e
wonder ful
pack ed
Ste ve
C on
ad dress
li qu
sto ries
cur rent
tre at
Do vre
surround ed
F red
O r
S up
i us
r ings
y er
back ground
our selves
pro cess
Se veral
pur pose
kno ck
J ake
h arm
br ick
Dad dy
sl iding
touch ing
dru g
offic er
W or
in ch
se ss
clo thing
di v
good bye
att ic
hold s
lock er
short s
mit ri
grocer y
natur al
eg gs
D mitri
d ge
i ence
so ci
co py
car ried
ine se
gre et
Lyn n
A b
E m
in al
after noon
laugh s
ident if
gif t
1 6
S ue
Y e
c ro
ot t
He re
air plane
wr it
kis ses
bor n
e ld
ad o
door way
char acters
cra ft
motor cycle
fright ened
L ots
g ig
i or
p il
out fit
tr u
car pet
ex it
ye ah
kill ing
expe ct
employe es
E ric
S und
b b
f ir
re sc
or din
de er
cre w
gl ing
vis ible
draw er
Un iversity
resp ons
complain ed
j our
r ist
but t
us s
pl ic
sp ill
bor row
explain ing
impress ion
episo de
B et
as hes
st icks
gh ost
He y
sit e
gre ss
Ch inese
spe e
sex ually
craw l
e mer
l uck
s end
s ale
s ched
th or
ou d
is su
sh y
sh arp
ass ist
ene my
pri est
join ed
spir it
cafe teria
Lu cy
direct ly
Sund ay
m ath
p m
al ous
up per
ra ised
ap pre
00 0
vac ation
horri ble
leng th
I D
T im
p ound
wor th
jump ing
rand om
i ans
r ate
ve st
ation al
sm oo
ta il
pay ing
mix ed
simp ly
E ar
M ex
p our
u ne
ac y
ri age
lo bby
cont act
fall en
actu al
idd en
str ing
Mo st
fra me
sus pic
B ev
a ven
an ie
to mor
li a
fin ite
je alous
tomor row
a i
b age
j ah
n is
an gular
be comes
li ps
ha ired
too th
ob viously
fl ash
brother s
bot tles
neighbor s
sle pt
priv ate
1 4
P op
b ble
f avor
ch ie
ne cess
under ground
teacher s
grad u
rail road
clou ds
f ake
p un
p ig
ut s
de ck
ap ple
oc cas
dru gs
contain er
Eli jah
recent ly
b un
d ue
e motion
f ic
us hes
ce le
po inting
floor s
block s
Sand ra
6 0
P ark
T ony
is s
ad v
ab ly
play s
fr u
ten nis
pu zz
sheet s
sque e
R iver
w inter
in ks
ar range
ex er
bre ath
peri od
card board
bird s
employe e
W ho
g ers
r d
u de
re fri
wo re
ter y
ion al
po ison
sto res
sur face
sub ject
Ly dia
grow ing
ali en
c ash
i k
p ages
re le
el s
cor rid
sex y
Dar ius
answ ers
Je ff
Wh ite
Dre am
cele br
3 rd
l or
u mp
he ars
ou nce
st ack
with in
cr ash
sy mp
hun ting
discus sion
ing ly
is ion
ic les
de mon
con test
af fe
hun gry
expe cted
prep ared
perfor mance
1 7
B J
L ast
s co
u ct
er k
it ar
al o
sh allow
gr own
stuff ed
des per
doll ars
sou th
' ,
A m
D aw
K en
w agon
ad ing
ter min
clo sing
sup pose
Bri an
cook ies
thro at
exer c
refri ger
r ack
en cou
ic ing
some place
ex press
bl ond
att le
?" .
appro pri
Ger man
fut ure
L ike
h idden
m iles
o il
t an
or dered
ll ed
point ment
____ _
pret end
second s
sal es
commun ity
Cart er
Sup er
a ked
d ating
l ane
ad s
am ount
che ese
ct s
und red
mon ster
comfor t
A u
e m
h oo
r ab
as m
pp er
pr ay
aw k
On ly
Grand pa
lean ed
costu me
p iles
t as
ar on
st aff
br ings
dis cover
Th ree
A le
J erry
V ery
be lt
sa u
if f
med ic
work er
lad ies
recei ved
custo mer
E x
S us
ar my
but ter
do ck
ce re
mar ry
cut ting
supposed ly
cent s
safe ty
Don ald
resp ond
wash ing
psy cho
Stu art
B r
C he
w ise
al co
se ven
id ence
ac hel
ch ing
che ek
com pet
pic al
class mates
shirt s
cu dd
apolog ize
spee ch
awk ward
cli ent
instru ctor
ali ens
quart ers
deta ils
gent le
a while
m ul
in ju
al y
li g
for med
ne g
gen eral
tele vision
attack ed
prote ct
magaz ine
smoo th
f ile
v amp
it ude
iz es
let ting
stru cture
roll s
Mar issa
separ ated
shad ow
relative s
constru ction
D ou
d a
g age
t ar
t ank
ur in
tr apped
sp ent
wheel s
cas es
trave l
object s
pil ot
J ay
R ich
c ine
h undred
ar ily
ic t
ti p
de finite
con ver
any where
gre y
sup port
mar ks
plan ned
gg y
sign s
pack age
suit case
smo king
enjo ying
argu ment
electr ic
creep y
refriger ator
1 3
B rad
J ap
k ick
on line
is a
ad m
un ion
she d
ho se
po le
ous ly
res pect
inter section
aul t
difficul ty
belong ed
cul ar
ann oun
kitt ens
suspic ious
cere mon
E vent
J an
K e
M a
Z e
we ak
ut ion
tr ick
tr unk
ment al
um n
cond ition
complain ing
phys ical
ener gy
J en
P er
S A
b ars
sto len
che cking
sort s
dress ing
grab s
draw n
coo king
West port
pi pe
L o
M any
M att
r at
to ys
se qu
The ir
tr ust
bo red
sp in
pr in
sl am
grand mother
rub ber
rect angular
uff y
Tho mas
ga thered
Q ue
i ers
an na
st raw
be y
out doors
under wear
cr it
police man
mess y
stair way
Event ually
0 5
Y ork
e ase
he ight
le ve
ch ase
back yard
ra p
cor d
than k
cre ature
bath tub
close ly
pat io
appro ached
song s
acqu aint
appropri ate
F o
R achel
c il
o on
p iz
or y
se cur
cover ing
rece ption
Will iam
fru it
2 2
N at
P al
W ar
f ool
g ree
li p
ye ster
help s
cre te
Be cause
swe at
lift ed
uni form
Er nie
4 5
S ar
b ent
b lo
p ond
u es
ic o
ri fle
qu it
real ised
bus hes
bre aking
sport s
Ye ah
yester day
2 4
O k
s ized
y an
re present
we eks
so cks
ro b
for t
Some times
rest ed
squ ir
Every thing
Rob ert
guest s
vil le
Daw son
W end
in ti
en a
st at
ro de
ver n
am a
am ps
pr ice
ru g
In stead
shop s
plan es
rel uct
Pe ter
cu rious
power ful
pot ato
cano e
R ay
h h
v ic
re mark
or ing
st icking
id s
mo dern
te ch
wal let
fin al
fam ous
je ans
je wel
fun eral
du mp
clean ed
conf usion
cross ed
Ju dy
fold ed
trail er
S ince
v ag
to ne
as y
me chan
ac cess
co ins
if er
bo dies
con crete
ers on
draw ers
stair case
spl it
chi ps
L ake
h ook
in cident
are as
dre y
ist ic
int ense
par ade
land ing
hur ried
mon th
cr ush
sat is
Ho me
gen cy
sold iers
brea the
ref used
Au drey
2 00
C hu
J enn
N O
e ight
p unch
r on
we ap
es cal
sp aces
che ap
part icip
ty pes
ta x
des ks
mar ket
pret ending
doll ar
blan kets
Mel anie
conv ince
secur ity
H ank
l ace
z er
er ie
se mi
ca used
ca kes
ur t
tr ash
gu itar
car park
fr ant
res ident
vi vid
Co me
dam age
mud dy
pres ident
result s
Chu ck
R uss
d ive
u le
le ather
st al
ch ose
de mand
ap pointment
under water
hu gged
eas ier
sou p
sle e
cons ider
Wend y
E R
F rom
L ou
N ick
P r
b unk
m bo
m ass
sa ved
te asing
bu ll
pic ks
help ful
mar riage
return ing
fer red
D id
Q u
in se
be lly
go lf
she ll
sto ve
per form
swe ater
spot s
orig inal
Ru dy
Pop pa
Jenn ifer
D y
E u
R on
m att
p on
w it
w ine
co ach
pl ug
aw ful
cho ice
color ful
shot s
scre amed
anno ying
comple x
bri e
bri ef
igno re
cine ma
A dam
R un
T y
c ried
i vid
is m
li mp
play ers
aur a
org asm
norm ally
igno red
ctu ally
fir m
R over
b oun
s ar
z ing
the at
en velo
ve get
tu red
stu dying
ang ri
ple ase
cr ashed
On ce
fix ing
oc cup
Ben jam
repe ated
fro zen
liqu id
tas te
Benjam in
A ctually
V al
t es
ar ran
so ap
co vers
per mission
tow er
ma j
mar ked
hop ed
Bo th
lan gu
activ ity
adul t
vag ina
escal ator
brie fly
a ver
re search
as es
at tered
mo b
ame ter
fore ign
und ers
ath y
pret ended
kill er
du de
sy mbo
bal ance
P art
S ou
a id
re lig
to ss
is ting
ac count
ic ed
pe w
mo on
flo at
sk ill
train ing
free way
certain ly
comm it
cast le
wand ering
Nor man
G ood
M an
R ed
d gy
an ti
re pair
st ers
ad ium
man ner
wor se
sto rage
pro ceed
sc ience
af fair
will ing
boo ts
.. ."
fl u
gar bage
fashion ed
bey ond
piz za
C om
O f
S m
S il
T i
T erry
h ate
in st
as ide
we ather
de b
And y
di m
di ameter
ish ing
kne e
fu rious
scri pt
( ?)
I N
f loo
h on
j unk
al ed
ad vert
pl ates
ind ivid
not ion
bu d
part ly
hu gging
Jack son
mode l
flir ting
gon na
ceremon y
A L
D is
h its
s igh
in o
was te
un ity
pl ans
ble ed
dec ides
work ers
att itude
ren ce
pill s
occur red
**** ****
disg usted
imag ine
cigaret te
disab led
jewel ry
H ouse
N iles
ac com
ro bot
ra ft
gu ide
thr own
cre atures
du mb
sw am
wat ches
patient s
reg ister
rout e
sandw ich
necess ary
inju red
prin ci
L aura
S atur
am s
bo thered
has n
bus h
Char lie
fill ing
camp ing
phys ically
chat ting
occas ion
A gain
M art
b ly
g in
p iled
ti re
te a
mb le
pr oud
ste el
sup p
expe cting
burn ing
Sc ott
definite ly
angri ly
0 6
B ry
L inda
v ill
ab or
tr ap
ra ise
de st
che er
dec ision
ser v
ele ph
hill s
eat en
esca ped
mot el
ef fort
conne ction
experi ment
lear ning
commun ic
assist ant
demon str
L i
f ail
n ers
w ound
is ing
ch op
con vin
ex hi
com ments
dri ven
cre ate
ju ice
bor ing
lead s
ane se
quart er
introdu ced
ordin ary
f ault
m al
m ast
m ask
it ary
ad es
ch a
do cu
ust y
car to
sp ring
__ _
ious ly
cre ated
colle ction
suggest s
grad uation
search ing
ba thing
button s
zomb ie
brea ks
load ed
Other s
memor y
CA S
maj or
R yan
c kets
l ug
in it
in vest
re sort
we ed
for ced
cl aim
set s
res ist
dist ur
cous ins
vac u
secret ary
emer gency
compet ition
Jap anese
" ]
F ar
G ran
R et
t ag
ou ntain
on ed
al ing
ad just
ic op
ch u
de velo
sto ck
sc oo
hel icop
dress er
mou se
beaut y
mach ines
throw s
sol id
sol ute
attemp t
Ab out
appre ci
D el
J ason
M ed
M iss
a the
b locked
as soci
be ard
ut ter
for d
man sion
sh aring
te ars
house mate
ran g
ia h
boat s
return s
bring ing
lear ned
bul lets
burn ed
craw ling
profess ional
heal th
photograph s
D ay
D ary
T ed
c ot
d ou
e ars
f ab
p ad
p ies
he at
or n
en cy
am ing
co ck
sa ur
sh it
sh ook
use um
qu al
qu et
ran k
thought s
gre w
In side
jump s
discus s
stri p
bill s
hesit ate
apolog ized
disg ust
Wor ld
sched ule
issu e
Satur day
Dary l
1 st
R E
S i
l le
r ushed
t it
st ing
ot e
ti an
sh iny
de stro
can s
ive s
ty pical
di o
realiz ing
ru de
att ending
ju dge
plan et
figu res
cross ing
Re y
organ ized
comment ed
skin ny
repe at
loc ated
stran ger
pis to
Out side
favor ite
mast urb
A N
F ace
f iles
re hears
st aring
op port
gu ards
too d
au thor
ble acher
im ages
lt ed
lay er
pu mp
ib ility
appear ance
lap top
swing ing
corrid or
mul ti
t ast
z oo
to night
ti ble
back ed
off ers
cl erk
light ed
road s
rid es
concer n
pan ic
temp or
loud ly
rep lied
coll ap
vague ly
bran ch
Ok ay
unders tood
H arry
K ing
b ene
e ast
w ished
and y
to es
ro d
con do
hor iz
pick up
gen er
pup py
distr acted
spec ific
d rain
g all
i ge
p asses
he aps
re fle
of t
pe l
su its
ex ha
sp ider
find s
comp art
des ert
cont ent
mer ton
imp ro
dr own
week end
brea thing
rush ing
argu ing
Wil merton
respons ible
exerc ise
vacu um
L arry
g ment
n es
o saur
p itch
t ask
an ks
is tr
we b
ve t
ch all
ne ither
sp here
child hood
fl ames
cur b
nu de
exam ple
grass y
tou gh
prep are
approach ing
scen es
writ er
medic ine
Sus an
H u
S ally
g gling
al le
we ls
so cial
ac c
ce l
ex change
differe nce
des er
sk ate
sl id
din osaur
grand ma
grand father
proper ty
dra g
Car l
Bet ty
langu age
C hi
L isa
S im
a qu
c ate
f if
w rest
th umb
ro le
ch oo
ca pe
ra pe
sto pping
ble w
ele ment
ton s
fire place
mas ter
Every body
Ho lly
cri min
sof a
bra ke
bra kes
wra p
teen age
counsel or
resc ue
theat re
individ ual
T H
r acing
re moved
to ast
th ri
st adium
up side
back s
vis or
sha king
pur su
edge s
reach ing
continu es
quiet ly
gif ts
perfect ly
stab bed
acquaint ance
Face book
C am
G u
G et
I S
K ar
f an
f fe
w ings
in cred
se le
ac he
ro man
ch al
pe cted
bl ing
bl ouse
bu bble
pre vent
ste ering
des ire
ser ving
ten sion
hall s
conf ident
pu dd
present ation
section s
pract icing
Car ol
Eng land
Mel inda
mil itary
lug gage
N ancy
P ar
T rist
W a
r al
u c
and er
ge s
ab s
ab solute
lo sing
un familiar
ul ate
rest ing
your self
cho sen
pack ages
cup board
instru ctions
Hall o
pres ence
Sou th
Trist an
2 3
B er
E s
L oo
h ated
j ail
o ven
p ou
st ars
sh all
now here
start led
able s
sur vi
An na
ser ve
ground s
move ment
ress ed
present s
cir cular
Ne gro
action s
heal thy
ung le
pas sage
bran ches
ware house
affe ction
fab ric
A ustr
R es
U S
b loo
e gg
i res
be ha
out door
wor n
Some body
fi red
make up
im possible
jo kes
pain ful
notic ing
pat tern
press ure
mag ic
speak er
dorm i
hesit ant
success ful
conver tible
Austr al
B ack
M ass
b ound
f lights
o val
w itch
re union
ab and
lo cal
un able
ti ger
ap ers
wa ved
ian a
ber t
pen cil
win ner
loc ation
Mill er
Eu rope
convin ced
Hallo ween
F rid
H i
T er
b end
f ant
i v
i als
l ene
m iah
n ia
p he
r ick
r ise
in visible
is her
or ter
ac cent
wi res
art icle
car ing
su ck
bu m
stre ng
sur ger
sw it
half way
emb race
exc use
flow ing
fli p
Jere miah
recor ding
snake s
decor ated
nois y
Ty ler
Frid ay
V ic
k icked
m uff
re qu
was hed
ar re
en ced
se ason
be sides
ir gin
un it
con front
com mon
sm art
pro test
hat s
imp at
sl ides
dist ant
swe ep
kno cking
De an
chick ens
note book
simp le
stret ched
auto mat
resemb led
Rich ard
Ze lling
arran ged
! '.
7 0
B ro
D uring
I zzy
i for
j ar
p urch
t win
re move
le ans
id ay
so c
be e
And re
sc attered
ive ly
stu dio
stru ck
pol ite
Al though
count ing
clou d
assu med
Jim my
interrup ted
jour ney
Sm ith
helicop ter
opport unity
surger y
E aster
G r
R ight
d itch
v ive
re ve
er ick
we ars
li on
pe ts
ca using
mb s
fore ver
ath an
rest room
des c
ser ved
na il
yell s
conf using
Cal ifor
iet y
stit ute
compan ion
identif y
pour ing
encou rage
neg ative
Sil as
bleed ing
eleph ant
H ar
b i
b in
n am
in fe
in ct
re place
as semb
ca pt
un happy
if ied
de termin
car ni
who ever
ag ers
pp y
ry l
bu g
ru les
hur ting
mon key
Dar ryl
cup s
bur ger
bul let
offic es
Gin o
gym n
introdu ce
ston es
Fred erick
matt ress
carto on
bleacher s
soc cer
A fr
T iny
Z ena
b ba
f its
t ack
re nd
it al
pe ace
ur y
sh own
cl ing
ob vious
av ail
key board
dr inks
eng aged
sli pped
cand les
fellow s
Que en
squir rel
relig ious
exha usted
dormi tory
impat ient
Califor nia
8 0
J ens
J ero
c ure
g ie
i ally
l one
p end
t ender
in ner
oo m
ge ar
do dgy
un te
ind y
art s
own s
his tory
So on
iz arre
pro gress
cur ly
couple s
ere ction
sign al
tall er
Mo re
sil ent
lit er
ann ounce
Mc Donald
threat ening
correct ly
dou b
pisto l
capt ain
Jero me
9 0
9 11
A T
P ed
R ose
S ant
f ting
g ant
l at
in no
re quest
to ps
ul ar
bl ed
med ical
sm ashed
pr inting
head ing
sing er
mis try
fun ction
ton gue
inv it
sign ed
Ro che
kne el
Me an
vol unte
ord ers
costu mes
steal ing
joking ly
awaken ed
assign ment
customer s
Val erie
carni val
A R
C ap
G ary
S ure
X X
to ma
at mo
ent ers
de fe
de te
de vice
po ster
bu ried
ty ping
au d
je cted
dro ps
hor ror
pol it
ster n
ber ry
fac tory
cand le
cap tured
terri bly
craw led
Bo y
cigaret tes
squee ze
streng th
Ped ro
atmo sphere
C R
K aren
N ative
P hi
b ang
i el
m m
m ut
w is
the me
is es
en closed
se wing
for tun
co in
pe ek
lo ss
ra iling
con st
su ite
fo cus
dis ease
under standing
vers ion
catch ing
enter tain
fre qu
shift ed
Bon ita
hol iday
torn ado
Bu bba
sau ce
Es ther
? ).
C a
C u
L ittle
M ain
b izarre
f ig
m are
w ed
re ver
to tal
as ure
ll o
ir rit
ther n
for k
un ks
sh orter
remember ing
fr idge
light ing
ma ze
shi eld
lay s
No thing
ident ly
less ly
bedroom s
arri ves
stair well
blow ing
prison er
adul ts
div or
psycho logy
vamp ire
Jay son
leve ls
Run escape
Bry an
absolute ly
C e
l id
re ll
re ly
as p
as ha
le ap
ab ility
man ual
gr ate
con side
et y
ex posed
bl ank
old est
through out
hand some
ph ones
spe ll
dro pping
ins ist
anc ed
sn uck
colle ct
pan el
field s
St ar
Ar m
event s
bal d
doll s
conne ct
rub bing
Nor th
deli ver
Mer le
Per haps
exhi bit
Sant a
conside red
? '
G irl
H aven
Y ear
] ,
c reek
f ed
f aded
l ack
p ier
t led
be coming
ve y
ro se
ne ls
she ep
pl ot
con cent
sp ending
-- -
ball oon
form al
Jo se
cr ou
stru ggling
truck s
sli pp
safe ly
bur st
sal ad
circle s
Joe y
rit ual
princi pal
invest ig
A ve
K at
L or
g le
n ity
r ay
y d
y ards
th us
am bul
wo lf
side ways
over head
ast y
play ground
tion s
sup per
sho ck
tri m
sha pes
bar a
io logy
comput ers
toile ts
daught ers
pow der
________ ________
reg ard
Bar b
stall s
wand er
chan nel
print ed
accept ed
sess ion
chie f
rab bit
Ale x
urin ate
Sar ah
vill age
? '.
F let
h one
m useum
s ens
ic y
co ast
ind e
dre w
ill a
su ic
qu iz
com plic
att ended
sur vive
Jo sh
cour ty
pa ired
cu bic
law yer
log ical
doctor s
Bar bara
decor ations
slo pe
nois es
Mex ico
beha vi
Flet cher
C indy
E n
F l
J ared
L ong
T hur
W o
d ut
e u
f lood
j ungle
p ale
t aught
re marks
to e
ac ious
am use
ch or
ur ine
un locked
gr in
con tr
con ven
su gar
sto le
sp y
che mistry
cl ut
sc ram
home s
br ide
happ ily
wait er
spe ct
rid icul
bar rel
pa jam
gra ve
bas ically
threat ened
stret ch
respon se
______ _
sco re
accom pl
horiz on
roman tic
Arm strong
K im
M in
S ha
S till
j et
l as
t went
re fer
to wels
as sure
al right
so da
ic hes
ent ry
ent ering
sc r
sc are
ang led
jo y
hu gs
shi ps
shot gun
rock y
ip es
leg al
fold ing
uni or
actor s
duck s
Cl ass
obser ving
shout ing
mini ature
pillow s
Gre en
luck y
River town
symp athe
desper ately
docu ment
Ret reat
avail able
3 5
J on
J ill
U p
e ve
h unt
p ipes
v ia
an ne
re gre
re mode
st are
ad er
so b
ch in
hi red
pe el
pl ent
ra h
know ledge
tu ne
att ed
sk ating
cur led
lock s
inv ite
far ther
fli es
recor der
shift s
Sh aron
serious ly
Sp ace
envelo pe
occup ied
4 th
H il
I I
b ay
e mail
f ountain
g low
r ac
he t
re c
ad ded
wi pe
ge stu
sa il
op in
no dd
dri ed
act ress
mar ble
tre ated
job s
Al an
ber ries
audi o
wat ers
sun ny
sold ier
pup pies
stran gers
distur bed
Med ia
courty ard
A c
n ical
p hi
s can
in cl
re aches
and s
en counter
go al
ant age
sto ol
ater nity
di al
dis appear
ru ined
light er
wall ow
hard er
ink y
reason s
apartment s
gra vel
exc iting
fu zzy
Amer ica
gold en
prison ers
Mex ican
tax i
AL L
Roche lle
amuse ment
plent y
A h
C la
L ove
M or
T ru
W ashing
Y et
d ess
h ab
l on
l av
l oft
m ush
r aces
it ions
en orm
be ars
go vern
de gree
ite m
fr aternity
ru gs
res ent
swi r
late ly
mus ical
dist urb
cal cul
Ju li
contain ers
ref use
comb ination
magaz ines
whis per
puzz le
Ma bel
proceed ed
dest ination
suic ide
D ick
J ones
e jac
f al
n ut
n ature
p add
re tri
se ed
am us
co aster
lo ver
like ly
sh ining
room mates
back pack
el bow
ap ping
gu m
And erson
bu gs
int ended
walk way
act s
ev idently
mon itor
inter course
ator s
cat ches
dent ist
sign ific
gra v
posit ive
cri es
deep er
organ iz
coat s
terri fied
coll ar
shout ed
Ed ward
determin ed
regre t
A my
A ri
J as
S to
b ased
c id
c key
l un
n un
s wallow
he ro
st ain
ri er
ri pped
fe ather
whe never
He l
art ist
el ine
po s
il a
com mer
af ford
di ary
need le
les b
fl ag
dist inct
mot e
mess ed
spot ted
shel ter
war n
inclu ded
famili es
medi um
ben ches
lic ense
cred it
Em ma
tru th
alco hol
frant ically
Wa it
Washing ton
govern ment
2 1
7 5
M id
N one
a we
b ust
b attle
c in
c am
n asty
p oo
s ang
s izes
to pic
ar gue
se w
out s
co ke
there fore
ul t
ment ally
pre viously
di ving
their s
An ge
spe aks
pass ion
four th
Be th
cas ual
mess ing
rep ly
mur der
relax ed
potato es
satis fied
compart ment
aband oned
behavi or
M ad
T ree
i val
p ac
p ine
y al
er ly
is k
ch uck
ack now
ti res
ti fic
ra z
where ver
ag gress
su ff
ul ed
ph y
less on
mus cle
Se amus
vo ices
answ ering
Dor o
ris ing
explo sion
oper ating
bat ter
conv ention
mic ro
cabinet s
ai med
occasion ally
Austral ia
ambul ance
B ible
F ire
G old
M ag
R al
S top
Y our
b acking
c roo
d ated
g or
in cre
al tern
ar a
ad vice
some time
sh ared
ter ms
de lic
de pressed
gu ilt
bl own
bl ade
tell ig
ang les
fi ance
res er
cli p
No body
pri vac
pen ny
exc ite
comm and
join ing
danc ed
bur g
Jack ie
Le e
oper ation
tur key
Pat rick
Mon day
spill ed
Dou g
orn ate
Si ms
element ary
Cam den
scr atch
privac y
C H
F ishing
S an
b rain
f a
k in
l ame
m ood
r acks
s ket
re treat
re mote
at io
li m
co d
un less
po sing
ag ing
sp acious
ave s
Some where
ull y
You ng
tw ins
shoot s
enjo yed
finish ing
Sc ared
Eli za
vert ical
pis sed
sandw iches
adm ire
Fo x
inti mate
floo ded
Sim on
Bro ther
complic ated
nodd ed
. '
A ut
L E
b ass
g an
l amp
in tellig
me ter
or ient
so re
go d
ot ic
co al
pe an
ce real
ain e
po ckets
ex e
bl ur
bl ings
ath ol
boo ths
after wards
aw s
close st
short ly
fell atio
az e
listen ed
straight en
square s
discus sed
rece ive
organ izing
pract ically
state ment
ham mer
veh icles
lu cid
grocer ies
cro cod
Ear th
gradu ate
hundred s
Mean while
C athol
H al
L on
O ff
P h
e y
f uck
n ine
n ies
w re
re r
re action
th igh
ow er
id a
am ple
co de
un sure
tr ous
el abor
ex plan
ame r
int ention
light ly
jo ked
night s
col our
ange l
vis ited
sl ant
cho ir
sub st
mater nal
relie f
cow ork
horri fied
ret ard
si ren
mill ion
Brad ley
weap on
Russ ian
tast ed
swit ched
enorm ous
Aut umn
B urt
E v
H ad
K o
O N
b uses
p ment
t ly
he els
ow s
id ers
be ating
all ed
ter ror
de p
cur ve
step ping
grab bing
la be
Char les
free zer
vent ure
sus pect
surround ing
message s
shad e
psy ch
Are a
spec if
dig ging
sequ ence
spin ning
War craft
reluct antly
skill s
Ti me
cot ton
pou red
irrit ated
Ral ph
J am
K y
K ate
L ost
W on
a ving
b on
b ac
d ers
d aw
g loves
in sur
re placed
th read
er rand
it ated
st iff
be th
ne st
pl ed
ter m
ra ging
de v
ag het
wor st
ex cell
ig ger
sp ark
sp aghet
girl friends
com pe
bu cket
br u
fore head
work shop
wr ist
night mare
than ked
na ils
along side
ev idence
sho ve
clothe d
anc ing
test s
belie ved
pan icked
pow ers
sli m
bur nt
recor ds
belong s
Mel issa
que en
lan es
trans fer
umb rell
ski ing
si blings
viol ent
adv antage
rele ased
stat ue
hurried ly
tit le
lone ly
spaghet ti
B rit
C reek
D ri
D ave
S al
S her
f are
k a
l ers
m ice
p ushes
s word
ad a
my ster
wh ist
fe atures
art icles
car pe
no ld
sto red
sm ash
wa ving
res ses
wait ress
par alle
sup por
ob st
pa use
explain s
arri ving
elevator s
eng age
val ley
sli ps
wel come
spo on
cell ar
pleas ure
explo ded
Rob in
electr on
nal do
tran sport
pound s
desper ate
Jen ny
chall en
insur ance
B lood
D ep
J es
M ac
O ld
S tr
g ap
s ive
u res
u min
w id
it ting
ac ce
out er
ro ses
ch ip
lo cking
un pleasant
pl us
sh amp
ag ent
red dish
tal ent
hand ful
set tled
hu m
col umn
sleep y
son s
cut s
clean er
colle cting
sen su
fac ed
ext ended
Ro ck
bare foot
bul b
Bar ry
deli ber
Mill ie
assign ed
spirit ual
emotion al
Rey naldo
Res ort
ridicul ous
refer ring
shamp oo
8 th
A d
F lor
I T
P A
S mall
W as
f av
g ross
n uts
w ag
re vol
th o
le af
ac compan
ri bb
ne are
ack er
un ts
man eu
He len
own ers
de ce
ake s
bl ah
ste re
different ly
cur ved
je lly
hall ways
nice ly
mot ions
dru m
offic ial
tight ly
explo de
conscious ness
coo ked
super visor
painting s
kitt y
div ided
jour nal
SA ID
supp lies
inno cent
fortun ately
Ca fe
commer cial
excell ent
B ru
G ro
b ind
c ough
f ond
r hy
s our
t ick
v as
v om
the d
me nd
ri e
wh irl
ap pl
mb led
into n
ick y
home work
ru ff
street car
sen ior
por tion
Fran c
embarrass ing
sand y
graph y
tou ches
dra gging
teen agers
sne aking
suc ceed
corn ers
non chal
Ger many
activ ities
pas te
tran sp
disab ility
greet ed
Super natural
rap id
NO T
disgust ing
excite ment
elabor ate
5 th
B eat
C oun
J ess
K ay
O R
T al
T iana
V i
j unior
l ord
p atch
z es
al tar
or ity
ke mon
pe red
whe l
sh ark
if y
su cked
il ities
bu nd
realiz es
hu mor
fin ed
pers u
Ch lo
cre ating
move ments
je ep
stead y
pri ze
war ned
question ing
cap ture
Ju lie
pop corn
Chris tian
Po kemon
stit ution
ghost s
anna h
crit ic
reluct ant
weap ons
wit ness
deser ted
thri lled
Loo king
bloo dy
pajam as
sympathe tic
trous ers
B uffy
E ast
E than
H awa
L ask
V irgin
W he
c astic
n ative
p ens
z i
an o
er a
ac le
tr ic
de cl
over whel
pro ve
dis appro
water fall
fi er
day light
cor ding
ol and
ci ent
hur ts
cond u
nu mer
far mer
sw amp
stri ke
stri ps
spo ken
mix er
bike s
Je an
cook ie
amaz ing
wand ered
bump ed
counsel ing
tap es
lands cape
feed ing
Hill ary
gradu ated
cudd le
blo cking
sar castic
Dis ney
qual ity
hone st
Lon don
Chlo e
Hawa i
E ither
H un
L iz
P resident
W ed
f ences
l ting
n gest
v ale
x ed
x im
st amp
ad min
ic tion
ll er
ge o
ro cking
ther ap
hi king
tr ad
te ar
ra ged
de ar
de ter
you ngest
ho mo
ex claim
play ful
br and
int ri
int ent
fi res
flo ated
ins isted
train s
sn ap
war ning
trave led
rub s
rent ed
ham burger
smell ed
dust y
mill ing
Bl ue
attend ant
Dy ss
mob ile
choo sing
Jens en
Class mate
exe cut
specif ically
Flor ida
Lask o
C eline
L au
M en
M ax
T igger
V ince
e ager
p lo
s ack
v on
v ation
an aly
the s
be ads
ab by
sa fer
ca ut
ind ust
dri ll
dri vers
br ace
pr on
dec iding
jo int
stre ss
ser t
tri al
After wards
gra p
ber g
appro aches
lin ing
Ar chie
win ning
grand pa
strong er
exam ine
stri ped
dra gon
Sh ort
spr ink
Mc Dyss
newsp apers
cost s
orig inally
earth qu
El aine
Gran ma
masturb ating
gymn as
doub t
frequ ently
asha med
Cathol ic
explan ation
F re
H annah
M ir
P u
S ch
S hi
V W
d ug
j er
m ile
s lot
z ard
re por
th ous
ic ient
ri p
up s
do zen
pe ctive
mo ld
un n
ide as
roo k
con ce
car ved
il le
bu ck
pro of
di aper
need ing
sk ates
Jo ck
pat ter
posit ions
cry stal
uni forms
pop ular
cop ies
Po lly
crack ed
robe s
hoo ked
vamp ires
******** ********
destro yed
istr ation
Andre a
fal se
organiz ation
paralle l
dece ased
Wed nes
gymnas ium
! !
7 th
A sh
D V
H acker
L ife
M et
N athan
b room
y o
and ro
en na
st atu
so le
be ans
all ig
lo yd
ant icip
sp iders
part ition
ms y
let tu
att ach
than ks
kn ives
Mar ian
Fran ce
val u
For d
Ne il
Th anks
mix ing
ban quet
lu mp
gher ty
fro g
assu me
entire ly
flir t
Cl ark
itor s
issu es
arrange ments
express ion
Dou gherty
perform ing
tempor ary
sens ation
Thur s
dut y
twent y
lesb ian
Mid vale
C ha
L aw
M iddle
T r
W ood
b one
l ick
m my
m umb
p airs
u gs
ar n
st ared
ri m
up right
fe st
sh ack
sh rug
de lighted
ill ness
ex as
can e
sto cking
sc ient
dri ft
boo m
wr ink
att acking
fl ame
wood ed
form ing
mou nt
bor der
sent ence
du cked
Be ck
check s
fre aked
rub bed
Thou gh
??? .
soft ly
add ition
Mer ri
ni pp
indic ating
def end
treat ment
pun ched
puzz led
Pal mer
shell s
Chi ld
assemb ly
Lor i
thus i
ALL Y
Bru ce
numer ous
trad ition
5 00
A aron
H ave
P le
P ro
T ues
f aint
r as
t ro
re called
at a
en thusi
le e
id al
ic u
ver ing
ch arm
sa ving
te ens
bo lt
mb ling
gr at
ag ency
too ls
sp ar
br ides
int end
cle aring
sed u
im a
let ed
mar ch
lock ers
ank le
snow y
Will ie
fra gment
sus pected
mater ials
Go ing
Dan iel
blind s
gri p
respon ded
viol in
liqu or
identif ied
stack ed
gree ting
frant ic
mass ive
advert ise
bene ath
slipp ery
opin ion
Hel p
micro phone
challen ge
sensu al
Franc is
DV D
lettu ce
6 th
C lay
G reat
G reek
R isk
S T
j a
j andro
k i
n apped
p ace
r ink
r ushes
me ster
al ike
ar rested
se ar
le ak
st ir
ch and
ch ant
ir ing
un conscious
man ip
pl acing
pl ump
ting u
There sa
down hill
po ke
po king
So lo
sp are
ave y
cl own
di am
br icks
dis gu
par ties
aw ard
inter pret
cr ashing
Pe avey
mat ches
police men
pu ff
attr action
sli pping
arrow s
Mo dern
complain s
pill ar
sil k
offic ers
nur ses
vol u
tur tle
project s
Te ch
bother ing
bun ny
arrange ment
Ale jandro
Dy lan
repeated ly
commit tee
rehears al
acc used
Ter ri
liter ally
Hil ary
dess ert
batter ies
intri gu
0 7
D own
H en
K athy
P re
S w
c off
g lo
s ending
t wi
to dd
me rely
we al
go of
ti ps
de lay
po e
con fl
cl in
ran ch
sc rat
help less
bro ad
bit es
par aly
ste am
ste ak
Ch ina
mar i
stay s
ten ance
ign oring
gi ble
str ings
test ing
All en
main tenance
cas ually
invol ves
temp er
Bo ston
Te rence
bat tery
enn is
Tho se
deta il
Em ily
Dream t
Br own
William s
access ible
firm ly
Far rah
infe cted
grate ful
subst ance
umbrell a
Jes us
fav our
statu es
A M
F ri
H ot
N ic
R oland
T oo
T rying
c able
g ger
h ay
re y
ar ro
ar med
ar ian
st amps
ad mir
id i
ro pes
It s
ex cur
pp ers
ul ated
dark ness
kid napped
appe aring
squ ish
round ed
char ged
snow ing
Un ited
sub way
press ing
eng ers
comm itted
team s
wra pping
tun nels
count ed
sol ve
Mel vin
post ed
load ing
prote cted
fright ening
print s
stro ke
ctu res
remain ed
mic row
Gre y
personal ity
Ab ner
flash light
rele ase
corrid ors
aver age
pew s
fail ed
multi ple
automat ic
lat ter
const antly
raz or
Doro thy
excur sion
H ale
H arr
I M
L loyd
M ild
N ear
P l
P ol
W ay
W ater
d up
d ash
f ought
p ul
p ave
s inking
v ir
v ig
w n
y arn
z one
in ne
an cient
me lted
at ic
er g
st acks
so o
ac cur
ac cording
up hill
ab y
un ny
tr am
sh ar
other wise
de vil
ho ckey
po em
ck les
itt ens
pre fer
wind y
res id
An ita
ju d
book store
rid ge
hor n
ins ists
dire cting
notic es
cu be
pen nies
rad i
team mate
recor ded
Th ings
belong ings
descri ption
ais les
oper a
Te avor
super market
fas cin
distr aught
lab or
interrup t
scra p
spray ing
Bl ack
rout ine
eld erly
borrow ed
une asy
announ ced
Russ ia
veget ables
symbo l
weed s
dete ctive
pos sess
Thurs day
! '
A ir
D S
R usty
T ina
V iet
d ough
f au
p ins
s led
s ions
s ample
u el
v ot
he ck
in spe
in sult
the less
is sor
le f
le mon
st able
ad vis
ad mit
li ar
ch amp
wh i
He ctor
gu es
po les
ex ter
can cer
air y
fo l
bu ff
sc issor
play fully
run g
dis appears
hand ing
cle ared
wind ing
night time
dark er
fl ush
ear rings
lay ers
Be ll
bow ls
question ed
sal t
grad ually
agree ment
Mic hel
secret ly
bicycle s
Sh ir
hesit ated
trans ferred
skirt s
anx iety
Wal king
sched uled
lip stick
mechan ical
Com m
hon or
mal es
remode led
Space man
retri eve
Jas mine
Virgin ia
von ne
Wednes day
A li
D ennis
F isher
L ad
M acy
N ight
O ver
T ake
a e
c um
c ott
d are
h ut
o ons
s ie
s cold
v iron
he aven
in stitution
se ve
se cure
se mester
le ct
ow ed
be am
ac les
ab rup
He llo
de live
ain ted
She ila
ex ist
ex tension
can vas
sp ook
ul a
tu mmy
di men
dis c
irst y
per man
wind shield
night gown
sl iced
pass engers
mon sters
care ss
inter net
bathroom s
cat alo
port able
hang s
cu ff
sad ness
fle sh
deep ly
Ne lling
fre ed
mag n
rece iver
scream s
repe ating
blow s
bump s
Sand ers
cow s
Can ada
mur de
counsel ors
tube s
scen ery
sales man
skate board
Beat les
homo sexual
paraly zed
Mild red
scissor s
delive red
5 5
C I
E N
J r
M al
b is
d rank
f ist
k icking
r ice
r ats
s ac
u ed
in stall
in appropriate
me tery
ed uc
en viron
id ering
ri al
ri ff
ch y
wo ken
roo ts
de posit
ho e
no d
can y
bl ues
com ic
tu res
pro ced
pro stitute
home less
und ressed
jo ins
ph r
pers pective
ak y
person s
mar ine
min ister
ball oons
cur ls
sl ices
conf ir
Se an
main ly
Ar ab
path s
grand parents
De velo
stick y
neck lace
nic er
net te
rear ran
indic ate
necess arily
emotion ally
pray er
tar get
spaces hip
Mart in
chu bby
appreci ate
collap sed
Par is
Vic tori
toma to
crou ched
retard ed
deliber ately
ribb on
coff in
favour ite
microw ave
pave ment
Develo pment
B ook
C leve
M us
M ine
N a
S op
S pain
T re
V er
W ALLY
e c
re act
me ad
en cing
li fting
ent ial
ca ps
tr icks
his tor
con gre
come dy
fo x
reme nd
com mend
pre c
pro je
sc ul
dis played
read s
ath let
per pend
ru m
col um
des p
ju ana
baby sitting
sl acks
sat in
No man
sha ft
dire cted
cour ts
conf ess
Ste ven
stra ps
vi br
esca ping
cri me
Ju lia
Th ank
fil ming
instru ment
sus p
pop s
surround ings
cons isted
ref uses
igno res
coo per
shad es
mid get
produ cts
assu red
occur s
display s
success fully
soci ety
slam med
dump ed
deb ating
tempor arily
Cap tain
rever se
earthqu ake
valu able
Solo mon
todd ler
Cleve land
perpend icular
colum ns
B ay
E mer
I r
S on
S pr
S aw
Y ams
b ins
c one
g love
l ind
r are
s well
v ine
and a
at too
fe min
lo af
ce metery
back ward
ag le
ag ger
over all
over night
bl ast
cle ver
stand ard
wait s
An th
keep er
uck y
seem ingly
Mar g
cy lind
sad ly
ring ing
cas hi
St ate
exam s
sor ting
experi enced
grad es
dam aged
ba ked
contain ing
explo re
Ind ians
cons idering
spir its
Sand y
bell ige
electr ical
effect s
loving ly
screw ed
crack ers
app alled
Cor inne
bomb s
Ear lier
apple s
wrest ling
gestu re
incl ine
aggress ive
muscle s
croo ked
delic ious
cowork er
Jess ica
Tues day
Tech nical
mari juana
Michel le
bellige rent
C andy
D ion
E S
G en
G reg
K end
d le
h int
s having
s inks
t remend
v ul
re pri
was her
ar ies
be es
ke ty
ic ans
ic ted
ur ge
mo ments
lo s
ti le
sh ine
con sp
ep end
qu ad
qu es
too l
che wing
cl ad
sc ent
stu b
om i
day time
comp li
friends hip
ten se
land lord
sl ice
Pe te
dr am
Char lene
ank ment
emb ankment
pool s
sn ack
mean time
Be hind
Ar rested
log ist
bow ling
sor ority
De ad
pot s
fold er
contain ed
fra g
mirror s
clou dy
calm ly
iam i
maid s
Ken ny
cudd ling
electric ity
Pal in
particip ate
slee ves
sweep ing
wis hes
cubic le
ejac ulate
feather s
acknow ledge
Eliza beth
accompan ied
patter ns
volu me
intrigu ed
Hen ry
weal thy
resid ue
fau ce
Shir ley
susp ended
C ary
M iami
S how
T ar
U nd
W ow
b ak
g ly
g orge
m u
m ild
o x
in fo
re ci
re paired
th under
me as
al umin
ad op
be ige
ri but
hi ke
hi ps
te ase
back stage
qu ot
came ras
any how
fo c
pre car
sc al
men u
cou ches
ta h
ru in
ish ment
sur f
cre ative
mar ching
sho vel
your s
squ at
bar rier
less ons
od or
strange ly
rain ed
lea gue
Al ice
slow ed
mas sage
sub ur
bas kets
org ans
Ar my
experi ences
scar f
sol ved
instru ments
Je wish
Le on
plant ed
produ ction
har ass
tap ed
def ense
gig gling
client s
gentle man
shadow s
adm itted
invit es
chor us
sob bing
Jam ie
stere o
rapid ly
Short ly
Ple ase
Clay ton
environ ment
Na omi
Anth ony
repri mand
! )
A st
M all
P E
V ol
d un
d ling
g am
g room
g led
h oney
m ary
n ational
o es
he y
al t
ar ous
le en
ri f
ch art
ent ries
pe ach
mo le
lo gs
un ted
back seat
de gre
gr ace
con fined
iz mo
ick en
br ass
cou rage
happ iness
-- .
boo t
mar ily
amp li
ele ct
Jo y
ident ity
sent ences
ank les
sn acks
lea king
draw ings
Mar shall
lead ers
pan cakes
dad dy
appro ve
stra p
fle e
sub marine
St ates
Ar vonne
Re ed
exam ining
Co mbs
ric ia
ric kety
Christ ina
organ ize
Bob by
dam n
frustr ation
prote ction
bump er
Wh atever
Is land
Cl inton
obser ve
bel le
pin ned
affe cted
represent ed
associ ated
pudd le
affection ate
Afr ican
aud ition
polit ical
mut ual
Cla ire
Tru e
padd le
intellig ent
carpe ted
neare st
rhy th
lef to
cott age
congre g
Marg aret
degre es
2 6
2 7
B ud
C at
D en
F ay
G l
K ent
M ur
O b
P ad
R ita
S er
U tah
W hit
c unn
j ack
n ces
o we
p ha
p ity
re ference
re ferred
re commend
as ton
me ry
ed iting
ad venture
ac cus
oo ps
ge e
li king
do me
mo p
tr ade
ant y
de af
ap t
con grat
car ries
ag itated
ig ning
thr it
com motion
self ish
wa x
sing s
else where
lau ght
gl ue
mon d
ele gant
hit ch
cr is
sha ved
sw ung
beautif ully
colle cted
cu liar
iling us
Mar ia
lou der
swe pt
appro xim
fac ial
fac ility
hy ster
kno b
furn ished
Re ally
danc es
wel ve
fur ry
Christ ine
conne cting
Th rough
ba it
teen ager
descri bed
cast ically
spir al
argu ed
rot ten
pit cher
pal m
remain s
subject s
slee ve
incred ible
Afr ica
clut tered
crocod ile
ey el
Won der
Brit ish
engage ment
wid th
transp arent
scul p
alumin um
cunn ilingus
B el
L ord
R andy
a tory
b aking
c ared
g au
i to
s ke
t ically
w ool
re view
me th
it als
ll i
ll is
ge on
am ic
am used
ri o
ch unks
wh ale
ne phe
us ive
pe culiar
tr actor
sh rugs
ant ic
no x
ie st
clo ses
sc ale
ty ped
ene tr
sk ull
imp lying
baby sit
cur ves
kid ding
inter ior
cr ashes
jump er
squ irt
eat s
type writer
pan els
station s
vel vet
check out
St art
Ro ad
Ro sal
19 50
John son
war f
bur gers
sol ution
dra gged
mail box
nic ke
phys ics
ris k
ban ana
decor ative
introdu ces
prom ised
design s
Pat ricia
Wal ter
respons ibility
appre hen
vic ti
inse cts
anti que
supp ly
serv ices
develo ped
web site
purch ase
announce ment
divor ce
concent r
horizon tal
overwhel med
Hawai i
allig ator
Fri ends
spook y
tremend ous
consp icu
nephe w
B re
C hel
F air
G ene
H P
M S
P R
P ot
T odd
U K
U P
a unts
b itten
d ates
e th
e ff
p red
s in
it ter
al bum
ar rest
wi ped
for getting
ab o
do l
ur al
ind epend
ce il
ce lia
ap plic
po ker
no ds
off ended
sit ive
itt y
cl ick
My self
bu zz
bu ffe
stu died
men se
tor s
int ending
im mense
par ach
mar king
ale ck
sl ap
tre asure
food s
dr owned
sw er
nie ce
bas ic
suit cases
val ue
invol ving
gen itals
fre ight
graph ic
heav ily
jac kets
descri bing
Ind ia
wish ing
cru ise
auto graph
gri m
scra pe
El vis
fir ing
poison ous
celebr ation
Am ong
hoo ks
rob ber
brief case
sar castically
Gran ny
kneel ing
CR HP
fig uring
Ce celia
hab it
Fire fly
bac on
suppor tive
Vi enna
deter mine
Shi ft
sear ched
cany on
mead ow
desp ite
cashi er
Rosal ie
ceil ings
A ng
B rend
C all
C our
E D
G ar
G izmo
H ay
I V
J ac
N Y
P res
R od
R oom
S ur
S ister
S ci
T ra
T urn
U h
V e
a pe
b our
d ang
h ing
j an
t welve
v or
he el
he ap
to ms
ing er
as pect
me als
er ror
al together
oo ks
wi g
ri g
hi re
us k
lo so
un clear
un iver
ant e
car riage
ag grav
ul ating
bl ades
cl ay
clo sure
hand bag
fin an
comp leted
Ch ic
An ato
gl ance
cr acks
ton es
hill side
inv iting
cus hion
photo grap
pri marily
cir cus
sun glasses
fli pped
________ __
cap able
nur sing
Not e
ific ation
whis key
host ess
Bu ild
thor ough
random ly
comfort ably
rab bits
boun cing
bud dy
rehears ing
incred ibly
XX X
inde ed
Small ville
scrat ched
arro gant
squish y
Viet nam
murde rer
) ;
2 8
B lake
C ast
C ru
L a
L ind
M ate
N either
N ational
P ret
R O
R us
R ick
T exas
W ent
b ones
b ik
k ers
l amps
p enetr
r ust
r aced
t ide
t attoo
v it
in su
in door
is hes
or na
st im
ne th
do min
ust in
ust er
de pt
gu l
over heard
su cking
il legal
ood le
che ated
dri pping
und ress
set up
ru gged
ste er
.. ...
hold er
min is
fl uffy
gl are
tri gger
mis er
form ation
cr ushed
bag gage
mat ure
Mar io
main tain
cal end
pet ting
pet rol
cri b
John ny
exam ination
dru ms
oper ator
threat en
occur ring
100 0
episo des
whis pered
cage s
bb ly
squee zed
Ken neth
encou raging
alco ve
da ily
plug ged
toss ed
inst ant
scoo p
impro ve
survi ved
divor ced
Wo men
conven ient
scram ble
pean ut
electron ic
Gro ve
nonchal antly
thous ands
ille gible
Ash ley
proced ure
Und er
bak ery
Ast rid
arous ed
Anato my
Mate o
9 9
B ur
D u
D ill
D ian
F our
H ans
W ould
Z ack
b ou
b ree
c ort
c ils
d iz
d ots
i P
j ig
j aw
k ins
m n
s way
v ote
w ri
w ider
he m
an as
re fresh
re assure
to re
th irsty
me asure
it es
al ian
ar tific
le ton
go at
go sh
ro ls
use ful
use less
ag ne
mp s
ass er
fo g
fo ggy
che ating
pro v
pro tru
new born
di me
om in
par ks
An ne
mar oon
na vy
fl ashing
cur l
Jo dy
lay out
ted dy
la bel
guess ed
present ed
ane ously
bal let
ud ge
fli msy
strong ly
Just in
arch ite
video s
relation ships
sum ably
speed ing
rear range
El ise
screw s
writ es
bud dies
robot s
muff in
automat ically
investig ate
awe some
pac ket
orient ed
Hal f
Mir a
Child ren
diam ond
Hale y
Mus ic
gorge ous
Chel sea
buffe t
aleck i
Sci ence
aggrav ated
Chic ago
Pret ty
artific ial
A S
B a
B inky
B aby
D am
E T
F r
G ra
H or
L O
L es
N ever
V an
b art
d ice
g limp
j ury
p ike
s cho
t rol
t issue
u red
me lt
al ot
is er
se ating
se min
st un
be tray
ac id
The o
ll en
out fits
ir k
ha ul
pl aid
bo b
gr ump
off ering
over weight
ace y
ul ation
fo am
che ss
bl ame
cl aimed
ile y
pre sumably
part ners
br is
run way
dis tingu
und y
dd ie
gre n
aw fully
ob sc
vis ual
sl it
sl ender
sho ved
tri be
coun ters
ned y
list ed
board ing
sw ings
Al bert
conf idence
comfor ting
sy cho
pu b
Do es
St an
cir cum
Ro ger
furn ish
Co mp
warm ly
pill ars
var iety
Dor is
soft ball
nor thern
vol ley
weight s
dry er
distr act
produ ct
Tho mp
imag ined
chi at
awaken ing
neat ly
Ken nedy
crit ical
fool ish
inti m
cha pel
bubble s
requ ired
volunte er
toma toes
regard ing
las er
burg lar
Ev ans
Ky le
maneu ver
persu ade
Marian na
Francis co
confl ict
athlet ic
Fay e
Pad alecki
laught er
Pot ter
abo ard
trol ley
2 9
3 00
A cross
A ckles
B undy
I sa
K rist
L at
L ance
R A
R i
S ix
T ur
V amp
X mas
c ran
d ot
e motions
f oo
f iling
l ure
m ike
o le
in qu
in flu
al ert
ar thrit
or al
le te
ad ding
be ams
ac ade
out line
ro yal
ver b
hi g
hi pp
sa iling
fe e
lo vers
tr ance
ind ign
It alian
ra ped
de stru
ho stage
po ses
po sal
fri ed
house mates
sit u
ist ics
sc oot
af fect
hel per
hel met
im mer
As k
bit ing
black board
cer amic
sure ly
cont rols
mer chand
hair cut
dark room
est ate
bad ge
vis itors
kid nap
swi ms
train ed
hill y
pa used
test ed
cu rio
crow ds
dist ressed
pen cils
music ians
Ho ll
cas ino
Ro man
kno cks
odd ly
Su b
bra ve
tw isted
stri pes
tele port
fold s
sou l
closet s
uni que
Tom my
cow boy
mid night
tour age
mark er
Wh ich
deli very
produ ce
prom ise
ram ps
recei ving
Wil bur
match ing
pig s
boun ced
symbo ls
IN G
floo ding
chall eng
confront ed
entertain ment
concent rate
phi loso
mount ed
poe try
lect uring
abrup tly
stub born
fauce t
conspicu ous
diz zy
Mira belle
? ),
A long
C ould
D over
L T
M ont
P i
P hoe
S pe
T w
T ay
e li
k icks
l atch
l aces
m ac
n ick
r h
r usty
t in
w ading
he ater
in i
in n
in doors
as tr
se y
ow ing
be an
ac hi
wi ves
co ordin
mo an
lo ll
ti pped
ter race
not ed
el son
ap per
no vel
ck er
air planes
sp at
kind a
big gest
ru le
good s
res ign
bit ch
?" ,
est er
hard ware
ele ments
band s
paper work
sha kes
Mar tha
dad s
vi li
order ing
hop es
cup boards
fli ps
temp ted
deal ing
reg istration
pop ped
ban ister
equ ally
Te ll
loc ate
psy chiat
lands ca
resemb les
Br itt
Jen na
hh hh
resident ial
accom mo
fif th
muff ins
Gr ant
distinct ly
thigh s
admin istr
compli ment
rhyth m
approxim ately
jan itor
univer se
Build ing
calend ar
bart ender
scho lar
volley ball
Thomp son
Phoe be
" ...
9 5
C ir
D C
E le
E ddie
I m
I sn
M i
M uch
N az
R ic
S y
S qu
T ri
U N
c ue
c rot
d or
d ata
d usk
g ates
j ars
l acy
m oose
p ony
r in
t arp
t angled
w art
w right
re cess
al ds
is ol
or ch
se as
se men
st ed
ad or
ke ting
wi gg
li mo
li zard
ro ast
ch atted
ab use
ot ch
co pe
ha w
pe pper
see k
ti ly
pl a
We ird
loo p
te m
de bris
ho llow
con su
et te
ag ged
over flow
ex pl
ep ing
fo yer
bed spread
sc am
br ushed
tor is
per ched
per former
show ers
light ning
In ter
aw ards
An gry
ren a
ol k
ob li
ci vili
cli toris
tri pped
sha me
mind ed
rain y
pat ches
Mar gie
por tal
pan ties
Her oes
sub mer
Ho ly
win ners
sun light
straight ened
poss ibility
medi ate
Ell en
mention s
rect angle
dra ft
fra mes
motion ed
post s
super vis
tray s
app ly
harm on
Ear l
une ven
veget able
dim ly
advert ising
chop ped
init i
pudd les
peace ful
calcul ator
signific ant
fa ith
slant ed
labe ls
acce ler
bund le
indust rial
fascin ated
Victori an
Kend all
Dian e
9 th
? !"
B as
D ra
D exter
H ard
P ay
P ut
S or
a my
b ounce
h ides
k ar
m ort
n ar
s ided
u ms
z ip
an i
and ed
th ur
as ia
al pha
we igh
ad joining
be ef
ac o
oo p
li ons
am ber
wh ip
fe t
pe as
ca f
un lock
op tions
ti les
ant er
ra ils
wor ms
wor rying
qu o
ast asia
ood les
sp a
door bell
che m
di agon
tor ch
school s
hu h
fere nt
boo bs
cor re
top her
An astasia
mar rying
imp act
hur rying
ped al
av y
um my
ins ane
dr ama
mus cular
kn itting
Al ask
arri e
anno y
sy n
sy rup
soon er
hy p
Sam my
prof ile
terri fic
skin ned
cool er
frustr ating
jac ent
chocol ates
Ge e
ris on
ban ks
pee king
vol cano
oper ate
decor ating
beat en
heal ing
Chris topher
ret t
spray ed
har sh
host ile
def ensive
app lied
Wor ried
bb ers
butter fly
sweat shirt
tech no
inse ct
envelo pes
cheer ful
utter ing
masturb ate
gener ally
gall on
cubic les
conven ience
lav a
Sto re
stain ed
whist le
Str ange
sour ce
fest ival
tradition al
clin ic
freed om
Emer ald
foc used
Cour t
iP od
stun ned
Vamp ire
verb ally
merchand ise
A C
B at
B each
B rook
C ho
C lu
E L
F ind
M ason
N A
N elson
O l
P as
S layer
W es
m int
m ont
p ads
r ina
r inse
s not
s ill
u ine
re marked
re minis
ar c
or che
ro cket
am using
ri el
were wolf
for um
for ces
ha zy
fe ces
pe ar
de formed
gr ins
gr asp
et s
ill ustr
wor m
over flowing
ass uring
come di
ick er
ist ent
di et
dis sert
hand ic
per fu
pr ices
set tle
ta ils
comp ared
mar keting
fl ashed
ci a
cur vy
rel ations
cent ral
rew ard
list s
cu red
great ly
Ste ph
Ar thur
understand s
Don alds
fli pping
fer ry
danc ers
mag ical
bridge s
Ju ly
vac ant
pleas antly
cause s
ris es
lu x
heart s
cher s
rep lies
bump y
tour ists
island s
strugg led
wild er
stit ut
gang ster
relax ing
memor ies
attemp ting
attemp ted
indic ates
constru cted
gig antic
une x
celebr ate
Ex cel
announ cer
straw berries
acquaint ances
Sar a
communic ate
communic ation
demonstr ation
init ial
destro y
author ities
refle ction
content s
aqu ar
crimin al
fant asy
requ ire
purch ased
desc ending
tender ly
Jon athan
Mag gie
siren s
analy st
Thanks giving
wrink led
Beck y
champ agne
catalo g
bis cu
ampli fier
congreg ation
victi m
furnish ings
crot ch
dissert ation
3 2
B rand
B iology
C re
C le
C ent
C ross
F O
F at
G ive
H as
L in
L en
L ight
N ico
T enn
W in
b ie
c co
d oo
d il
e go
e ma
f uss
h atch
j erk
p ir
p ting
v irgin
w en
th on
on ge
er ts
ad jacent
co b
ha il
ent ine
un its
tr ou
tr unks
ter ing
roo t
if ferent
you th
car av
ig hed
ine a
med ia
cl ue
tell er
pro vo
di th
ff le
pic ally
ily n
cre ation
cont rolled
sk ip
min or
ser y
fl ushed
beg un
tri angle
Jo el
cent ury
ident ical
emp tied
Char lot
pa ved
pri or
Mar ilyn
sen sitive
vi al
attr act
Ar nold
fit ting
bur y
cand ies
bul bs
Ju ne
ax e
Mic key
pop ping
prote cting
ban anas
mist ak
Mc Donalds
High way
ctive ly
threat ens
tour ist
mur dered
gri ll
recei pt
whis pers
tran sit
gig gle
Most ly
pray ing
Sus ie
Ke lly
particip ating
sigh s
Rey nold
dinosaur s
wrest le
Kar i
iv ity
glow ing
waters l
mush rooms
passion ately
condu ctor
Disney land
therap y
repor ter
advertise ment
accur ate
dimen sion
prec ise
adop ted
dang ling
miser able
grump y
chem ical
Clu b
Nico le
0 8
B us
C are
D a
D i
E mery
F ort
F olk
G al
G race
M u
N apper
O c
P ic
P ri
P hy
R aqu
S ay
S el
V CR
W i
W y
b aw
d ull
k not
n arr
u ary
z ers
in ery
re su
th irty
it ive
en closure
st ur
ad visor
ut ral
li mit
ro ds
ch ap
one l
us her
ur gy
lo b
lo an
ti lted
ce ption
de l
down load
mb les
gu inea
ig ner
qu ote
che at
cl ar
pre ferred
ty pically
di apers
dd les
high ly
wall paper
cer tific
cont rolling
ob nox
amp ed
ball room
kill s
mis ses
cond itions
hor ns
tre ating
nu clear
inv ent
past ure
Mar ie
sand als
cas ket
fair y
Ar t
sli my
fact s
wake s
sor row
temp le
speak ers
neck laces
cap su
sil ence
eye br
pot ential
dra pes
craw ls
nur sery
lift s
tur quo
bell s
stro kes
design ed
scra ping
natur ally
remain ing
indic ated
app lying
Con nie
pound ing
termin al
Jap an
announ ces
Que er
intense ly
princi ple
demonstr ate
docu ments
collap se
crimin als
TH E
Vic tor
desc end
accompl ish
grav ity
Off ice
Sher ry
myster y
obst acle
appl au
Coun sel
stocking s
nipp les
charm ing
temper ature
Harr is
Pol ice
perman ent
Joy ce
meth od
sin ister
finan cial
Cast le
curio sity
expl oring
perfu me
Charlot te
Raqu el
turquo ise
? ]
A id
B an
B attle
C lo
F all
G eral
H am
I re
L ap
M il
M ade
M ountain
M ittens
P lay
S k
W all
b ish
b io
d an
d ged
e yed
f ou
f und
g ad
g oo
i que
k ite
l ent
l ens
m ower
t apped
v ast
the tic
re hear
re jected
en ess
se al
so ck
so aked
out ing
ge l
am mo
ch ases
es cort
co pper
ent ially
fe ature
man uel
she riff
sh uff
sh rugged
con om
con vey
car p
sp un
sp ite
sp reading
che eks
cl aw
clo ths
bu ms
ven ge
di p
dis appearing
hand les
boy hood
mother s
class rooms
need les
Ch icken
sk is
beg ged
pass port
book case
must ache
sha ky
hang er
cho ices
inte gr
sn i
sign als
gra pes
pay s
Mar i
pen gu
ond a
Ho spital
19 8
gen uine
exam ined
inclu de
Co le
sil ently
sim ult
burn er
Car men
post ers
fear ful
bri lli
rep ul
Te acher
stret ching
prom in
wild ly
human s
Sp ader
rot ting
pit ched
attemp ts
respon ds
brush ing
report s
Em manuel
cro sses
exerc ises
straw berry
rob bed
Peter son
tech ni
mechan ism
inst ance
inst antly
Mart y
condo m
drown ing
fif teen
wre ck
Hot el
Nic hol
phr ase
Ir ish
Son ja
Gen eral
subur ban
elect ro
apprehen sive
eff icient
independ ent
Brend a
Rod ney
glimp se
semin ar
circum st
arthrit is
hipp ie
Tay lor
isol ated
alpha bet
carav an
Phy llis
stur dy
dan cer
( "
( !)
0 2
A gn
B es
B uster
C ed
C ra
D er
D ark
K u
K ids
L ar
M is
O L
O ly
O cean
P y
R aul
S unny
U pon
W ind
b id
b iology
d art
e w
f rying
g al
g ic
m asks
p acing
r of
s che
y gen
the ory
on na
ow l
be have
ac company
ro s
ro bbers
ri k
ab sent
ha unted
do re
get ic
ti ming
pl un
tr oom
te x
wo l
if ul
ra g
bo il
ho lic
po ked
over come
su cks
ex per
can al
sp ies
ist y
hand cuff
flo wered
hed ge
class ical
rest less
gre ens
ste in
spe lling
mer s
hair y
sl ick
box er
tri ps
band age
inter n
cent re
mind s
str ay
mat ic
mat ched
cour troom
color ing
sn apped
mach inery
vin es
pack s
por no
pu dgy
Ste in
eng ines
ext ent
ef fe
Re in
Re al
allow ing
________ ___
stick er
experi encing
gro in
deal er
separ ately
Rob bins
fro sting
guard ing
spl ash
vert ically
ski pped
Dan ny
obser ver
interview ing
smell s
fresh man
scri ption
chain s
process ion
drug store
bble s
celebr ating
Che vy
alco holic
demand ing
relig ion
Li onel
resist ance
distur bing
scoo ter
author ity
refle cted
compart ments
cate gor
pursu ed
polite ly
Cu ddles
Girl s
Kat rina
passion ate
suff ering
pean uts
errand s
obst acles
acce pting
hum ming
barefoot ed
cough ing
vom it
native s
enthusi astic
brides maids
idi ot
insult ed
buff alo
Lad y
ox ygen
Bre ak
MS N
parach ute
photograp her
scholar ship
Im mediately
Sor ry
orche stra
Tenn ant
mistak en
Agn es
A me
B B
B ra
B ull
B ird
C y
D J
D uck
D warf
F er
F ris
N ina
P acey
S n
T A
T O
V is
Z ates
a ust
b ould
b ark
c ti
c tory
c attle
d rying
o red
p imp
p ours
r ons
s have
v ase
x x
in ity
in ser
th ouse
as c
as per
me ters
me lting
it ation
le ctures
ad ers
so p
ve ter
ge ese
ro ar
ro pho
am bi
ch unk
wh ack
co re
do dge
ent s
ca vern
un certain
un finished
op ard
op tion
te aring
ra f
ra tor
ho vering
dre ad
po line
ag s
can cell
il bert
thr one
sm ashing
pro pe
sc ur
new ly
tor ted
tor ture
dis like
wa vy
ade qu
ple ading
cor ds
sing ers
mer maid
sk it
imp lied
fl ap
fl ated
gl anced
sl apped
ped est
00 am
surpris ingly
ident ification
ctor s
din er
short cut
list ens
hang ers
cour ses
On es
kn it
Mar ita
10 th
belie f
ire ct
fill s
sub tle
30 am
free zing
suggest ion
Re be
shut ting
continu ing
tw ist
burn s
ham ster
hesit ates
net t
Col in
Col or
va tory
zz le
amaz e
apolog izing
apolog izes
bat s
fro gs
mid st
assu res
relative ly
avo iding
auto mobile
stit ches
interrup ts
gain ed
har bor
Con f
resc ent
resc ued
symp athy
sau sage
neg le
fool ing
stat us
mechan ic
slee ved
Pr in
escalator s
deb ated
abor tion
cock ro
judge s
tast es
gall ery
Holly wood
reve al
const ant
Kat ie
Cla us
mush room
seed s
chuck le
gor illa
altern ate
sket ch
Dri ving
whirl pool
humor ous
**************** ****************
spar se
admir ing
dup lic
tram poline
whi pped
fol ks
rearran ging
ske leton
Ang ie
bik ini
Holl ander
Alask a
unex pected
aquar ium
simult aneously
circumst ances
C lau
D ow
E rik
H it
K ra
N avy
P en
P ep
S ad
S penny
b ends
f enced
o y
o str
p se
p oodle
t id
t asks
w ad
y rs
in tric
an al
the ast
re el
re set
to ll
on o
le gged
we stern
be having
ch ina
up ward
up hol
for ks
ne red
ne utral
do m
un like
op pon
she er
sh r
sh ri
art ists
bo iling
ap par
po in
con sole
che ering
cl er
bu ggy
stu dies
dis k
-- --
ather ine
ste amer
ob tain
beg ging
plan k
ped als
box ing
book shelves
pictu red
care er
seem ing
cent ered
late st
clu ded
gra pe
pay ment
az z
embarrass ment
view s
ring e
cas set
camp ground
cra z
suggest ing
py ram
Re illy
fre aky
ric s
De e
excited ly
tw are
rent al
warm th
wra ps
import ance
fold ers
note books
instru cted
bright ly
fra med
lit ter
hesit antly
bat ting
trans formed
super ior
See ms
Po int
comb ined
Pat ty
imag ining
slo ppy
Bl air
compan ions
Cor y
tru ly
shy ly
occas ions
adv ances
Jan uary
matt resses
arran ging
anti ques
deb ate
serv ant
Li br
adjust ing
pump kin
pursu e
sele ction
chal k
slipp ers
gestu res
Ah med
signific ance
cam per
disappro ving
Hun ter
therap ist
tro pical
Pre ston
dram atic
sculp ture
applic ation
Hans on
acade mic
dor ms
kar ate
Steph anie
wilder ness
obnox ious
Geral d
amaze ment
" -
" ;
4 4
4 8
A bra
C ars
C era
D es
D iana
E E
F ro
H a
L ima
M ars
M useum
O p
P am
P sycho
R R
W ork
W anda
d amp
g ir
g roo
g oose
l ink
m our
o ak
r ally
s ends
t end
t idal
v s
v end
v ory
he st
the a
re cru
re collection
to ler
th ie
as sa
on ing
at tor
er up
al oud
en vious
le st
st ic
ve led
ic ia
wi ping
li me
ro mance
ver se
for tune
hi ons
her d
mo ck
tr um
sh anty
wo bbly
ra ising
down ward
mb a
hou sing
con tem
car rot
no stal
fri es
over looking
ex pen
sit es
cl aws
cl aust
pre acher
bed side
pro p
di vide
ct ic
per m
per cent
im plic
aw ning
mar sh
town s
ding y
care s
fun nel
bar king
str ict
port age
board walk
dent s
scre ens
Se th
pan icky
ient s
cal f
lin er
ane ous
fle x
peri meter
cra p
free ze
Ro ss
Ro yal
law s
sun set
allow s
sof tware
Co ke
smo ked
stick ers
convers ations
stri king
comment ing
Amer icans
profess ors
prote ctive
equ al
cru el
prepar ation
ski pping
Is ra
comb ed
among st
acqu ainted
obser vatory
gang sters
gri ef
pal ace
mistake s
poor ly
cro che
spill s
puzz les
ik i
celebr ities
sco res
punch ing
vivid ly
communic ating
demonstr ating
init ially
Europe an
tack y
request ed
invit ation
deliver ing
grin ning
Sha ke
swir ling
sew er
blur ry
welcome d
IT I
Liz a
caut ious
pron oun
seve re
Sop hi
Whit man
hyster ical
asser tive
Theo dore
nar rator
transit ion
certific ate
Counsel ing
Lap son
Rein hold
Dow ney
Libr ary
Abra ham
claust ropho
A round
A ID
B ad
B ald
B anks
C amp
D I
D b
H O
H an
J ung
K it
K ings
L A
L as
L ily
M it
M organ
M ik
O li
O ri
P ac
R h
S now
S ep
S hop
S ky
T own
T ry
W ant
d roo
e agle
e conom
f us
f ying
f rench
f itted
h arp
m aps
o at
p ans
s is
s igning
y ers
in fant
in jury
re ck
re moving
re venge
to aster
ou red
was ting
ar do
se gment
st roll
st ates
st rung
be ep
all ic
li ber
am b
am m
ch ances
es say
hi o
do ve
fe ast
pe er
un ting
un covered
un fair
ti er
tr ace
te mber
te aches
ra ises
de t
gr an
gr ind
con sult
qu aint
bl u
cl ed
ile en
has e
per mit
dec is
im mediate
good ness
table cloth
under cover
stre wn
fin ishes
differe nces
par ap
cor por
found ation
person ally
est ab
fl ashes
pass word
av in
rel ate
mis understood
mou thed
cr ay
train er
squ ished
bar be
bar bed
bar ber
str add
la zy
ere ct
slow er
pri mit
clu bs
sen sed
por k
Bill y
ative ly
Un fortunately
... ."
oc top
anim ated
Ro y
Ar nett
19 5
bal ding
Re member
Mo ab
Mo lly
________ _
________ ____
sal on
narrow ly
cap ac
count ries
Paul ine
fil thy
spo iled
Car los
inform al
grow s
To day
contain s
reg ain
motor bike
sne aks
que ue
ann i
plat ter
cop ied
disap pointment
spl ashing
produ ced
prom pt
uncle s
Mon ty
deta iled
parti al
iron ing
viol ence
viol ently
spill ing
fic tion
squee zing
sco pe
Jan et
condition er
sweat ers
tech nical
demand ed
Did n
bud get
associ ation
tit les
fif ty
swit ches
scram bled
poo p
acknow led
incre asing
reser ved
crocod iles
labe led
psych ic
transport ation
stress ed
Pro bably
sedu ce
twi r
IM Db
Way ne
Spr ing
femin ine
overall s
reci pe
precar ious
hing es
refresh ments
Lat in
destru ction
Naz i
promin ent
Py thon
wol ves
categor ies
raf ters
cancell ed
negle cted
pyram id
AID S
Sep tember
4 6
A A
C ass
F a
F ill
F ive
G or
G ail
G etting
G avin
H U
I C
I vory
K asper
M E
M as
N i
N ano
O t
P erry
R ain
R ik
S at
S we
S car
T u
T on
T wi
a ment
c ers
d ic
d iction
e lo
e cho
g aps
r ating
v ors
he ated
in c
in formed
in sert
an gu
re no
re tail
and ing
to x
or ies
we ighed
ad ill
be ck
ge ars
ro y
ri bs
ly rics
but cher
co s
co ax
pe ak
un usually
op h
op o
op posed
man aging
pl u
tr out
tr usted
ind ex
ter rain
if ying
bo wel
gr id
side walks
ex tr
ex isted
sto mp
fo il
reme n
cl id
pre su
tu cked
right s
br ushes
ame l
dy nam
dis rup
head lights
flo ats
wind s
par lor
comp ar
ste ms
ste ward
lad ders
hair s
cli ps
ink er
Jo an
cr ut
cr amped
swi ft
pol icy
cho ke
mat ters
pa uses
notice able
slow s
draw s
cu b
scre ened
arri or
belie ving
por cel
az ed
pu bic
lou ng
swe ar
spot light
van illa
Su z
furn ace
horse back
Re collection
aware ness
mag got
impress ive
trave lling
pract iced
fil ms
Will ow
separ ating
fu el
lit urgy
profess ion
trail s
repe ats
cons ist
ific ent
prepar ations
stret ches
Sp ike
interrup ting
scra per
respon ding
screw driver
app li
current s
flash back
pun ches
Jeff erson
tan ks
sequ ences
reception ist
represent s
inti mid
vic ious
incident ally
demand s
consider able
Pr of
Eu clid
flu id
wound ed
develo p
associ ate
AN D
vacuum ing
choo ses
tack le
Barb ie
En tourage
elbow s
swallow ed
altern ative
fa iling
lim ous
daw n
Whe never
fier ce
brace let
nipp le
goof y
erg art
cube s
educ ation
meas uring
Mur phy
nicke l
Jac ob
bou quet
bree ze
prov ided
protru ding
Dam n
indign ant
psychiat rist
biscu its
Reynold s
Aid an
Bes ides
primit ive
porcel ain
3 1
3 9
B R
C oo
D ev
D rew
F am
H ur
J ord
M au
N even
N AR
O pen
O hio
P M
P ers
R ep
R est
S O
S itting
T a
T am
U gly
V I
W atch
Z ach
a tom
d ging
d ense
e e
f y
g ur
g ory
g utter
h ass
l ush
l ids
m ies
o e
o am
p ly
r ical
s ank
s words
t rench
u a
v ault
re put
re assuring
at us
ar io
se am
le ver
so aking
be aring
ac cord
ve il
ch im
ch ure
ch ron
up wards
but to
do lly
pe ed
ur ance
pl ato
We l
It aly
ho g
con temp
ss ip
car rier
house keeper
over ly
su ction
ex pose
can cel
il ts
ie val
qu ilt
air line
ul ty
fo li
ks wag
che aper
thr ust
real istic
pre sses
pro pri
pro vide
right e
di alo
kind ergart
int en
int ently
dis agree
dis crimin
dis oriented
long time
lot tery
ru mp
won ders
gre asy
bro chure
comp ass
ob je
fl ing
fl ung
bre ed
sl ug
ush ing
party ing
surpris ing
surpris es
sha ken
mor al
fire works
Pe ggy
climb s
ank y
sn oo
rain bow
rain coat
Al most
Al ley
Be aut
char ity
swe ating
Dar cy
meeting s
fix ture
esca pes
fac ulty
Ho llow
yellow ish
hop s
mouth s
vide ot
country side
warm ing
deal t
stri pped
kne lt
dra ped
mix ture
Bo ys
grow th
Le ave
Sh ould
pee ing
ann on
atu red
conscious ly
speed s
sme lly
sell s
cig ar
comb at
Mer chant
rough ly
Mon ica
si ans
perfor med
tran sm
tent s
har med
stab bing
Cor n
Simpson s
resemb ling
assign ments
ai ms
gradu ating
adv anced
poison ed
encou raged
Super man
compet ent
smooth ly
urin ated
Jay ne
announ cing
Lou ie
account ing
tag s
chu cked
appreci ated
condo ms
vet te
Kar a
survi vors
Austral ian
reve aled
impatient ly
bang ed
coin c
Fl uffy
Juli et
nun s
pac kets
pine apple
dev ices
Dri ve
myster ious
Dep art
succeed ed
honest ly
Lau ren
yo ga
disgu ise
disgu ised
vot ed
histor ic
Vol kswag
leen ex
lefto ver
Rus sians
Cir cle
Bat man
Fat ima
Ame lia
adequ ate
poin ty
attor ney
Ori ent
limous ine
Jord an
Neven a
) <
0 1
4 00
A big
A pri
B E
B ush
B rid
C C
E ileen
G ame
H ol
K leenex
O dd
S U
S V
T op
T ER
T inker
U SA
c ater
d it
f use
g ut
l ac
m ma
o be
p am
p aw
p ure
r ural
t ame
t uring
v als
w af
in ated
an us
to bac
me lo
ou ses
at ivity
er otic
le ash
st unt
we bs
id o
so lo
be friend
ge ant
ver sa
wh ar
are na
sa ke
ca the
lo res
lo wered
man ages
pl aster
tr icked
sh red
ind irect
art istic
loo sen
ap ron
po et
car ton
where as
over hear
ex cl
can op
qu ar
ul ous
med ieval
My a
ran ger
pre ced
tu xed
sc ree
sc rub
sc ruff
saw dust
di ver
dis missed
pt ic
ade my
ont ally
per ple
head quarters
ta vern
under pants
night club
att ent
col league
cor nered
sur vey
des igner
spe are
spe cially
mar vel
ob sess
fl an
fl own
fl av
vis ions
sleep s
pass ive
book shelf
mon keys
ele ction
rid den
inter fere
cr ad
cr ate
00 pm
sha w
emp athy
str ate
clean ers
past a
dr al
mat s
inte lle
cus hions
vers ary
kn ick
foot age
sn at
slow ing
contin ually
clu mp
dist ress
buy s
fight er
mas hed
pur ses
pan e
exc ess
fac tion
brown ish
sub urb
odd s
bal ancing
sun shine
suggest ions
trave ls
heav ier
gro an
Th ink
Ly le
sou thern
cell s
nervous ly
program s
lap s
ham burgers
Le ah
explo des
.... ..
plat forms
bump ing
guard ed
pup pets
photograph y
chan nels
flir ted
With out
aim ing
mill ions
host ing
ker chief
gown s
greet s
Bet ween
spee ches
adv ance
fru its
alo of
iff ed
psycho logist
Che ster
respect ful
Jan ice
Ke ith
Per u
quit ting
Lou is
Pr ince
toss ing
script s
hon ored
bene fit
horiz ontally
alle st
Gu y
reve aling
gymn astic
Cap t
Phi l
Phi lip
bang ing
sheep ish
Jose ph
Wo man
accompl ished
Up town
peel ing
Ac ademy
Ph ys
talent ed
Coun try
caut iously
Cha p
vig or
shar ks
sample s
Tre k
proje ctor
gam bling
rif les
dol ph
Ve gas
Gra ham
gren ade
hig hest
situ ations
resign ed
submer ged
diagon ally
techno logy
snot ty
comedi an
ema ils
watersl ide
chap ter
eyebr ows
gad get
Lar ge
rof oam
Color ado
Prin cess
intric ate
appar atus
Shake speare
reno v
crut ches
chim ney
plato on
kindergart en
Depart ment
Volkswag en
)< /
Abig ail
Apri l
tobac co
3 8
4 2
A ren
A ug
A bby
B A
B ac
B urn
C ont
C ase
C ount
D O
E nd
F el
F arm
K ill
M ack
O D
P itt
R ooks
R immer
S F
S ing
S ort
T raining
b bled
c it
f iddle
g aze
h ound
l ur
m ama
n oodles
p unk
p aws
s ch
y a
y l
in er
re make
re fu
to s
ing e
ing red
as ting
me lon
it er
al ma
se vered
se aled
le aps
st rolling
we e
we aving
ad dresses
so m
so cket
ac cents
ve ling
ut en
wi red
out rage
ver bal
ch ute
up pity
ab used
ab ilities
co on
ne on
sa iled
fe males
pl ugs
te ased
his tic
ce mber
use ly
down loaded
ap id
po ver
gr ant
con ut
con trap
ag ging
don ut
iz z
sp aced
bu cks
sm allest
pro posed
dri p
di um
di mes
di plo
dis pen
hand led
hand writing
hand kerchief
lot ion
pr inter
dec ay
make shift
im ate
lt s
res idence
pers istent
bit ter
par rot
road way
min im
ser geant
ju g
land lady
sl ab
sl ump
av ili
Jo sie
mou st
cr am
cr ab
mor se
stru ctures
str ands
ook ie
strange st
sound ing
sn ide
!" ,
pur suit
az a
exc uses
neigh bour
cal med
desk top
stage s
Fran co
Un ion
sub stitute
Ro me
Ar abs
hy po
hun ters
Frank lin
fre aking
De cember
rub bish
neck s
prof usely
Paul a
six th
libr arian
To by
Sh annon
tra pe
rail ings
cliff s
lu mber
Lu ke
Lu ther
wand ers
jam med
character istics
enn on
pup pet
publ ished
distr ict
stret cher
prom ot
flir ty
acqu ired
farm house
news letter
interview ed
describe s
ero x
cano es
current ly
Wor king
craft s
gig gled
14 th
pun ishment
Who ever
Br oud
urin ating
Lo ren
prin cess
slam ming
rap ids
Adam s
eleph ants
wound s
sting y
Kar l
abs ence
pou ch
Rose mary
volunte ered
Thur man
clut ch
Min ne
remode ling
stare s
sail ors
lav ender
disturb ance
Juli an
command ed
blur red
intention ally
compe lled
suppor ting
electron ics
anticip ation
scient ific
delay ed
vir tu
labor atory
possess ions
fol k
scold ed
seve rely
magn ificent
histor ical
grace ful
accus ing
squirt ed
omin ous
Mont ana
moan ing
Squ are
handic apped
Fort un
capsu le
brilli ant
Oly mp
Fris bee
sop histic
Kra mer
Psycho logy
claustropho bic
Bald win
decis ions
diction ary
accord ion
righte ous
Alley cat
avili on
5 6
6 4
A ustin
C li
C her
C lar
D ana
E ver
F ried
G ard
H old
H aving
J ud
L ennon
M M
M uff
N S
O U
P ower
S un
T hu
T ara
b bling
c run
d airy
f isher
i mb
i ved
l end
l ance
o logy
s ab
s wo
s acks
u h
v at
v ending
v ases
in ary
re je
re cy
and ra
as ion
at ter
it ate
al ie
ar se
le is
st ated
st acking
ad dressed
so ak
ld g
ut ed
ll s
ge m
ro e
for given
ab road
ab sor
ot a
co y
ent it
fe ver
mo squ
un packing
ti al
sh abby
el phi
gr as
ex posing
can non
qu ant
air craft
sp ont
sp ins
sp iff
che ll
che wed
reme mbers
cl icked
bu re
pre scription
ven ess
di vision
br aces
dis co
open ings
dec ent
head ache
table ts
hu dd
row boat
large st
sur rend
aw n
An nette
lad elphi
vie ve
ser ver
fl avor
gl ances
gl itter
ign ition
sl ave
hall uc
plain ly
coun cil
shi re
bar ren
pol ish
str anded
board ed
cho king
sw arm
sn aps
Al ways
Al vin
pat rol
pat rons
clu es
cu it
por n
pur poses
pan icking
meet s
present ing
recogn izing
recogn izes
bas is
ext end
Ar ts
kno bs
hun ted
cab ins
grand children
Mo z
aff ir
________ _______
De ath
experi ments
stri kes
terri tory
flat s
emplo yer
Je w
Je ep
hope fully
clock s
ban jo
pee ked
lic king
cher ry
accept able
corn field
cart s
Mon roe
ctu al
Wil ma
spec ies
dia gram
def ending
crack er
sneak ers
dig ital
nap kin
ordin arily
sharp ly
Pop pers
occas ional
contest ants
Daw n
exerc ising
stat ic
satis faction
bull s
Com ing
cha os
Ret urn
Si mba
nes ses
Hu gh
Ber g
Negro es
fant astic
cling ing
defe cate
Phi ladelphi
fig ur
crou ch
ray s
Josh ua
twent ies
dess erts
whisper ing
Jas per
suff icient
cowork ers
dep th
carpe ting
bind er
nonchal ant
zi pper
pron ounce
Pu bl
bolt s
soo the
shar pen
Comm unity
confir med
frag ile
frag ments
scal es
Ob viously
recommend ed
Gene vieve
robber y
aspect s
thorough ly
distingu ish
philoso phy
rh ino
achi eve
loll ies
landsca ping
Ric ardo
Cent ral
Has ani
Wy att
convey or
exper t
bould ers
pedest ri
Clau de
oppon ent
casset te
Isra el
octop us
capac ity
Twi light
loung ing
Fam ily
ply wood
canop y
scruff y
perple xed
Aug ust
Fortun ately
sophistic ated
spiff y
Philadelphi a
" )
2 50
4 1
B I
B all
B art
B loo
B ear
B rent
B rail
B ridge
B arrie
C ame
C ele
C adill
D un
D DS
E uch
F ish
F ido
G rad
H unt
K ie
K irk
M ath
M isty
N ice
N aver
P an
P et
P au
P hill
P rison
R V
R ene
S S
S a
S en
S tone
U FO
W D
W W
Y ester
a ign
b others
b ending
c ad
c ies
c ities
d arts
e h
e el
f ering
f aking
g les
i as
i ment
l ons
m ound
n aught
p ater
p ses
p uck
p tive
p avilion
r ash
z an
z ens
z ona
the st
re cl
re fere
re tain
re creation
th ir
as ph
me sh
on coming
er ve
ed e
al a
al ter
al bums
st ung
we eping
oo h
The a
ke en
go ti
ch amber
for cing
ne goti
fe ared
ur able
un aware
un stable
op s
whe at
tr oops
sh ines
ind ifferent
end less
de mo
de press
did dling
ho lo
dre amer
gu iding
po ly
po wered
red u
time table
pp le
pp ings
sp er
che w
ach ing
bu ckets
ran o
pro pped
ild a
stu mble
fr on
dis ks
dis count
dis connected
hand ling
cle are
water ing
ess or
ath on
per tur
pr ide
boy friends
fi anc
fi remen
ru ins
let te
stre aks
row dy
att acks
par ish
comp are
high school
arm or
na vig
hair do
bath robe
gl er
vis e
vis its
hur ric
sl apping
step mother
tri angular
form ula
ince st
ins isting
nu mb
fast ened
cat cher
swim suit
concer ns
cus tom
quick er
foot prints
Al icia
sign ature
dist ribut
anno ys
hotel s
wheel er
wheel ed
Se ars
Se bas
year book
lin ole
Un i
view ing
Ro x
law ns
For ce
bal anced
invol ve
sun g
lake s
fer oc
Co ast
mag ne
rent ing
difficul ties
var n
mention ing
gas p
Me mor
Me gan
stair cases
pract ical
cell oph
fu cking
cul t
pian os
cons ists
paint ball
character istic
gard ens
cru mbs
charge s
handle bars
manage ment
non sense
ret ta
Wil son
priv ile
Mill s
chain ed
scen ario
Ru th
ado le
respons ive
jealous y
symp toms
express ing
belt s
Ex cept
adm ired
Lake land
resident s
consider ably
flu o
serv ants
passage way
confront ation
desc ended
squirrel s
defe c
trim med
Ari zona
Mad onna
sket chy
intellig ence
dev ast
bru ised
Dep t
Gro cer
paste l
swamp y
intent ions
scient ist
puff y
rearran ged
Tar zan
honey moon
lefto vers
Gl enn
swer ve
Pres ently
betray ed
obsc ure
challeng ed
Ol son
dil apid
precise ly
lob ster
fou l
rehear se
Hit ler
pronoun ced
Mit chell
Rh onda
oat meal
Tinker bell
shaw l
ingred ients
contrap tion
entit led
Moz art
Brail le
Cadill ac
DDS I
Yester day
pertur bed
Sebas tian
linole um
celloph ane
dilapid ated
3 4
3 6
6 00
8 5
9 6
? ,"
B C
B ow
B ag
B ate
B run
C urt
F ine
G E
G ab
G ram
K ind
K ath
M ust
M ort
M itch
M aster
N an
N ils
P ass
R ex
S C
S wed
T old
U su
W ild
b am
b att
b rook
d ar
f idd
f ainted
g ical
g rain
i able
i ors
k ah
l bs
m ittens
n oo
o ct
r ou
r ul
r att
r acqu
r ational
r asp
s ip
s plat
u rious
w ins
w anna
in spect
re in
re con
re ins
re hab
re morse
to ken
to ber
on ion
is tered
or ting
we ir
ad am
ad vent
id get
be ad
be ast
ay er
ve ls
li able
ro ts
ver ge
ri ot
wh it
ir regular
for give
ab do
ab str
co zy
pe tal
un s
un ra
un concerned
un tie
sh one
ant agon
te ases
bo ld
de e
con cl
over coat
ex pan
don key
So cial
sp i
sp ed
che f
che v
cl apping
pro ps
dy ed
kind ly
int act
hand ler
ble s
wa ken
pr ince
light weight
sort ed
ma ker
jo gging
jo ckey
wr ought
ste red
spe ar
min now
ange ls
hard wood
last ed
plan ks
sl ats
ear n
um mer
mon o
never theless
inter fering
cr abs
No ve
gg le
inv asion
green ish
four s
emb raced
round s
dent al
Al ain
gra vy
cu bby
Mar cia
wheel bar
elev ated
exc used
appro val
cross word
recogn ition
30 pm
push y
exp ans
De c
tw isting
ging er
deal ers
patient ly
Car la
Bo x
ba the
Sh ut
phys iology
finger nail
oper ated
introdu cing
Wh oo
ork y
stor my
cru m
enjoy ment
accept s
stro king
Mer maid
obser ved
ctu red
ni k
18 00
copy ing
eld est
bun ches
celebr ity
medic ation
Ex c
psycho logical
support ed
trick y
Fo rest
Nat asha
vic inity
particip ant
Ron nie
Ron ald
veget arian
Val entine
langu ages
Part y
Del on
acc um
sele ct
sele cted
survi val
Res erve
Easter n
Har vey
polit ic
fortun ate
holiday s
dut ies
barrel s
Min ister
peel ed
marble s
Mor an
padd ling
bust ling
Ange l
Doro thea
reser vation
lim ited
wre cked
Ko re
daw ned
compe ting
tho do
neare r
drum mer
geo graphy
Met ro
boom box
vir us
soo thing
radi ation
possess ed
inspe ction
confir m
vul ner
mild ly
precar iously
Leon ard
dun geon
UP C
rig id
RO W
penetr ate
archite ct
Les lie
Stan ley
Tw ice
haw k
Da vis
Oc tober
Sel ena
repul sed
effe ctive
Rebe kah
Sophi a
estab lish
acknowled ged
coinc idence
Brid get
whar f
flan nel
intelle ctual
Chap man
dispen ser
Muff in
Berg man
figur ines
Euch ar
naught y
pater nal
fluo rescent
Grocer y
Bate man
abdo men
) ."
1 50
A D
A ma
B ank
B lu
C er
C PR
D rum
D ustin
E agle
F ur
F ound
F ood
F ield
G ill
G inger
H oo
I ron
K ot
K ary
K atherine
L I
L ister
M add
P on
R ather
S park
S yd
U te
V E
Y a
a gue
b ake
d ict
f ate
f ry
f ade
f ans
f ender
f ading
h r
j i
j azz
l isting
l anter
m art
m im
n ib
p atted
r ant
r und
s by
s lea
v and
v ard
w ade
y ment
Õ s
re ced
re imb
to mb
th ump
at ra
ed itor
was ted
or p
st als
st akes
ad der
so il
ke red
wi ring
out skirts
ri ers
wh oo
up town
for ts
hi lar
op posing
pl ow
art work
loo ps
ra is
de jected
el le
ho re
gr ud
con cept
con cess
con serv
got ta
thin ner
ag an
just ice
over hang
su nd
ex pressed
sto op
don ate
qu is
So ci
iz er
sp onge
cl one
ous ing
tu ck
tu mble
part ed
af ia
place ment
au ction
Some time
tor so
dis cou
dis liked
dis posal
read just
und e
und o
ess entially
open ly
per io
act ica
ple ss
after ward
bus ines
comp aring
col n
In n
spe lled
mar athon
ser mon
store y
ob lig
fl ick
fl aming
cur ling
ange line
ev al
ev ol
sl ush
kill ers
sho ving
coun tered
Jo anne
inter ven
inter action
cr usty
upset ting
cho res
emb racing
kn acks
stead ily
sn if
sn ug
pat ron
pri mary
arri val
Be ing
Mar lene
sen ses
por tra
wheel chairs
cal i
cal y
vi bra
pet ted
camp aign
restaur ants
sli ther
hy mn
Don na
sun k
straight ening
leg ally
war ns
Co sby
shut s
cand id
sil hou
setting s
prof it
pot ty
offic ials
cket t
spo ons
pleas urable
orange s
apo logy
belong ing
grow ling
cry stals
sne aked
clock wise
Col umb
spr ings
heart ed
Sc ully
Sc rubs
double s
sweet ly
tur tles
sme lling
mark ers
drun ken
cru mble
distr action
produ cer
Po pe
mur ky
dish washer
Mon opo
text book
obser vation
lecture r
engine er
tap ping
fresh ly
north west
screw ing
Center ville
Bu dd
resemb le
harm ful
writ ers
priest s
contact s
suspic ion
tooth brush
pun ished
Jeff rey
sco red
tas ting
cudd led
height s
blo b
blo ke
Nick i
furious ly
waste basket
cheer fully
carto ons
pisto ls
gener ous
Hu h
cate gory
pudd ing
Wa iting
fabric s
liter ature
focus ing
entertain ing
rever sed
burst s
Fl ags
contr ast
pajam a
Sha wn
II I
stool s
Ari ana
chuck led
Gold en
incre ase
Ev angeline
Ky lie
bru nette
Sher man
revol ution
Tal king
persu aded
condu cting
execut ive
Fre ud
thous and
Marian ne
stir ring
glo be
Harr ison
Lad ies
install ed
Saw yer
rare ly
cylind er
Kent ucky
cris is
IV E
rust ic
orna ments
domin ant
archite cture
Ba iley
Comp any
foo ting
influ ence
Mi lo
Dra ke
corre cted
lux urious
Lin coln
Battle star
Made lyn
genuine ly
Cra ig
Wind ows
contem pl
flex ible
anni versary
Fill ion
Ot is
Suz anne
maggot s
Prof essor
reput ation
butto cks
quar rel
refu ge
moust ache
swo llen
asph alt
hurric ane
Curt is
Gab riel
Usu ally
abstr act
Nove mber
thodo x
vulner able
Kary n
Madd en
Syd ney
rund own
reimb ur
perio ds
busines ses
Monopo ly
2 000
4 9
B oo
B lock
B rock
B ond
B ldg
C ur
C handler
E du
F C
F il
F ree
G y
G ri
G ot
G us
G aston
H on
J un
J unior
K h
K now
L anc
M Y
M ah
N orm
O lie
P ear
R S
R ouse
S ex
S ty
S ookie
T ow
T ran
V ader
W A
W right
a vers
c ass
c ile
c ation
c ious
d ings
e tor
e ved
f aul
f aders
g loo
g no
g ins
i ot
i mer
k o
l ton
m ming
p ong
r int
s kept
s wearing
u des
v ain
he ating
re v
re vi
re acted
to ries
me llow
on aut
at tire
er to
ed it
al armed
en countered
ad ap
so ta
be aded
li mbs
ro les
ch ill
ch imp
ch icks
wh iz
es ses
ther land
but ts
co ated
hi bit
do pe
do dging
do zens
pe ep
pe ering
pe aches
ca v
lo ses
un ke
un ic
un hurt
un pack
un willing
tr acing
sh ing
ind er
te les
wo ven
ra gs
ra ins
ra gged
ust ered
de an
de pot
de lete
There fore
con sequences
car tons
car amel
no min
house hold
mp h
mp lo
over pass
su f
ex changed
ex otic
sto ut
ass ass
ast ro
iz able
sp ur
cl am
pro spe
pro pel
pro posal
sc otch
sel s
dri fting
di aling
br at
br idal
dis ci
dis order
dis torted
hand gun
fore man
ff it
ble ss
water front
head phones
ta ker
let t
-- ,
table cloths
class ic
hu mid
ph arm
wait ers
comp ound
ak er
?" ]
spe ci
cre ativity
cont ribut
mer ing
ser ial
imp lies
fl our
fl akes
gl ued
sl icing
band ages
inter act
inter mission
hor ny
nu b
bar gain
inv aded
kit ties
hal ter
concer ning
emb ro
emb races
live ly
foot steps
clu msy
arr ay
met allic
ded ic
comfor ted
Be eth
trouble s
mas cul
Se cond
Do c
station ery
stra pped
fix tures
fac il
recogn izable
cas ting
cir cuit
shel ving
track ed
ef forts
comm ander
Su therland
Re e
resp ir
De ll
De anna
conne ctions
remind ing
tw ists
ib ilities
ging ly
var i
gro ggy
sky scraper
tele path
alley s
sne ers
sle ek
tori al
Ben ny
explo sions
Bar ney
pee ks
spr int
Sc ene
ref using
pregn ancy
rep airs
fro sted
shad y
loc ations
mode ls
flir ts
rot ating
shout s
spread sheet
scra ped
stream s
memor ial
ener getic
feed back
flower beds
Er in
nap kins
writ ings
string y
bage l
tooth paste
symp ath
pray ed
aron i
suspicious ly
Ze b
Lo retta
sequ el
blo s
yan ked
NO W
particip ants
dive s
boun ces
symbo li
Ti mes
advert ised
individ ually
fail ure
chop ping
helicop ters
beard ed
pad ded
gall ons
prevent ed
passage s
affection ately
Gr ou
Har old
infe ction
replace ment
AT M
volunte ers
insist ent
investig ating
Alex is
grin ned
sympathe tically
Ac quaint
stain s
sew n
delic ate
scratch ing
LE D
terror ists
dep ending
spark ling
transport ed
tick le
tric ycle
Hawai ian
indust ry
Fre aks
Tr acy
addition al
spar ks
scrap book
advis ed
dimen sions
Steven son
cooper ative
dram at
quot es
harass ing
marking s
autograph s
Cru z
glare s
sway ing
Ri go
mac aroni
astr onaut
Britt any
Brook land
Pas cal
reminis cent
Gal actica
baw led
Ire land
pengu in
Nichol son
Op rah
Work er
assa ult
Kings ley
Mas ters
steward ess
appli ances
Rest aur
Orient al
cathe dral
obsess ed
gymnastic s
Case y
Minne sota
fianc é
adole scent
bam boo
expan se
Lanc aster
Pear l
Beeth oven
Acquaint ance
% .
( ?).
6 5
? !
A ss
A dri
B O
B and
B ot
B ang
C r
C ly
C lear
E gy
F i
F lying
G ib
G oose
G wen
I ce
J ungle
K a
K i
L ist
L oc
L os
M B
M I
M CA
M ama
M UPC
N E
N u
N ix
O P
O z
P a
P ap
P ink
P enn
P ost
R ing
R ho
R iding
S lo
V ER
W is
Y uck
Z omb
a venue
b limp
c ca
d well
d ummy
e ving
f rank
f encing
k ha
m ous
n um
o bl
p us
s cars
s ively
t iring
u ated
w ow
w rench
w icked
w icker
x 4
in her
the ft
re fe
re covered
re acting
re covering
re solved
th ic
me re
on ds
on ions
is ance
or gy
en sed
en son
st roller
ad mi
be et
be ers
all erg
ic ts
go ver
ro me
ro ckets
es says
up tight
ot y
but ler
ne ys
do cks
ent a
lo aves
un a
un ition
un identified
man n
ti gers
pl ing
pl ush
He idi
ind ent
ind ul
ant lers
end a
room ing
bo sses
de odor
po lar
po sure
ill usion
ill umin
ate st
mp y
over cast
su e
ex agger
ex ception
ex quis
ep t
qu easy
sp az
sp ons
ul ations
door ways
bl uff
ine vit
cl ap
cl apped
com posed
com ics
bu lly
tu ous
sm ir
part itions
sc run
ven ir
au er
men s
tor tured
run ner
dis integr
cou p
und ies
being s
per ce
show ering
every day
hu a
ple ad
ner ve
row ing
As ians
bus hy
par ano
cor al
cor du
hat es
ol ine
sk im
na ire
na iled
store ys
uck oo
fl att
pret ends
vis itor
ign or
sl ur
sl abs
je wels
care less
wood work
rid er
cr ust
cent ric
pain s
tre ats
nu isance
squ ad
pol ished
la unch
cho re
guess ing
All ure
All ison
Al shire
gra ffit
cu to
cu mber
io s
ah l
Mar ge
glass ed
sen iors
spit ting
fight s
Bill ings
Se gel
pan try
pan cake
snow ball
sad dle
camp site
ext ends
cri pt
hop ped
hop ping
Ne al
bow s
Grand father
sof as
roof top
question naire
shut ters
tw itch
cap tive
cap ital
Bob bie
Ju dith
wra pper
wra ppers
dra gs
bright er
sou venir
position ed
fu mble
15 th
cul ture
Ge eks
letter ing
lic ked
cons in
ref und
rush chev
Te ller
trans l
entran ces
super hero
tour s
page ant
pup ils
stor med
cru de
produ ctive
assu ming
garden er
enjoy able
West land
den ied
gang s
activ ate
scra ps
pi one
memor ize
pin ched
cred its
switch ing
slo ping
tap ing
Cart wright
report ed
Con ne
Or thodox
pil ots
emer ge
actual ity
bun ks
butter flies
awkward ly
Ke ep
split ting
crush ing
Pr ayer
Qu in
Qu ite
wit nesses
repair ing
develo pment
stock y
qual ified
example s
drag ons
aband on
Ter rence
bi ker
nam on
bullet in
AT IVE
fig urine
Alex ander
chor ds
rac ist
scan ner
resent ful
lesb ians
flag s
topic s
lim its
shove ling
fare well
revol ver
Cafe teria
appl aud
Tal k
zi pped
stamp ed
execut ed
Lau rie
thes is
repor ting
mold y
conce al
Law rence
exas per
manip ulate
Pl ain
pul ley
jud ged
Air port
exist ence
educ ational
confess ion
Den ny
Ob ama
nicke ls
concentr ation
NY C
intim ating
Krist y
teleport ed
challeng ing
eli min
Britt a
administr ator
performer s
civili an
Pay ton
hyp not
Cho ir
arc ade
cco li
invent ed
sni per
Ocean side
cti ves
Conf usion
Pep si
ostr ich
uphol stered
marsh m
econom ics
amm unition
blu ish
Swe et
propri etor
dialo gue
Beaut iful
pam ph
cit iz
slump ed
Kie fer
Pau lette
depress ion
feroc ious
petal s
wheelbar row
crum pled
Kot nik
slea zy
hilar ious
concess ion
Soci ety
Kh rushchev
Sty rofoam
Restaur ant
Nix on
Wis consin
admi res
deodor ant
exquis ite
graffit i
' )
. ).
0 3
0 9
5 3
B rett
B auer
C athy
D ale
D ug
E dith
F E
F ast
G all
H E
H ug
I mp
K n
L and
L ang
M ather
N T
N ah
N atur
O range
R d
R en
S ound
S ame
S hall
S lick
T reat
U gh
V en
V ance
Y vette
Y MCA
] ".
a er
b ers
b raid
b ond
b usted
c ant
c ence
c ables
d unk
d ened
d raining
d agger
e mission
f lea
h anna
h iring
j ut
o id
t t
t ac
t amp
t ling
v able
v ations
in et
in sp
in hal
in fer
in flat
an es
an cho
re cur
re pet
re tired
re solve
to urn
ing ton
on ica
er ased
it ars
it ially
or ph
le m
le ery
st itch
so iled
ac ro
out come
go ate
ro aring
am or
ri x
ri pe
ri ps
ri pping
ch ord
ir able
up coming
co x
co arse
ne ared
ha uled
ca ine
ur a
lo west
un ning
un married
un button
un ison
man hole
ti ac
ti ans
pl umb
tr au
tr aps
He ll
He aven
sh run
We e
ind u
te l
te al
not ep
his sing
back room
ra vine
bo iled
de light
de pic
ap ric
She lly
gu itars
car n
car rots
people s
ag na
off ense
ex its
ex tingu
ass isting
dream work
And ers
ast ically
sp ike
ul ti
bl ot
bl amed
bl aze
cl icking
bu gging
ran e
ick ly
sm ug
pro jected
sc rubbing
di aled
br as
tor m
tor till
dis agreement
school mate
und one
per se
pr iced
ru ining
here nt
under side
jo g
class y
may or
ple aded
boo st
gre ater
gre ase
bro ccoli
stuff ing
well ery
par ag
col m
col oured
high ways
In itially
cre ates
cont acted
sk id
child ish
ju mbled
fl apping
gl as
je wellery
av al
sho rel
book let
tri ple
tri pping
kis ser
mis chie
mon s
gi a
fun ky
appe ti
inter se
inter com
inter state
sha ven
tre k
gg les
roll ers
pol ka
gun k
fire man
du et
Pe gg
port s
Char lton
round ing
pa thetic
kn itted
lea gues
ike l
ix ie
pri zes
clu mps
crow s
Be ckett
Mar ch
sy ringe
mas sa
Se rena
pan es
lin en
lin ens
flow s
sub conscious
Ho pe
St ation
eas tern
ys is
suit able
empty ing
cir cling
cir cled
windows ill
Ar nie
For um
hun ter
Mo on
fat i
war mer
mad ge
Co ach
aff airs
fur thest
roof s
sal mon
De bb
moment arily
continu ously
ging erly
Ju an
stri pe
count y
gas oline
Me lo
Will is
Bo ard
apo lo
Je wel
phys ic
equ ival
Not ice
decor ate
plant ing
trans form
trans action
Nor ma
rit zy
CD s
cru c
lawn mower
sight s
ram bling
interview s
activ ated
iron ic
mini van
Lyn ch
priv ately
Bl ind
Gre ta
Wal k
resemb lance
nap ping
div iding
identif iable
Ye ars
assist ance
tail or
une mplo
sau cer
inju ries
Dou glas
Ke y
Lo is
Lo well
represent ative
tech nic
incident s
inse cure
limp ing
boun cy
cock y
zoo med
thri ll
pursu ing
ffe l
Carol ina
Loo ks
requ ires
bi king
assemb led
doub ts
invit ations
asp ir
exhibit ion
En ter
spect ators
Min ikel
las agna
entry way
scan ning
incl ined
Mor ris
swir ls
Juli us
Sto ner
lun ge
lun gs
cin namon
Ange les
suff er
CH R
sket ches
Ko gler
stere oty
Tal madge
overwhel ming
execut ion
jer ked
drift ed
brides maid
interpret ation
poe ms
admir ation
fascin ating
Comm union
Ali ens
Night mare
Mal colm
phr ases
Sop rano
Ver onica
vibr ating
alt itude
flee ing
aston ished
Sur pris
insu l
Never theless
haul ing
RA IN
Tur tle
Sub way
accommo d
ador able
initi ated
annoy ance
Court ney
trou pe
Clo oney
bio graphy
techni que
Bra un
inser ted
whack ed
unexpected ly
cler ks
trum pet
expen se
Oli via
Cass andra
SO CI
atom ic
rump us
cater pillar
tuxed o
Gram my
adam ant
Pon tiac
conserv ative
snif fing
portra it
cali ber
mascul ine
dramat ically
kha ki
refe ree
parano id
inflat able
shorel ine
mischie vous
Debb ie
" $
" ).
( ?
. -
3 3
3 7
3 60
5 1
6 8th
A P
A y
A ust
B est
B irth
C O
C any
C ook
D E
D ut
D RE
D airy
D ilbert
E lean
E ski
F ight
F ear
G a
G ay
H arm
H um
H anks
L Y
L uck
L ev
L ana
M ake
M ach
M aking
P f
P ick
R ad
R ider
R ival
R icky
S ir
S mo
S po
S ony
T hor
T ris
U r
V ent
V ill
V ision
Y o
a use
a ire
b ash
b ber
d ick
d ild
d ye
e erie
f ang
g antly
h inting
h uts
i ac
k night
m ug
n aming
o bey
p ant
p tu
p hed
p hase
s caf
t act
v d
v age
w ary
he imer
in come
in spir
re en
re do
re bell
re bel
as sho
it ating
is ms
ar ti
ar ose
en lar
le ot
st am
st rain
st inky
st ilts
we ave
so les
so pho
so ggy
be s
oo ter
ve in
ut ens
ll ie
am inated
ri a
ri fied
ch man
ot ts
co caine
ha ught
there after
do e
do se
sa int
fe tal
fe ars
us cript
pe ck
pe bbles
ur ches
mo dif
un fortunately
man u
man agers
man uscript
ti fied
pl um
pl owed
tr idge
sh ined
sh attered
ant enna
end e
ra ffle
bo died
de als
de flated
ho ly
ap point
ap pointed
gu lly
gu lf
po inter
where upon
ill ian
off man
off end
house boat
mp t
over jo
over grown
su ited
ex ten
ex ped
ass y
don uts
sp ine
sp ool
bl unt
med s
pre occupied
sm ith
sm ashes
sc orp
play wright
fr is
di pped
br on
dis may
dis agreed
dis comfort
dis charged
walk ways
open er
ta unting
ru mor
tow ing
good night
flo ppy
ma x
hu b
hu mp
fin als
comp ens
cor k
cor pse
wall ed
black s
des pair
spe lt
talk ative
dress ers
ene mies
mer ry
sk imp
imp ul
dark ish
fl uff
fl abby
fl ustered
ci vil
gl iding
town house
ev ade
sl ugs
cut ed
sho wered
ny lon
form at
band its
band aged
bot toms
inter ro
inter nal
inter twin
mor phed
fast en
squ id
du cking
rew ound
dire ctory
dead ly
husband s
interest s
char red
Se infe
vo y
main land
swe e
Dar lene
present ly
tic o
Her man
Her mi
sub tly
bas hed
free ly
val ent
exp and
mes ses
mountain ous
cup cakes
ud der
grand daughter
leg it
team mates
sof ter
wel coming
smo kes
smo ky
De ep
narrow er
graph ics
Ell iot
bul ky
fil med
spo il
cell o
emplo yed
Feel ing
ham mock
post card
Ge o
ris ky
ban ner
lic ence
mist y
sea weed
decor ation
cher ries
chat s
cig ars
spl ashed
forest s
stro ked
comb ing
Stu dents
pi geon
Lyn ne
slo ped
slo pes
host el
Wal t
custo ms
Dre amed
director s
Er nest
attend ance
attend ants
Eric a
emer ged
bun s
bun ched
demon s
tan ned
Che er
rubber y
thank ful
represent ing
squir ting
mechan ics
access ories
Lou ise
veget ation
commit ment
Com ic
Bry son
convin cing
major ity
Far ber
drain ed
gall op
impro v
individual s
oven s
beha ved
phe as
protest ing
progress ed
defe at
spect ator
sail boat
Ac counting
croo ks
reser ve
Jam ison
spark ly
whist ling
agent s
ribb ons
bind ers
vom iting
appl ause
critic izing
witness ed
Whe el
joint s
doubt ful
jer ky
allig ators
mumb led
mumb les
mumb ling
wrink les
Merri lee
diam onds
Sw iss
twi light
radi ator
champ ion
perman ently
CI IS
cooper ate
cylind rical
hint s
subur bs
reprimand ed
Through out
eyel ashes
Du ane
gren ades
Tur k
royal ty
loll ip
obli vious
supervis ing
acceler ator
provo cat
Mu riel
resu me
Wall ace
carp enter
techni ques
Ced ar
Ced ric
Bird s
cockro ach
shri mp
vend ors
thie f
cray ons
barbe que
Gor don
Sat an
angu ish
NAR ROW
videot ape
SU V
melo dy
befriend ed
attent ive
renov ated
outrage ous
bitter ly
trape ze
Thu y
fisher man
WD F
recl ining
holo gram
sper m
cleare r
Kath leen
fidd ling
rul er
racqu et
Fil m
gloo my
skept ical
unke mpt
disci pl
Adri an
Cly de
Gib son
Goose bumps
Loc ke
obl ong
allerg ic
Plain view
tourn ament
plumb ing
aval an
equival ent
Elean or
Eski mo
Harm ony
Luck ily
Tris ha
sopho more
appoint ments
overjo yed
exped ition
Seinfe ld
Hermi one
. (
. --
7 9
C ut
C one
C ong
C arrie
D all
D ance
E va
F ra
F ion
F iles
G over
G ale
G lady
G rab
G lee
G TA
G ilbert
H es
H mm
H offman
I L
I an
I nt
K er
L ab
L ex
L ero
L ucky
M A
M O
M T
M am
M ry
M ount
O oh
P ort
P laying
P orky
R a
R oo
R ae
S leep
S ummer
T an
T hig
V A
V ik
W at
W ars
a waiting
b ast
c ante
f art
f led
f ists
f udge
h ort
j agged
k m
k ay
m inton
n ite
s him
t v
t acks
u ing
u bl
w an
x erox
z as
z ards
z ero
he nd
in tr
in fl
in flated
in corpor
in adequate
re cover
re tire
re actions
re placing
re gul
to sses
th ugs
at re
it an
al es
ar oo
or ice
or deal
se iz
se als
se cured
be ver
The atre
ld o
ic i
some day
ri vers
ri gged
ch up
ch lor
es y
up stream
ly s
for b
ab ack
ab bing
co herent
fe at
us able
pe cting
ur inal
ur istic
mo ss
mo ped
mo cking
lo go
lo gged
lo dge
un load
un prepared
un plug
un caring
un harmed
ti veness
pl ac
tr aged
tr aded
tr ading
sh in
sh am
We re
We stern
art er
bo a
bo lted
de pend
ho ver
po sh
po stu
con cluded
car bon
wor ship
off ensive
over looked
can ned
sto ring
ass urance
don t
don ation
iz ard
sp out
sp ades
ul um
ment ing
ment ary
cl asp
clo ak
tu tor
tu lips
pro spect
sc i
sc u
sc uff
old en
ty ing
stu mbled
stu mbling
stu mps
fr ay
int ends
dis cre
dis organized
hand written
ff man
sed an
work men
ma iling
rest rooms
point less
ner ves
dd ing
gre ed
gre atest
res our
even ly
bus ily
stuff y
col ours
Ch an
sur fing
person nel
des ired
spe ars
ob stru
hair dresser
ten ants
fl oral
pret z
bad minton
gl ide
cli pped
sl ou
step father
plain s
ele ven
cond uct
Jo hanna
appe ase
cr oft
ins ign
life guard
ton gues
igh th
pain ts
gg ie
bag gy
bar riers
fire places
du ne
du el
str icken
cho ked
sw apped
since re
inte grate
pa il
mus k
hus ky
kn uck
sn oring
sn apping
Al f
sign aling
crow ding
mean while
Mar ine
Mar ket
Se ab
Mary beth
Do g
Dar th
tic king
brown ies
sub mit
St adium
eas iest
camp ed
mot iv
Ro lling
Ro swell
19 th
ili a
cab bage
itch ard
gen ital
Mo ving
Mo vie
inclu des
birth days
mag net
experi mental
complain t
gram mar
bul ldo
stri pping
flat tered
grad ing
gas ping
pot tery
instru ction
radio s
thick er
sne e
Le wis
sle igh
shoo ter
ledge s
explo ding
further more
.... ....
trail ers
decor ator
New man
stall ed
sweet s
commun ion
Lu c
cru mbled
coll age
strugg les
occur rence
sque aling
Sp onge
miss ions
interrup tion
Are nd
imag inary
aim lessly
orig in
mi me
spray s
ware s
Bl vd
meat balls
roller coaster
silver ware
Cor bet
creep ing
fut uristic
Sup posed
Bet te
thor ns
fic ial
Tony a
White hall
Che v
cudd ly
mul tip
ceremon ies
Ke cker
condition ing
trust ing
crit ique
Fo llow
fool ed
sweat y
canoe ing
satis factory
ER E
Pr itchard
symbo lic
Sou thern
Sm art
Scott ish
vill ain
experiment ing
Li ving
mal function
init ials
develo ping
Ted dy
collap sing
exha ust
impro ved
impro vise
aqu a
thumb s
TH IS
roman tically
encourage ment
polit ics
frequ ent
Main e
leap ing
scare s
rec iting
sail or
Love ly
incre ased
orient ation
god mother
bon net
Brit ain
Dep p
innocent ly
bund led
Hun ting
geo me
eager ly
thes ia
sprink ler
sprink lers
lump y
Wood land
tro phy
fragment ed
interpret ed
broad cast
China town
Pl us
pul pit
dough nuts
vot ing
advis e
admit ting
whi pping
magn ifying
Victori a
Spr ings
cylind ers
quot ed
squat ting
harass ed
Vol vo
dun es
audition ing
Bud dy
congrat ulated
gau ze
Lind say
Rus sell
orna ment
Does n
intim ated
situ ated
nick name
wigg le
mort ars
cob webs
Care y
Pic ard
narr ative
Play boy
shuff le
electro des
alphabet ical
sche me
porno graphy
Fer ris
pimp les
scur ry
cockro aches
******************************** ********************************
EE G
toler ate
nostal gic
perm itted
Pac ino
increasing ly
Scar lett
Tu van
Ton i
tox ic
Coo per
Pers ia
Rep ubl
dit ched
flav ors
recy cling
forgiven ess
absor bed
bure au
Jew s
noo b
advent ures
expans ive
Exc use
Hoo ver
Spark y
grud gingly
discou raged
Ree ce
respir ation
num bered
Dug gan
infer ior
goate e
notep ad
aspir in
Sony a
enlar ged
Film Forum
Dall as
Fion a
Glady s
Lero y
Mry le
Thig pen
cante en
Sponge bob
! !"
' '
' ).
6 3
6 9
? !".
A bo
B S
B ach
B oot
C as
C us
C ous
D iam
F are
F ang
F uck
F OR
F unny
G I
G ob
H S
H amps
K night
L U
L ive
L inger
M ap
N ed
O w
O wen
P C
P lace
R ings
R ousing
S ide
S ale
S hit
S DI
T or
T uc
T ower
T RAIN
U R
V in
V ar
V ague
W arrior
W izard
Z oe
a top
a jar
b ible
b itty
d ain
d ile
d led
d ign
d warf
d azed
f ers
f ren
f iled
g ments
h ick
i vy
j acks
k u
l icks
m ow
m und
m ache
n in
n an
n atured
p ran
p als
s no
t ab
t read
t attered
u u
u ma
v io
w ur
y ote
z illa
in h
in ven
an chor
the art
re wind
re model
to pless
th ong
th wart
as to
me red
it ative
it tery
al and
al ign
ar ad
or a
en raged
se ams
le x
le igh
we ep
so late
so ber
ke st
ll a
ll ama
li f
li k
li gh
go als
ro aming
ver ify
am put
ri val
ch illy
wh ites
ther mo
ab sur
ot ay
co aches
co hort
are s
ne qu
ca ves
ca ution
ur ation
ur gent
mo pping
lo com
un ci
un wrapped
un folded
un clad
man s
man nequ
ti pping
ti mid
pl as
pl aza
tr ough
tr oop
sh rubs
roo my
ra i
ra ph
ra iser
bo ar
bo ding
de m
de ed
de cks
de tour
de leted
el ated
rom at
ho ll
ho vered
ap h
ap hor
gu ar
po d
gr asses
con str
con spir
con temporary
car ou
car ving
ill o
no sed
red head
ass ort
ie ties
iz ation
ul ted
ul ously
che on
bl ouses
ine ffe
ach t
bu dge
pre school
ittle s
pro ved
new er
stu mp
stu cco
fr at
fr owns
fr inge
men stru
ame nd
ame rs
tor rent
dis aster
dis belief
dis respectful
read er
fore boding
ath lete
per ception
pr ow
im mature
help ers
ma xim
act resses
jo lly
rest ric
near ing
boo ked
res ists
comp ly
comp act
col leagues
ket tle
ket chup
ans as
mer ge
mar tial
ol as
sk ated
few er
min es
na use
imp erson
pret tier
cur lers
gl ancing
vis ibility
ale b
box car
book lets
ear ring
mon k
reason able
inter pre
cr ates
life style
anc tu
bor ne
mor tal
mor ph
gg ly
ling erie
ash tray
bar ked
cat astro
swim mer
la un
gy psy
sw ap
mat tered
cour ting
vers al
vers ions
sn atch
ward robe
sign aled
mom my
hurt ful
ster y
His panic
pan ther
vo id
Every where
Do me
Do lly
comple ting
Ste wart
fac ilities
flow ed
flow ery
check book
St and
St ay
val ve
hy per
hy dr
Ne ed
log ically
hide out
Re g
Mo del
lunch room
Co st
Co ll
May all
race track
sal ty
De w
conne cts
moment um
bra gging
aster y
graph s
enjo ys
dru gged
sil ky
Th r
scar ing
tun a
rect angles
fil ter
sou theast
heavy set
wash room
wash cloth
os cope
mail man
apo caly
reg ion
reg istered
hope ful
dangerous ly
post cards
Le igh
nor theast
tub s
add icted
lic orice
mist ress
sty les
Sc out
Sc outs
coo ks
cow boys
knowing ly
mode st
mode ling
gray ish
spl its
Go ssip
Dan nie
ga e
Sp aces
rot ted
gri eving
18 th
wire less
Stu ff
balcon ies
scra ggly
Wil cox
meaning ful
respon ses
gain ing
tent acles
har ness
fresh men
screw y
Gre as
Wal es
custo dy
Hill side
process ing
purpose ly
identif ying
expect ations
pound ed
worth less
pun ish
Br on
gentle men
inju re
pilot ing
conver ted
Ze ffman
Ze aland
weak ly
Nat alie
rob bing
dump ing
dump ster
tax es
pon ds
wit ches
complex ion
junk y
proud ly
cheer leader
claim ing
tag ged
adjust ed
appreci ative
athe tic
pump ing
Hu go
Chi ef
Get to
Carol ine
phe no
negative s
pend ulum
request s
function al
AR T
defe ated
tornado es
wed dings
Ce lia
pier ced
investig ation
trim ming
Wo ke
contr act
scram bling
jet s
Hil ts
fountain s
opin ions
swir l
Ari el
lun cheon
cam arad
fiance e
clip board
Time zone
umbrell as
Str ong
wid ow
hum ili
revol ving
accompan iment
tick ling
vom ited
decl ared
admin istration
Blue bird
Max well
plo p
anticip ating
attach ing
lump s
flirt at
Wood y
enthusi asm
advertise ments
puff s
Sw enson
goof ing
scrat ches
lemon ade
abrup t
Tre vor
ec centric
proje ction
Tar get
hyster ically
sleeve less
babysit ter
concentr ated
Cru ise
jig saw
Fr ustr
cran berry
Sub ject
rh ines
accommo date
Bas ically
Hard y
fet ch
pear ls
pir ate
clar ify
applau ded
pengu ins
Nichol as
boil er
handcuff s
handcuff ed
sausage s
sparse ly
duplic ate
tid y
croche ted
Mik o
det ached
HU GE
compar ison
hass le
contemp t
inten sity
SV H
shred ded
excl usive
crad le
Joseph ine
vigor ously
Count y
Fel t
grant ed
cram med
Jud ah
mosqu ito
Phill ip
devast ated
concl usion
Euchar istic
patron izing
contempl ating
reimbur se
Grou p
Egy p
Zomb ies
spons or
inevit able
cordu roy
NT NS
insp ired
amor ous
shrun k
parag raph
Birth day
assho le
skimp y
Cheer ios
Cone ll
Vik ram
traged y
scu ba
Seab ird
Smart Rider
absur d
locom ot
camarad erie
0 4
2 17
4 3
4 7
6 6
8 00
9 2
9 8
A de
A lys
B or
B ase
C K
C ool
C au
C lover
D ab
D ie
D om
D ak
D ire
D ifferent
D ahl
E mp
F le
F ull
F ringe
G i
G ree
G ru
G len
I ll
I ra
I dol
J ak
J av
K ir
K erry
K FC
L ie
L ear
L illian
M P
M ould
M ud
O scar
P O
P it
P ier
S wi
S even
S ug
S wit
T en
T ha
T ried
T rad
T win
T rout
U s
X ander
Y OU
Z im
a woken
b il
b ours
c rest
d um
d aze
e es
g ish
g ender
g uts
i ated
j uni
k g
l us
l amb
m ie
m iffed
n th
n ard
n ically
o live
o grap
r ated
s iding
s anctu
t and
v ah
w t
w arrior
y r
y ay
y rin
y acht
z ene
in tu
in son
in complete
in forms
in correctly
in competent
in justice
in hibit
re es
re un
re tal
re play
re ts
re fur
re stored
re clin
th ors
on look
er d
er ase
al gae
en tourage
en gulf
se wed
le opard
st ake
st ink
ad mission
so ever
so dium
ld er
out stretched
ge red
gh ast
li mb
li ers
ro let
ro ars
am bush
ri ages
ch au
ch aper
ch urches
es ar
ir ony
for ty
ab usive
nd y
but tered
us ions
pe g
mo ver
mo tori
lo lly
lo gue
un cont
un packed
un comfortably
see king
man ces
man tle
ti led
ti ghts
pl in
tr in
He ar
sh ards
sh ush
sh udder
ide al
ide red
ra ping
ho bby
ap or
po kes
po ised
hou sed
con ve
car in
car port
car pets
wor thy
over stuffed
by n
su l
ex claimed
ep it
sto ned
what soever
ig lia
tal e
ast ed
sp its
ul ates
che t
bl end
cl as
com mission
bu bbling
pre mis
tu ft
ist ically
sc and
sc out
sc oring
sc atter
saw ed
au thors
di aries
run gs
run ners
dis array
dis integrate
hand y
cou pon
ble ah
und ed
walk er
water y
water melon
ess ential
ang aroo
fi ber
happ ier
ta i
im iglia
flo ss
flo ck
hed ges
ma iled
fin ances
wait resses
par a
ste als
found ed
sur ve
aw ed
spe cul
road side
cre scent
mar ched
store room
imp rint
dark ened
ten ant
fl un
land ers
ange red
gl ider
vis ibly
sl ing
sl aves
box ers
rel ent
must y
ny lons
form ations
inter acting
inter vals
cr own
ins en
ins ight
ins ides
shi pping
shi fting
pain ter
sent i
squ ashed
bar racks
emp hat
du ffel
past ed
hal ves
round about
sn iff
ward ly
pri me
clu ms
break er
Mar lon
glass ware
pack aged
sen ess
belie ves
Se ction
neigh bours
Do ll
Do lores
present ations
cri p
30 s
Ro sie
Ro byn
Ar k
Ar lie
Ne o
safe st
van ity
log ic
mountain side
ud son
path way
Mo ck
Mo rena
fat ter
fre ak
lunch time
Co conut
bur ying
wel comes
________ ______
________ _____
mag ing
hood ed
bra ins
continu ous
loud speaker
12 th
Fe et
sil very
scar ves
count s
grad ers
Me g
pink y
agree ing
steep ly
vent s
emplo yment
gather s
To y
hope less
fra ud
ham sters
sne er
Le if
Le ft
Sh ooter
ais ies
Ge or
hesit ation
hesit ating
net work
tight er
prote ctor
Any how
lyn n
cons isting
ann ual
New ton
stall ing
Mc C
Mc Cart
Lu cil
tur d
tur al
tur keys
Te a
shad ed
loose ly
death s
mid way
Nor ris
heal ed
Other wise
cig s
distr acting
God zilla
lab yrin
depart ments
sque aled
conv ul
Mon ique
den y
Where ver
imag ination
Colle en
pas tor
map le
chi pped
spread s
stream ing
memor ized
perfor mances
pin ch
spec ified
indic ation
compan ies
sneak y
flower bed
bomb ed
personal ities
Out er
Fred dy
harm ony
sess ions
ado be
motorcycle s
worth while
flash y
bun nies
adv ancing
White house
Dream s
itar ian
desper ation
amount s
hoo ps
pray ers
instructor s
13 th
Jan itor
piz zas
mob iles
Bry ce
Li pp
exhi lar
cha otic
Far rell
scoo ping
Day s
cock pit
cock tail
qual ities
qual ify
discuss ions
RE M
bene fits
gener ation
prepare s
Hu ge
Hu man
social izing
acc use
deser ve
deser ved
Gu ys
Loo ked
fant as
purch ases
Har lan
lat ched
inno cence
AR D
leap t
Star la
North town
pier cing
ritual s
________________ _
regard less
document ary
rac ket
rac coon
Mor rison
resent ed
resent ment
signific antly
lun ges
swallow ing
Ange la
chuck les
Mag az
Young man
Brother s
intention al
thread s
bru ise
chip m
handful s
Rock y
maneu vering
whirl ing
NOT E
OR T
decl ined
geo logy
exclaim ing
stress ful
Pu erto
jer sey
mold ing
Wood s
chant ing
manip ulating
Nic olas
dash board
jud ging
sled ding
inspe cted
caress ing
ec ided
swell ing
mole cu
grace fully
Ser vice
dome stic
cris p
Wonder land
Bel ow
gau ge
buzz ing
Pres ley
heel ed
error s
vit am
insu lting
Half way
distingu ished
Krist en
dot ted
brave ly
hyp no
harsh ly
lux ury
stitut es
pir ates
chemical s
Oc cas
loan ed
Ban croft
Ire ne
shuff ling
Ku lik
Cy nth
veter an
ambi valent
anal ysis
shr inking
mour ning
vend or
fus sing
reck lessly
prompt ed
Fa ith
elo qu
cos met
intimid ated
waf fle
loosen ed
scree ching
strate gy
snat ched
sheepish ly
dolph in
Bac carin
lur king
uten ant
Luther an
Fried a
hudd led
surrend er
Publ ic
Cele ste
Sen ator
thir ties
weir dest
whit ish
establish ment
rais ins
silhou ette
Budd ha
revi ved
teles cope
pharm acy
embro idered
frank ly
gover nor
acro bat
apric ots
apolo getic
Cany on
DRE AM
Mach ine
Vent imiglia
dild o
fang s
leot ard
scorp ion
Hes ton
forb idden
Corbet t
Supposed ly
Chev rolet
Abo ve
Hamps hire
Tuc son
ineffe ctive
catastro phe
Thr ones
Greas epit
Alys sa
Clover field
Dab ney
Dahl heimer
Trad ing
tand em
motori zed
uncont roll
McCart ney
Lucil le
Cynth ia
" --
+ +
, '
3 D
5 4
6 1
7 00
8 8
9 4
? !'.
A nt
A sc
A cker
B ran
C ou
C how
C lock
C hip
C hase
C aleb
D P
D al
D evin
D evil
D inner
D ancing
D ixie
E ating
E vie
F I
F al
F est
F ug
G host
H ut
H im
H udson
J er
K E
K ally
K iss
K urt
K iki
L R
L ens
L illy
M D
M G
M ob
N inten
O reg
P ack
Q U
R I
R out
R ound
R ev
R ush
R idge
R iley
S ho
S tra
S lu
S anti
T able
T otts
U T
V ick
W E
W I
W it
W ard
W idget
Y out
b out
b bing
c rank
d and
d ared
d ashing
d aven
f end
f ades
g loss
h ack
h ony
j aws
k otay
l is
l ather
l um
l aming
m ite
m ns
m owing
n ug
n ook
o me
p her
p ry
p anty
r he
r usted
s wore
u be
u ate
u ment
u zz
v ant
w oo
w ont
w edge
w aded
x ie
y ank
y ucky
z ation
he ed
in put
in ations
an gh
the nt
re x
re be
re ne
re rs
re ject
re write
re fridge
re assured
re trace
to en
to ad
to us
th ma
as er
as thma
me tho
ou fl
ed ited
ed ded
ed ging
was hes
al th
ar bit
ar ched
en ne
en su
en cies
se mic
le pre
st a
st ag
id y
id ance
so cially
be hold
be aver
oo o
ke g
ld om
ic it
ut es
wi gs
wi pes
wi erd
out going
out lines
ge ons
li lac
go dd
go ssip
am ate
am ish
ri zed
wh ining
es p
co co
co log
ne ts
ha irsty
do dged
do cile
king dom
fe red
fe aring
fe atured
pe es
pe gs
ur gency
mo ist
mo der
un successful
un likely
un loading
she s
she ath
tr amp
tr action
We ber
art icul
te ap
them at
ide o
ra ked
bo ating
de fined
ion ally
down loading
gu ides
po ll
gr u
gr ating
gr umb
con dem
wal lets
side lines
car go
who re
just ified
no ses
no zzle
wor ries
red s
su llen
ex ual
ex changing
ex ceed
." )
." ,
what not
qu er
qu ie
came l
sp ying
ul ing
ul as
any ways
fo ss
ment ed
bl ister
bl inking
bl ading
bl aming
mber li
cl ones
cl icks
cl owns
cl aims
My ers
com position
clo gged
clo seness
pre ci
pre aching
pre fers
pro ctor
pro portion
pro stitutes
has tily
home made
au thent
di ag
di als
br ist
men acing
dis card
dis dain
school house
school mates
ble ached
und ecided
walk ie
stand ards
water falls
wa xed
hel me
per pe
set tling
light ening
im m
day care
work man
flo p
ma themat
hu ff
ph ant
ph oning
der by
ars gard
ner d
res isting
res pected
pers ists
comp re
top pled
Ch op
In te
sur gical
spe l
cre pt
arm chair
At t
sk unk
na ive
imp er
uck er
fl ab
fl icked
fl uttering
bath s
ev ac
sl ut
sl ack
sl ough
," .
je llo
sho ves
rel ating
tri vial
mis understanding
mon str
mon astery
clothe sl
reason ably
form ally
gi an
appe aling
paper back
pain fully
ise um
pick les
train ers
inv ention
port foli
od ge
od ka
Char ley
sw at
emb edded
All ah
sn ort
lea ks
pri ority
met aphor
ah n
comfor ts
Be a
Be y
Be ek
char ging
sy stems
por tions
fight ers
mas ters
Se cre
vo c
vo cal
Do ing
music ian
snow balls
comple cted
lin ked
neighbor ing
fix es
pet ty
catch y
sand s
cas m
cas ian
rad ical
cra ppy
val id
Ro gers
19 60
19 70
mouth ful
hy mns
exp ired
gen ius
Grand pas
sof ten
fre ckles
bur gh
Ram on
arch way
smo s
sal ads
temp t
De bra
rub ble
laughing ly
cap tiv
ze bra
gro ans
prof ound
kne els
tun ing
pot entially
mir acle
pract ices
steep er
dra per
curtain ed
ax y
Car ly
Bo dy
fu cked
grow l
Je b
reg al
fra il
state ments
motor boat
sum mit
Le m
11 th
cul pr
Sh angh
attack ers
Col iseum
gold fish
Rob bie
Sc ot
Lu cia
trans forms
quart et
beat s
introdu ction
pup il
cru mbling
cru mbles
Chris tians
extra ordinary
lab s
horri bly
garden ing
avo ided
direct s
accept ance
sight seeing
sque al
sque aky
sque amish
force ful
mur al
comb ine
Mer ton
Cl air
den im
Sp ice
Sp ider
Big wood
miss ile
interview er
har dest
def ended
scri bed
Wal ker
nois ily
address ing
16 th
expect s
borrow ing
length wise
Bev ner
gradu ates
Who a
rele asing
rele ases
symp hony
17 00
Am west
Brian na
German s
Super highway
Au to
medic ines
achel or
neg lect
conver sing
Brad y
respect s
Fo ss
War ren
sweat pants
stat istics
vic tory
vic tori
satis fying
satis fy
zer land
stal k
Qu inn
pon der
sar casm
occup ants
anti al
proceed s
..." .
Ti bet
vill agers
Del att
utter ly
health ier
planet s
AN A
rehears als
collap ses
drain age
refle ct
Gu ess
sele cting
sele ctions
prevent ing
Ber nie
magic ian
bound s
bound ed
suck er
protest ed
Har vard
tack ed
lat in
defe ctive
spell s
grave lly
accompl ishment
jet ty
rec ite
rec ital
swir ly
retri eved
lun ches
bust le
cam oufl
Mad ison
aggress ively
Gold water
LE T
orient al
lucid ity
colour ful
subst antial
ON E
daw dling
compe ti
transfer ring
talent s
wag ging
bind ing
fond le
tick led
decl ine
disappro val
brace lets
pron unci
earthqu akes
Sch war
sole mn
anticip ated
attach ment
Cha pel
Cha kotay
Law son
Tr ouble
mumb le
scient ists
faint ly
glo bs
Near by
inspe cting
exter nal
Comm unic
sac rif
deposit ed
Ver mont
ES P
mu zzle
reci pro
accus ations
hitch hiking
Start ed
concentr ating
nephew s
eth nic
grim aces
Gar land
Tra veling
bour ne
tattoo s
Bur ton
obsc ured
cran e
destru ctive
Spe ars
Tri xie
recess ed
orch ard
seas hore
consu med
faith ful
peas ants
diagon al
illustr ations
require ments
Len ny
dimension al
Pri or
applau ding
Fall s
Sk arsgard
goo ey
wreck age
electro cuted
ros ary
intern ship
pimp le
prope ller
Conf used
obtain ed
Fro st
gir ly
expen ses
percent age
implic ations
croche t
gran ite
parap sycho
cray on
profession ally
consist ency
Mau de
Tam ara
VI P
Zach ary
discrimin ation
compass ion
Odd ly
preced ed
Phys ics
Kill er
decay ing
virtu al
Cli ff
reje ction
leis ure
spont aneous
disco very
sufficient ly
pedestri an
Rene e
negoti ate
magne tic
defec ating
Swed ish
rasp berry
token s
waken ed
ginger bread
accum ulated
politic ians
soothing ly
vand als
sund ae
Columb ia
Tow ards
cass ero
faul ts
telepath ically
Ki mberli
List en
Rho de
beet le
disintegr ated
ignor ant
cumber some
Quin cy
Natur ally
ancho red
recur ring
Melo die
insul ation
Dut ch
Ga be
Vill age
utens ils
bron ze
legit imate
avalan che
bast ard
seiz ure
postu re
Arend as
Cous in
Diam ond
dile mma
wur st
inven tory
asto unded
constr ic
carou sel
maxim um
pheno men
Cau casian
Dak ota
Jak ob
Swit zerland
wt f
retal i
refur b
Lipp ert
Magaz ine
Occas ionally
uncontroll ably
Acker man
Ninten do
Oreg on
Rout e
Slu uu
Santi ago
Yout ube
uzz i
toen ail
metho ds
arbit r
semic ir
lepre cha
amate ur
colog ne
condem ned
Shangh ai
sacrif ice
! ,"
( ?),
) )
) :
, .
1 10
1 20
2 2nd
5 2
5 9
5 000
6 am
7 2
7 7
9 3
A ge
A mber
A untie
B Y
C ro
C ri
C had
C ard
C ze
C ris
C lose
D et
D omin
D wan
E th
E rie
E specially
F un
F inn
G unn
G ilda
H y
H ou
H op
H art
H end
H ang
H aring
I B
I G
I ow
I dle
J C
J D
K id
K won
L ed
M oo
M ue
M ix
M ouse
M afia
N ad
N ik
O F
O H
O T
P I
P ull
P rep
P lan
P ai
P erson
P LU
R L
R and
R el
R ice
S E
S aint
S CA
S oft
T ro
T each
T ob
T aking
T ram
T ae
T orch
T hail
U I
U l
U ll
W r
W ade
W ise
] '
a had
a thered
b bed
b ious
b ail
b ashing
c uckoo
d dy
d ual
d ah
d ashed
e clip
e aves
f ain
f ont
g urt
h off
h unch
i at
j un
k angaroo
l b
l ings
l ished
l van
l anky
m itt
m au
o ily
o lives
o vation
p raise
r sa
r us
r ine
s ly
s ca
s lots
t ides
t aco
t wee
u les
v ans
v ices
w ick
y ak
y uck
z o
z co
z ig
z ie
in ning
in je
in tru
in conspicuous
in stitut
in coherent
an ze
an alo
re load
re vive
re solution
re liable
to my
as sess
me ll
al tered
is one
is ha
ar ches
or ist
of y
se aside
se gments
se ldom
le on
st en
st ature
st unts
we iser
be avers
ac re
ac ular
my st
ay s
all ies
ic he
ic on
ic ket
ll um
wi ggling
li zed
with draw
some rsa
ver ted
ch ug
ch iff
had ow
up dated
one st
co des
co ding
co gn
co als
co conut
ne west
king s
sa x
us ible
pe p
pe aco
pe yote
lo at
lo dged
un real
un used
un cover
un related
un organized
un attended
un locking
un plugged
un identifiable
ti lt
pl adder
sh acks
te as
ter se
own ing
if ix
if ier
back up
bo re
bo bby
nt ice
de solate
el a
el astic
rom ise
ho ses
gr uff
con sent
wal nut
car a
car ol
house wife
over seas
ong ous
su la
ex isting
il ou
sto cked
sto cks
ass ed
don ations
time r
air borne
start ling
pp les
sp on
sp ind
sp raw
sp ank
ul k
door knob
bl asting
med ian
cl en
com a
bu oy
bed time
tu x
sm ack
ist a
sc off
sc raw
di ps
br ut
dy s
run ny
dis concer
dis figured
dis solved
cle ars
realiz ation
per ch
pr ong
pr ickly
head board
front s
im min
work out
ph oned
ars ons
boo ze
low ering
wr ists
As soci
res ur
pers ist
bro chu
comp at
ste pladder
high light
cor pses
In v
In stitute
sur ly
sur mis
An no
cont aminated
ol f
hold ers
min ing
ob jected
ju ven
ju gs
fl icking
bre wing
ci als
ci lia
land o
cli pping
cli ppings
sl in
sl aps
cut ter
ped o
stop light
sex ist
av age
sho cking
mis cell
reason ed
hear se
inter ns
inter national
cr atic
shi pped
jump ers
blue berries
squ ig
bar ric
swim mers
du ffle
du bious
upset s
Pe ace
Pe aks
hang ar
green house
Char vat
sw oo
concer ts
ming ling
dead line
sn ip
sn iffed
lea ked
Al ison
shirt less
shot guns
pat ting
gra ves
gra ham
cu ous
conf ig
ah oo
clear ance
dist in
Be ver
Mar ti
Mar vin
Mar ilou
sy ll
sy lvan
sen ile
wheel ing
mas cara
Se a
gar ment
gar ita
Do well
lin ks
sad dened
Fran ken
cross roads
view ed
view point
fac tor
sand ed
eng aging
St anding
eas el
fair grounds
counter fe
... '.
ext ending
trip lets
order ly
anim ation
Ar mand
19 20
19 40
sli me
law yers
Ne u
van ished
Sam uel
mes sa
sun ken
hide ous
gen ic
ud ers
Re agan
fer ret
bur ri
sal ary
temp ting
mag ically
impress ions
rece ptive
organ ised
business man
var ied
die sel
special ty
gas ps
week ly
Thou ght
offic ially
dam aging
dra pe
mail boxes
secret aries
fu ton
teen y
To gether
To ys
15 00
lap se
sus pecting
Le g
Le o
Le aving
rup t
descri pt
pop ulation
screen ing
smile y
net ting
chest s
Any thing
consc ience
boss y
bri m
regular ly
Mc Dowell
cop ter
Eve rett
death ly
Nor thern
disap pointing
pocket book
ica ment
See ing
produ cers
coll abor
depart ure
avo red
former ly
hol ster
Can ad
App le
Pat sy
conv ict
Mon te
Cl are
den ial
none theless
miss iles
Jane way
stomach s
laund romat
mini atures
lounge s
Stu dent
pit ches
stran gle
tent atively
eg an
record ings
Cor pses
bomb ing
fut ile
Fred a
Or lando
harm less
cro ps
tru mp
Bet a
Bet ter
Bet sy
appre ntice
Mex icans
bage ls
apple sauce
ump h
contest ant
17 th
termin ate
express way
appropri ately
sales lady
cheese cake
hoo p
discover ing
Ale c
mul tico
shadow y
refrigerator s
Jan ine
Ke egan
SA T
spin ach
squir m
Ray mond
particip ated
tax is
slee pover
bunk er
Qu ick
occup ant
demonstr ated
chu cking
appreci ation
sting ing
destro ying
gener ic
refle cting
pel vis
pitch ing
toast ed
thri ft
pursu er
Ber nice
Ber nard
US B
common s
sweep s
assemb le
announce ments
doub ted
volunte ering
stern ly
bang s
Cu zco
leap ed
Star bucks
fed eral
Kat y
Lor ren
ambul ances
inde finite
quiz z
spect acular
stretch y
Sha w
joy fully
rac ial
monitor ing
regret ting
regret ted
stain less
needle point
Gold berg
reser vations
Ev idently
suspect s
challen ges
hum ongous
spiritual ity
Ad min
maneu vers
journal ism
critic ized
dear ly
berg asted
sprink les
Mir anda
mold ed
patter ned
anticip ate
Middle ton
drift s
enthusi astically
Sw amp
twi gs
Fri end
dup lex
accur ately
Ali as
hut ch
scold ing
catalo gue
cuff s
CI A
Arab ic
rum maging
hint ed
vul gar
mu cking
scal p
Bud weiser
owe s
congrat ulating
hitch hike
Bel le
Fair chance
pred icament
swer ved
grim ace
Jac uzzi
RO M
undress ing
Bur ger
bob ber
influ enced
Could n
Pi pp
astr al
administr ative
Ele ctr
Ele mentary
rin sing
pla gue
pla usible
overflow ed
Inter net
mort ar
weigh ing
caf é
Brook lyn
illustr ation
comedi ans
Cre ep
Lin us
Bus iness
Mil k
tex ture
porno graphic
belief s
Pen ny
uphol stery
craz ies
Pac ific
Fa ire
extr as
stomp ing
presu me
dynam ite
gur u
Wel come
foli age
obe se
indirect ly
dolph ins
Cont in
minim um
Olymp ics
Cher yl
Gard ner
quant ity
pedestri ans
Came ron
refere nces
Memor ial
privile ge
batt les
splat tered
dealers hip
Kore an
Blu th
Drum mond
Fur ther
lanter n
slush y
vibra tor
candid ate
Edu cation
chimp anze
suf fo
brat wurst
dedic ated
vari ation
Ka it
inher it
scrun ched
coup ons
flatt ened
exasper ated
pamph lets
Hug hes
braid s
orph an
tortill a
cruc ifix
technic ian
Spo ck
Ur sula
arti facts
exten sive
interro g
intertwin ed
lollip op
Int ro
Mam ma
Roo ster
kay ak
intr uders
bever age
pretz els
Fare ll
uma to
Ira q
Tha i
zene gger
flun ked
senti mental
crip pled
daven port
rebe ls
hairsty le
authent ic
Chop ra
flab bergasted
monstr ous
clothesl ine
camoufl age
cassero le
Haring ton
Nik ki
Pai ge
Thail and
Ull man
eclip se
mau ve
twee zers
chiff on
peaco ck
brochu res
multico lored
1 40
4 am
4 pm
5 7
7 4
9 00
A i
A ce
A mand
B are
B ul
B uck
B io
B erry
B unny
B roadway
C E
C P
C od
C atherine
D ur
D anger
D irty
D ON
E w
F u
F la
F ix
F BI
F landers
F ROM
G un
G ian
G iles
G ret
G uten
H and
H ig
H arri
I mag
J uni
J era
K l
K au
K ip
K itty
L ay
L af
L im
L ara
M un
M ant
M end
M ight
M ess
M iles
M aur
M oose
M AL
N ur
N aked
N ittles
O s
O per
P or
P ho
P iz
P age
P sy
P erk
P uffy
P ORT
R ap
R anc
S M
S id
S et
S ta
S hat
S est
S tall
S tory
S aid
T upper
T itan
T esar
T ARD
V ac
V ene
V isa
V iv
V ideo
W ake
W ish
W ord
Y ay
Y ose
] "
a ton
b ia
b ted
b ung
c act
c ings
c kered
c inder
d at
d aring
d oot
e by
e ased
e tern
f ame
f ug
f rol
f folk
g us
g ag
g ist
g lar
g ies
g gs
g ush
h ast
l ana
m oo
m ation
m ating
m unted
m uttering
o lyn
o logical
p burn
p herd
r r
r attle
s an
s ow
s ic
s ust
s ought
t abs
v ak
v aul
v antage
w arr
y le
y ield
in f
in con
in land
in correct
the l
the med
the mes
re pl
re current
re decorating
to te
ing ing
th unders
me te
me ek
on stage
was hers
it z
it ator
al ou
al ow
al arms
al isa
is ation
ar ial
en h
se cluded
le th
le ant
le red
le ye
le ase
le vit
st an
st aged
st asy
st rained
ad apt
id le
id ly
be ater
ac ou
ac iously
ac ula
The ory
all er
ve ins
ut ing
ut ility
ut tered
wi mpy
gh an
li o
li zz
li zards
go ats
go ggles
ver ses
am id
ch ast
ch ili
ch amb
were wolves
ab bed
ab normal
nd rome
co as
co il
co lt
ne u
ne ll
ha ze
hi e
hi gan
thing y
sa ves
fe isty
us ively
pe ars
pe tri
pe ered
pe aks
ca ust
mo thy
lo ser
un be
un loaded
un wrap
un healthy
un zipped
get away
He alth
He pburn
sh or
sh rap
te ous
end urance
back side
ra ven
de tain
de tox
down wards
ap y
dre ary
She en
po dium
gr udge
con se
con so
con es
con clu
con text
into ut
side burns
et tes
ill as
ag ony
just ify
off rey
over sized
su ede
ex iting
ex ists
can ce
il ton
ep s
ep ic
ie ce
don ating
tal lest
air con
sp rung
sp orting
ul ative
any time
how l
fo ster
fo amy
bl er
bl az
ight s
cl utter
bu bbly
ran ked
pre mon
pre serve
pre historic
turn st
pro se
pro pose
sc all
sc roll
sc rubs
af ar
af fl
af loat
old s
fr action
look out
di vers
br ow
br isk
find er
int ed
dis he
dis miss
dis perse
hand rail
cou pled
long ing
stand off
water bed
pr intout
head first
head dress
head line
set ti
tow ering
im polite
im itation
day dreaming
pic turing
work shops
flo ps
flo pping
table t
jo hn
ple x
wind storm
floor ing
low ers
ner dy
body guard
As ked
As ia
res isted
res pective
att ain
comp ul
comp romise
high lighted
cor ro
Ch opin
hat red
In gram
sur real
des irable
arm our
At l
mar gin
ol a
group ed
sk its
father s
ser ves
imp ly
est imate
ju mble
fl ute
fl aps
fl orist
fl avored
beg s
bre w
ful fill
cur se
cur ving
gl ittery
sleep ily
ger ms
ev icted
sl um
box ed
rel ates
must n
must ard
mis ery
care free
hit ched
gi ants
band ana
appe al
inter ned
cr ushes
cr abby
No ah
tre acher
tre mor
tre mble
tre mbling
tre llis
squ ash
squ atted
bar ge
hill bill
emp has
gun fire
swim suits
fire wood
fire cracker
du h
du ct
inv aders
str and
past ries
middle aged
sw an
cour teous
sn ar
Al right
pat ty
vin yl
fell a
arri ors
comfor ter
Be lie
char ger
Mar c
Mar cos
10 1
por ches
fish y
His tory
nie ces
Se attle
elev ation
toile tries
vo cab
appro ves
Do gs
ond ra
snow ed
lin ess
ane y
flow ering
fle eting
sub stitut
St at
St acy
St acey
camp fire
rad ar
mot ive
attr acting
val entine
Ar ch
19 80
sli pper
spot ting
hun k
cident ally
sun bathing
sun burned
sun rise
comm ute
Su bur
Su ffolk
poss ibilities
fer rets
fre y
mad der
sal vage
shut tle
De b
hood s
continu ation
complain ts
business men
cap tion
cap abilities
accident s
var ieties
gro ve
Fe bru
bul ge
Ju de
sick ly
sick ening
eye balls
Th ing
scar ce
terri fying
tun es
tele phones
burn ers
vac cine
agree able
secre ts
shift y
Will y
Mic higan
os ene
nervous ness
Car a
Car olyn
world s
cream s
grow led
grow ls
Mel bourne
lap ping
cause way
motion less
mil ky
cul tural
surround s
tight en
que e
shoo ed
load s
Dr acula
amaz ingly
vol ta
weight ed
lu ke
lu cent
pian ist
oper ations
sty list
New s
plat ters
Lu is
tur bul
coo p
Te am
bat tered
fro st
trans lucent
sme ared
loc ale
40 s
stor ms
len ses
fright en
coll ide
coll ision
Po e
Go re
Go llum
sight ed
prom ises
hol lered
Tho m
bread s
mur mur
mur ders
Cl int
Sp ir
18 0
Stu dio
stran gled
Ed mond
scra pers
whis ked
whis kers
pin ball
anxious ly
roller blades
success ion
Cart man
ker osene
chain saw
scen ic
eld er
rist y
emer ald
frame work
favor ites
Who se
express ions
sales girl
Super ior
hoo king
rab id
sau cers
cudd les
neg li
support s
Ma eby
weak ness
sequ ently
rap ist
blo ated
24 th
rob in
trash can
bull ies
Run ning
boun cer
theat rical
angri er
research ing
account s
Ti mothy
raft s
effort lessly
communic ated
demonstr ates
exhi bits
scoo ped
solute ly
dou bled
Rey na
opport un
condo s
impro ving
wrest ler
pursu es
Gu ard
iv ory
bum mer
Smith s
tender ness
Rose anne
inno cuous
Roche ster
aud itions
mm m
frequ ency
Cu ba
panel ing
pier cings
plot ting
________________ __
inde c
contr ary
grave ly
grave led
Sha un
Jill ian
Up stairs
Ac cording
scan ned
mush y
ejac ulation
Mad sen
Mag ic
croo k
scratch ie
CH AR
Cathol ics
slant ing
dep ends
dep ths
psych otic
Dave y
Jes se
fav ors
gross ed
wag ons
jelly fish
fond ling
rhy me
ruff les
Kay lee
bund les
critic ize
Whe ther
disappro ve
condu cted
caut ions
repor ters
conce ption
buck le
yo gurt
partition ed
rim med
sedu ctive
manip ulated
manip ulative
temper atures
description s
sled s
Bell ick
EN T
bis exual
sac ri
sac risty
ec static
blast s
clever ly
fauce ts
Den ise
eyel ids
sculp tures
review ing
victi ms
UP S
pred icted
Tra volta
finan cially
stim ulation
Would n
melt s
visual ize
Isa bel
stubborn ly
hhhh h
administr ators
Sy lar
pony tail
rin sed
orch id
wigg les
supervis e
harmon ic
Pay less
Court lyn
Pas tor
mont age
pear l
Brand o
Cle ese
Cross ing
doo med
trou bled
watersl ides
narr ation
capsu les
Ham ilton
fund raiser
rehear sed
plun ge
effe ctively
cti ous
inser ting
ambi gu
dread ful
Rebe cca
ostr iches
craz ily
Cars on
groo ve
recru it
lime stone
implic ation
Oli ver
Sky pe
liber ty
barbe cue
Ni ro
dic ta
swift ly
bouquet s
Hur ry
Ta hoe
thrust ing
snoo ping
videot ap
Hol mes
TER S
shred s
diver ted
Bac on
Burn s
gaze bo
pover ty
aza ar
neighbour hood
reje cting
gem ite
spont aneously
surrend ered
sharpen ed
Sa fe
WW II
redu ce
redu ced
Must ang
antagon istic
spi ky
mono logue
Kore a
AD D
Ama z
atra k
flick ering
Hon or
prospe ctive
mering ue
fiancé e
Ass n
Bot tom
Ring o
exagger ated
perce ived
marshm allows
citiz en
Gall ahad
extingu isher
ulti mate
rane an
Board walk
physic ian
unemplo yed
Enter pris
accommod ation
Fight ing
haught y
dismay ed
voy age
fray ed
Alf red
fren zy
amput ated
mannequ in
Coll ins
flirtat ious
Egyp tian
Dom hoff
Full er
Swi mming
sanctu ary
chau ffe
premis es
scand al
tai lored
clums ily
Asc ot
Clock work
nug gets
helme ts
portfoli o
Bey ond
culpr it
constric tor
refurb ished
Iow a
Tram mell
Wise au
immin ent
miscell aneous
Franken stein
Neu mann
Canad ian
suffo cate
Kait lyn
umato id
Amand a
Gian na
Gret chen
Guten berg
Harri et
Juni per
Jera my
Piz za
Perk ins
Sta ite
Shat ner
Sest ero
Titan ic
TARD IS
Viv ian
Yose mite
cact us
glar ing
sust ain
thunders torm
mete or
chamb ers
petri fied
shrap nel
Febru ary
Edmond son
! ).
" ?
2 am
2 x4
7 6
7 8
9 pm
A B
A G
A K
A p
A ha
A RE
A del
B it
B ab
B ali
C ry
C row
C RE
C ON
D ro
D ue
D ear
D ress
D ef
D NA
E p
E stim
F ly
F lo
F ars
G ate
G ates
G ina
H oney
H undred
I da
J ab
J acqu
K r
K ne
L P
L it
L ying
M ile
N ike
N isa
O re
P ly
P att
P la
P acking
P IN
P rim
R anger
R ATIVE
S in
S ter
S low
S talk
S aul
S ki
T ook
T rick
T roy
V S
V el
W O
W AT
W ERE
X erox
Z E
a ved
a ired
a que
a ghast
b ir
b ong
b ended
b rooms
b ony
c ade
c ise
d ong
d row
d ork
d angle
d azz
e en
e up
e man
e lier
e ighth
f aze
g art
g ust
g our
g ash
h ust
h ull
i ps
i pped
i va
i toes
k im
l ous
l int
l aced
l agging
m l
m uck
m unch
m ule
m afia
n ment
n als
n ons
o re
o lo
p run
p int
p light
p iling
p liers
r ar
s ance
s choo
s worn
s nail
s nub
t ical
t weed
u k
u ries
v ich
v ital
w ink
w aff
w arts
w arriors
z ily
in ating
in case
in ject
in fu
in stitute
in ept
the tically
re z
re start
re form
re cept
re moves
re bound
re connect
re marking
re assurance
and ah
to pped
to uring
ing ham
as ures
me h
me l
me ver
me lons
ou bted
er or
ed ition
it re
it udes
is sion
ar mo
en ic
en gra
en rolled
en vy
se ater
se rene
le ctured
we ary
ad ic
ad ren
ad mon
ad os
so lar
so aps
ac res
ac iated
ve er
ve ered
ut er
ll ers
wi zard
out run
ge ms
li ver
li ly
li pp
go l
go spel
ro am
ro ared
ver andah
am our
am oe
ri on
ri ots
ch men
wh acking
wh ines
wh ales
es sa
es que
ir ate
ir responsible
up date
one t
ab ase
co ed
co coon
are l
ne gro
ha zard
hi ve
hi ker
sa gging
fe l
us er
pe cking
ca ged
ur gently
mo ths
mo vable
lo pe
lo ans
lo yal
un noticed
un safe
un friendly
un tied
un necessary
un locks
un successfully
un folds
un fortunate
op ti
op posit
op aque
man ic
man iac
she ds
ti li
ti mber
pl er
pl owing
tr ag
tr acking
tr aced
tr icking
tr ample
He art
wo mb
wo bbled
end ings
ra ke
ra ving
bo dia
de ll
de fi
de leg
de hydr
el ves
ap iece
mb ly
po stage
gr unt
con descending
car tridge
who mever
ag ara
ag enda
no vels
fri lly
wor ded
red neck
over slept
over tones
over dose
by stand
ex presses
can als
ig l
ig an
ig ra
qu i
come dic
sp icy
sp awn
ul ary
che ster
che ered
che ckered
bl ender
bl ushing
med itation
cl ung
com fy
real m
bu ds
bu rial
pre v
pre view
bed ding
tu mbles
tu torial
little st
ist ine
stu di
di ved
men tor
dis playing
dis agrees
dis repair
dis courage
hand outs
away s
cou pe
read ily
fore arm
fore ground
fore finger
und es
cle avage
per tain
small ish
pr one
head lines
ru e
ru ck
tow ed
im pe
good ies
work room
ning s
before hand
ma kers
ma itre
under clothes
hen chmen
jo vial
class ified
stre ak
build s
ph allic
rest s
fin s
ner y
bus ses
att an
att itudes
par cel
ste amy
large ly
Ch amp
hat chet
In tern
sur faces
black mail
aw ned
An alisa
des cent
name ly
white board
mar shy
ves sel
sk ins
ser vers
child like
fl am
fl acc
ball ed
cur ren
gl ac
gl ared
gl ided
vis ually
last s
kid ney
ev ident
lie utenant
sl ate
sl inky
pass ers
love making
ped aling
ug al
tri als
ear nest
mis placed
mon ds
ele gantly
follow ers
reason ing
gi ver
Jo ss
fun ctions
inter s
inter mediate
cr acking
cr icket
ins in
shi vering
cent uries
ens ion
tre sp
tre asures
stru ctured
blue berry
bar ns
pol is
cat ap
cat sup
emp ire
emp athetic
less er
clean sing
hes ive
Pe ters
Pe rez
board er
sw ick
sw ans
mat ically
inte st
emb ers
cus sion
After ward
vers us
test ant
ward en
pat s
pat ience
eyes hadow
conf use
conf ided
ded u
io sk
dist ances
rock er
char coal
Mar ci
sy ste
10 5
por ter
por tray
mas ses
Bill man
Se wing
pur ring
gar go
gar ian
gar lic
ip her
pen al
base balls
ative s
vo lt
Do ors
ail ed
reco very
Un til
pet ition
fac ade
recogn ise
Her b
Her o
sub du
Ho st
sand al
ever greens
St ars
bas es
... '
cra zed
pow dered
30 th
val ues
Ro ll
Ro sen
Ro lly
sli ver
cold ly
fact ly
fact uring
ili ze
For rest
exp anding
bal oney
win ks
Mat rix
itch y
sun burn
bow ed
fat al
mad ly
tired ly
Co x
bur den
sal oon
sal iva
shut ter
De mo
lear ns
ib by
12 5
Ju mp
tun ed
Me th
Me yer
pot ted
six teen
alley way
comment ary
mir ac
proper ties
instru ct
instru cting
separ ation
pleas es
Car ib
Car rey
Andrew s
fu mes
bill board
reg ional
motion ing
post pon
uni formed
sum mon
Le go
cul vert
Sh ining
ais sance
information al
cast s
explo sive
zz led
rail way
Ind y
equ ipped
boss ed
cons istent
sty lish
bri be
heart broken
clou ded
Sc otch
ref ers
members hip
commun ist
tur ban
jam s
Te en
fro ze
trans plant
quart z
super natural
See med
stor ming
cru cial
len a
len ess
spl ashes
extra ordinarily
produ ces
coll ars
Po ison
forest ed
ram bun
dish onest
text books
den ies
French man
public ation
interrup tions
pas ting
relax ation
stran gling
25 th
Indian a
El m
pis s
tent ative
host ility
viol ated
Bu gs
disab ilities
Hill ston
waist line
shoe box
Fred die
Ye ller
ado re
respons ibilities
jour nals
emer ges
appre hend
adv ant
refriger ated
tan ning
sales men
em aciated
Sus se
seven th
mul ch
tar ant
tar gets
urin als
tip toe
conver se
Ma thew
trick le
Per forming
sequ ins
slam s
cord less
War ner
sweat shirts
squir ming
hh h
remark able
month ly
breathe d
200 1
200 2
trash y
trash cans
stal king
consider ation
teasing ly
occup ation
soap y
mob ster
Good bye
Man ager
inst in
dumb founded
cheer leading
Li qu
chop py
mal ic
cha ise
invest ment
dou che
fab ulous
RE PORT
AN S
pump s
tast y
content ed
web cam
cel ery
Chi hua
wrest led
TH AT
Cam bodia
Gu itar
IS M
IS T
survi vor
bloo m
witch craft
Ter min
iv ities
encourage s
determin ation
gymn ast
AT ED
request ing
function ing
Mean ing
dete ct
mut ters
fork lift
Ce ll
crou ching
sens ations
quiz zes
Fl ag
Fl ash
las ers
rec ited
Mor ton
lon gest
swir led
calcul us
calcul ate
Dick ie
hero es
commer cials
Ange ls
convention al
gor illas
Fox tel
lamp post
nine teen
explan ations
dep ended
nightmare s
whist led
whist les
deliber ate
Ad vice
owners hip
journal ist
critic izes
East man
East port
Whe don
decl are
disappro ves
execut ives
analy ze
joint ed
Sch ne
jer ks
conce aled
Met s
Nathan iel
broom stick
fest ive
fest ivities
Pro testant
Tues days
stir red
chand elier
volu mes
accur acy
symbol ism
dough nut
secure ly
caress ed
install ation
proced ures
Arab ian
ec stasy
prec ious
confess ed
Steven s
vibr ation
cooper ating
Kend ra
los ers
meas ures
reprimand ing
Mur ray
accus ation
congrat ulate
congrat ulations
ito us
apprehen sion
pred ic
Sur vey
Ve ter
photograp hers
stim ulate
gul p
improve ments
Under neath
cort isone
jig gle
wri ggle
AS SOCI
ET Y
LO VE
Isa ac
Isa ak
foo th
inqu ire
indign antly
scoot ed
Holl and
tin sel
bean bag
resign ation
Naz is
Sy l
pepper mint
consu me
consu lting
bedspread s
civili zation
acceler ate
Bas ket
Gee z
Strange ly
AC TERS
NA SA
biscu it
Brand y
Win frey
youth ful
Say s
Wi thin
resu med
clar inet
eyebr ow
principle s
Mil ton
fou led
passport s
behave s
ros se
plun ger
plun ged
tex tured
asc end
scur rying
oy sters
gir affe
groo med
tend ency
contem plate
nostal gia
ctic ut
Mik hail
grind ing
stradd ling
AA A
Scar y
elo pe
inc ensed
coax ed
stomp ed
NAR RATIVE
snoo ze
transm ission
Lauren s
preced ing
marvel ous
knick knacks
SF I
minim al
Olymp ic
sab er
mosqu itoes
gras ping
quant ities
achieve ment
cad aver
thir teen
poly ester
fron ting
fron tal
navig ate
Rox anne
magne ts
varn ish
defec ated
Brun swick
oct aves
rasp berries
rein force
politic ian
Metro polis
Ama zing
Cer tain
reced es
oblig ation
interven e
Boo mer
cav ity
speci mens
contribut e
facil itator
sympath ize
MI USA
Slo pe
mous y
illumin ated
skim ming
cuto ut
pione er
pione ers
Conne cticut
FE MAL
Sound s
Ven us
cant alou
anes thesia
appeti zers
massa ging
fati gues
DE LET
scaf folding
modif ied
manu facturing
pheas ant
champion ship
Muriel le
racquet ball
discipl ine
Cong ress
Fra gment
Gover nment
Lab rad
discre et
greed y
resour ces
snee ze
Linger man
nan ny
natured ly
thwart ed
lif es
thermo meter
carving s
interpre ting
laun ched
Bron co
Frustr ated
juni ors
lus cious
ograp hed
reclin er
onlook er
tuft s
Ark ansas
labyrin th
chipm unk
hypno sis
eloqu ent
teap ot
quie ter
Secre t
draper ies
pronunci ation
leprecha un
Gunn ar
Teach ing
Tob ias
Torch wood
inje ction
institut ional
Associ ation
resur re
surmis ed
counterfe it
quizz ically
inherit ance
Ranc her
Tupper ware
bung alow
dat abase
lana i
warr ant
premon ition
dishe veled
Atl antic
treacher ous
vocab ulary
Subur ban
opportun ities
CHAR ACTERS
Adel bert
Fars cape
Ply mouth
drow sy
kim ono
infu ri
oubted ly
adren al
opposit es
Intern ational
flacc id
rambun ctious
ASSOCI ATED
FEMAL E
DELET ED
! ?"
" :
% ,
( (
) "
2 10
2 pm
6 8
8 6
8 7
8 9
8 am
9 1
9 7
A V
A ven
A OL
B M
B is
B ic
B ark
B its
B aut
B ere
B arr
B ert
B _____
B apt
C J
C T
C i
C run
C ats
D ig
D even
D umb
D irk
E ls
E lena
F D
F in
F an
F if
F inal
F leis
G H
G age
G arr
G lor
H A
H amp
H itch
H ilda
H ulk
I vy
I ON
J O
J Q
J our
J ame
J ana
J ama
K K
K ap
K ong
K line
K IL
K rue
L am
L unch
L az
L ately
L odd
L odge
M t
M ind
M alley
M aced
N ame
N est
N apo
N BA
O live
P G
P is
P ur
P ig
P ie
P ors
P LE
R an
R ye
R ail
R CA
R ena
S P
S it
S ig
S mud
S crew
S chu
S lid
S DC
S crab
S ports
T ou
T ut
T up
T ex
T ess
T emp
T rail
T attoo
T MM
U C
U se
V K
V R
V as
V io
W H
W inter
W ash
W ife
W heat
W aves
Y ep
a a
b op
b roo
b ap
b au
b ies
b acter
b itors
b azaar
c s
c ated
c cas
d ine
d les
d oom
d inky
f man
f att
f arts
f ranch
g t
g id
g ird
g ically
h t
h an
h are
h ans
h attan
i ping
k its
k ines
k ville
l ust
l ung
l agged
m me
m ated
m ash
m utter
m owed
m ummy
n oodle
n agging
o ars
p rank
r ates
s ir
s ins
s ash
s ighed
s assy
t rest
t aps
t rolling
t lene
u ating
u ding
v u
v ou
v ance
v aged
v ista
w w
w ars
w ages
w add
w itty
x mas
he a
he red
he ctic
in set
in um
in fat
in sol
in expensive
in finite
in ability
in habit
in capable
in stein
in cub
an ine
re pro
re cre
re vers
re appeared
re fre
re built
re els
re decorated
re treated
ing o
th aw
th ical
th rees
as ive
me zz
on er
ed its
is tor
ar ish
or i
en thr
en act
en vision
en amel
se ized
le ting
le vers
le ston
le ashes
le vard
st ance
st inking
st ats
we y
we ss
ad ds
ad hesive
ow ls
id ling
so mber
so bs
be half
be loved
be eping
ac ute
The ater
ay a
ve ggie
ic ons
ic kest
out standing
out raged
ge ck
ge latin
li vid
go ss
go bl
go thic
with drew
with draws
ro cked
am i
ch is
ch asm
ch rome
wh ine
ir dre
up scale
for giving
ab und
ab led
ot ted
co er
co bble
hi l
do cking
do gged
sa ils
ent in
ent ice
ent angled
pe st
pe ers
pe ster
pe ppers
ca thed
ur ged
ur ging
mo d
mo is
mo lar
mo cks
mo bs
mo ccas
like wise
un ner
un seen
un fold
un important
un painted
un attractive
un marked
un folding
un cooperative
man e
ti ves
ti zed
tr ical
tr aces
He lo
He ights
sh rink
sh itty
We ek
We iss
ind is
ind ist
art sy
loo m
loo t
loo ming
ant ics
ant ino
end ure
ound er
not ing
roo med
room ies
back door
ra zz
bo ister
de fin
de fect
de cap
de pressing
rom ptu
ho vah
ap ol
ard on
gu ided
gu ndy
po x
po ign
gr ue
con ju
con torted
con fronting
wal leye
et ic
car bure
car riages
no ble
no stri
wor ding
house mother
red headed
over time
over look
over board
su ffe
ex cre
ex posure
can ister
il ted
il legally
sto ves
sto ically
ig i
don ated
qu ire
qu ail
qu ilts
qu ickest
start er
start les
come t
So ld
sp ers
sp ong
sp ied
ul u
ul tra
any place
irl ine
che mist
bl ended
bl adder
cl ings
My space
com miser
two s
ran ce
ran ging
pre jud
pre dominant
tu mor
tu ition
tu bing
tu gging
tu ously
sm g
sm ud
pro cr
pro phe
pro stitution
pro visions
pro wess
sc orn
has h
old ish
play room
play list
saw s
stu mbles
au tom
br ac
br andy
kind ness
thought ful
int s
int ensive
dis se
dis put
dis pose
dis charge
dis regard
hand out
long ingly
fore igner
school room
ble ak
cle ans
water proof
small mouth
pr am
head light
head master
ru th
ru by
ru mm
ru mbling
light en
light ened
im mi
im moral
im mortal
work book
sort a
will ingly
ish ly
jo st
jo you
jo ck
need y
hu e
may onna
stre aked
fere nces
ple s
ple asing
ple ads
ps ies
wind ed
ars on
boo gie
floor boards
att ribut
bet ting
par ake
par ading
comp let
comp ressed
ste w
ste en
ste ered
ste aks
ste aming
cor respond
than king
window ed
Ch ican
Ch ats
hat ched
In cidentally
sur plus
sur geon
aw ns
happen ings
les ar
cre amer
cre amy
mer ged
ves sels
sk idd
sk ier
sk ids
father ly
na val
ob tr
imp ending
imp resses
imp romptu
ju ices
ju icy
fl aw
fl unk
fl inch
shop pers
cur t
gl or
gl ist
gl amorous
gl amour
vis ed
sleep er
cli ppers
cli max
kid die
ev apor
hur l
hur ling
sl ash
sl ashed
love seat
ped dling
ped iat
sex es
seat belt
book ie
book cases
tri via
ear ned
ele cted
care taker
fun gus
chair lift
cr amps
ton ic
lay ed
lay ered
nu dged
gg ies
gg ae
squ arish
bar rack
ted ious
cat ac
cat chers
du des
inv o
inv ading
aut umn
whole some
hal t
kitchen s
quest s
od ist
far ms
Char leston
cour thouse
emb lem
live stock
mus sed
All ie
sound ly
sn ag
rain storm
Al ma
contin ent
police woman
colle ctor
cu bs
ster ile
ster dam
arr ing
met icul
How ie
char ms
Mar cy
Mar iah
Mar garita
por tr
ber th
nie st
throw er
Se aside
pen thouse
Cal c
cal ves
cal ico
lin a
ced es
Fran ces
ail ment
Well ington
pet ite
ring er
fle shy
sub m
sub scri
Ho mer
Ho gan
ever green
cas hed
cas kets
St up
St ash
bas in
free ing
Ro slin
Ar ri
Ar ty
19 00
19 30
fing ering
ili es
shel tered
For ward
For kville
fit ness
exp lored
college s
20 s
Mo by
exam ines
war ped
Co ca
bur gundy
wel fare
De li
De lores
De wey
De irdre
rece ives
bra very
bra ided
organ ic
organ ist
trave ler
BL E
bird cage
var sity
expe lled
gram s
sky line
bul ging
Th inking
Me ad
Me et
Thou sands
stair ways
secre tive
instru mental
craw ly
sou ri
sou ls
nur sed
nur turing
emplo yers
cool ing
Je mma
Je hovah
bill fold
bill boards
cook out
post man
cry ptic
sne ering
Le opard
Sh ane
attack er
tight ened
que er
Col a
relie ve
consc ient
finger nails
finger tips
lu de
lu ms
spir als
argu ments
commun al
plat inum
tur tlene
chat ter
trans late
trans formation
ific ant
blon dish
entran ced
Sand ie
cow ard
super man
Nor way
fas test
publ ish
gay s
spl end
summer time
produ cing
assu mp
Po lar
prom ising
stupid ity
West portr
auto s
comb ining
design ated
dish ing
counsel ed
den ying
ga ily
non commit
non descript
rot ate
news room
public ity
relax es
pit iful
Ed gar
si bling
pin ning
meaning less
tran qu
El mo
El ana
mill i
pal ms
har vest
slo p
result ed
constru ct
viol ins
rich ly
def ends
app arel
feed s
Gre ase
Gre gg
Cor ps
Cor vette
Wal ked
dig s
dig it
creep s
thro ats
Hill s
Or ville
purpose fully
harm ing
div ider
Ye llow
gig gles
resc uing
luck ily
sched ules
assist ants
priest ess
smoo thed
flash lights
chie fly
deck er
rele vant
lor ds
Am sterdam
termin ated
em bossed
medic ations
Ex act
Ex press
butter scotch
Che mistry
travel ers
Lo ck
rat ty
straw s
bathtub s
Pal ider
squir ms
access ibility
200 3
200 6
president ial
consider ate
Qu entin
brief s
envelo ped
mob ility
float ation
skill ful
Man hattan
Red wood
Red ford
Sil ence
hon ked
ino genic
register s
Satur days
trap door
exhi bitors
invest ed
stock taking
pad dock
AN G
pump ed
bene ficial
refle ctions
pel lets
thumb tacks
pursu ers
incred ulous
confident ial
Par ade
Ber mud
bound ary
Gr ay
80 s
pend ant
Mean time
dete cted
Phi lipp
Ce cilia
panel ed
powder y
Fl int
joy stick
Space y
nodd ing
phi es
scan tily
Tru man
calcul ated
padd les
monitor s
Hel ping
artist ically
pos session
truth fully
bust er
sew ers
aggress ion
altern ated
altern ating
CH S
mood s
Ko lesar
ON ISM
Won kers
shove ls
valley s
leaf ing
sour ces
East wood
ano rex
deter gent
thes izer
drill s
sprink le
sprink ling
Fre sh
Pu b
mold s
buck led
Wednes days
Tr ina
shack le
Beck er
lee ches
saving s
greeting s
award ed
weal th
inspe ctor
insult s
honor able
murde rers
cany ons
Ver ity
prec ision
proje cting
athlet es
pops icle
Emer son
blast ed
compli ments
mu cus
reci pes
meas ured
adop t
reprimand s
gam ble
national ity
Gl ass
Ser iously
Whit ney
recommend ation
cris py
approxim ate
eyel id
eyel ash
Wonder ful
squirt s
Brend an
Hay leigh
Turn s
Turn ed
hing ed
penetr ated
orna mental
maintain ing
Du ke
refresh ment
protru des
Dam on
Les b
Van essa
circum ference
kidnap pers
kidnap ping
philoso ph
Pi ven
coordin ating
spat ial
landsca ped
Squ ir
Tri ton
portal s
supervis ors
harmon izing
weigh s
syn thesizer
reminis ce
Brand on
virgin ity
provo ked
receipt s
Wi i
Wi atrak
baw ling
applau ds
fund a
escort ed
Der rick
Mis souri
Oly phant
bid ding
gal a
humming bird
BB Q
Sn oop
Vis it
bould er
xx xx
whack o
cavern ous
uncertain ty
opard y
prope lled
shr ine
Des mond
EE P
Fro g
recru iting
thie ves
perm its
strict ly
Sophi e
liber al
det ention
corpor ate
barber shop
stradd led
Roy ale
prompt ly
twir l
twir ling
Spring steen
Cass ie
Ni agara
Ton ight
beck oned
extr av
presu med
dynam ic
Tam my
Watch ing
bearing s
disagree able
Beaut y
SV SDC
excl aims
tuxed os
snat ches
Rome o
Loren z
Cher ry
Ever green
Power Point
Sun shine
crun ch
sab ot
halluc inogenic
swarm ing
Cele br
Phill ips
Sa ved
refere n
navig ating
involve ment
Memor y
privile ged
BC B
Wild er
dar ned
rehab il
uns cathed
unra veling
Dec ide
Whoo pie
mim ing
nib ble
eval uation
vibra tors
slither ing
Gy m
Tran sit
WA Y
suf foc
bless ing
speci men
blos so
Nu mber
Pap pas
Penn sylvan
exception ally
careless ness
marshm allow
citiz ens
aer ob
jut ting
tamp on
tamp ons
depic ted
CHR ONISM
stereoty pe
SOCI ETY
Aust ria
rebell ious
stam mered
swee theart
Turk ish
provocat ive
provocat ively
regul ations
ici ency
scuff le
insign ificant
knuck les
Boot sie
Sale ms
mund ane
ligh thouse
rai rie
conspir acy
imperson al
apocaly pse
humili ated
rhines tones
Jav ier
Lear ning
Sug ar
dum mies
engulf ed
trin kets
insen sitive
Toy ota
Geor gia
cosmet ic
acrobat ic
FI RE
Jer sey
dand ruff
gloss y
coco a
brist les
discard ed
Inte resting
Lem mon
Spider man
ANA CHRONISM
Communic ations
phenomen on
semicir cle
Eth ics
Hou ston
Moo re
jun ction
sca ven
intru der
somersa ult
scraw ny
Inv ader
Anno yed
juven ile
config uration
messa ged
Imag ine
Kau fman
Lim its
Mun son
Stall ed
Vac ation
etern ity
aller gy
neu ro
affl iction
brisk ly
Marc ie
negli gee
Reyna ult
indec ision
ambigu ous
dicta tor
Enterpris e
chauffe ur
CRE ATIVE
Estim ated
Hundred s
Patt inson
Prim ary
lous y
waff les
engra ved
amoe ba
opti mist
trag ic
ruck us
flam boy
curren cy
subdu ed
Meth odist
Carib bean
advant ages
Chihua hua
Schne ider
Veter ans
Basket ball
resurre cted
Baut sch
Crun ch
Fleis chman
Hamp ton
Jame son
Lodd ie
Maced on
Napo leon
Pie ces
Pors che
Rail road
Smud gy
Slid ers
Scrab ble
bau m
hare m
recre ational
mezz anine
enthr alled
goss iping
indist inct
boister ous
grue some
carbure tor
suffe red
procr ast
mayonna ise
Chican o
Chats worth
skidd ed
turtlene ck
noncommit tal
Pennsylvan ia
* .
. ;
. ?
. ),
3 50
3 1st
7 pm
? ?"
? !'
A 1
A Y
A k
A very
A ry
A head
A va
A ero
A rena
B i
B al
B roo
B right
B ale
B la
B rain
B ah
B aker
C Y
C and
C ab
C ave
C ran
C ob
C ute
C leaning
C ron
C uckoo
D D
D il
D air
D est
D raw
D ane
D har
D rug
E if
E ight
E ye
E din
E van
E vil
E pis
F A
F M
F en
F ut
F ant
F ru
F oot
F rit
G il
G io
G abby
G uns
H ap
H az
H iding
H onda
I Q
I so
I ke
I van
J a
J ol
J ai
K ry
K irst
K nox
L S
L Z
L ow
L ot
L ent
L ies
L ions
L ila
L iter
M ale
M ia
M arri
M ered
M ali
M AN
M AR
N am
N es
N ations
N inh
O B
O il
O val
P H
P all
P ound
P il
P ool
P arent
P aff
P ushing
P arsons
R C
R ab
R oc
R oose
S ti
S ong
S ign
S ear
S ier
S cream
S pee
S witch
S cient
S torm
T E
T we
T all
T any
T au
T oot
T ele
T hus
T ere
T aco
T ela
U E
V C
V o
V ie
V ul
V old
V oy
W ool
W ist
W AS
W olf
X i
X and
Y ale
Y ank
Y vonne
Y ahoo
Z one
b ib
b ender
b achelor
c ly
c turn
c ider
c unning
d ul
d ale
d ink
d ank
d illy
d aisies
e ll
e els
f en
f actu
f ax
f usion
f aked
f azed
f izz
f awn
f idget
g ance
g het
g gered
h acking
i ard
j or
j ay
k inky
k iosk
l am
l ma
l acking
l hans
m ium
n as
n igger
o ke
o bed
p out
p ent
p ice
p um
p aces
p raised
p ounce
p oodles
r uts
s burg
t ad
t us
t ment
t ts
t ending
t ends
t rot
v ian
v ows
v owed
v odka
w y
w ack
w ist
y am
y el
z uel
he e
he ment
he ms
in ate
in fin
in mates
in firm
in advert
in arian
in convenient
in wardly
an za
the ories
re ed
re new
re pt
re build
re building
re vel
re vision
re ctu
re plic
re gress
re inde
re attach
re buff
re production
re mn
re assures
re ggae
to mo
to col
th used
th ol
as te
as ers
as hore
me ld
me rized
on ies
on ial
at ri
er ta
ed ged
it us
al ge
al um
al monds
is en
ar an
ar mp
ar ians
or b
en ix
en za
en thused
se c
le ine
st if
st aking
st ics
st rides
st uttering
id ian
id ery
so ar
so res
be c
be sto
be ak
be wild
ac a
ac ne
ac ie
ac custo
ac tiveness
The lma
ke el
ve lt
ve ts
ve hement
ic kered
out board
li po
li est
li ev
go ble
ro iling
ro thed
ro dents
am an
ch ic
ch ants
ch inese
wh ir
up roar
ly ard
for wards
for ties
ab ama
ab normally
ab ilia
but ch
co ons
co smos
ne cking
ha pha
hi ked
there by
do cked
do ilies
sa un
sa una
ent ity
us on
us que
pe aked
ca ved
ca ffe
ur ges
mo at
mo ons
lo de
un interesting
un invited
un protected
un shaven
un reliable
un obtr
get ically
op ed
op press
op hone
man made
man ure
man ife
man ila
man icu
she y
she ars
pl aqu
pl ums
whe e
tr and
tr act
tr ashed
He ad
He ath
He avy
He brew
He igl
art ic
te ary
ter a
end ers
end anger
end lessly
his t
roo ge
ce ans
ra king
ra fting
bo g
bo mber
nt able
de lin
de fle
de em
el f
did dled
use tts
down stream
ho ls
ho lly
mb all
gu ed
gu ms
gu lls
gu mball
po ofy
gr its
gr ants
con co
con qu
con tor
con sequence
con fet
con ferences
et a
et ched
car cass
where by
who a
ag ar
off line
red one
red necks
over s
over turned
over lap
over due
over hears
by es
ex or
ex ited
ex plic
can es
can ning
." ...
ck led
ass ing
sit ter
qu icks
ice berg
pp i
sp ade
sp inal
sp urt
sp rained
sp ooks
ks on
che ers
girl ish
bl aring
bl ink
when ce
ach usetts
med itate
cl amps
cl uster
cl amber
com bo
com pose
com mode
com posing
real ise
bu mble
bu dding
ran king
ran ks
pre st
tu ber
tu mbled
tu mbling
sm irk
pro b
pro ven
pro ves
pro tocol
part icles
sc ow
old ies
ven e
stu bs
take away
fr ing
fr own
dri ps
dri lled
home room
home coming
di arr
di pping
di aph
br al
br id
br ic
br usque
tor turing
tor pedo
dis su
dis cer
dis posed
dis satisfied
dis jointed
hand shake
read ings
ff ant
und oubtedly
ang ers
per vert
per ipher
pr u
show case
ta ut
ta unt
uch o
ru mble
tow ers
im al
im posed
pic s
pic ket
-- '
Mom my
ma i
under way
under pass
jo lt
jo ker
ph leg
But ter
fin ale
wind screen
wind mill
dd led
res ched
night y
night stand
even ings
bus hel
bro thel
bet rothed
bit chy
well s
par ing
par is
par ado
ste amed
cor sage
sur rept
black top
person a
des ires
des igning
Now ak
grou chy
talk ie
arm ies
At le
mer maids
mar ches
mar chers
mar quee
ol in
min eral
min ium
imp le
imp ris
fl are
ci li
ci um
ci vic
face ti
cur r
cur y
cur bs
land mark
gl ory
cli mber
ev ading
hur led
sl ums
cut l
cut ive
fall out
ped op
ped ia
ped dle
je an
tri ggered
mon ks
mon ument
hot dogs
care lessly
band ed
fun niest
inter cept
inter mitt
sat ur
life less
nice st
din ks
tre ss
stru ct
sent enced
pick le
ling ering
train ees
mind ing
blue bird
might y
squ aw
bar bell
second ary
hill top
fire fighter
du o
du ke
clean up
dire c
hang out
hang man
la zily
green ery
gy psies
mat ured
four teen
ming le
pa using
mus cly
ces ses
kn aps
sn appy
lea ver
lea vers
Al ondra
Al abama
weird ly
pat ched
pat ties
pri m
eyes ight
colle ctions
gra ins
gra zing
gra pple
pay ments
Be er
Be es
Be aver
Mar ines
sy nes
sy ndrome
sen sing
mas quer
Bill ie
pan ics
cy cling
cy clone
cover t
swe ats
appro ved
cal cium
snow board
snow storm
snow boarding
snow plow
comple tion
present er
fly er
audi os
fac tors
recogn ised
Her shey
brown ie
begin ner
sub sided
sub division
cas tr
eng ages
cri pple
yellow s
mot if
mess enger
attr activeness
oc ul
free style
val et
val ves
val ence
Ro llie
Ro setti
Ar thrit
certain ty
recall ing
cold er
hy dro
Ne lly
hun ts
exp anded
cab s
touch y
bal es
mes merized
win ked
ef femin
20 th
py thon
leg end
Re ad
Re id
Re lie
Just ice
Grand mother
Grand mom
war med
Co mes
May or
ric sha
five s
bur ly
arch ing
fur y
question able
sal ute
hood lums
continu ity
power less
tw it
neck ties
cap tives
sky light
bul k
sick ness
Th ird
tun er
count down
flat ter
special ist
gas ped
Me yers
pot ion
week ends
vac ated
basket balls
pink ish
sol ving
fil my
fil ament
instru cts
Will ingham
mix es
Mic ah
cool ness
similar ly
Bo ss
ba thed
inform ally
bill owing
thick ness
soft ness
button ed
sus hi
lit tered
descri ptive
cul tiv
Sh ar
Ge ology
Ge offrey
tight rope
chest nut
prote cts
ban ners
zz ie
zz les
Bar rett
apolog ies
vol can
vol unt
add ict
plate au
mist re
Any body
Any ways
Rob erts
trail ed
finger prints
repe lled
sty rofoam
sty lized
Mc B
argu es
tur f
tur ntable
speed o
jam b
jam as
Te ars
Michael s
fro thy
trans vest
trans forming
Sand ler
mid gets
threat s
gif ted
sell er
pup s
vid ers
active ly
smoke stack
suc cu
cru mmy
publ ishing
summer s
assu mes
coll ie
stupid ly
Can ton
sque aked
ram shackle
auto mobiles
stro be
Pat ients
human e
Let ter
ret ards
ret iring
share s
club house
hip po
gri ms
gri pped
imag ery
bother some
pas try
pi geons
memor izing
perfor ms
pin o
star red
maid en
dia bet
pal let
pal lets
slo pp
rout ines
indic tment
Bu y
Bu ick
awaken s
By r
flower pots
Ru by
leng ths
Con n
Con cer
Con nor
soci ology
cro p
ado es
pil grim
crew s
Sunday s
vest s
Ear ly
une as
string er
suspic ions
tooth pick
tooth picks
flash backs
pig tails
Park er
River ton
breath s
poison ing
rele i
shallow s
em ort
urin ates
Rich ards
conver sed
respect able
Jan elle
Ma horn
Ma ori
weak er
Jen nings
Lo relei
spin ner
crit ters
crit ically
Fo re
blo bs
rode o
200 5
president s
stal ks
bull shit
matt ed
pon dered
plug ging
Ty rion
theat ers
theat res
occup y
occup ying
Part s
commit ting
Good will
Sil vio
deb ts
floo ds
hon k
ino is
robot ic
register ing
communic ations
Li ber
fail s
chop s
chop per
quarter back
major ly
resist ant
Ret a
adjust s
develo ps
stock take
scoo ting
appreci ating
cock tails
quet te
RE ALLY
sting ray
masturb ation
masturb ated
AN K
AN T
pump kins
multi purpose
condo minium
gener ated
Hu bert
social ize
acc uses
Betty e
cate red
fif ties
Gu idance
Kar ina
incred ulously
prevent s
Ber trand
jail er
dormi tories
Back country
Mass achusetts
Hi ro
muff led
protest s
Bro ken
Gr ass
Gr ade
Gr acie
desc ends
assemb ling
rend ering
progress ively
Cap ito
dete ctives
mut ually
wis dom
entertain ed
Cu ban
rever sing
shield s
blank ly
plot ted
Kat z
gle aming
________________ ____
________________ ______
________________ _____
________________ ___
inde terminate
behavi ors
contr adic
ridicul ed
accompl ices
Min i
las so
Hil ton
Mor ning
hab its
calcul ating
ejac ulated
Sto ck
Sto lhans
hero in
cam pers
outs ider
Ange lina
micro phones
incre ases
CH V
Off ic
wre cking
labe ling
psych other
bon fire
daw ns
dev iled
compe te
Brit ney
Sal t
Sal z
myster ies
spoon ful
Robin son
Str ug
Barry more
Ad venture
Was n
wag ged
leaf y
fond led
transp orting
critic ism
witness ing
zi ps
zi ppers
farmer s
Hun garian
snap shot
plo ps
analy zed
sprink led
mile age
Tr ade
sedu ctively
ST OP
sear ches
disgu ises
intrigu ing
glo b
helpless ness
Nic hols
arro gantly
Grey hound
jud gment
Bell a
disc s
homosexual s
homosexual ity
Mal achi
educ ated
mead ows
desp ise
vibr ated
Bay front
Ir v
Spr ite
femin inity
loaf ing
vul va
quad rant
Tar antino
groom ing
mole st
mole sted
elect rode
jack ed
hitch hiker
ito s
ske le
Start ing
eth ics
independ ently
applic ations
immense ly
parach uted
Gar net
penetr ation
rust ling
improve ment
bou ffant
wri thing
prov ides
prov iding
Hor se
LO T
betray ing
intim acy
inqu ired
acade my
coordin ate
coordin ated
novel ty
spat ula
banister s
accommo dating
Ric hie
seas hell
wigg led
pla que
obli ged
minded ly
harmon ica
initi ate
Dra ger
syn chron
reminis cing
settle ment
Cre agar
Win ston
Win chester
ema iling
Di ab
Di vision
Gal axy
Pic nic
accomplish ments
Clo thes
Fall ing
Ham let
Made leine
Play house
bio logical
gad gets
claw ing
integr ation
198 6
brilli antly
efficient ly
rag m
Sn at
Vis itor
asc ended
dread locks
Pep per
ono my
oppon ents
grape fruit
casset tes
groo ves
recru ited
toler ant
erup t
erup ting
Camp bell
Han cock
Sky walker
droo ling
beep ed
estab lished
animated ly
inc ense
beck ons
dynam ics
intimid ate
fierce ly
Open ing
Pers ian
gur ney
reassuring ly
contemp tuously
fling ing
slug gish
Should n
transm itted
Hol iday
obe yed
groan ed
Peru vian
vigor ous
diplo ma
promot ing
promot ed
Cli mb
Gard en
crun chy
fisher men
gras ped
hudd le
Publ isher
Bloo m
Bloo ming
Grad ually
mound s
retain er
distribut ed
varn ished
devast ating
Bow ie
Brun ero
Pass ing
Swed en
oct agon
ratt les
ratt ling
remorse ful
minnow s
architect ural
Euchar ist
Found ation
Field s
Gill en
lanter ns
vand al
tomb stone
rais in
evol ved
hearted ly
Jun gian
Know ing
faul ty
peep hole
shing les
nomin ate
assass ination
prospe cts
disorder ly
symboli ze
symboli zes
astronaut s
Clear ly
VER Y
pus sy
smir ks
souvenir s
elimin ating
pamph let
Imp ro
Lang ton
inhal ed
stitch ing
trau matic
indu ction
interse cted
fati gue
unemplo yment
Surpris ed
accommod ations
Lev i
Rad io
scaf fold
inspir ing
inspir ation
manu factu
antenna e
ende aring
fris ky
impul sively
Deep ak
gallop ing
pheas ants
Tan ita
Wat son
incorpor ate
retire ment
insign ia
submit ting
bulldo zer
Follow ing
**************************************************************** ****************************************************************
Republ ic
Map le
mache te
nin th
plas tered
guar ante
assort ment
menstru al
nause ated
Leigh ton
locomot ive
Dire ctor
Fle w
Ill inois
reun ited
conve yer
emphat ic
Neo pets
molecu les
vitam in
Mob ility
Wit ness
laming tons
tous led
moder ate
articul ate
exceed ingly
preci pice
diag nosed
imm une
mathemat ics
evac uated
victori ous
ponder ing
Schwar zenegger
recipro cate
arbitr ary
Cze ch
Domin ic
Hend erson
Mue se
Rand all
Wr iting
zig z
assess ment
myst ical
sax ophone
disconcer ted
squig gly
Monte ith
Clare nce
Admin istration
Electr ic
Further more
Kl owns
Pho enix
fug itive
hast en
incon gru
repl ica
coas tal
detain ed
conclu de
cance led
standoff ish
fulfill ment
hillbill y
luke warm
turbul ent
Spir it
sacri fic
Kne pper
Lit urgy
Sin atra
dazz ling
eup hor
gour met
hust le
schoo lyard
recept acle
gol fing
dehydr ated
undes irable
glac ier
catap ulted
intest ines
gargo yle
postpon ed
apprehend ed
Liqu or
Syl via
cantalou pe
Labrad or
discreet ly
infuri ated
adrenal ine
Aven ues
Dig ital
Garr ison
Hitch cock
Krue ger
bacter ia
franch ise
ht ml
trest le
infat uated
revers ible
refre shed
chis el
cobble stone
pester ing
mois ture
decap itated
spers ed
joyou s
Mead ow
splend id
Polar oid
Exact ly
Philipp ines
Lesb ian
Squir rel
optimist ic
flamboy ant
Eif fel
Epis cop
Foot ball
Frit z
Iso bel
Jol ene
Mered ith
Mali ka
Roose velt
Sier ra
Twe ety
Tany a
Tere sa
Vold emort
cturn al
zuel a
inadvert ently
rectu m
alge bra
bewild ered
accusto med
lipo suction
hapha zard
manicu red
plaqu es
delin qu
confet ti
quicks and
diarr hea
diaph ragm
phleg m
parado x
surrept it
impris oned
effemin ate
transvest ite
Stolhans ke
" /
$ .
' "
' ?
' ."
' ?"
' ].
( $
) ?"
. /
. ."
. ?"
2 80
3 am
3 000
4 WD
4 x4
6 pm
7 1
8 2
8 4
9 am
A J
A z
A ld
A way
A br
A von
A hhhh
B X
B ed
B le
B ir
B un
B ye
B read
B ish
B ak
B itch
B rush
B lan
B raz
B los
B ooks
B UT
B lizz
C op
C him
C ash
C rack
C athe
C OR
C VS
D oo
D ame
D ol
D um
D ise
D ouble
D inks
D iv
D aisies
E V
E c
E ff
E xt
E instein
E CHS
F U
F t
F is
F ass
F ool
F loyd
F erg
F lynn
G C
G ou
G able
G ins
G rail
H ood
H ook
H ilar
H EL
I Z
I ca
I ran
I ng
I RL
I zzie
J ed
J et
J udge
K al
K ro
K el
K no
K ink
K la
K az
K ier
K ris
K ory
K raft
L an
L ange
L anding
L ibby
M C
M ick
M ose
M idge
M ove
M ilt
M aren
M ona
M ID
M andy
M aze
N et
N ine
N iet
N ige
N PR
O O
O oo
O CA
P ab
P un
P ill
P ine
P ath
P ene
P ale
P rel
P unch
P ER
P enta
R B
R U
R Y
R ow
R ue
R each
R even
R ican
S X
S of
S au
S par
S cor
S av
S cho
S hip
S tern
S asha
S aving
S tones
S parks
S NOW
T C
T ill
T est
T rain
T ok
T ud
T ai
T iff
T orn
T RE
T IM
T EL
T wee
U D
V P
V es
V era
V HS
W N
W ing
W op
W arm
W itch
W CA
W IN
W iki
X L
Y an
Y oland
Y WCA
Z ep
Z ander
[ ?]
] '.
a es
a iling
a ids
b atch
b ather
b aff
b atted
c ased
c ots
c chi
c ational
d f
d ood
d ens
d uration
e z
e ag
f ft
f um
f using
f ader
g ated
g ene
g az
g mental
g enders
h s
h rs
h icks
i bu
i ums
j illo
k l
k at
k ale
k nights
l ag
l ice
l air
l ull
l ending
l ashed
l ashes
m ish
m stead
m ugs
n oose
o ck
o graphy
o ceans
p all
p one
p ite
p ist
p has
p its
p inches
p ita
p df
p fft
s sh
s log
s ica
s ives
s burgh
t we
t ir
t ta
t ish
t ink
t angle
t arts
t reads
t rotted
u b
v ace
v ently
v ats
w edges
w added
y ah
y awning
z el
z uc
z sche
he ir
in is
in und
in sure
in os
in crimin
in hab
in accessible
in convenience
in accurate
in visibility
the ad
re med
re ma
re store
re watching
re living
re gn
re married
re cup
re cap
re setting
re charge
re venue
re painted
re pressed
re consider
re organizing
re sear
re organize
re treating
re treats
re productive
re deem
and ering
to graphs
ing en
th ood
th irst
th ud
th anded
as ant
as ms
as besto
me e
me ager
me lan
ou l
ou thouse
on de
on going
on ents
er als
er ina
er rat
er aser
ed ible
ed itors
it able
it ively
al as
al leg
is here
is ton
is si
is itive
ar cher
ar till
or se
or ang
or ah
en large
en berg
en zie
en cased
se ers
se ize
se vent
le ck
st ark
st ating
st ash
st ashed
st raining
st inks
st agger
id oscope
so d
so hn
so aks
be amed
ac ist
ac cost
oo ked
oo zing
The r
ke l
ke es
ve rend
ve ggies
ic hed
ic ule
ut ers
ll ite
ll ies
wi eld
out ward
out burst
ge aring
gh urt
li bbed
ro it
ro ped
ver ance
ver anda
am n
am as
am am
am bass
ch ow
ch ins
es is
ir y
ir rig
ly sm
for gets
for tress
ab us
ab bre
ab du
ab using
co ve
co lo
co bra
co iled
ne led
ha ke
ha gg
ha irline
hi theater
ent ious
ent win
ent icing
ent iced
her bal
her nal
fe ction
us hers
us sels
pe at
pe lin
ca u
ca jo
ur ous
ur ban
mo th
mo il
mo ans
lo d
un ru
un made
un ending
un rolling
un bear
un impressed
un buttons
un professional
un settled
un balanced
un knowingly
un suspecting
op ted
op hy
man ly
man ners
man sions
man tel
ti a
ti go
ti ff
ti lts
pl ated
pl uck
tr ict
He ard
sh rub
sh rank
We ight
art ery
loo ting
ant um
ant ler
te qu
ter ian
roo ted
roo ster
ra pper
bo di
bo dice
way ward
de ft
de ton
de leting
el ite
el sohn
you ths
ho of
ho ist
ho led
ho vers
ho ax
ap rons
going s
dre aded
She ets
gu el
po lo
po mp
po ser
po ached
po tho
gr aciously
con not
con vert
con glo
wal rus
car ve
who res
who les
no cturnal
off s
house work
house keeping
ate llite
mp tuous
over take
over seeing
over hanging
over shoes
by terian
ex ert
can v
il ot
il ation
il ani
ep rint
sto ked
ig er
sit ivity
time d
time y
tal ion
ice box
our ing
start le
pp s
sp ared
sp ilt
sp asm
sp ooked
ul ts
fo aming
che e
che mis
che esy
ment ine
bl and
bl ushed
bl aded
thr ashing
med al
ry o
cl unk
cl ists
cl amped
My Space
com men
com poser
pre cautions
tu g
tu mb
sm ushed
pro tr
part ing
part way
part ake
sc ut
af ire
new sa
stu bble
take off
fr iction
dri es
dri lling
dri zz
dri ppy
home y
au gh
di an
di ther
di version
di viders
br ittle
br ute
ame thy
kind ling
run away
dis pers
dis used
dis covers
dis mal
dis grunt
xt apo
lot us
water way
wa iling
wa ists
per ky
pr ick
dec re
dec ade
head set
fi ery
fi bers
set tles
ta unts
ta kers
im it
im mob
im itated
im itate
im itating
good y
work bench
-- "
flo pped
will ed
ma ul
ma zes
ma hog
dif fered
under going
under shirt
under lined
under taker
hen chman
jo key
won dr
build up
rest ful
ple ated
der mic
der ived
ps ich
boo ing
boo by
boo ming
boo ties
ner ds
dd ed
watch man
pers pe
pers isted
par quet
comp onents
ste th
ste amers
cor r
cor ral
cor dial
.. .)
Ch in
Ch al
Ch ant
hat ches
In vas
In ishere
ans on
ak in
sur fer
black berries
black smith
An ti
An ton
lad le
des pon
cre vice
cont ag
At tack
mer c
mer cy
mar veled
mar gins
ol ulu
ister ia
three some
hold up
min k
na pe
store front
imp aired
imp regn
est im
ten th
ju ggle
ju xtapo
fl ask
fl oun
fl utter
fl aws
fl ares
ball erina
shop ped
pret entious
face less
cur vace
land marks
land lords
hard ened
gl itch
vis ing
vis cous
cli mate
kid neys
ger t
ev illy
ev asive
hur ries
ason s
sl at
step brother
pass ively
ink le
je ering
je ctive
drive ways
rel ay
rel ish
tri fle
hot ter
wood shed
hear th
rid ers
rid ges
rid icu
rid icule
Jo lie
inter change
inter val
inter actions
inter lude
inter spersed
cr ater
ton ed
anc ay
No on
bor o
bor dered
line up
sha ker
din ette
mor tified
sent iment
pick y
gg an
gg ers
gg led
range s
bag gie
bar re
bar red
bar ged
bar ret
icul um
cat walk
emp eror
gun man
gun ner
fire fighting
str ut
str ide
key boards
hal o
od ine
dr astic
la menting
sw ish
sw amps
sw oops
sw atter
mat ive
Af ro
Af raid
emb ar
emb ryo
dent ed
dent ures
pa ving
pho sp
hus hed
kn ack
test icles
sn out
sn ugly
sn icker
Al ber
pat ent
cu es
cu cumber
unt angled
unt idy
met ro
conf esses
pay check
break ers
park a
Be ard
Be et
Be ars
Be cca
Mar v
Mar x
Mar isa
10 2
10 4
10 pm
10 5th
spit als
ber ate
mas cot
gar ments
vo lts
TV s
Mary land
cal ms
Dar la
fill ings
snow man
lin king
sad istic
tic oat
Fran ks
ail s
fly ers
fly wheel
audi ble
Well ing
vi ed
vi et
vi bes
fix ings
pet ticoat
ane c
view finder
brown s
brown ed
fle es
check ers
sub due
sub scription
sub titles
sand stone
press ured
St aff
camp used
mot tled
cir cul
free zers
Ro th
Ro ses
Ro oney
Ro cks
Ro lls
19 39
19 79
card inal
story book
spot lights
mouth piece
hy dra
ili zed
fit test
touch down
John nie
win es
sun ning
sun roof
cup ped
Su cre
straight ener
py jamas
bow ing
horse shoe
grand child
grand son
poss um
Re search
Re ading
Re ader
Re minded
Re minds
Mo ments
Mo vies
Mo hawk
exam iner
fer ty
fer tili
fer vently
Grand daddy
war p
ric ks
bur row
aff es
smo ck
De ena
naked ness
remind er
organ isms
organ isation
power fully
tw ister
tw inge
graph ical
known st
cap tors
gro tes
Fe w
Fe li
Fe llow
sky diving
fine st
Ju dd
sick le
tape st
eye glasses
stri pper
scar red
scar iest
hell a
tun ic
tele kines
grad er
grad ed
pot luck
offic i
vac antly
sol ic
glad ly
steep le
dam ned
ax is
ax le
spo of
spo kes
os is
Car p
Car thy
gather ings
Bo one
secret arial
radio active
ba be
quiet s
Feel s
fu zz
Je ll
Je llo
oh ler
hope lessly
shape ly
fra gr
motor s
ham s
uni versal
drop off
mater nity
Le ap
Le ague
Le ilani
11 am
bank er
bank rupt
cul tures
Col by
ris ers
ris ks
chest ed
explo rer
explo sives
load er
va e
Bar ack
Dr ama
Ind e
equ ation
mist aking
spr out
Not re
lu res
sty led
stem med
heart beat
Sc enic
Sc rooge
spir aling
Mc Atle
Mc Carthy
rep ent
Lu ci
Lu igi
tur b
tur moil
speed boat
paint brush
lan na
plant er
Te lling
trans former
trans istor
super intend
super ficial
sme ar
enn ium
loc ust
loc ating
psy chop
mid term
rious ly
40 th
Wh ale
bell ies
mode m
airport s
sport y
electr ons
Chris tie
chance l
distr ust
spl inters
fright ens
penis es
199 9
beginning s
stup or
Po or
Po well
Go thic
wing ed
Mon do
human ities
acqu ire
agon izing
blind folded
text s
obser ves
obser vations
farm land
correct s
Sp angled
rot ated
gri pping
gri lled
iron ed
Are qui
mand ala
pit ied
Ed dy
purple s
pillow case
memor abilia
pin ching
star ving
star ved
tent acle
tles on
cave men
har ried
har psich
material ized
avoid s
Bl onde
stab ility
torn ados
ount y
app end
record ers
feed er
scri bbled
sandw iched
Cor rine
dig its
Dre amer
leng thy
court ship
Er ick
west ward
waist band
Con rad
Con ference
treat ments
Or der
Or gan
Sup reme
process ed
gig gly
sched uling
ID E
vest ibu
une thical
pun y
squee zes
River side
arrange s
period ically
Dream ing
celebr ated
grown ups
south west
termin ator
em bodied
tas sel
Ex posure
cere bral
Br ussels
Che f
Che ers
Che ese
alco ves
speech less
Jay den
Brad en
adm its
Per former
Lo ving
sequ ent
Que bec
crit i
piz zer
Pal ace
Ray a
vic iously
tech nically
dump s
dump y
asy lum
hook ers
200 4
zer os
guitar ist
stal ked
Qu antum
pon ies
pon cho
wit z
coach ing
maj est
aver ted
isting u
skill ed
proceed ing
proceed ings
Com mand
Ti mber
hon king
Dis ch
Dis abled
Dis trict
abor tions
Gran ger
develo per
scoo ters
Miss issi
associ ates
pad lock
tit led
zoo m
gener ate
gener ations
pel let
web sites
Sim mons
aqu atic
thumb nail
Cam ilia
Gu ide
Gu iding
bubble gum
confident ly
Par tridge
South west
Ber le
Ber tha
pou ches
passage ways
US E
bloo pers
bloo died
suck ers
streng then
muff ler
season s
smart er
reve als
Har lem
bug le
cartoon ish
Sure ly
dete ctor
wis er
Ca pe
wed ged
irrit ating
investig ator
Lor na
gle e
Fl ounder
contr acts
clut ching
grave yard
Min nie
document ation
Jon as
chin i
bay s
rac coons
Tru m
Tru jillo
lon er
lav atory
resent s
calcul ations
ejac ulates
seed y
backpack s
organiz ations
flag pole
Mid ler
None theless
bust ers
poo rer
sew age
chuck ling
raz ors
command ing
remote ly
intimate ly
.' "
Lon gh
million aire
ON G
specif ics
Won dered
nest s
dev ot
Sal go
Sal es
spoon ing
Mac L
gap ing
revol ved
leaf s
jelly beans
drum ming
vom its
whirl wind
ruff le
transp ired
jeep s
zi pping
admin ister
intri gue
snap shots
Lau rence
plo y
stress ing
conce iv
conce ptu
!! !
yo ghurt
attach ments
Cha plin
Wood side
wrink le
DVD s
chand eli
unconscious ly
todd lers
confl icted
Brown ie
idi ots
tram pled
jud gmental
symbol ically
vot es
advis ing
Ali yah
EN NA
sac red
confir ms
vibr ant
vibr ate
Son ny
swell s
Gen esis
ox ide
thunder ing
quot ing
dun no
mole sting
ampli fi
Den ver
Gl enda
Mur loc
Ser vices
aston ishment
Bel zer
conspicu ously
pred ict
itter ing
swer ves
Call ie
Hay es
Hay den
Pres byterian
Rod man
Turn er
Ve gemite
dang ers
hing e
bik ers
bik inis
lamps had
insu la
stim ul
maintain ed
convenient ly
bou levard
bree zy
wri the
wri ggles
protru ded
Gra ins
LO W
semin ars
betray al
visual ized
burglar s
Isa iah
Ri ker
inqu iring
inqu isitive
affect s
Mont real
mac ho
nick ers
achi eved
coordin ates
psychiat ric
Ele ven
Mi key
Mi guel
civili ans
initi ation
initi ative
Dra gon
Put ting
mort gage
corre ction
corre cting
Alask an
syn c
Cho sica
Ol mstead
sill iness
illustr ate
handic ap
Cle mentine
clue less
Mu lder
Sel leck
chap ters
invent ions
method ically
Ban ner
Ham ms
Mountain s
Sk ye
Sk inner
integr ated
Mari yam
Cra zy
Ku brick
Mis sion
OL D
dart ed
exper ts
mistaken ly
Fer n
Vis iting
veter inary
veter inarian
prope llers
scur ries
pedest al
duplic ated
duplic ates
Pen ney
craz iest
disapproving ly
Mars ha
Op posite
mour n
assa ulted
erup tion
trum pets
flex ing
Isra eli
econom ical
reck less
reck oned
gran ny
consult ants
blu eprint
parap hernal
stradd le
195 9
twir ls
Spring field
Rain a
Rain n
Rain bow
echo ing
echo ey
angu ished
plu mber
plu mes
disrup ting
disrup tion
disrup tive
Suz ie
appli ance
Jacob s
breeze way
Mau i
Ta vern
VI ENNA
hass ling
seam stress
Wel ters
dialo g
obje ctive
rainbow s
Corn flakes
dit ches
scree ched
groan ing
Shakespeare an
BA BY
Mack enzie
Pitt sburgh
diplo matic
hypo critical
hypo dermic
Clar ke
Hold ing
Thu mb
absor b
affir ming
affir mative
sharpen er
Math ias
retain ing
negoti ating
poly graph
cleare st
distribut e
Rox anna
varn ishing
Nan ny
batt ling
rou gher
recon cile
advent urous
beast s
unra vel
unra veled
antagon ize
spi ked
expans ion
Dec ided
dict ating
nib bles
rant ing
thump ing
whoo sh
stoop ed
oblig ated
snug gle
Columb us
refuge es
reimbur sed
Edu cational
Free man
Gri mson
Hon olulu
Mah one
Tow ard
Tran s
Wright son
ko ala
rev ving
adap tor
whiz zing
teles co
spur ts
pharm acist
embro idery
sprint ed
blos som
Flying Squirrel
NE W
Pap pie
dwell ing
inher ited
beet les
indul gently
smir ked
cuto uts
twitch ing
transl ating
Conne ll
Quin lan
exasper ation
pulley s
elimin ate
Kn ife
Ren aissance
Ven ice
aer ial
tac os
repet ition
repet itive
unbutton ed
trau ma
carn ation
spike s
tortill as
cruc ified
CHR IST
stereoty pical
Surpris ingly
Aust ri
Smo key
bash ful
tact ics
manuscript s
blunt ly
rumor s
hump ing
compens ate
compens ation
impul se
format ting
sophomore s
Gover nor
Grab ar
Rae gen
Sleep ing
chlor ophy
plac enta
resour ce
slou ched
musk ie
knuck le
motiv ation
multip lied
malfunction ing
geome try
geome tric
Cus ack
dwarf s
pals y
tread mill
inh ale
theart ed
ligh thearted
plas ma
torrent s
prow ling
restric ted
Reg ina
apocaly ptic
rhines tone
locomot ives
Bor is
Base ball
Die go
Gree ks
Gru rie
Mould er
intu itively
chaper ones
sling shot
emphat ically
exhilar ated
fantas ies
molecu le
vitam ins
Chip ka
reject s
sta pled
stag gered
godd amn
foss il
foss ils
blister s
menacing ly
perpe tr
perpe tu
compre hen
compre hend
Bea vis
tempt ation
captiv ity
competi tor
competi tors
parapsycho logical
Det roit
Nad ner
OF F
Person al
fain ting
iche ver
teas po
carol s
spon ges
spraw ling
clen ched
brut ally
prong ed
Bever ly
burri tos
Friend ly
Pipp in
chimpanze e
Ai mee
Laf ferty
Mend elsohn
Maur y
Oper a
Vene zuela
meek ly
levit ate
amid st
unbe liev
turnst ile
scall oped
substitut ed
Poe try
videotap ed
Cry stal
Flo rence
Jab ba
Jacqu es
Ore os
Slow ly
Vel cro
WAT ER
deleg ation
studi os
pertain ing
insin uating
tresp assing
penal ty
Host ess
malic ious
Flash Forward
Bere a
Ci vil
Els ie
Glor ia
Kap pa
Schu mann
Tup ac
UC SC
Vio let
bap tized
fatt ening
mme trical
incub ator
acute ly
gobl ins
abund ance
moccas ins
apol is
conju re
excre ment
Sold iers
spong y
commiser ate
ruth less
parake et
pediat ric
catac lysm
subm itted
Stup id
conscient ious
assump tion
Westportr sburg
tranqu ili
confidential ity
Flint stones
anorex ic
philosoph ical
funda mental
blosso ms
Macedon ian
Ary a
Dil son
Edin burgh
Fut ure
Ja guar
Jai me
Knox ville
Lies l
Pall adium
Parent s
Rab bit
Vie w
Voy ager
replic as
caffe ine
conco ction
dissu ade
discer n
curr iculum
pedop hile
satur ated
knaps ack
Relie ved
volcan ic
speedo meter
slopp ily
Salz burg
Snat chers
rattles n
sacrific ed
haphazard ly
surreptit iously
Abr ams
Blos som
Cathe dral
Ferg uson
Gou dy
Hilar ie
Kro ger
Kink o
MID I
Niet zsche
Pene lope
SX DS
Tok yo
Tiff any
TIM E
Wop pler
Yoland a
Zep pelin
eag les
kale idoscope
zuc chini
inhab ited
rema inder
recup er
asbesto s
artill ery
seers ucker
irrig ation
abbre vi
abdu cted
hagg ard
unru ly
unbear able
tequ ila
conglo mer
wholes ale
amethy st
disgrunt led
mahog any
Invas ion
despon dent
impregn ated
curvace ous
ridicu les
hydra ul
grotes que
telekines is
superintend ent
psychop ath
Arequi pa
vestibu le
pizzer ia
Mississi ppi
chandeli ers
paraphernal ia
chlorophy ll
! .
" [
" ),
' ;
' ,".
) ?
, ,
- ,"
. :
1 am
1 30
2 3rd
3 x
3 30
4 000
5 8
5 pm
6 2
8 3
9 1st
9 6th
: )
= "
? ,
A H
A pe
A then
A po
A bed
A ct
A dd
A ud
A gent
A _____
A ids
A ST
A BC
B ath
B ars
B row
B ren
B ian
B ana
B ened
B AM
B owl
B ambi
B unning
B ART
B achelor
B ingo
C ow
C el
C old
C anc
C ons
C ove
C loud
C offee
C alled
C BS
C GI
D ing
D orm
D aught
D iet
D ude
D ena
D unn
D irect
E ne
E mb
E sc
E yes
E conom
F L
F ed
F ac
F ig
F ry
F ili
F ancy
F loss
F ALL
G S
G ir
G ust
G ather
G lad
G um
G ia
G aul
G ener
G ables
G rum
G ramps
G OD
G BC
H R
H ab
H ob
H alo
H urt
H IV
H AD
I F
I ch
I shi
J ES
K is
K all
K are
K ING
K ept
K ansas
L ac
L if
L ion
L ate
L il
L ine
L iver
L iam
L oud
L AN
L anter
M 3
M ou
M ul
M im
M ical
M erry
M indy
M ulti
N D
N y
N in
N ut
N ol
N ev
N early
N ature
N uts
N iki
N VA
N ooo
O uch
O ptic
O ops
P D
P he
P ing
P ain
P rom
P ul
P ile
P each
P av
P ump
P lane
P layer
P orter
P TA
P LA
P HS
P ension
P rairie
Q RS
R he
R as
R ide
R ef
R ais
R ID
R ico
R ata
S H
S Y
S r
S le
S ac
S ri
S ly
S ab
S ine
S tor
S uch
S hu
S uck
S illy
S holes
S HO
S HU
S istine
S nickers
T G
T ap
T ia
T atu
T rack
T wit
T akes
T rip
T ucker
U 2
U M
U k
U lu
V ir
V ine
V ail
V ivid
V icky
V odka
W T
W an
W edding
W inne
W isteria
Y oo
Z o
a vert
b any
b ale
b ago
b anter
b ounty
c m
c ust
c unt
c inch
d n
d ow
d ab
d ally
d wind
d ashes
d oodles
e ms
e mit
e jected
e Bay
f ter
f ished
f ai
f ishes
f awns
g ong
g aming
g ushing
h ards
h mm
h asty
h anky
i ving
i antly
j ab
j ot
j ur
j az
j aunt
j abbing
k as
l st
l ain
l ard
l urch
l ends
m am
m arm
n n
n ave
n ooks
o dy
o sexual
o ga
o eu
o vals
p ia
p oun
p outing
p ixie
r ised
r ists
s am
s her
s urn
s ine
s ways
s unt
s ible
s ane
s ledge
s laught
s atellite
t ut
t art
t ard
t ene
t its
t ended
u co
u do
u mber
u ous
u ded
u ations
v int
v ador
v apor
w d
w ry
w itted
x y
y ep
y enne
y awned
z u
z ied
z vah
he mo
he ter
in as
in en
in let
in mate
in jected
in soles
in conspicuously
in comprehen
an ther
an them
re ro
re sh
re bu
re jo
re doing
re ps
re group
re lying
re gi
re vo
re fill
re tic
re join
re finish
re appears
re painting
re create
re located
re finishing
re constructed
re decorate
re mover
re solutely
re construct
and o
and ex
to g
to on
to red
to ng
to ug
to ga
ing old
ing est
th rot
th bert
th resh
me mo
me men
ou f
ou ch
ou rai
on ics
at eness
er ted
ed om
al ib
al mond
al erts
is covered
ar om
ar ith
ar acter
ar ctic
or row
or ox
en able
en roll
en force
en closing
en counters
en vied
se ren
le ering
st ap
st ens
st unk
we athered
ad jour
id an
so red
be re
be are
be ret
be aming
ac ho
ac ry
oo zed
ke e
all ied
all otted
ld on
ic ity
ut ters
ut ions
ll ar
wi mp
wi ry
wi thered
wi lted
out right
out let
out land
out field
out takes
out cro
out dated
ge ls
ge ek
gh ton
li min
li hood
go gue
go bs
with drawing
with drawn
ro red
ro ach
ro tu
ver tigo
am nes
ri gging
ri gible
ri pple
ri pples
ch ir
ch urn
ch int
ch ides
ch arts
ch rie
ch ummy
wh il
wh im
wh imp
wh oop
ir a
up dating
up pies
up dates
ab re
ab ut
ab ashed
ot to
ot es
co z
co ating
co cked
co ded
co bal
co quet
co cious
ne z
ne cked
ne ling
ne ces
ha p
ha al
ha iled
ha zards
hi res
hi ero
hi ppy
do c
do ily
do zed
do ggy
king ton
sa ver
sa vage
ent ines
ent ials
her b
her mit
her bs
fe ck
fe athered
us al
us ky
pe al
ca h
ca thol
ur ally
mo ms
lo on
un gy
un afraid
un ited
un stuck
un attached
un ties
un true
un screw
un lucky
un occupied
un welcome
un cooked
un steady
un spoken
un hooked
un announced
un necessarily
un tily
un faithful
see ping
op pressed
she eting
she pherd
ti ers
ti est
ti ppy
pl or
sh an
sh ard
sh rie
ind istingu
It ems
te c
wo ah
ide l
ter ry
ter ranean
not ch
his s
his sed
about s
room ate
ce e
ce p
ce ls
ce ased
back track
ra ut
ra zed
ra vaged
bo ils
bo lting
ust ers
de but
de laying
de caf
de vised
ting e
ting ling
el ap
el ace
el ong
el ude
el uding
ho b
ho dge
ho ller
ho arse
ard i
dre amy
mb rance
She a
She n
She p
She ri
She pherd
gu ll
gu idance
po go
po dge
po lio
gr ation
gr ined
gr ungy
con ch
con ical
con ced
con vent
con tour
con serve
con sequently
con cise
con cussion
wal d
wal t
ss ibly
et ch
car b
car load
car riers
thin ned
ag ant
fri zzy
off spring
over worked
over power
over loaded
over reacting
su ave
ex tric
ep ile
sto w
ig loo
ck y
ass ists
sit com
qu ake
qu ill
qu arry
qu arre
time ly
air field
And o
come back
So viet
iz oph
sp ices
sp iel
sp ouses
sp andex
ul ent
how ling
irl ing
fo d
fo e
door man
che l
che mother
che ery
bl in
bl ers
bl under
bl ush
bl urt
ach y
med als
med itating
ry e
reme mbrance
cl ang
cl usters
com ical
com posite
com ato
clo g
clo ver
clo pedia
bu o
bu bbled
ran ged
pre served
pre ppy
pre mature
pre mie
pre mium
pre cocious
bed pan
tell ers
pro s
pro mo
pro ving
pro positions
pro ctors
sc ab
sc um
sc outs
af ina
new bor
new sprint
ven ly
ty pist
play house
stu d
stu bby
age ment
right ed
call igra
fr aming
dri pped
home ly
home run
au x
di li
di ot
di gest
di vert
di visions
br unch
Some what
tor t
tor ical
int ana
dis on
dis man
dis able
dis hed
dis eas
dis connect
dis eased
dis embodied
hand made
hand holds
cou ghed
read able
long ed
fore ns
om g
om ination
school work
school bag
ff er
ble t
water melons
wa ver
wa il
wa vering
pt ed
ang ed
ang ling
per ked
per fun
pr icing
show room
head er
head band
set ups
im pose
pic tographs
good byes
work place
work sheet
flo rescent
table top
under foot
under brush
under graduate
). ..
ish able
stre amers
near s
But thead
ple y
der is
der rick
boo b
boo ger
bab bling
watch ful
As king
As ks
res is
night mar
bus sy
bro ach
bro cade
ask ance
att ends
par ody
comp ress
col ony
col onial
high lighting
cor set
cor rug
cor responded
cor responding
sing ular
Ch ry
Ch ange
Ch ico
In to
In ara
black out
black ish
black berry
black jack
street lights
street cars
An a
An imal
des ir
cer a
cer tified
spe cks
grou se
talk ies
hind er
cre pe
name se
white water
arm adill
mer it
mer its
mar ina
mar kets
mar ital
mar riages
group ing
sk ies
sk ied
sk ittering
ser um
na h
ob scene
hair brush
imp ed
imp acted
imp aled
est ine
ten s
ju ke
amp hitheater
fl aking
fl inches
fl icker
fl ickered
ball ad
ful filling
ci er
ci ble
ci mer
shop per
close up
pret ties
cur ity
cur few
ken stocks
bad ger
plan ner
pap ier
ground ed
town home
working s
sl ung
sl icked
sl umber
pass er
cut ion
box cars
je opardy
av i
sho est
tri bal
tri mester
tri umph
ear phones
raw l
mis took
mis giving
mis chief
mis judged
mon u
mon es
ele ctions
ele gance
hot er
hot dog
hot test
care sses
rid dle
form als
form ica
form ulas
gi ate
chair man
inter acted
inter ference
inter fered
ator ade
cr ass
cr acy
unch aracter
sat chel
ton sil
lay outs
bor ah
bor ders
cent i
cent ers
cent rif
swi pe
swi vel
ident ities
sha med
sha ggy
din ners
mor ally
pain ters
tre ndy
stru mming
gg ist
ling er
ling ered
fast ening
fast ener
squ ared
ash y
ash trays
bar ging
grab ber
cat raz
short cuts
emp t
emp ath
rew ards
inv al
clean ly
Pe ep
far thest
dr ought
la x
cho c
cho ly
sw arms
sw atted
sw armed
sw agger
ants y
color less
color fully
round er
round ish
pool side
cus sing
pa h
pa ils
pho bic
hus ks
ook y
ere cted
foot bridge
Al one
Al ps
Al catraz
weird ed
sign or
sign atures
ley girl
colle cts
colle giate
wrong ed
chang er
conf is
buy er
comput ing
break down
break through
Be e
Be ast
Be llow
Be gin
Be gins
Be ouf
Mar o
Mar ion
Mar ble
Mar lot
Mar tian
Mar tial
por ting
ber gs
His torical
mas king
Se curity
gar ish
gar ages
gar bled
cy clists
pen insula
tree tops
cover ings
Do e
cal ming
Dar n
Dar win
station ary
lin ers
Ste ele
present ers
tic s
stra pless
bottom less
reco vers
vi or
vi als
Un like
Un usual
Un itarian
fac tories
vel er
brown stone
sub s
sub consciously
sub terranean
press uring
cas ing
cas sock
cas inos
St air
St arts
St irling
counter top
... (
... ?"
... ,"
ext inct
trip let
free zes
val iantly
Ro e
Ro sa
Ro dri
Ro gen
Ar gent
19 64
19 30s
mouth wash
hy brid
For get
For ster
Ne llie
push ups
understand able
log ists
Don nell
Sam ourai
sun sets
comm uting
20 2
20 6
gen ess
gen etic
dinner time
ud a
ud ic
fli pp
fli ppers
path ways
Matthew s
grand stand
Re c
Re aper
Mo e
Mo de
Mo ses
Mo chrie
fer ns
fer vor
square ly
mad man
mad ness
lunch box
Co dy
Co smos
May o
ric hes
bur ros
pair ing
roof tops
smo thered
sal sa
De bussy
De borah
block ade
hood lum
diff used
trave lled
narrow s
rub bers
rent ly
neck tie
Ell a
Ell is
dru ggist
accident ly
12 6
Fe ingold
sky scrapers
Ju di
eye ing
Th ru
Th under
stri ving
50 c
terri er
flat bed
flat tering
tele phoning
Jack s
grad ual
third s
Dor itos
Me eting
Me ester
pot ting
pot ions
Bri ggs
Bri ghton
mir rored
sol ider
sol utions
slight est
libr arians
secre cy
tou ille
dam per
dam ages
fil th
fil tered
tee ming
ax es
spo iling
sou ps
cell ars
cell ular
Car lo
Car ole
world ly
similar ity
Bo ats
Bo mbs
Bo gart
frustr ations
quiet ed
fu mbled
fu mbling
Je anne
bill ow
bill ion
thick ly
program med
program ming
reg istr
appear ances
?) ;
nic ked
ceiling ed
motor man
ham mered
sold er
post ing
post pone
lit z
lit eral
mil ks
uff alo
sum mery
sne ered
Le an
Le inen
11 pm
pop ulated
Sh oot
fear fully
ris er
forward ed
cast les
ban king
Tom orrow
.... ...
.... .....
Bar on
Bar ran
apolog ised
vol ent
Ind ones
Ind epend
equ ations
spr ite
spr outs
Rob erto
Rob erta
blow up
mall ard
sea gulls
oper ates
cons iders
sty lists
breast ed
wish ful
Our s
commun ists
forth coming
Lu cas
Lu mpy
tur k
paint balls
coo lest
breakfast s
chat ty
trans ient
ific ations
mid air
mid riff
Nor a
Nor ton
disap point
tour ism
bell ied
deli vers
aps ible
page boy
See gert
skirt ed
rit ious
photograph ing
cru iser
cru mbly
Chris s
dry ers
len ol
spl ot
God mother
horri fying
199 1
199 6
coll ided
coll apsible
calm ness
mission ary
Po ssibly
sight ing
serious ness
prom ote
wild s
steal th
ram med
auto biography
force fully
comb s
conv iction
Mer cy
Mer cedes
Mon ument
acqu ies
blind ing
blind ly
den otes
den omination
ga unt
non stop
100 k
gri me
gri zz
picnic king
18 90
ato ries
mand olin
Church ill
chi med
chi mes
scra pes
bran ching
Wil hel
bel itt
perfor ated
pin ks
engine ering
fashion able
El mer
cred enza
switch board
Dav ies
ramp ed
ramp age
host s
rout es
Mill ennium
north ward
CA R
David son
ener gies
scri bbles
gent leness
awaken ings
Cor a
Cor al
flower pot
span king
span ked
span ned
Ru dis
thro b
thro bbing
court esy
nap ps
attend ees
Con grat
process or
div ides
16 0
expect ant
resc ues
crew man
thor n
issu ed
Tim my
smoo thing
Ear le
jealous ly
ai k
Pop s
Pop pins
pun ks
emotion less
breath taking
period ic
lor n
affe cting
erk raut
itar ies
Am ish
appropri ateness
tan trum
hoo ves
sau erkraut
butter milk
Che st
Che ck
Che yenne
compet itive
awkward ness
cine mas
conver ging
intersection s
ceremon ial
Ke llo
Ma Ma
Ma thea
Ma jor
weak ened
sequ ined
Que ens
thank fully
secur ities
fool s
Sar tog
Sar afina
squir med
reluct ance
remark ably
final ists
Lake ville
hook er
200 7
200 8
spaces u
particip ation
ER T
Pr ice
bunk ers
Qu it
Qu izz
Qu ickly
Qu arter
Qu intana
Dy ke
Adam a
Ty lenol
limp s
sar ong
Val entines
moon light
skill fully
commit ments
Man ny
repair man
..." ,
flu ke
flu ent
Sil ver
hate ful
weather man
deb t
dim med
hon ks
hon ors
junk yard
bleed s
cheer leaders
Li ar
mal ice
cha plain
cha grined
tag ging
appreci ates
Del ta
Med ical
Med iter
pad ding
orn ately
cock er
RE D
Si ber
judge ment
opport une
author itative
King dom
content ment
impro per
deser ves
Chi li
Gu ards
Par ma
jail ed
survi ving
Res cue
bloo ms
bound ing
aband oning
bum med
common ers
sweep er
Gr as
companion able
bi ased
bin ocul
determin ing
rend ition
peace fully
lone some
AT E
kneel ed
dete ctors
polit ically
Native s
mut ed
mut tered
wis py
entertain er
entertain ers
Cu b
Cu thbert
Ce cil
spell bound
fed s
lack ed
investig ators
sens ible
sens ory
coast line
suic idal
contr acted
clut ched
clut ches
ridicul ing
ridicul ously
accompl ishing
scare crow
joy ful
peel er
glow s
rac er
rac ism
rec tory
rec ites
Mor se
lon gh
enorm ously
Juli en
ejac ulating
fal ter
fal tered
nut ty
nut ritious
organiz er
bust s
bust ing
Mad orah
pine apples
scratch y
exe c
blur ted
Ph D
fuck er
wre ath
trous er
elabor ately
bon ding
bon ds
stiff en
spark le
compe lling
slim mer
Dri ft
Dri vers
Sal vador
Old er
Str aw
Rock ies
Rock well
bulb ous
Ad missions
IT Y
revol vers
tho le
tho logy
cough s
fond ness
rhy mes
tick a
ruff ly
ruff led
Franc ie
Coun cil
OR S
pens ion
decl ines
decl ares
disappro ved
Hun gry
admin istered
geo graphic
deter ior
winning s
doubt less
Pu har
Sch ul
Shi a
jer king
conce aling
Ash leigh
valu ables
flirt ation
Thurs days
Law n
mount ing
border ing
lee ch
spar ked
sedu ced
ja untily
puff ed
Down stairs
coff ins
confl icts
clin ical
broad ly
Hot z
admir al
Pl ant
pul se
vir gins
according ly
aby ss
possess ive
Viet namese
fau x
whi ps
exter ior
salt ine
cott ages
heaven ly
magn um
skateboard ing
Mal ays
Ver n
fox es
rum pled
vibr ations
Ir ina
Son ata
vine gar
femin ist
loaf ers
shaving s
gly ph
thunder ous
scal pel
chart er
rhyth mic
congreg ated
Den is
Den ton
Gl ancing
jack pot
gee z
deaf ening
eyel iner
gau dy
gau ges
wool en
review s
review ed
skull s
independ ence
buzz ed
swer ving
Call um
Tra vis
Tra veler
ante ater
cushion ed
Lind sy
stim ulated
gul ps
Dill on
iP hone
jaw bone
sway ed
asser tiveness
AS H
Ba o
Hor ror
Hor rified
glimp ses
llen haal
bob cat
partners hip
distingu ishing
obsc uring
Isa belle
Krist in
Tur key
cran ky
inqu iry
arthrit ic
hostage s
scoot s
kidnap per
Pi per
Pi ura
Tw ins
eli gible
coordin ator
psychiat rists
landsca pes
compliment ed
orch ids
wigg ly
roast ed
haw ks
consu ming
scam med
scam per
Inter state
obli que
draft s
draft ed
acceler ated
Hard ware
Pay ne
fet us
caf es
corre ctions
volcano es
Find ing
Ol sen
mint s
arc ic
illustr ated
aquar iums
Cle mens
Cross ed
FO OD
Light s
dil ute
hatch back
cob bler
trou bling
provo ke
Bus ch
Pic tures
Pri me
baw l
knot s
resu lting
download s
Ban ana
Mil ky
bish op
convey ance
claw ed
sni pers
198 3
198 7
198 9
Cole man
repul sive
Teacher s
Bes ide
Der th
Ku cera
gal axy
sche ming
sche matic
accompany ing
absent mindedly
tex ting
hedge hog
Stein er
Stein way
Real ity
Break fast
BB UK
Bra ff
Bull frog
Cy nd
Vis itors
asc ending
sop rano
veter ans
sketch book
Pep pers
tid ied
Ha as
gir affes
erup ts
nostal gically
percent ages
implic ated
towns people
equal izer
claustropho bia
Han over
Mik a
Snow man
Shop ping
Want ed
fus sy
det ach
consult ant
consult ation
parap hr
stradd les
regain ed
anni hil
[...]
