{"<s>":0,"<pad>":1,"</s>":2,"<unk>":3,"<mask>":4,"!":5,"\"":6,"#":7,"$":8,"%":9,"&":10,"'":11,"(":12,")":13,"*":14,"+":15,",":16,"-":17,".":18,"/":19,"0":20,"1":21,"2":22,"3":23,"4":24,"5":25,"6":26,"7":27,"8":28,"9":29,":":30,";":31,"<":32,"=":33,">":34,"?":35,"@":36,"A":37,"B":38,"C":39,"D":40,"E":41,"F":42,"G":43,"H":44,"I":45,"J":46,"K":47,"L":48,"M":49,"N":50,"O":51,"P":52,"Q":53,"R":54,"S":55,"T":56,"U":57,"V":58,"W":59,"X":60,"Y":61,"Z":62,"[":63,"\\":64,"]":65,"^":66,"_":67,"`":68,"a":69,"b":70,"c":71,"d":72,"e":73,"f":74,"g":75,"h":76,"i":77,"j":78,"k":79,"l":80,"m":81,"n":82,"o":83,"p":84,"q":85,"r":86,"s":87,"t":88,"u":89,"v":90,"w":91,"x":92,"y":93,"z":94,"{":95,"|":96,"}":97,"~":98,"¡":99,"¢":100,"£":101,"¤":102,"¥":103,"¦":104,"§":105,"¨":106,"©":107,"ª":108,"«":109,"¬":110,"­":111,"®":112,"¯":113,"°":114,"±":115,"²":116,"³":117,"´":118,"µ":119,"¶":120,"·":121,"¸":122,"¹":123,"º":124,"»":125,"¼":126,"½":127,"¾":128,"¿":129,"À":130,"Á":131,"Â":132,"Ã":133,"Ä":134,"Å":135,"Æ":136,"Ç":137,"È":138,"É":139,"Ê":140,"Ë":141,"Ì":142,"Í":143,"Î":144,"Ï":145,"Ð":146,"Ñ":147,"Ò":148,"Ó":149,"Ô":150,"Õ":151,"Ö":152,"×":153,"Ø":154,"Ù":155,"Ú":156,"Û":157,"Ü":158,"Ý":159,"Þ":160,"ß":161,"à":162,"á":163,"â":164,"ã":165,"ä":166,"å":167,"æ":168,"ç":169,"è":170,"é":171,"ê":172,"ë":173,"ì":174,"í":175,"î":176,"ï":177,"ð":178,"ñ":179,"ò":180,"ó":181,"ô":182,"õ":183,"ö":184,"÷":185,"ø":186,"ù":187,"ú":188,"û":189,"ü":190,"ý":191,"þ":192,"ÿ":193,"Ā":194,"ā":195,"Ă":196,"ă":197,"Ą":198,"ą":199,"Ć":200,"ć":201,"Ĉ":202,"ĉ":203,"Ċ":204,"ċ":205,"Č":206,"č":207,"Ď":208,"ď":209,"Đ":210,"đ":211,"Ē":212,"ē":213,"Ĕ":214,"ĕ":215,"Ė":216,"ė":217,"Ę":218,"ę":219,"Ě":220,"ě":221,"Ĝ":222,"ĝ":223,"Ğ":224,"ğ":225,"Ġ":226,"ġ":227,"Ģ":228,"ģ":229,"Ĥ":230,"ĥ":231,"Ħ":232,"ħ":233,"Ĩ":234,"ĩ":235,"Ī":236,"ī":237,"Ĭ":238,"ĭ":239,"Į":240,"į":241,"İ":242,"ı":243,"Ĳ":244,"ĳ":245,"Ĵ":246,"ĵ":247,"Ķ":248,"ķ":249,"ĸ":250,"Ĺ":251,"ĺ":252,"Ļ":253,"ļ":254,"Ľ":255,"ľ":256,"Ŀ":257,"ŀ":258,"Ł":259,"ł":260,"Ń":261,"Ž":262,"he":263,"in":264,"an":265,"the":266,"re":267,"and":268,"to":269,"ing":270,"th":271,"as":272,"me":273,"ou":274,"on":275,"at":276,"er":277,"ed":278,"was":279,"it":280,"al":281,"is":282,"ar":283,"or":284,"en":285,"of":286,"se":287,"le":288,"st":289,"we":290,"ad":291,"ow":292,"id":293,"so":294,"be":295,"ac":296,"oo":297,"The":298,"my":299,"ay":300,"ke":301,"all":302,"that":303,"ld":304,"ve":305,"ic":306,"ut":307,"ll":308,"wi":309,"out":310,"ge":311,"gh":312,"li":313,"go":314,"with":315,"some":316,"ro":317,"ver":318,"am":319,"ri":320,"ch":321,"wh":322,"es":323,"ir":324,"were":325,"had":326,"ther":327,"up":328,"one":329,"ly":330,"for":331,"ab":332,"nd":333,"ot":334,"but":335,"co":336,"are":337,"ne":338,"ha":339,"hi":340,"there":341,"do":342,"king":343,"ght":344,"thing":345,"sa":346,"ent":347,"her":348,"ould":349,"fe":350,"us":351,"pe":352,"ca":353,"this":354,"ur":355,"ack":356,"mo":357,"lo":358,"like":359,"un":360,"get":361,"see":362,"op":363,"man":364,"she":365,"ti":366,"pl":367,"whe":368,"tr":369,"He":370,"sh":371,"ked":372,"him":373,"We":374,"ind":375,"art":376,"loo":377,"other":378,"ant":379,"they":380,"It":381,"te":382,"them":383,"wo":384,"ide":385,"ter":386,"own":387,"end":388,"ound":389,"not":390,"his":391,"about":392,"roo":393,"room":394,"very":395,"if":396,"ce":397,"now":398,"back":399,"ra":400,"bo":401,"said":402,"way":403,"have":404,"ally":405,"ust":406,"nt":407,"de":408,"ting":409,"ion":410,"ain":411,"el":412,"did":413,"say":414,"then":415,"you":416,"use":417,"There":418,"rom":419,"down":420,"ho":421,"ap":422,"ard":423,"going":424,"dre":425,"from":426,"ake":427,"mb":428,"She":429,"went":430,"gu":431,"po":432,"gr":433,"hou":434,"ople":435,"con":436,"got":437,"wal":438,"ss":439,"into":440,"side":441,"et":442,"something":443,"want":444,"car":445,"would":446,"ough":447,"Then":448,"beca":449,"where":450,"people":451,"who":452,"could":453,"ill":454,"thin":455,"ag":456,"just":457,"ers":458,"no":459,"fri":460,"wor":461,"because":462,"off":463,"house":464,"ate":465,"red":466,"mp":467,"over":468,"ace":469,"ving":470,"ong":471,"by":472,"su":473,"friend":474,"ex":475,"can":476,"il":477,"ep":478,"sto":479,".\"":480,"know":481,"what":482,"around":483,"ig":484,"ck":485,"ass":486,"didn":487,"ie":488,"sit":489,"don":490,"qu":491,"time":492,"try":493,"tal":494,"too":495,"They":496,"ice":497,"ater":498,"air":499,"dream":500,"ich":501,"our":502,"And":503,"ast":504,"start":505,"pp":506,"come":507,"So":508,"which":509,"think":510,"iz":511,"came":512,"ood":513,"sp":514,"ul":515,"any":516,"how":517,"irl":518,"ort":519,"fo":520,"ks":521,"door":522,"che":523,"itt":524,"girl":525,"ment":526,"bl":527,"urn":528,"ight":529,"mber":530,"ft":531,"when":532,"thr":533,"ine":534,"ach":535,"med":536,"ry":537,"reme":538,"ave":539,"ool":540,"cl":541,"My":542,"com":543,"real":544,"clo":545,"bu":546,"two":547,"ile":548,"ite":549,"ation":550,"ought":551,"able":552,"ran":553,"ous":554,"been":555,"pre":556,"put":557,"ick":558,"bed":559,"tu":560,"turn":561,"tell":562,"sm":563,"feel":564,"ittle":565,"guy":566,"pro":567,"woman":568,"part":569,"ild":570,"little":571,"remember":572,"ist":573,"sc":574,"really":575,"ive":576,"af":577,"__":578,"has":579,"new":580,"old":581,"ven":582,"place":583,"ty":584,"play":585,"saw":586,"ye":587,"stu":588,"age":589,"left":590,"take":591,"right":592,"call":593,"sel":594,"fr":595,"look":596,"dri":597,"home":598,"through":599,"au":600,"di":601,"br":602,"trying":603,"ct":604,"ree":605,"more":606,"told":607,"another":608,"men":609,"ame":610,"says":611,"chool":612,"looked":613,"dy":614,"kind":615,"Some":616,"ull":617,"started":618,"find":619,"thought":620,"tor":621,"looking":622,"run":623,"ms":624,"things":625,"int":626,"dis":627,"hand":628,"big":629,"away":630,"cou":631,"read":632,"long":633,"fore":634,"ried":635,"ved":636,"om":637,"school":638,"ff":639,"ble":640,"self":641,"tion":642,"und":643,"xt":644,"walk":645,"lot":646,"someone":647,"atch":648,"cle":649,"asked":650,"stand":651,"water":652,"again":653,"wanted":654,"wa":655,"ess":656,"hel":657,"pt":658,"ade":659,"irst":660,"ont":661,"realiz":662,"talking":663,"ath":664,"being":665,"open":666,"ang":667,"per":668,"small":669,"pr":670,"dec":671,"show":672,"next":673,"their":674,"head":675,"also":676,"boy":677,"fi":678,"ark":679,"front":680,"make":681,"This":682,"sed":683,"set":684,"happ":685,"ta":686,"uch":687,"these":688,"ru":689,"ated":690,"lar":691,"light":692,"tow":693,"only":694,"im":695,"day":696,"let":697,"pic":698,"good":699,"first":700,"work":701,"--":702,"ather":703,"help":704,"flo":705,"sort":706,"table":707,"every":708,"though":709,"sitting":710,"ning":711,"outside":712,"will":713,"mother":714,"hed":715,"walking":716,"before":717,"Mom":718,"here":719,"wasn":720,"ma":721,"dif":722,"under":723,"act":724,"hen":725,").":726,"ish":727,"airs":728,"jo":729,"class":730,"ity":731,"getting":732,"won":733,"need":734,"hu":735,"may":736,"stre":737,"build":738,"ue":739,"doing":740,"fere":741,"ph":742,"rest":743,"near":744,"But":745,"leave":746,"fin":747,"ple":748,"couldn":749,"der":750,"ps":751,"ng":752,"wind":753,"ars":754,"much":755,"boo":756,"after":757,"building":758,"took":759,"still":760,"floor":761,"lt":762,"bab":763,"low":764,"point":765,"made":766,"ner":767,"One":768,"dd":769,"watch":770,"gre":771,"body":772,"each":773,"seemed":774,"row":775,"wr":776,"llow":777,"while":778,"does":779,"As":780,"res":781,"myself":782,"night":783,"pers":784,"even":785,"bus":786,"ies":787,"When":788,"bro":789,"ask":790,"differe":791,"knew":792,"stuff":793,"att":794,"wait":795,"bet":796,"bit":797,"well":798,"ary":799,"comes":800,"par":801,"should":802,"ating":803,"comp":804,"ste":805,"ance":806,"stairs":807,"col":808,"large":809,"high":810,"cor":811,"ross":812,"..":813,"ily":814,"different":815,"sing":816,"than":817,"top":818,"window":819,"Ch":820,"ket":821,"hat":822,"In":823,"found":824,"ction":825,"wall":826,"coming":827,"ans":828,"sup":829,"pull":830,"most":831,"ak":832,"sur":833,"black":834,"ious":835,"ase":836,"street":837,"friends":838,"person":839,"aw":840,"used":841,"An":842,"lad":843,"young":844,"?\"":845,"keep":846,"des":847,"having":848,"cer":849,"Now":850,"ren":851,"spe":852,"grou":853,"fam":854,"else":855,"talk":856,"sure":857,"leep":858,"kept":859,"led":860,"dress":861,"walked":862,"hind":863,"happen":864,"road":865,"ready":866,"ene":867,"les":868,"pped":869,"vie":870,"cre":871,"name":872,"white":873,"arm":874,"standing":875,"behind":876,"cont":877,"At":878,"felt":879,"turned":880,"mer":881,"mar":882,"ses":883,"ol":884,"ared":885,"ves":886,"lau":887,"group":888,"same":889,"give":890,"aring":891,"ister":892,"three":893,"why":894,"sk":895,"father":896,"realized":897,"stay":898,"Dad":899,"hold":900,"called":901,"few":902,"min":903,"thinking":904,"tried":905,"____":906,"ser":907,"na":908,"store":909,"inside":910,"ards":911,"ob":912,"child":913,"ird":914,"ence":915,"hair":916,"imp":917,"seems":918,"dark":919,"uck":920,"est":921,"ings":922,"ten":923,"ju":924,"gether":925,"amp":926,"fl":927,"beg":928,"together":929,"ball":930,"woke":931,"bre":932,"along":933,"anything":934,"arent":935,"ful":936,"saying":937,"maybe":938,"baby":939,"ci":940,"others":941,"ided":942,"playing":943,"ure":944,"Ez":945,"driving":946,"shop":947,"Ezra":948,"bath":949,"many":950,"watching":951,"close":952,"pret":953,"gs":954,"area":955,"face":956,"cur":957,"land":958,"ken":959,"brother":960,"posed":961,"ange":962,"bad":963,"hard":964,"gl":965,"vis":966,"last":967,"sleep":968,"plan":969,"pap":970,"across":971,"cli":972,"kid":973,"ground":974,"ign":975,"town":976,"ger":977,"ale":978,"full":979,"ev":980,"working":981,"hur":982,"lie":983,"ason":984,"sl":985,"step":986,"doesn":987,"pris":988,"pass":989,"huge":990,"move":991,"kill":992,"son":993,"sister":994,"love":995,"veral":996,"looks":997,",\"":998,"cut":999,"its":1000,"fall":1001,"family":1002,"realize":1003,"decided":1004,"ped":1005,"dden":1006,"ink":1007,"box":1008,"je":1009,"gave":1010,"stop":1011,"sex":1012,"actu":1013,"hall":1014,"drive":1015,"ding":1016,"seat":1017,"somewhere":1018,"irt":1019,"both":1020,"av":1021,"phone":1022,"parent":1023,"finally":1024,"running":1025,"supposed":1026,"sho":1027,"book":1028,"ug":1029,"rel":1030,"plain":1031,"You":1032,"tri":1033,"must":1034,"ush":1035,"ear":1036,"raw":1037,"um":1038,"oot":1039,"coun":1040,"kis":1041,"ny":1042,"ended":1043,"lying":1044,"mis":1045,"cked":1046,"mon":1047,"never":1048,"pictu":1049,"ele":1050,"dro":1051,"office":1052,"clothe":1053,"Someone":1054,"mine":1055,"ched":1056,"women":1057,"follow":1058,"game":1059,"several":1060,"hot":1061,"cond":1062,"care":1063,"wood":1064,"ual":1065,"reason":1066,"yes":1067,"hear":1068,"hit":1069,"rid":1070,"girls":1071,"lady":1072,"form":1073,"later":1074,"actually":1075,"\".":1076,"gi":1077,"band":1078,"feeling":1079,"ince":1080,"Jo":1081,"bot":1082,"fun":1083,"laugh":1084,"mou":1085,"chair":1086,"times":1087,"clothes":1088,"seem":1089,"taking":1090,"appe":1091,"inter":1092,"ator":1093,"hor":1094,"cr":1095,"ian":1096,"unch":1097,"bathroom":1098,"sat":1099,"ins":1100,"life":1101,"ween":1102,"pie":1103,"shi":1104,"Later":1105,"movie":1106,"wouldn":1107,"couple":1108,"gone":1109,"nice":1110,"lots":1111,"wearing":1112,"quite":1113,"ton":1114,"lay":1115,"00":1116,"decide":1117,"party":1118,"surpris":1119,"ways":1120,"apart":1121,"anc":1122,"No":1123,"igh":1124,"bor":1125,"line":1126,"gry":1127,"idd":1128,"cent":1129,"paper":1130,"swi":1131,"ident":1132,"ens":1133,"wonder":1134,"ctor":1135,"ned":1136,"acher":1137,"sha":1138,"done":1139,"din":1140,"almost":1141,"jump":1142,"waiting":1143,"mor":1144,"years":1145,"pretty":1146,"tain":1147,"enough":1148,"between":1149,"pain":1150,"tre":1151,"stru":1152,"sent":1153,"heard":1154,"happy":1155,"nu":1156,"ches":1157,"ise":1158,"happened":1159,"pick":1160,"lock":1161,"your":1162,"gg":1163,"ling":1164,"ize":1165,"ither":1166,"making":1167,"ddenly":1168,"fast":1169,"oney":1170,"train":1171,"mind":1172,"range":1173,"ds":1174,"bag":1175,"blue":1176,"living":1177,"might":1178,"squ":1179,"roll":1180,"ash":1181,"ts":1182,"mate":1183,"bar":1184,"second":1185,"icul":1186,"pol":1187,"ose":1188,"goes":1189,"That":1190,"ia":1191,"grab":1192,"change":1193,"hill":1194,"feet":1195,"ted":1196,"rying":1197,"better":1198,"cat":1199,"short":1200,"ouble":1201,"emp":1202,"gun":1203,"swim":1204,"needed":1205,"fire":1206,"du":1207,"less":1208,"rew":1209,"inv":1210,"str":1211,"food":1212,"clean":1213,"key":1214,"til":1215,"angry":1216,"teacher":1217,"boat":1218,"dire":1219,"past":1220,"kit":1221,"money":1222,"upset":1223,"iddle":1224,"aut":1225,"everyone":1226,"hes":1227,"whole":1228,"stopped":1229,"figu":1230,"wants":1231,"Pe":1232,"ical":1233,"ters":1234,"hal":1235,"chen":1236,"children":1237,"late":1238,"until":1239,"list":1240,"notic":1241,"apartment":1242,"without":1243,"kitchen":1244,"'.":1245,"port":1246,"eat":1247,"urch":1248,"seen":1249,"amed":1250,"wife":1251,"quest":1252,"od":1253,"telling":1254,"far":1255,"hang":1256,"rather":1257,"dr":1258,"board":1259,"ions":1260,"la":1261,"either":1262,"climb":1263,"beaut":1264,"gn":1265,"green":1266,"male":1267,"bedroom":1268,"iting":1269,"hands":1270,"cho":1271,"gy":1272,"dog":1273,"kids":1274,"Char":1275,"middle":1276,"gets":1277,"surprised":1278,"sw":1279,"concer":1280,"raid":1281,"half":1282,"mat":1283,"already":1284,"cted":1285,"since":1286,"truck":1287,"cour":1288,"Oh":1289,"aces":1290,"four":1291,"inte":1292,"doors":1293,"ming":1294,"ants":1295,"dead":1296,"color":1297,"cept":1298,"Af":1299,"ually":1300,"moved":1301,"afraid":1302,"On":1303,"ank":1304,"dreamt":1305,"emb":1306,"yell":1307,"round":1308,"dent":1309,"pool":1310,"cus":1311,"After":1312,"live":1313,"pa":1314,"ping":1315,"vers":1316,"mus":1317,"ones":1318,"pho":1319,"hus":1320,"guys":1321,"quick":1322,"ited":1323,"ook":1324,"ces":1325,"ere":1326,"kn":1327,"notice":1328,"gotten":1329,"somehow":1330,"test":1331,"guess":1332,"job":1333,"All":1334,"als":1335,"asks":1336,"strange":1337,"moving":1338,"foot":1339,"corner":1340,"orm":1341,"stead":1342,"sound":1343,"beautif":1344,"everything":1345,"sn":1346,"minut":1347,"rain":1348,"lea":1349,"noticed":1350,"Al":1351,"husband":1352,"ike":1353,"pulled":1354,"interest":1355,"weird":1356,"shirt":1357,"slow":1358,"contin":1359,"dressed":1360,"ix":1361,"those":1362,"!\"":1363,"ward":1364,"aught":1365,"sign":1366,"yet":1367,"ress":1368,"shot":1369,"pat":1370,"photo":1371,"pri":1372,"police":1373,"ley":1374,"beautiful":1375,"eyes":1376,"mom":1377,"rooms":1378,"hurt":1379,"clu":1380,"colle":1381,"gra":1382,"wrong":1383,"draw":1384,"mach":1385,"yed":1386,"parents":1387,"explain":1388,"chang":1389,"vin":1390,"fell":1391,"cu":1392,"ster":1393,"scre":1394,"arr":1395,"unt":1396,"crow":1397,"dreamed":1398,"met":1399,"conf":1400,"How":1401,"vered":1402,"ded":1403,"io":1404,"arri":1405,"ah":1406,"iling":1407,"clear":1408,"taken":1409,"pay":1410,"using":1411,"boyfriend":1412,"began":1413,"dist":1414,"buy":1415,"comput":1416,"rock":1417,"plane":1418,"anno":1419,"break":1420,"park":1421,"mean":1422,"rs":1423,"hadn":1424,"comfor":1425,"Be":1426,"char":1427,"picture":1428,"picked":1429,"[\"":1430,"toward":1431,"iles":1432,"iver":1433,"tells":1434,"Mar":1435,"against":1436,"glass":1437,"sy":1438,"alone":1439,"pack":1440,"sen":1441,"ished":1442,"10":1443,"belie":1444,"trouble":1445,"spit":1446,"por":1447,"ached":1448,"fight":1449,"opened":1450,"hotel":1451,"isn":1452,"lead":1453,"ls":1454,"covered":1455,"ber":1456,"wheel":1457,"fish":1458,"His":1459,"posit":1460,"type":1461,"nie":1462,"mas":1463,"Bill":1464,"throw":1465,"Se":1466,"pur":1467,"liked":1468,"ible":1469,"What":1470,"tall":1471,"gar":1472,"such":1473,"piece":1474,"ically":1475,"ire":1476,"pan":1477,"tom":1478,"worried":1479,"cy":1480,"case":1481,"student":1482,"ip":1483,"pen":1484,"base":1485,"onto":1486,"sion":1487,"),":1488,"year":1489,"rand":1490,"scene":1491,"steps":1492,"az":1493,"always":1494,"elev":1495,"ative":1496,"aur":1497,"tree":1498,"Eug":1499,"ield":1500,"Eugene":1501,"ased":1502,"meet":1503,"toile":1504,"exc":1505,"??":1506,"older":1507,"quickly":1508,"pu":1509,"great":1510,".)":1511,"vo":1512,"Every":1513,"TV":1514,"ides":1515,"ject":1516,"main":1517,"cover":1518,"computer":1519,"somebody":1520,"Mary":1521,"yard":1522,"nothing":1523,"Cal":1524,"ient":1525,"suddenly":1526,"daught":1527,"neigh":1528,"holding":1529,"zy":1530,"edge":1531,"leaving":1532,"church":1533,"dad":1534,"ride":1535,"lou":1536,"swe":1537,"elevator":1538,"field":1539,"appro":1540,"boys":1541,"scared":1542,"cess":1543,"Chr":1544,"Do":1545,"lights":1546,"music":1547,"cars":1548,"spital":1549,"cal":1550,"ond":1551,"ately":1552,"eting":1553,"People":1554,"desk":1555,"ok":1556,"married":1557,"Dar":1558,"fill":1559,"snow":1560,"comple":1561,"station":1562,"stage":1563,"lin":1564,"bably":1565,"soon":1566,"return":1567,"anyway":1568,"neighbor":1569,"Ste":1570,"embarr":1571,"ced":1572,"present":1573,"sad":1574,"tic":1575,"Fran":1576,"eating":1577,"embarrass":1578,"instead":1579,"number":1580,"meeting":1581,"ail":1582,"stra":1583,"bottom":1584,"ship":1585,".\"]":1586,"ments":1587,"proble":1588,"lost":1589,"figure":1590,"fly":1591,"hospital":1592,"audi":1593,"ering":1594,"died":1595,"books":1596,"Well":1597,"reco":1598,"probably":1599,"vi":1600,"asking":1601,"towards":1602,"showed":1603,"fix":1604,"esca":1605,"asses":1606,"ek":1607,"believe":1608,"except":1609,"kiss":1610,"Un":1611,"city":1612,"cross":1613,"pet":1614,"itten":1615,"anger":1616,"upstairs":1617,"ention":1618,"ane":1619,"astic":1620,"inally":1621,"ized":1622,"listen":1623,"dered":1624,"closed":1625,"ons":1626,"view":1627,"fac":1628,"space":1629,"toilet":1630,"flow":1631,"recogn":1632,"ring":1633,"answ":1634,"iding":1635,"vel":1636,"Her":1637,"gest":1638,"brown":1639,"daughter":1640,"once":1641,"ntain":1642,"fle":1643,"morning":1644,"catch":1645,"check":1646,"annoyed":1647,"etc":1648,"ught":1649,"begin":1650,"fully":1651,"changed":1652,"ness":1653,"sub":1654,"Ho":1655,"tive":1656,"swimming":1657,"sand":1658,"starts":1659,"peri":1660,"ever":1661,"drove":1662,"press":1663,"dance":1664,"beach":1665,"weren":1666,"girlfriend":1667,"cas":1668,"eng":1669,"bunch":1670,"St":1671,"eas":1672,"caught":1673,"concerned":1674,"ahead":1675,"fair":1676,"iny":1677,"counter":1678,"arms":1679,"best":1680,"bas":1681,"talked":1682,"ates":1683,"ending":1684,"camp":1685,"sity":1686,"cial":1687,"org":1688,"edding":1689,"...":1690,"putting":1691,"rad":1692,"Calvin":1693,"song":1694,"ys":1695,"suit":1696,"ext":1697,"trip":1698,"cra":1699,"seeing":1700,"section":1701,"empty":1702,"cri":1703,"yellow":1704,"ina":1705,"order":1706,"least":1707,"uring":1708,"aul":1709,"mot":1710,"Finally":1711,"cir":1712,"mess":1713,"appeared":1714,"pow":1715,"attr":1716,"30":1717,"comfortable":1718,"oc":1719,"restaur":1720,"enter":1721,"free":1722,"ana":1723,"legs":1724,"course":1725,"embarrassed":1726,"anim":1727,"cking":1728,"sleeping":1729,"val":1730,"windows":1731,"Ro":1732,"Ar":1733,"killed":1734,"19":1735,"deep":1736,"hop":1737,"brought":1738,"card":1739,"story":1740,"pointed":1741,"certain":1742,"recall":1743,"hanging":1744,"sli":1745,"restaurant":1746,"held":1747,"law":1748,"spot":1749,"wat":1750,"cold":1751,"hole":1752,"mouth":1753,"minutes":1754,"fact":1755,"hn":1756,"lived":1757,"river":1758,"parking":1759,"fing":1760,"hy":1761,"ili":1762,"shel":1763,"icular":1764,"For":1765,"Ne":1766,"fit":1767,"ial":1768,"track":1769,"acted":1770,"idge":1771,"pictures":1772,"kno":1773,"words":1774,"push":1775,"ture":1776,"ition":1777,"odd":1778,"takes":1779,"ove":1780,"event":1781,"safe":1782,"hun":1783,"ushed":1784,"ations":1785,"understand":1786,"apparent":1787,"lly":1788,"iversity":1789,"shoes":1790,"aged":1791,"van":1792,"log":1793,"cident":1794,"idea":1795,"exp":1796,"cab":1797,"touch":1798,"John":1799,"Don":1800,"ages":1801,"Sam":1802,"exact":1803,"dreams":1804,"giving":1805,"bal":1806,"mes":1807,"win":1808,"wake":1809,"wear":1810,"locked":1811,"invol":1812,"Mat":1813,"itch":1814,"arrow":1815,"direction":1816,"sun":1817,"mountain":1818,"complete":1819,"ef":1820,"comm":1821,"cup":1822,"college":1823,"Su":1824,"doctor":1825,"worked":1826,"sug":1827,"20":1828,"join":1829,"hide":1830,"haps":1831,"walls":1832,"vious":1833,"riding":1834,"suggest":1835,"gen":1836,"kets":1837,"straight":1838,"ged":1839,"thew":1840,"dinner":1841,"nce":1842,"ud":1843,"iness":1844,"Something":1845,"py":1846,"whether":1847,"driver":1848,"voice":1849,"furn":1850,"bow":1851,"reach":1852,"mbers":1853,"horse":1854,"fli":1855,"lake":1856,"path":1857,"trees":1858,"Frank":1859,"apparently":1860,"Matthew":1861,"grand":1862,"particular":1863,"Jere":1864,"bered":1865,"crying":1866,"poss":1867,"lood":1868,"plastic":1869,"strong":1870,"bring":1871,"machine":1872,"vide":1873,"aking":1874,"thru":1875,"tle":1876,"helping":1877,"ago":1878,"leg":1879,"shower":1880,"Re":1881,"team":1882,"whom":1883,"Mo":1884,"pping":1885,"attention":1886,"danger":1887,"fat":1888,"mbered":1889,"grabbed":1890,"exam":1891,"Just":1892,"fer":1893,"resp":1894,"allow":1895,"remembered":1896,"Grand":1897,"iet":1898,"war":1899,"inclu":1900,"country":1901,"sof":1902,"size":1903,"square":1904,"pants":1905,"ror":1906,"gue":1907,"problem":1908,"Two":1909,"fre":1910,"mad":1911,"lunch":1912,"escape":1913,"couch":1914,"tired":1915,"Co":1916,"wave":1917,"although":1918,"danc":1919,"irth":1920,"ustr":1921,"given":1922,"May":1923,"ric":1924,"doll":1925,"days":1926,"passed":1927,"five":1928,"acters":1929,"writing":1930,"bur":1931,"agre":1932,"wever":1933,"lean":1934,"anyone":1935,"Ram":1936,"grass":1937,"arch":1938,"wel":1939,"aff":1940,"discus":1941,"exactly":1942,"reading":1943,"race":1944,"fur":1945,"leaves":1946,"pair":1947,"became":1948,"roof":1949,"norm":1950,"above":1951,"birth":1952,"garage":1953,"cous":1954,"________":1955,"question":1956,"sor":1957,"smo":1958,"offe":1959,"finished":1960,"sal":1961,"nearby":1962,"aware":1963,"Christ":1964,"temp":1965,"famili":1966,"younger":1967,"ery":1968,"shut":1969,"wondered":1970,"makes":1971,"seated":1972,"De":1973,"threw":1974,"perhaps":1975,"flying":1976,"write":1977,"Aunt":1978,"mag":1979,"naked":1980,"jumped":1981,"block":1982,"stick":1983,"places":1984,"conne":1985,"turns":1986,"tables":1987,"Another":1988,"experi":1989,"bridge":1990,"unk":1991,"sage":1992,"fence":1993,"named":1994,"remind":1995,"lored":1996,"classmate":1997,"impress":1998,"bare":1999,"lear":2000,"walks":2001,"rece":2002,"excited":2003,"hood":2004,"moment":2005,"bra":2006,"iled":2007,"interested":2008,"continu":2009,"usual":2010,"diff":2011,"organ":2012,"bic":2013,"asleep":2014,"ries":2015,"trave":2016,"fect":2017,"narrow":2018,"early":2019,"power":2020,"video":2021,"rub":2022,"pes":2023,"tw":2024,"rol":2025,"downstairs":2026,"BL":2027,"If":2028,"recor":2029,"speak":2030,"funny":2031,"gular":2032,"staying":2033,"metal":2034,"complain":2035,"laughing":2036,"involved":2037,"cand":2038,"shoot":2039,"students":2040,"word":2041,"waking":2042,"loud":2043,"answer":2044,"bird":2045,"rent":2046,"broken":2047,"difficul":2048,"**":2049,"ib":2050,"warm":2051,"aster":2052,"convers":2053,"pieces":2054,"ered":2055,"medi":2056,"played":2057,"parked":2058,"graph":2059,"enjo":2060,"visit":2061,"Jeremy":2062,"bought":2063,"pill":2064,"asing":2065,"singing":2066,"Mr":2067,"tiny":2068,"business":2069,"lling":2070,"ier":2071,"fellow":2072,"neck":2073,"Ell":2074,"crowd":2075,"dru":2076,"iture":2077,"kes":2078,"okay":2079,"ging":2080,"heav":2081,"ently":2082,"hile":2083,"known":2084,"tory":2085,"cap":2086,"furniture":2087,"Bob":2088,"ze":2089,"accident":2090,"colored":2091,"written":2092,"slowly":2093,"var":2094,"cean":2095,"gro":2096,"chairs":2097,"himself":2098,"12":2099,"expe":2100,"deal":2101,"gram":2102,"Suddenly":2103,"Fe":2104,"sky":2105,"While":2106,"fine":2107,"center":2108,"bul":2109,"sil":2110,"setting":2111,"Ju":2112,"ised":2113,"sheet":2114,"stood":2115,"Everyone":2116,"wra":2117,"die":2118,"acking":2119,"prof":2120,"sexual":2121,"sense":2122,"sick":2123,"lier":2124,"coat":2125,"basement":2126,"tape":2127,"wedding":2128,"level":2129,"boxes":2130,"eye":2131,"meant":2132,"haven":2133,"Th":2134,"stri":2135,"ends":2136,"mention":2137,"conversation":2138,"scar":2139,"50":2140,"kne":2141,"sim":2142,"hell":2143,"terri":2144,"stuck":2145,"tun":2146,"ils":2147,"completely":2148,"vice":2149,"count":2150,"flat":2151,"drink":2152,"tele":2153,"laying":2154,"Darren":2155,"City":2156,"Jack":2157,"ened":2158,"special":2159,"reat":2160,"grad":2161,"Paul":2162,"import":2163,"cting":2164,"gas":2165,"third":2166,"filled":2167,"Maybe":2168,"Dor":2169,"Me":2170,"atever":2171,"showing":2172,"familiar":2173,"pot":2174,"friendly":2175,"ocean":2176,"week":2177,"university":2178,"cabin":2179,"chick":2180,"fold":2181,"wooden":2182,"watched":2183,"Thou":2184,"seats":2185,"questions":2186,"Bri":2187,"six":2188,"ying":2189,"OK":2190,"continue":2191,"including":2192,"note":2193,"alley":2194,"comment":2195,"burn":2196,"female":2197,"offic":2198,"followed":2199,"patient":2200,"porch":2201,"Father":2202,"cket":2203,"mir":2204,"vac":2205,"stair":2206,"action":2207,"basket":2208,"pink":2209,"search":2210,"wet":2211,"pose":2212,"proper":2213,"sol":2214,"agree":2215,"distance":2216,"blood":2217,"glad":2218,"slight":2219,"uation":2220,"libr":2221,"ith":2222,"longer":2223,"pract":2224,"Howard":2225,"vous":2226,"circle":2227,"rect":2228,"ature":2229,"ican":2230,"steep":2231,"secre":2232,"Step":2233,"hug":2234,"skin":2235,"hallway":2236,"tou":2237,"shift":2238,"dam":2239,"dra":2240,"curtain":2241,"fil":2242,"tee":2243,"wondering":2244,"instru":2245,"gives":2246,"Stephen":2247,"ax":2248,"spo":2249,"nel":2250,"audience":2251,"grade":2252,"important":2253,"Will":2254,"craw":2255,"sidewalk":2256,"ilt":2257,"Ellie":2258,"Ly":2259,"bright":2260,"ired":2261,"mix":2262,"separ":2263,"etting":2264,"everybody":2265,"sou":2266,"cell":2267,"crazy":2268,"Mrs":2269,"below":2270,"vent":2271,"ilar":2272,"Ann":2273,"cute":2274,"hours":2275,"heavy":2276,"wash":2277,"aren":2278,"pleas":2279,"falling":2280,"Mic":2281,"os":2282,"ines":2283,"teach":2284,"nervous":2285,"dining":2286,"Car":2287,"bike":2288,"ife":2289,"world":2290,"sudden":2291,"orange":2292,"carrying":2293,"position":2294,"nur":2295,"confused":2296,"cousin":2297,"emplo":2298,"gather":2299,"mail":2300,"buildings":2301,"cool":2302,"ied":2303,"sides":2304,"whatever":2305,"wheelchair":2306,"similar":2307,"Bo":2308,"library":2309,"secret":2310,"cture":2311,"These":2312,"apo":2313,"finish":2314,"normal":2315,"ney":2316,"frustr":2317,"papers":2318,"???":2319,"belong":2320,"somewhat":2321,"scream":2322,"radio":2323,"Nana":2324,"ba":2325,"inform":2326,"quiet":2327,"dancing":2328,"Feel":2329,"Eng":2330,"Andrew":2331,"ancy":2332,"Charla":2333,"recognize":2334,"pile":2335,"sometimes":2336,"cream":2337,"Christmas":2338,"fu":2339,"jac":2340,"teen":2341,"busy":2342,"evin":2343,"grow":2344,"relation":2345,"Je":2346,"icks":2347,"shows":2348,"cially":2349,"oose":2350,"bill":2351,"thick":2352,"closer":2353,"calling":2354,"sees":2355,"houses":2356,"blan":2357,"Setting":2358,"To":2359,"ghed":2360,"ler":2361,"wards":2362,"lift":2363,"carry":2364,"program":2365,"contain":2366,"15":2367,"Mel":2368,"oun":2369,"hour":2370,"camera":2371,"following":2372,"bottle":2373,"oh":2374,"pushed":2375,"starting":2376,"closet":2377,"ben":2378,"omb":2379,"reg":2380,"selves":2381,"appear":2382,"date":2383,"hope":2384,"earlier":2385,"shape":2386,"soft":2387,"?)":2388,"Amer":2389,"Kevin":2390,"reached":2391,"icle":2392,"button":2393,"feels":2394,"ghts":2395,"opening":2396,"ycle":2397,"laughed":2398,"arrived":2399,"ert":2400,"become":2401,"cook":2402,"lap":2403,"irty":2404,"mit":2405,"nic":2406,"eral":2407,"ceiling":2408,"missed":2409,"fra":2410,"sus":2411,"cause":2412,"ager":2413,"state":2414,"acks":2415,"wide":2416,"classroom":2417,"motor":2418,"control":2419,"stayed":2420,"dangerous":2421,"mediately":2422,"sits":2423,"bing":2424,"facing":2425,"cards":2426,"ham":2427,"snake":2428,"motion":2429,"sold":2430,"climbed":2431,"Somehow":2432,"zomb":2433,"Thoughts":2434,"tha":2435,"aper":2436,"dorm":2437,"ider":2438,"post":2439,"Uncle":2440,"Bon":2441,"School":2442,"cry":2443,"lit":2444,"ony":2445,"everywhere":2446,"Characters":2447,"Gin":2448,"mil":2449,"ors":2450,"uni":2451,"drop":2452,"Feelings":2453,"uff":2454,"forgot":2455,"sum":2456,"sne":2457,"inking":2458,"animals":2459,"dirt":2460,"mater":2461,"clock":2462,"nearly":2463,"chocol":2464,"profess":2465,"Le":2466,"aced":2467,"apped":2468,"hurry":2469,"kissed":2470,"11":2471,"bank":2472,"during":2473,"nor":2474,"rup":2475,"descri":2476,"bicycle":2477,"various":2478,"ths":2479,"ics":2480,"noise":2481,"gym":2482,"cul":2483,"pop":2484,"rocks":2485,"Mother":2486,"Sh":2487,"brea":2488,"First":2489,"inches":2490,"fear":2491,"tra":2492,"screen":2493,"ais":2494,"mirror":2495,"information":2496,"atur":2497,"espe":2498,"smile":2499,"names":2500,"ility":2501,"minute":2502,"attracted":2503,"Ge":2504,"ali":2505,"attack":2506,"cake":2507,"shopping":2508,"sle":2509,"crowded":2510,"especially":2511,"hesit":2512,"tori":2513,"net":2514,"uncomfortable":2515,"feelings":2516,"needs":2517,"phys":2518,"surround":2519,"matter":2520,"cleaning":2521,"employe":2522,"tight":2523,"que":2524,"listening":2525,"Col":2526,"ris":2527,"forward":2528,"shoo":2529,"beds":2530,"immediately":2531,"cast":2532,"mud":2533,"ledge":2534,".,":2535,"veh":2536,"gold":2537,"antly":2538,"chest":2539,"Ben":2540,"tries":2541,"hiding":2542,"explo":2543,"load":2544,"prote":2545,"slide":2546,"further":2547,"slightly":2548,"ban":2549,"relie":2550,"gged":2551,"yelled":2552,"acting":2553,"letter":2554,"Tom":2555,"dirty":2556,"va":2557,"zz":2558,"ities":2559,"forgotten":2560,"rail":2561,"company":2562,"....":2563,"relationship":2564,"Bar":2565,"Dr":2566,"rope":2567,"amaz":2568,"pee":2569,"tered":2570,"cks":2571,"runs":2572,"cliff":2573,"apolog":2574,"vol":2575,"weight":2576,"parts":2577,"Ind":2578,"ona":2579,"erry":2580,"tub":2581,"keys":2582,"Grandma":2583,"equ":2584,"add":2585,"plate":2586,"roommate":2587,"hoping":2588,"bigger":2589,"agreed":2590,"\",":2591,"lic":2592,"mist":2593,"spr":2594,"mostly":2595,"Any":2596,"knife":2597,"Not":2598,"Rob":2599,"trail":2600,"consc":2601,"dying":2602,"keeps":2603,"finger":2604,"birthday":2605,"repe":2606,"lyn":2607,"boss":2608,"continued":2609,"lu":2610,"pian":2611,"blow":2612,"Joe":2613,"chocolate":2614,"mall":2615,"sea":2616,"oper":2617,"cons":2618,"decor":2619,"pulling":2620,"glasses":2621,"mates":2622,"difficult":2623,"scary":2624,"Dora":2625,"sty":2626,"joke":2627,"offee":2628,"ann":2629,"ashed":2630,"ference":2631,"stem":2632,"happening":2633,"bri":2634,"ute":2635,"knows":2636,"New":2637,"heart":2638,"alive":2639,"clou":2640,"ists":2641,"breast":2642,"Sc":2643,"lish":2644,"stall":2645,"wered":2646,"missing":2647,"double":2648,"ref":2649,"regular":2650,"pregn":2651,"coffee":2652,"ense":2653,"rage":2654,"spir":2655,"Mc":2656,"rush":2657,"sses":2658,"wish":2659,"acter":2660,"herself":2661,"Also":2662,"mentioned":2663,"Why":2664,"antha":2665,"members":2666,"lives":2667,"sweet":2668,"Samantha":2669,"message":2670,"sorry":2671,"cher":2672,"ames":2673,"gher":2674,"frustrated":2675,"dogs":2676,"cafe":2677,"lines":2678,".]":2679,"Our":2680,"sink":2681,"rep":2682,"argu":2683,"newsp":2684,"shoulder":2685,"commun":2686,"possible":2687,"teeth":2688,"forth":2689,"plat":2690,"points":2691,"object":2692,"swing":2693,"colors":2694,"Lu":2695,"atu":2696,"igno":2697,"attached":2698,"conscious":2699,"ices":2700,"cop":2701,"traff":2702,"flowers":2703,"traffic":2704,"bby":2705,"tur":2706,"wand":2707,"speed":2708,"visiting":2709,"paint":2710,"coo":2711,"breakfast":2712,"alarm":2713,"illy":2714,"project":2715,"jam":2716,"lan":2717,"hael":2718,"situation":2719,"character":2720,"plant":2721,"owner":2722,"dreaming":2723,"evening":2724,"driveway":2725,"Te":2726,"bat":2727,"flight":2728,"ns":2729,"chat":2730,"calls":2731,"chicken":2732,"High":2733,"Yes":2734,"ouse":2735,"wanting":2736,"intro":2737,"smaller":2738,"waves":2739,"Michael":2740,"Wally":2741,"ctive":2742,"fro":2743,"shad":2744,"usually":2745,"trans":2746,"ific":2747,"quart":2748,"blon":2749,"system":2750,"entran":2751,"built":2752,"lower":2753,"rench":2754,"bench":2755,"pregnant":2756,"Eli":2757,"logy":2758,"bump":2759,"puts":2760,"lets":2761,"dropped":2762,"Sand":2763,"cow":2764,"gard":2765,"velo":2766,"loose":2767,"broke":2768,"bags":2769,"Ramona":2770,"Eve":2771,"bs":2772,"super":2773,"prison":2774,"appears":2775,"figured":2776,"photos":2777,"shooting":2778,"beat":2779,"sme":2780,"enn":2781,"loved":2782,"ties":2783,"death":2784,"shaped":2785,"piano":2786,"loc":2787,"psy":2788,"shelf":2789,"mid":2790,"chasing":2791,"guard":2792,"threat":2793,"gif":2794,"umb":2795,"beside":2796,"barely":2797,"Nor":2798,"semb":2799,"disap":2800,"easy":2801,"thy":2802,"ison":2803,"orge":2804,"rious":2805,"thered":2806,"waited":2807,"interesting":2808,"awoke":2809,"uses":2810,"introdu":2811,"Dwi":2812,"tour":2813,"ots":2814,"pocket":2815,"knowing":2816,"pleased":2817,"ladder":2818,"blonde":2819,"Dwight":2820,"ctr":2821,"dies":2822,"English":2823,"40":2824,"mark":2825,"heal":2826,"choose":2827,"sult":2828,"woods":2829,"flew":2830,"Wh":2831,"finding":2832,"Other":2833,"streets":2834,"Annie":2835,"bell":2836,"shouldn":2837,"deli":2838,"aps":2839,"ica":2840,"nose":2841,"prep":2842,"falls":2843,"Next":2844,"fas":2845,"inting":2846,"classes":2847,"yelling":2848,"ibly":2849,"Anyway":2850,"Stre":2851,"page":2852,"however":2853,"See":2854,"drun":2855,"island":2856,"sell":2857,"kinds":2858,"American":2859,"pup":2860,"vid":2861,"beer":2862,"usted":2863,"fairly":2864,"active":2865,"mode":2866,"unusual":2867,"thinks":2868,"skirt":2869,"smoke":2870,"entrance":2871,"Dere":2872,"].":2873,"rit":2874,"ork":2875,"suc":2876,"stor":2877,"handed":2878,"happens":2879,"careful":2880,"photograph":2881,"Derek":2882,"CD":2883,"ost":2884,"ption":2885,"returned":2886,"today":2887,"managed":2888,"airport":2889,"stands":2890,"larger":2891,"pleasant":2892,"cru":2893,"sport":2894,"rows":2895,"balls":2896,"raining":2897,"publ":2898,"Street":2899,"gray":2900,"anymore":2901,"headed":2902,"fied":2903,"electr":2904,"ashing":2905,"paid":2906,"fishing":2907,"viously":2908,"nal":2909,"simp":2910,"climbing":2911,"charge":2912,"Chris":2913,"vehicle":2914,"cig":2915,"dry":2916,"chance":2917,"distr":2918,"gging":2919,"gay":2920,"len":2921,"spl":2922,"rolling":2923,"summer":2924,"extra":2925,"arrive":2926,"Ginny":2927,"God":2928,"vies":2929,"turning":2930,"picking":2931,"helped":2932,"vision":2933,"kissing":2934,"leading":2935,"posite":2936,"lab":2937,"stone":2938,"ours":2939,"prepar":2940,"mson":2941,"ugly":2942,"hid":2943,"enger":2944,"lose":2945,"fright":2946,"pulls":2947,"horri":2948,"Bonnie":2949,"!\".":2950,"awa":2951,"rear":2952,"save":2953,"produ":2954,"highway":2955,"drinking":2956,"penis":2957,"However":2958,"199":2959,"assu":2960,"coll":2961,"fighting":2962,"calm":2963,"beginning":2964,"ung":2965,"till":2966,"depart":2967,"Hall":2968,"pect":2969,"smiles":2970,"painting":2971,"strugg":2972,"drawing":2973,"purse":2974,"occur":2975,"garden":2976,"fancy":2977,"rote":2978,"relative":2979,"ensive":2980,"laid":2981,"aisle":2982,"Each":2983,"ita":2984,"stup":2985,"vert":2986,"stret":2987,"ticket":2988,"Jim":2989,"Ms":2990,"hion":2991,"movies":2992,"mission":2993,"throwing":2994,"relieved":2995,"anx":2996,"means":2997,"aret":2998,"works":2999,"ski":3000,"passenger":3001,"grocer":3002,"ium":3003,"opposite":3004,"avo":3005,"direct":3006,"animal":3007,"eventually":3008,"enjoy":3009,"Po":3010,"bear":3011,"icked":3012,"placed":3013,"single":3014,"fingers":3015,"impressed":3016,"tunnel":3017,"ald":3018,"icking":3019,"chan":3020,"nobody":3021,"dishes":3022,"print":3023,"invited":3024,"film":3025,"nurse":3026,"drunk":3027,"wrote":3028,"ord":3029,"accept":3030,"shocked":3031,"lawn":3032,"suggested":3033,"ky":3034,"conference":3035,"letters":3036,"candy":3037,"Brimson":3038,"blanket":3039,"Go":3040,"corn":3041,"extreme":3042,"style":3043,"newspaper":3044,"cart":3045,"sight":3046,"former":3047,"entire":3048,"entered":3049,"notes":3050,"venue":3051,"display":3052,"serious":3053,"surprise":3054,"zombies":3055,"prom":3056,"ined":3057,"wild":3058,"costu":3059,"hol":3060,"worry":3061,"stupid":3062,"Can":3063,"Tho":3064,"ender":3065,"steal":3066,"evil":3067,"avor":3068,"sque":3069,"bowl":3070,"learn":3071,"accidentally":3072,"App":3073,"bye":3074,"forest":3075,"approach":3076,"neighborhood":3077,"particularly":3078,"basketball":3079,"disappointed":3080,"bread":3081,"ram":3082,"downtown":3083,"Is":3084,"faces":3085,"packing":3086,"ats":3087,"cost":3088,"tiv":3089,"West":3090,"auto":3091,"horses":3092,"numbers":3093,"arp":3094,"moves":3095,"guil":3096,"tracks":3097,"flir":3098,"touched":3099,"Dan":3100,"stro":3101,"force":3102,"higher":3103,"stops":3104,"torium":3105,"mur":3106,"wing":3107,"actor":3108,"comb":3109,"guest":3110,"handle":3111,"floating":3112,"design":3113,"related":3114,"****":3115,"Pat":3116,"gently":3117,"uncle":3118,"conv":3119,"dish":3120,"rolled":3121,"directions":3122,"Evelyn":3123,"Mer":3124,"rough":3125,"joking":3126,"auditorium":3127,"wrapped":3128,"tally":3129,"ination":3130,"aint":3131,"pres":3132,"hometown":3133,"opens":3134,"carefully":3135,"recognized":3136,"jacket":3137,"Mon":3138,"among":3139,"hers":3140,"human":3141,"changes":3142,"vague":3143,"guilty":3144,"duck":3145,"acqu":3146,"agon":3147,"blind":3148,"knocked":3149,"milk":3150,"za":3151,"likes":3152,"text":3153,"counsel":3154,"twice":3155,"Cl":3156,"den":3157,"gate":3158,"totally":3159,"lies":3160,"items":3161,"obser":3162,"shelves":3163,"allowed":3164,"Let":3165,"farm":3166,"ga":3167,"manage":3168,"tray":3169,"deta":3170,"talks":3171,"correct":3172,"guns":3173,"Before":3174,"George":3175,"Sp":3176,"lf":3177,"non":3178,"acing":3179,"upon":3180,"manager":3181,"rot":3182,"neath":3183,"shout":3184,"ret":3185,"leader":3186,"experience":3187,"1997":3188,"French":3189,"ctu":3190,"itor":3191,"izing":3192,"tube":3193,"disg":3194,"perfect":3195,"image":3196,"service":3197,"Big":3198,"Ger":3199,"none":3200,"silly":3201,"share":3202,"news":3203,"miss":3204,"games":3205,"interview":3206,"amazed":3207,"public":3208,"Even":3209,"cing":3210,"clearly":3211,"connected":3212,"gathering":3213,"department":3214,"Jane":3215,"theater":3216,"stit":3217,"club":3218,"easily":3219,"hip":3220,"inda":3221,"stomach":3222,"painted":3223,"magaz":3224,"smell":3225,"Where":3226,"gang":3227,"ening":3228,"unknown":3229,"parti":3230,"stepped":3231,"shore":3232,"100":3233,"gri":3234,"ni":3235,"aches":3236,"activ":3237,"babies":3238,"badly":3239,"interrup":3240,"football":3241,"recei":3242,"traveling":3243,"lecture":3244,"iron":3245,"ston":3246,"angle":3247,"picnic":3248,"underneath":3249,"laund":3250,"18":3251,"Are":3252,"issa":3253,"arry":3254,"imag":3255,"answered":3256,"arently":3257,"ances":3258,"changing":3259,"properly":3260,"Colle":3261,"Apparently":3262,"ato":3263,"bother":3264,"mini":3265,"mand":3266,"pas":3267,"recent":3268,"wire":3269,"loves":3270,"relax":3271,"equip":3272,"Redding":3273,"nge":3274,"itself":3275,"iso":3276,"Church":3277,"lounge":3278,"extremely":3279,"equipment":3280,"Stu":3281,"map":3282,"pit":3283,"stran":3284,"chi":3285,"tie":3286,"spread":3287,"hitting":3288,"balcon":3289,"teaching":3290,"platform":3291,"Ed":3292,"vil":3293,"tern":3294,"spend":3295,"scra":3296,"series":3297,"breasts":3298,"Look":3299,"Mike":3300,"With":3301,"bran":3302,"lied":3303,"forget":3304,"episo":3305,"awake":3306,"terrible":3307,"Nate":3308,"Oak":3309,"aim":3310,"kitten":3311,"natur":3312,"si":3313,"ining":3314,"whis":3315,"holes":3316,"stream":3317,"groups":3318,"cats":3319,"concert":3320,"purple":3321,"pillow":3322,"screaming":3323,"pi":3324,"orig":3325,"adul":3326,"noon":3327,"cycle":3328,"possibly":3329,"Lyn":3330,"Wil":3331,"memor":3332,"chased":3333,"dresses":3334,"Doctor":3335,"Avenue":3336,"iam":3337,"bel":3338,"bits":3339,"hardly":3340,"baseball":3341,"mountains":3342,"storm":3343,"25":3344,"perfor":3345,"earth":3346,"agrees":3347,"atures":3348,"pin":3349,"star":3350,"urb":3351,"player":3352,"meaning":3353,"engine":3354,"effect":3355,"struggle":3356,"kitt":3357,"attemp":3358,"cannot":3359,"priv":3360,"Ramos":3361,"fashion":3362,"mi":3363,"tied":3364,"whose":3365,"offer":3366,"maid":3367,"spec":3368,"attractive":3369,"respon":3370,"Indian":3371,"spray":3372,"laundry":3373,"Valley":3374,"cage":3375,"loving":3376,"tran":3377,"fixed":3378,"knees":3379,"Paulina":3380,"preparing":3381,"El":3382,"bite":3383,"dust":3384,"cement":3385,"dia":3386,"heads":3387,"cigaret":3388,"pis":3389,"towel":3390,"reek":3391,"tickets":3392,"hung":3393,"spoke":3394,"aunt":3395,"cred":3396,"gain":3397,"ware":3398,"cloth":3399,"partner":3400,"brush":3401,"switch":3402,"balcony":3403,"Dav":3404,"mill":3405,"tent":3406,"tles":3407,"keeping":3408,"campus":3409,"eg":3410,"gon":3411,"pal":3412,"ramp":3413,"cave":3414,"reality":3415,"______":3416,"sisters":3417,"ese":3418,"har":3419,"slo":3420,"tap":3421,"often":3422,"checked":3423,"follows":3424,"sounds":3425,"explained":3426,"problems":3427,"fresh":3428,"material":3429,"College":3430,"Span":3431,"remain":3432,"toy":3433,"aded":3434,"true":3435,"host":3436,"pushing":3437,"reminds":3438,"avoid":3439,"Bl":3440,"rout":3441,"result":3442,"stab":3443,"months":3444,"offered":3445,"anxious":3446,"2nd":3447,"Mill":3448,"meat":3449,"usion":3450,"indic":3451,"constru":3452,"isted":3453,"torn":3454,"roller":3455,"viol":3456,"reminded":3457,"telephone":3458,"north":3459,"success":3460,"Cart":3461,"mic":3462,"rich":3463,"ount":3464,"plants":3465,"def":3466,"smiling":3467,"screw":3468,"shoulders":3469,"landed":3470,"giant":3471,"crack":3472,"cabinet":3473,"CA":3474,"Center":3475,"James":3476,"ceed":3477,"study":3478,"compan":3479,"sounded":3480,"expensive":3481,"silver":3482,"describe":3483,"David":3484,"Spanish":3485,"ero":3486,"app":3487,"appy":3488,"lands":3489,"record":3490,"ener":3491,"selling":3492,"themselves":3493,"owned":3494,"backwards":3495,"discovered":3496,"lined":3497,"pressed":3498,"separate":3499,"mistake":3500,"Bu":3501,"ker":3502,"robe":3503,"feed":3504,"Heather":3505,"cano":3506,"scri":3507,"speaking":3508,"buying":3509,"sandw":3510,"practice":3511,"partially":3512,"Gre":3513,"gent":3514,"zen":3515,"smiled":3516,"sneak":3517,"awaken":3518,"By":3519,"Simp":3520,"zed":3521,"cops":3522,"booth":3523,"slip":3524,"Cor":3525,"aks":3526,"eks":3527,"vy":3528,"icip":3529,"mance":3530,"anybody":3531,"disab":3532,"dern":3533,"begins":3534,"shake":3535,"barn":3536,"leaning":3537,"discussing":3538,"Simpson":3539,"Wal":3540,"dig":3541,"resemb":3542,"ences":3543,"teria":3544,"previous":3545,"creep":3546,"planning":3547,"custo":3548,"professor":3549,"Dre":3550,"Mark":3551,"zzy":3552,"chain":3553,"nois":3554,"Asian":3555,"director":3556,"flower":3557,"curtains":3558,"faster":3559,"gown":3560,"vre":3561,"member":3562,"bomb":3563,"assign":3564,"span":3565,"scen":3566,"personal":3567,"Ru":3568,"fut":3569,"leng":3570,"hearing":3571,"thro":3572,"itted":3573,"disappeared":3574,"court":3575,"Er":3576,"Hill":3577,"Happy":3578,"meal":3579,"west":3580,"forms":3581,"neat":3582,"ctions":3583,"hello":3584,"Out":3585,"match":3586,"nap":3587,"report":3588,"boards":3589,"poor":3590,"drives":3591,"waist":3592,"attend":3593,"passing":3594,"lovely":3595,"shoe":3596,"wonderful":3597,"packed":3598,"Steve":3599,"Con":3600,"address":3601,"liqu":3602,"stories":3603,"current":3604,"treat":3605,"Dovre":3606,"surrounded":3607,"Fred":3608,"Or":3609,"Sup":3610,"ius":3611,"rings":3612,"yer":3613,"background":3614,"ourselves":3615,"process":3616,"Several":3617,"purpose":3618,"knock":3619,"Jake":3620,"harm":3621,"brick":3622,"Daddy":3623,"sliding":3624,"touching":3625,"drug":3626,"officer":3627,"Wor":3628,"inch":3629,"sess":3630,"clothing":3631,"div":3632,"goodbye":3633,"attic":3634,"holds":3635,"locker":3636,"shorts":3637,"mitri":3638,"grocery":3639,"natural":3640,"eggs":3641,"Dmitri":3642,"dge":3643,"ience":3644,"soci":3645,"copy":3646,"carried":3647,"inese":3648,"greet":3649,"Lynn":3650,"Ab":3651,"Em":3652,"inal":3653,"afternoon":3654,"laughs":3655,"identif":3656,"gift":3657,"16":3658,"Sue":3659,"Ye":3660,"cro":3661,"ott":3662,"Here":3663,"airplane":3664,"writ":3665,"kisses":3666,"born":3667,"eld":3668,"ado":3669,"doorway":3670,"characters":3671,"craft":3672,"motorcycle":3673,"frightened":3674,"Lots":3675,"gig":3676,"ior":3677,"pil":3678,"outfit":3679,"tru":3680,"carpet":3681,"exit":3682,"yeah":3683,"killing":3684,"expect":3685,"employees":3686,"Eric":3687,"Sund":3688,"bb":3689,"fir":3690,"resc":3691,"ordin":3692,"deer":3693,"crew":3694,"gling":3695,"visible":3696,"drawer":3697,"University":3698,"respons":3699,"complained":3700,"jour":3701,"rist":3702,"butt":3703,"uss":3704,"plic":3705,"spill":3706,"borrow":3707,"explaining":3708,"impression":3709,"episode":3710,"Bet":3711,"ashes":3712,"sticks":3713,"ghost":3714,"Hey":3715,"site":3716,"gress":3717,"Chinese":3718,"spee":3719,"sexually":3720,"crawl":3721,"emer":3722,"luck":3723,"send":3724,"sale":3725,"sched":3726,"thor":3727,"oud":3728,"issu":3729,"shy":3730,"sharp":3731,"assist":3732,"enemy":3733,"priest":3734,"joined":3735,"spirit":3736,"cafeteria":3737,"Lucy":3738,"directly":3739,"Sunday":3740,"math":3741,"pm":3742,"alous":3743,"upper":3744,"raised":3745,"appre":3746,"000":3747,"vacation":3748,"horrible":3749,"length":3750,"ID":3751,"Tim":3752,"pound":3753,"worth":3754,"jumping":3755,"random":3756,"ians":3757,"rate":3758,"vest":3759,"ational":3760,"smoo":3761,"tail":3762,"paying":3763,"mixed":3764,"simply":3765,"Ear":3766,"Mex":3767,"pour":3768,"une":3769,"acy":3770,"riage":3771,"lobby":3772,"contact":3773,"fallen":3774,"actual":3775,"idden":3776,"string":3777,"Most":3778,"frame":3779,"suspic":3780,"Bev":3781,"aven":3782,"anie":3783,"tomor":3784,"lia":3785,"finite":3786,"jealous":3787,"tomorrow":3788,"ai":3789,"bage":3790,"jah":3791,"nis":3792,"angular":3793,"becomes":3794,"lips":3795,"haired":3796,"tooth":3797,"obviously":3798,"flash":3799,"brothers":3800,"bottles":3801,"neighbors":3802,"slept":3803,"private":3804,"14":3805,"Pop":3806,"bble":3807,"favor":3808,"chie":3809,"necess":3810,"underground":3811,"teachers":3812,"gradu":3813,"railroad":3814,"clouds":3815,"fake":3816,"pun":3817,"pig":3818,"uts":3819,"deck":3820,"apple":3821,"occas":3822,"drugs":3823,"container":3824,"Elijah":3825,"recently":3826,"bun":3827,"due":3828,"emotion":3829,"fic":3830,"ushes":3831,"cele":3832,"pointing":3833,"floors":3834,"blocks":3835,"Sandra":3836,"60":3837,"Park":3838,"Tony":3839,"iss":3840,"adv":3841,"ably":3842,"plays":3843,"fru":3844,"tennis":3845,"puzz":3846,"sheets":3847,"squee":3848,"River":3849,"winter":3850,"inks":3851,"arrange":3852,"exer":3853,"breath":3854,"period":3855,"cardboard":3856,"birds":3857,"employee":3858,"Who":3859,"gers":3860,"rd":3861,"ude":3862,"refri":3863,"wore":3864,"tery":3865,"ional":3866,"poison":3867,"stores":3868,"surface":3869,"subject":3870,"Lydia":3871,"growing":3872,"alien":3873,"cash":3874,"ik":3875,"pages":3876,"rele":3877,"els":3878,"corrid":3879,"sexy":3880,"Darius":3881,"answers":3882,"Jeff":3883,"White":3884,"Dream":3885,"celebr":3886,"3rd":3887,"lor":3888,"ump":3889,"hears":3890,"ounce":3891,"stack":3892,"within":3893,"crash":3894,"symp":3895,"hunting":3896,"discussion":3897,"ingly":3898,"ision":3899,"icles":3900,"demon":3901,"contest":3902,"affe":3903,"hungry":3904,"expected":3905,"prepared":3906,"performance":3907,"17":3908,"BJ":3909,"Last":3910,"sco":3911,"uct":3912,"erk":3913,"itar":3914,"alo":3915,"shallow":3916,"grown":3917,"stuffed":3918,"desper":3919,"dollars":3920,"south":3921,"',":3922,"Am":3923,"Daw":3924,"Ken":3925,"wagon":3926,"ading":3927,"termin":3928,"closing":3929,"suppose":3930,"Brian":3931,"cookies":3932,"throat":3933,"exerc":3934,"refriger":3935,"rack":3936,"encou":3937,"icing":3938,"someplace":3939,"express":3940,"blond":3941,"attle":3942,"?\".":3943,"appropri":3944,"German":3945,"future":3946,"Like":3947,"hidden":3948,"miles":3949,"oil":3950,"tan":3951,"ordered":3952,"lled":3953,"pointment":3954,"_____":3955,"pretend":3956,"seconds":3957,"sales":3958,"community":3959,"Carter":3960,"Super":3961,"aked":3962,"dating":3963,"lane":3964,"ads":3965,"amount":3966,"cheese":3967,"cts":3968,"undred":3969,"monster":3970,"comfort":3971,"Au":3972,"em":3973,"hoo":3974,"rab":3975,"asm":3976,"pper":3977,"pray":3978,"awk":3979,"Only":3980,"Grandpa":3981,"leaned":3982,"costume":3983,"piles":3984,"tas":3985,"aron":3986,"staff":3987,"brings":3988,"discover":3989,"Three":3990,"Ale":3991,"Jerry":3992,"Very":3993,"belt":3994,"sau":3995,"iff":3996,"medic":3997,"worker":3998,"ladies":3999,"received":4000,"customer":4001,"Ex":4002,"Sus":4003,"army":4004,"butter":4005,"dock":4006,"cere":4007,"marry":4008,"cutting":4009,"supposedly":4010,"cents":4011,"safety":4012,"Donald":4013,"respond":4014,"washing":4015,"psycho":4016,"Stuart":4017,"Br":4018,"Che":4019,"wise":4020,"alco":4021,"seven":4022,"idence":4023,"achel":4024,"ching":4025,"cheek":4026,"compet":4027,"pical":4028,"classmates":4029,"shirts":4030,"cudd":4031,"apologize":4032,"speech":4033,"awkward":4034,"client":4035,"instructor":4036,"aliens":4037,"quarters":4038,"details":4039,"gentle":4040,"awhile":4041,"mul":4042,"inju":4043,"aly":4044,"lig":4045,"formed":4046,"neg":4047,"general":4048,"television":4049,"attacked":4050,"protect":4051,"magazine":4052,"smooth":4053,"file":4054,"vamp":4055,"itude":4056,"izes":4057,"letting":4058,"structure":4059,"rolls":4060,"Marissa":4061,"separated":4062,"shadow":4063,"relatives":4064,"construction":4065,"Dou":4066,"da":4067,"gage":4068,"tar":4069,"tank":4070,"urin":4071,"trapped":4072,"spent":4073,"wheels":4074,"cases":4075,"travel":4076,"objects":4077,"pilot":4078,"Jay":4079,"Rich":4080,"cine":4081,"hundred":4082,"arily":4083,"ict":4084,"tip":4085,"definite":4086,"conver":4087,"anywhere":4088,"grey":4089,"support":4090,"marks":4091,"planned":4092,"ggy":4093,"signs":4094,"package":4095,"suitcase":4096,"smoking":4097,"enjoying":4098,"argument":4099,"electric":4100,"creepy":4101,"refrigerator":4102,"13":4103,"Brad":4104,"Jap":4105,"kick":4106,"online":4107,"isa":4108,"adm":4109,"union":4110,"shed":4111,"hose":4112,"pole":4113,"ously":4114,"respect":4115,"intersection":4116,"ault":4117,"difficulty":4118,"belonged":4119,"cular":4120,"announ":4121,"kittens":4122,"suspicious":4123,"ceremon":4124,"Event":4125,"Jan":4126,"Ke":4127,"Ma":4128,"Ze":4129,"weak":4130,"ution":4131,"trick":4132,"trunk":4133,"mental":4134,"umn":4135,"condition":4136,"complaining":4137,"physical":4138,"energy":4139,"Jen":4140,"Per":4141,"SA":4142,"bars":4143,"stolen":4144,"checking":4145,"sorts":4146,"dressing":4147,"grabs":4148,"drawn":4149,"cooking":4150,"Westport":4151,"pipe":4152,"Lo":4153,"Many":4154,"Matt":4155,"rat":4156,"toys":4157,"sequ":4158,"Their":4159,"trust":4160,"bored":4161,"spin":4162,"prin":4163,"slam":4164,"grandmother":4165,"rubber":4166,"rectangular":4167,"uffy":4168,"Thomas":4169,"gathered":4170,"Que":4171,"iers":4172,"anna":4173,"straw":4174,"bey":4175,"outdoors":4176,"underwear":4177,"crit":4178,"policeman":4179,"messy":4180,"stairway":4181,"Eventually":4182,"05":4183,"York":4184,"ease":4185,"height":4186,"leve":4187,"chase":4188,"backyard":4189,"rap":4190,"cord":4191,"thank":4192,"creature":4193,"bathtub":4194,"closely":4195,"patio":4196,"approached":4197,"songs":4198,"acquaint":4199,"appropriate":4200,"Fo":4201,"Rachel":4202,"cil":4203,"oon":4204,"piz":4205,"ory":4206,"secur":4207,"covering":4208,"reception":4209,"William":4210,"fruit":4211,"22":4212,"Nat":4213,"Pal":4214,"War":4215,"fool":4216,"gree":4217,"lip":4218,"yester":4219,"helps":4220,"crete":4221,"Because":4222,"sweat":4223,"lifted":4224,"uniform":4225,"Ernie":4226,"45":4227,"Sar":4228,"bent":4229,"blo":4230,"pond":4231,"ues":4232,"ico":4233,"rifle":4234,"quit":4235,"realised":4236,"bushes":4237,"breaking":4238,"sports":4239,"Yeah":4240,"yesterday":4241,"24":4242,"Ok":4243,"sized":4244,"yan":4245,"represent":4246,"weeks":4247,"socks":4248,"rob":4249,"fort":4250,"Sometimes":4251,"rested":4252,"squir":4253,"Everything":4254,"Robert":4255,"guests":4256,"ville":4257,"Dawson":4258,"Wend":4259,"inti":4260,"ena":4261,"stat":4262,"rode":4263,"vern":4264,"ama":4265,"amps":4266,"price":4267,"rug":4268,"Instead":4269,"shops":4270,"planes":4271,"reluct":4272,"Peter":4273,"curious":4274,"powerful":4275,"potato":4276,"canoe":4277,"Ray":4278,"hh":4279,"vic":4280,"remark":4281,"oring":4282,"sticking":4283,"ids":4284,"modern":4285,"tech":4286,"wallet":4287,"final":4288,"famous":4289,"jeans":4290,"jewel":4291,"funeral":4292,"dump":4293,"cleaned":4294,"confusion":4295,"crossed":4296,"Judy":4297,"folded":4298,"trailer":4299,"Since":4300,"vag":4301,"tone":4302,"asy":4303,"mechan":4304,"access":4305,"coins":4306,"ifer":4307,"bodies":4308,"concrete":4309,"erson":4310,"drawers":4311,"staircase":4312,"split":4313,"chips":4314,"Lake":4315,"hook":4316,"incident":4317,"areas":4318,"drey":4319,"istic":4320,"intense":4321,"parade":4322,"landing":4323,"hurried":4324,"month":4325,"crush":4326,"satis":4327,"Home":4328,"gency":4329,"soldiers":4330,"breathe":4331,"refused":4332,"Audrey":4333,"200":4334,"Chu":4335,"Jenn":4336,"NO":4337,"eight":4338,"punch":4339,"ron":4340,"weap":4341,"escal":4342,"spaces":4343,"cheap":4344,"particip":4345,"types":4346,"tax":4347,"desks":4348,"market":4349,"pretending":4350,"dollar":4351,"blankets":4352,"Melanie":4353,"convince":4354,"security":4355,"Hank":4356,"lace":4357,"zer":4358,"erie":4359,"semi":4360,"caused":4361,"cakes":4362,"urt":4363,"trash":4364,"guitar":4365,"carpark":4366,"frant":4367,"resident":4368,"vivid":4369,"Come":4370,"damage":4371,"muddy":4372,"president":4373,"results":4374,"Chuck":4375,"Russ":4376,"dive":4377,"ule":4378,"leather":4379,"stal":4380,"chose":4381,"demand":4382,"appointment":4383,"underwater":4384,"hugged":4385,"easier":4386,"soup":4387,"slee":4388,"consider":4389,"Wendy":4390,"ER":4391,"From":4392,"Lou":4393,"Nick":4394,"Pr":4395,"bunk":4396,"mbo":4397,"mass":4398,"saved":4399,"teasing":4400,"bull":4401,"picks":4402,"helpful":4403,"marriage":4404,"returning":4405,"ferred":4406,"Did":4407,"Qu":4408,"inse":4409,"belly":4410,"golf":4411,"shell":4412,"stove":4413,"perform":4414,"sweater":4415,"spots":4416,"original":4417,"Rudy":4418,"Poppa":4419,"Jennifer":4420,"Dy":4421,"Eu":4422,"Ron":4423,"matt":4424,"pon":4425,"wit":4426,"wine":4427,"coach":4428,"plug":4429,"awful":4430,"choice":4431,"colorful":4432,"shots":4433,"screamed":4434,"annoying":4435,"complex":4436,"brie":4437,"brief":4438,"ignore":4439,"cinema":4440,"Adam":4441,"Run":4442,"Ty":4443,"cried":4444,"ivid":4445,"ism":4446,"limp":4447,"players":4448,"aura":4449,"orgasm":4450,"normally":4451,"ignored":4452,"ctually":4453,"firm":4454,"Rover":4455,"boun":4456,"sar":4457,"zing":4458,"theat":4459,"envelo":4460,"veget":4461,"tured":4462,"studying":4463,"angri":4464,"please":4465,"crashed":4466,"Once":4467,"fixing":4468,"occup":4469,"Benjam":4470,"repeated":4471,"frozen":4472,"liquid":4473,"taste":4474,"Benjamin":4475,"Actually":4476,"Val":4477,"tes":4478,"arran":4479,"soap":4480,"covers":4481,"permission":4482,"tower":4483,"maj":4484,"marked":4485,"hoped":4486,"Both":4487,"langu":4488,"activity":4489,"adult":4490,"vagina":4491,"escalator":4492,"briefly":4493,"aver":4494,"research":4495,"ases":4496,"attered":4497,"mob":4498,"ameter":4499,"foreign":4500,"unders":4501,"athy":4502,"pretended":4503,"killer":4504,"dude":4505,"symbo":4506,"balance":4507,"Part":4508,"Sou":4509,"aid":4510,"relig":4511,"toss":4512,"isting":4513,"account":4514,"iced":4515,"pew":4516,"moon":4517,"float":4518,"skill":4519,"training":4520,"freeway":4521,"certainly":4522,"commit":4523,"castle":4524,"wandering":4525,"Norman":4526,"Good":4527,"Man":4528,"Red":4529,"dgy":4530,"anti":4531,"repair":4532,"sters":4533,"adium":4534,"manner":4535,"worse":4536,"storage":4537,"proceed":4538,"science":4539,"affair":4540,"willing":4541,"boots":4542,"...\"":4543,"flu":4544,"garbage":4545,"fashioned":4546,"beyond":4547,"pizza":4548,"Com":4549,"Of":4550,"Sm":4551,"Sil":4552,"Ti":4553,"Terry":4554,"hate":4555,"inst":4556,"aside":4557,"weather":4558,"deb":4559,"Andy":4560,"dim":4561,"diameter":4562,"ishing":4563,"knee":4564,"furious":4565,"script":4566,"(?)":4567,"IN":4568,"floo":4569,"hon":4570,"junk":4571,"aled":4572,"advert":4573,"plates":4574,"individ":4575,"notion":4576,"bud":4577,"partly":4578,"hugging":4579,"Jackson":4580,"model":4581,"flirting":4582,"gonna":4583,"ceremony":4584,"AL":4585,"Dis":4586,"hits":4587,"sigh":4588,"ino":4589,"waste":4590,"unity":4591,"plans":4592,"bleed":4593,"decides":4594,"workers":4595,"attitude":4596,"rence":4597,"pills":4598,"occurred":4599,"********":4600,"disgusted":4601,"imagine":4602,"cigarette":4603,"disabled":4604,"jewelry":4605,"House":4606,"Niles":4607,"accom":4608,"robot":4609,"raft":4610,"guide":4611,"thrown":4612,"creatures":4613,"dumb":4614,"swam":4615,"watches":4616,"patients":4617,"register":4618,"route":4619,"sandwich":4620,"necessary":4621,"injured":4622,"princi":4623,"Laura":4624,"Satur":4625,"ams":4626,"bothered":4627,"hasn":4628,"bush":4629,"Charlie":4630,"filling":4631,"camping":4632,"physically":4633,"chatting":4634,"occasion":4635,"Again":4636,"Mart":4637,"bly":4638,"gin":4639,"piled":4640,"tire":4641,"tea":4642,"mble":4643,"proud":4644,"steel":4645,"supp":4646,"expecting":4647,"burning":4648,"Scott":4649,"definitely":4650,"angrily":4651,"06":4652,"Bry":4653,"Linda":4654,"vill":4655,"abor":4656,"trap":4657,"raise":4658,"dest":4659,"cheer":4660,"decision":4661,"serv":4662,"eleph":4663,"hills":4664,"eaten":4665,"escaped":4666,"motel":4667,"effort":4668,"connection":4669,"experiment":4670,"learning":4671,"communic":4672,"assistant":4673,"demonstr":4674,"Li":4675,"fail":4676,"ners":4677,"wound":4678,"ising":4679,"chop":4680,"convin":4681,"exhi":4682,"comments":4683,"driven":4684,"create":4685,"juice":4686,"boring":4687,"leads":4688,"anese":4689,"quarter":4690,"introduced":4691,"ordinary":4692,"fault":4693,"mal":4694,"mast":4695,"mask":4696,"itary":4697,"ades":4698,"cha":4699,"docu":4700,"usty":4701,"carto":4702,"spring":4703,"___":4704,"iously":4705,"created":4706,"collection":4707,"suggests":4708,"graduation":4709,"searching":4710,"bathing":4711,"buttons":4712,"zombie":4713,"breaks":4714,"loaded":4715,"Others":4716,"memory":4717,"CAS":4718,"major":4719,"Ryan":4720,"ckets":4721,"lug":4722,"init":4723,"invest":4724,"resort":4725,"weed":4726,"forced":4727,"claim":4728,"sets":4729,"resist":4730,"distur":4731,"cousins":4732,"vacu":4733,"secretary":4734,"emergency":4735,"competition":4736,"Japanese":4737,"\"]":4738,"Far":4739,"Gran":4740,"Ret":4741,"tag":4742,"ountain":4743,"oned":4744,"aling":4745,"adjust":4746,"icop":4747,"chu":4748,"develo":4749,"stock":4750,"scoo":4751,"helicop":4752,"dresser":4753,"mouse":4754,"beauty":4755,"machines":4756,"throws":4757,"solid":4758,"solute":4759,"attempt":4760,"About":4761,"appreci":4762,"Del":4763,"Jason":4764,"Med":4765,"Miss":4766,"athe":4767,"blocked":4768,"associ":4769,"beard":4770,"utter":4771,"ford":4772,"mansion":4773,"sharing":4774,"tears":4775,"housemate":4776,"rang":4777,"iah":4778,"boats":4779,"returns":4780,"bringing":4781,"learned":4782,"bullets":4783,"burned":4784,"crawling":4785,"professional":4786,"health":4787,"photographs":4788,"Day":4789,"Dary":4790,"Ted":4791,"cot":4792,"dou":4793,"ears":4794,"fab":4795,"pad":4796,"pies":4797,"heat":4798,"orn":4799,"ency":4800,"aming":4801,"cock":4802,"saur":4803,"shit":4804,"shook":4805,"useum":4806,"qual":4807,"quet":4808,"rank":4809,"thoughts":4810,"grew":4811,"Inside":4812,"jumps":4813,"discuss":4814,"strip":4815,"bills":4816,"hesitate":4817,"apologized":4818,"disgust":4819,"World":4820,"schedule":4821,"issue":4822,"Saturday":4823,"Daryl":4824,"1st":4825,"RE":4826,"Si":4827,"lle":4828,"rushed":4829,"tit":4830,"sting":4831,"ote":4832,"tian":4833,"shiny":4834,"destro":4835,"cans":4836,"ives":4837,"typical":4838,"dio":4839,"realizing":4840,"rude":4841,"attending":4842,"judge":4843,"planet":4844,"figures":4845,"crossing":4846,"Rey":4847,"organized":4848,"commented":4849,"skinny":4850,"repeat":4851,"located":4852,"stranger":4853,"pisto":4854,"Outside":4855,"favorite":4856,"masturb":4857,"AN":4858,"Face":4859,"files":4860,"rehears":4861,"staring":4862,"opport":4863,"guards":4864,"tood":4865,"author":4866,"bleacher":4867,"images":4868,"lted":4869,"layer":4870,"pump":4871,"ibility":4872,"appearance":4873,"laptop":4874,"swinging":4875,"corridor":4876,"multi":4877,"tast":4878,"zoo":4879,"tonight":4880,"tible":4881,"backed":4882,"offers":4883,"clerk":4884,"lighted":4885,"roads":4886,"rides":4887,"concern":4888,"panic":4889,"tempor":4890,"loudly":4891,"replied":4892,"collap":4893,"vaguely":4894,"branch":4895,"Okay":4896,"understood":4897,"Harry":4898,"King":4899,"bene":4900,"east":4901,"wished":4902,"andy":4903,"toes":4904,"rod":4905,"condo":4906,"horiz":4907,"pickup":4908,"gener":4909,"puppy":4910,"distracted":4911,"specific":4912,"drain":4913,"gall":4914,"ige":4915,"passes":4916,"heaps":4917,"refle":4918,"oft":4919,"pel":4920,"suits":4921,"exha":4922,"spider":4923,"finds":4924,"compart":4925,"desert":4926,"content":4927,"merton":4928,"impro":4929,"drown":4930,"weekend":4931,"breathing":4932,"rushing":4933,"arguing":4934,"Wilmerton":4935,"responsible":4936,"exercise":4937,"vacuum":4938,"Larry":4939,"gment":4940,"nes":4941,"osaur":4942,"pitch":4943,"task":4944,"anks":4945,"istr":4946,"web":4947,"vet":4948,"chall":4949,"neither":4950,"sphere":4951,"childhood":4952,"flames":4953,"curb":4954,"nude":4955,"example":4956,"grassy":4957,"tough":4958,"prepare":4959,"approaching":4960,"scenes":4961,"writer":4962,"medicine":4963,"Susan":4964,"Hu":4965,"Sally":4966,"ggling":4967,"alle":4968,"wels":4969,"social":4970,"acc":4971,"cel":4972,"exchange":4973,"difference":4974,"deser":4975,"skate":4976,"slid":4977,"dinosaur":4978,"grandma":4979,"grandfather":4980,"property":4981,"drag":4982,"Carl":4983,"Betty":4984,"language":4985,"Chi":4986,"Lisa":4987,"Sim":4988,"aqu":4989,"cate":4990,"fif":4991,"wrest":4992,"thumb":4993,"role":4994,"choo":4995,"cape":4996,"rape":4997,"stopping":4998,"blew":4999,"element":5000,"tons":5001,"fireplace":5002,"master":5003,"Everybody":5004,"Holly":5005,"crimin":5006,"sofa":5007,"brake":5008,"brakes":5009,"wrap":5010,"teenage":5011,"counselor":5012,"rescue":5013,"theatre":5014,"individual":5015,"TH":5016,"racing":5017,"removed":5018,"toast":5019,"thri":5020,"stadium":5021,"upside":5022,"backs":5023,"visor":5024,"shaking":5025,"pursu":5026,"edges":5027,"reaching":5028,"continues":5029,"quietly":5030,"gifts":5031,"perfectly":5032,"stabbed":5033,"acquaintance":5034,"Facebook":5035,"Cam":5036,"Gu":5037,"Get":5038,"IS":5039,"Kar":5040,"fan":5041,"ffe":5042,"wings":5043,"incred":5044,"sele":5045,"ache":5046,"roman":5047,"chal":5048,"pected":5049,"bling":5050,"blouse":5051,"bubble":5052,"prevent":5053,"steering":5054,"desire":5055,"serving":5056,"tension":5057,"halls":5058,"confident":5059,"pudd":5060,"presentation":5061,"sections":5062,"practicing":5063,"Carol":5064,"England":5065,"Melinda":5066,"military":5067,"luggage":5068,"Nancy":5069,"Par":5070,"Trist":5071,"Wa":5072,"ral":5073,"uc":5074,"ander":5075,"ges":5076,"abs":5077,"absolute":5078,"losing":5079,"unfamiliar":5080,"ulate":5081,"resting":5082,"yourself":5083,"chosen":5084,"packages":5085,"cupboard":5086,"instructions":5087,"Hallo":5088,"presence":5089,"South":5090,"Tristan":5091,"23":5092,"Ber":5093,"Es":5094,"Loo":5095,"hated":5096,"jail":5097,"oven":5098,"pou":5099,"stars":5100,"shall":5101,"nowhere":5102,"startled":5103,"ables":5104,"survi":5105,"Anna":5106,"serve":5107,"grounds":5108,"movement":5109,"ressed":5110,"presents":5111,"circular":5112,"Negro":5113,"actions":5114,"healthy":5115,"ungle":5116,"passage":5117,"branches":5118,"warehouse":5119,"affection":5120,"fabric":5121,"Austr":5122,"Res":5123,"US":5124,"bloo":5125,"egg":5126,"ires":5127,"beha":5128,"outdoor":5129,"worn":5130,"Somebody":5131,"fired":5132,"makeup":5133,"impossible":5134,"jokes":5135,"painful":5136,"noticing":5137,"pattern":5138,"pressure":5139,"magic":5140,"speaker":5141,"dormi":5142,"hesitant":5143,"successful":5144,"convertible":5145,"Austral":5146,"Back":5147,"Mass":5148,"bound":5149,"flights":5150,"oval":5151,"witch":5152,"reunion":5153,"aband":5154,"local":5155,"unable":5156,"tiger":5157,"apers":5158,"waved":5159,"iana":5160,"bert":5161,"pencil":5162,"winner":5163,"location":5164,"Miller":5165,"Europe":5166,"convinced":5167,"Halloween":5168,"Frid":5169,"Hi":5170,"Ter":5171,"bend":5172,"fant":5173,"iv":5174,"ials":5175,"lene":5176,"miah":5177,"nia":5178,"phe":5179,"rick":5180,"rise":5181,"invisible":5182,"isher":5183,"orter":5184,"accent":5185,"wires":5186,"article":5187,"caring":5188,"suck":5189,"bum":5190,"streng":5191,"surger":5192,"swit":5193,"halfway":5194,"embrace":5195,"excuse":5196,"flowing":5197,"flip":5198,"Jeremiah":5199,"recording":5200,"snakes":5201,"decorated":5202,"noisy":5203,"Tyler":5204,"Friday":5205,"Vic":5206,"kicked":5207,"muff":5208,"requ":5209,"washed":5210,"arre":5211,"enced":5212,"season":5213,"besides":5214,"irgin":5215,"unit":5216,"confront":5217,"common":5218,"smart":5219,"protest":5220,"hats":5221,"impat":5222,"slides":5223,"distant":5224,"sweep":5225,"knocking":5226,"Dean":5227,"chickens":5228,"notebook":5229,"simple":5230,"stretched":5231,"automat":5232,"resembled":5233,"Richard":5234,"Zelling":5235,"arranged":5236,"!'.":5237,"70":5238,"Bro":5239,"During":5240,"Izzy":5241,"ifor":5242,"jar":5243,"purch":5244,"twin":5245,"remove":5246,"leans":5247,"iday":5248,"soc":5249,"bee":5250,"Andre":5251,"scattered":5252,"ively":5253,"studio":5254,"struck":5255,"polite":5256,"Although":5257,"counting":5258,"cloud":5259,"assumed":5260,"Jimmy":5261,"interrupted":5262,"journey":5263,"Smith":5264,"helicopter":5265,"opportunity":5266,"surgery":5267,"Easter":5268,"Gr":5269,"Right":5270,"ditch":5271,"vive":5272,"reve":5273,"erick":5274,"wears":5275,"lion":5276,"pets":5277,"causing":5278,"mbs":5279,"forever":5280,"athan":5281,"restroom":5282,"desc":5283,"served":5284,"nail":5285,"yells":5286,"confusing":5287,"Califor":5288,"iety":5289,"stitute":5290,"companion":5291,"identify":5292,"pouring":5293,"encourage":5294,"negative":5295,"Silas":5296,"bleeding":5297,"elephant":5298,"Har":5299,"bi":5300,"bin":5301,"nam":5302,"infe":5303,"inct":5304,"replace":5305,"assemb":5306,"capt":5307,"unhappy":5308,"ified":5309,"determin":5310,"carni":5311,"whoever":5312,"agers":5313,"ppy":5314,"ryl":5315,"bug":5316,"rules":5317,"hurting":5318,"monkey":5319,"Darryl":5320,"cups":5321,"burger":5322,"bullet":5323,"offices":5324,"Gino":5325,"gymn":5326,"introduce":5327,"stones":5328,"Frederick":5329,"mattress":5330,"cartoon":5331,"bleachers":5332,"soccer":5333,"Afr":5334,"Tiny":5335,"Zena":5336,"bba":5337,"fits":5338,"tack":5339,"rend":5340,"ital":5341,"peace":5342,"ury":5343,"shown":5344,"cling":5345,"obvious":5346,"avail":5347,"keyboard":5348,"drinks":5349,"engaged":5350,"slipped":5351,"candles":5352,"fellows":5353,"Queen":5354,"squirrel":5355,"religious":5356,"exhausted":5357,"dormitory":5358,"impatient":5359,"California":5360,"80":5361,"Jens":5362,"Jero":5363,"cure":5364,"gie":5365,"ially":5366,"lone":5367,"pend":5368,"tender":5369,"inner":5370,"oom":5371,"gear":5372,"dodgy":5373,"unte":5374,"indy":5375,"arts":5376,"owns":5377,"history":5378,"Soon":5379,"izarre":5380,"progress":5381,"curly":5382,"couples":5383,"erection":5384,"signal":5385,"taller":5386,"More":5387,"silent":5388,"liter":5389,"announce":5390,"McDonald":5391,"threatening":5392,"correctly":5393,"doub":5394,"pistol":5395,"captain":5396,"Jerome":5397,"90":5398,"911":5399,"AT":5400,"Ped":5401,"Rose":5402,"Sant":5403,"fting":5404,"gant":5405,"lat":5406,"inno":5407,"request":5408,"tops":5409,"ular":5410,"bled":5411,"medical":5412,"smashed":5413,"printing":5414,"heading":5415,"singer":5416,"mistry":5417,"function":5418,"tongue":5419,"invit":5420,"signed":5421,"Roche":5422,"kneel":5423,"Mean":5424,"volunte":5425,"orders":5426,"costumes":5427,"stealing":5428,"jokingly":5429,"awakened":5430,"assignment":5431,"customers":5432,"Valerie":5433,"carnival":5434,"AR":5435,"Cap":5436,"Gary":5437,"Sure":5438,"XX":5439,"toma":5440,"atmo":5441,"enters":5442,"defe":5443,"dete":5444,"device":5445,"poster":5446,"buried":5447,"typing":5448,"aud":5449,"jected":5450,"drops":5451,"horror":5452,"polit":5453,"stern":5454,"berry":5455,"factory":5456,"candle":5457,"captured":5458,"terribly":5459,"crawled":5460,"Boy":5461,"cigarettes":5462,"squeeze":5463,"strength":5464,"Pedro":5465,"atmosphere":5466,"CR":5467,"Karen":5468,"Native":5469,"Phi":5470,"bang":5471,"iel":5472,"mm":5473,"mut":5474,"wis":5475,"theme":5476,"ises":5477,"enclosed":5478,"sewing":5479,"fortun":5480,"coin":5481,"peek":5482,"loss":5483,"railing":5484,"const":5485,"suite":5486,"focus":5487,"disease":5488,"understanding":5489,"version":5490,"catching":5491,"entertain":5492,"frequ":5493,"shifted":5494,"Bonita":5495,"holiday":5496,"tornado":5497,"Bubba":5498,"sauce":5499,"Esther":5500,"?).":5501,"Ca":5502,"Cu":5503,"Little":5504,"Main":5505,"bizarre":5506,"fig":5507,"mare":5508,"wed":5509,"rever":5510,"total":5511,"asure":5512,"llo":5513,"irrit":5514,"thern":5515,"fork":5516,"unks":5517,"shorter":5518,"remembering":5519,"fridge":5520,"lighting":5521,"maze":5522,"shield":5523,"lays":5524,"Nothing":5525,"idently":5526,"lessly":5527,"bedrooms":5528,"arrives":5529,"stairwell":5530,"blowing":5531,"prisoner":5532,"adults":5533,"divor":5534,"psychology":5535,"vampire":5536,"Jayson":5537,"levels":5538,"Runescape":5539,"Bryan":5540,"absolutely":5541,"Ce":5542,"lid":5543,"rell":5544,"rely":5545,"asp":5546,"asha":5547,"leap":5548,"ability":5549,"manual":5550,"grate":5551,"conside":5552,"ety":5553,"exposed":5554,"blank":5555,"oldest":5556,"throughout":5557,"handsome":5558,"phones":5559,"spell":5560,"dropping":5561,"insist":5562,"anced":5563,"snuck":5564,"collect":5565,"panel":5566,"fields":5567,"Star":5568,"Arm":5569,"events":5570,"bald":5571,"dolls":5572,"connect":5573,"rubbing":5574,"North":5575,"deliver":5576,"Merle":5577,"Perhaps":5578,"exhibit":5579,"Santa":5580,"considered":5581,"?'":5582,"Girl":5583,"Haven":5584,"Year":5585,"],":5586,"creek":5587,"fed":5588,"faded":5589,"lack":5590,"pier":5591,"tled":5592,"becoming":5593,"vey":5594,"rose":5595,"nels":5596,"sheep":5597,"plot":5598,"concent":5599,"spending":5600,"---":5601,"balloon":5602,"formal":5603,"Jose":5604,"crou":5605,"struggling":5606,"trucks":5607,"slipp":5608,"safely":5609,"burst":5610,"salad":5611,"circles":5612,"Joey":5613,"ritual":5614,"principal":5615,"investig":5616,"Ave":5617,"Kat":5618,"Lor":5619,"gle":5620,"nity":5621,"ray":5622,"yd":5623,"yards":5624,"thus":5625,"ambul":5626,"wolf":5627,"sideways":5628,"overhead":5629,"asty":5630,"playground":5631,"tions":5632,"supper":5633,"shock":5634,"trim":5635,"shapes":5636,"bara":5637,"iology":5638,"computers":5639,"toilets":5640,"daughters":5641,"powder":5642,"________________":5643,"regard":5644,"Barb":5645,"stalls":5646,"wander":5647,"channel":5648,"printed":5649,"accepted":5650,"session":5651,"chief":5652,"rabbit":5653,"Alex":5654,"urinate":5655,"Sarah":5656,"village":5657,"?'.":5658,"Flet":5659,"hone":5660,"museum":5661,"sens":5662,"icy":5663,"coast":5664,"inde":5665,"drew":5666,"illa":5667,"suic":5668,"quiz":5669,"complic":5670,"attended":5671,"survive":5672,"Josh":5673,"courty":5674,"paired":5675,"cubic":5676,"lawyer":5677,"logical":5678,"doctors":5679,"Barbara":5680,"decorations":5681,"slope":5682,"noises":5683,"Mexico":5684,"behavi":5685,"Fletcher":5686,"Cindy":5687,"En":5688,"Fl":5689,"Jared":5690,"Long":5691,"Thur":5692,"Wo":5693,"dut":5694,"eu":5695,"flood":5696,"jungle":5697,"pale":5698,"taught":5699,"remarks":5700,"toe":5701,"acious":5702,"amuse":5703,"chor":5704,"urine":5705,"unlocked":5706,"grin":5707,"contr":5708,"conven":5709,"sugar":5710,"stole":5711,"spy":5712,"chemistry":5713,"clut":5714,"scram":5715,"homes":5716,"bride":5717,"happily":5718,"waiter":5719,"spect":5720,"ridicul":5721,"barrel":5722,"pajam":5723,"grave":5724,"basically":5725,"threatened":5726,"stretch":5727,"response":5728,"_______":5729,"score":5730,"accompl":5731,"horizon":5732,"romantic":5733,"Armstrong":5734,"Kim":5735,"Min":5736,"Sha":5737,"Still":5738,"jet":5739,"las":5740,"twent":5741,"refer":5742,"towels":5743,"assure":5744,"alright":5745,"soda":5746,"iches":5747,"entry":5748,"entering":5749,"scr":5750,"scare":5751,"angled":5752,"joy":5753,"hugs":5754,"ships":5755,"shotgun":5756,"rocky":5757,"ipes":5758,"legal":5759,"folding":5760,"unior":5761,"actors":5762,"ducks":5763,"Class":5764,"observing":5765,"shouting":5766,"miniature":5767,"pillows":5768,"Green":5769,"lucky":5770,"Rivertown":5771,"sympathe":5772,"desperately":5773,"document":5774,"Retreat":5775,"available":5776,"35":5777,"Jon":5778,"Jill":5779,"Up":5780,"eve":5781,"hunt":5782,"pipes":5783,"via":5784,"anne":5785,"regre":5786,"remode":5787,"stare":5788,"ader":5789,"sob":5790,"chin":5791,"hired":5792,"peel":5793,"plent":5794,"rah":5795,"knowledge":5796,"tune":5797,"atted":5798,"skating":5799,"curled":5800,"locks":5801,"invite":5802,"farther":5803,"flies":5804,"recorder":5805,"shifts":5806,"Sharon":5807,"seriously":5808,"Space":5809,"envelope":5810,"occupied":5811,"4th":5812,"Hil":5813,"II":5814,"bay":5815,"email":5816,"fountain":5817,"glow":5818,"rac":5819,"het":5820,"rec":5821,"added":5822,"wipe":5823,"gestu":5824,"sail":5825,"opin":5826,"nodd":5827,"dried":5828,"actress":5829,"marble":5830,"treated":5831,"jobs":5832,"Alan":5833,"berries":5834,"audio":5835,"waters":5836,"sunny":5837,"soldier":5838,"puppies":5839,"strangers":5840,"disturbed":5841,"Media":5842,"courtyard":5843,"Ac":5844,"nical":5845,"phi":5846,"scan":5847,"incl":5848,"reaches":5849,"ands":5850,"encounter":5851,"goal":5852,"antage":5853,"stool":5854,"aternity":5855,"dial":5856,"disappear":5857,"ruined":5858,"lighter":5859,"wallow":5860,"harder":5861,"inky":5862,"reasons":5863,"apartments":5864,"gravel":5865,"exciting":5866,"fuzzy":5867,"America":5868,"golden":5869,"prisoners":5870,"Mexican":5871,"taxi":5872,"ALL":5873,"Rochelle":5874,"amusement":5875,"plenty":5876,"Ah":5877,"Cla":5878,"Love":5879,"Mor":5880,"Tru":5881,"Washing":5882,"Yet":5883,"dess":5884,"hab":5885,"lon":5886,"lav":5887,"loft":5888,"mush":5889,"races":5890,"itions":5891,"enorm":5892,"bears":5893,"govern":5894,"degree":5895,"item":5896,"fraternity":5897,"rugs":5898,"resent":5899,"swir":5900,"lately":5901,"musical":5902,"disturb":5903,"calcul":5904,"Juli":5905,"containers":5906,"refuse":5907,"combination":5908,"magazines":5909,"whisper":5910,"puzzle":5911,"Mabel":5912,"proceeded":5913,"destination":5914,"suicide":5915,"Dick":5916,"Jones":5917,"ejac":5918,"fal":5919,"nut":5920,"nature":5921,"padd":5922,"retri":5923,"seed":5924,"amus":5925,"coaster":5926,"lover":5927,"likely":5928,"shining":5929,"roommates":5930,"backpack":5931,"elbow":5932,"apping":5933,"gum":5934,"Anderson":5935,"bugs":5936,"intended":5937,"walkway":5938,"acts":5939,"evidently":5940,"monitor":5941,"intercourse":5942,"ators":5943,"catches":5944,"dentist":5945,"signific":5946,"grav":5947,"positive":5948,"cries":5949,"deeper":5950,"organiz":5951,"coats":5952,"terrified":5953,"collar":5954,"shouted":5955,"Edward":5956,"determined":5957,"regret":5958,"Amy":5959,"Ari":5960,"Jas":5961,"Sto":5962,"based":5963,"cid":5964,"ckey":5965,"lun":5966,"nun":5967,"swallow":5968,"hero":5969,"stain":5970,"rier":5971,"ripped":5972,"feather":5973,"whenever":5974,"Hel":5975,"artist":5976,"eline":5977,"pos":5978,"ila":5979,"commer":5980,"afford":5981,"diary":5982,"needle":5983,"lesb":5984,"flag":5985,"distinct":5986,"mote":5987,"messed":5988,"spotted":5989,"shelter":5990,"warn":5991,"included":5992,"families":5993,"medium":5994,"benches":5995,"license":5996,"credit":5997,"Emma":5998,"truth":5999,"alcohol":6000,"frantically":6001,"Wait":6002,"Washington":6003,"government":6004,"21":6005,"75":6006,"Mid":6007,"None":6008,"awe":6009,"bust":6010,"battle":6011,"cin":6012,"cam":6013,"nasty":6014,"poo":6015,"sang":6016,"sizes":6017,"topic":6018,"argue":6019,"sew":6020,"outs":6021,"coke":6022,"therefore":6023,"ult":6024,"mentally":6025,"previously":6026,"diving":6027,"theirs":6028,"Ange":6029,"speaks":6030,"passion":6031,"fourth":6032,"Beth":6033,"casual":6034,"messing":6035,"reply":6036,"murder":6037,"relaxed":6038,"potatoes":6039,"satisfied":6040,"compartment":6041,"abandoned":6042,"behavior":6043,"Mad":6044,"Tree":6045,"ival":6046,"pac":6047,"pine":6048,"yal":6049,"erly":6050,"isk":6051,"chuck":6052,"acknow":6053,"tires":6054,"tific":6055,"raz":6056,"wherever":6057,"aggress":6058,"suff":6059,"uled":6060,"phy":6061,"lesson":6062,"muscle":6063,"Seamus":6064,"voices":6065,"answering":6066,"Doro":6067,"rising":6068,"explosion":6069,"operating":6070,"batter":6071,"convention":6072,"micro":6073,"cabinets":6074,"aimed":6075,"occasionally":6076,"Australia":6077,"ambulance":6078,"Bible":6079,"Fire":6080,"Gold":6081,"Mag":6082,"Ral":6083,"Stop":6084,"Your":6085,"backing":6086,"croo":6087,"dated":6088,"gor":6089,"incre":6090,"altern":6091,"ara":6092,"advice":6093,"sometime":6094,"shared":6095,"terms":6096,"delic":6097,"depressed":6098,"guilt":6099,"blown":6100,"blade":6101,"tellig":6102,"angles":6103,"fiance":6104,"reser":6105,"clip":6106,"Nobody":6107,"privac":6108,"penny":6109,"excite":6110,"command":6111,"joining":6112,"danced":6113,"burg":6114,"Jackie":6115,"Lee":6116,"operation":6117,"turkey":6118,"Patrick":6119,"Monday":6120,"spilled":6121,"Doug":6122,"ornate":6123,"Sims":6124,"elementary":6125,"Camden":6126,"scratch":6127,"privacy":6128,"CH":6129,"Fishing":6130,"San":6131,"brain":6132,"fa":6133,"kin":6134,"lame":6135,"mood":6136,"racks":6137,"sket":6138,"retreat":6139,"remote":6140,"atio":6141,"lim":6142,"cod":6143,"unless":6144,"posing":6145,"aging":6146,"spacious":6147,"aves":6148,"Somewhere":6149,"ully":6150,"Young":6151,"twins":6152,"shoots":6153,"enjoyed":6154,"finishing":6155,"Scared":6156,"Eliza":6157,"vertical":6158,"pissed":6159,"sandwiches":6160,"admire":6161,"Fox":6162,"intimate":6163,"flooded":6164,"Simon":6165,"Brother":6166,"complicated":6167,"nodded":6168,".'":6169,"Aut":6170,"LE":6171,"bass":6172,"gan":6173,"lamp":6174,"intellig":6175,"meter":6176,"orient":6177,"sore":6178,"god":6179,"otic":6180,"coal":6181,"pean":6182,"cereal":6183,"aine":6184,"pockets":6185,"exe":6186,"blur":6187,"blings":6188,"athol":6189,"booths":6190,"afterwards":6191,"aws":6192,"closest":6193,"shortly":6194,"fellatio":6195,"aze":6196,"listened":6197,"straighten":6198,"squares":6199,"discussed":6200,"receive":6201,"organizing":6202,"practically":6203,"statement":6204,"hammer":6205,"vehicles":6206,"lucid":6207,"groceries":6208,"crocod":6209,"Earth":6210,"graduate":6211,"hundreds":6212,"Meanwhile":6213,"Cathol":6214,"Hal":6215,"Lon":6216,"Off":6217,"Ph":6218,"ey":6219,"fuck":6220,"nine":6221,"nies":6222,"wre":6223,"rer":6224,"reaction":6225,"thigh":6226,"ower":6227,"ida":6228,"ample":6229,"code":6230,"unsure":6231,"trous":6232,"elabor":6233,"explan":6234,"amer":6235,"intention":6236,"lightly":6237,"joked":6238,"nights":6239,"colour":6240,"angel":6241,"visited":6242,"slant":6243,"choir":6244,"subst":6245,"maternal":6246,"relief":6247,"cowork":6248,"horrified":6249,"retard":6250,"siren":6251,"million":6252,"Bradley":6253,"weapon":6254,"Russian":6255,"tasted":6256,"switched":6257,"enormous":6258,"Autumn":6259,"Burt":6260,"Ev":6261,"Had":6262,"Ko":6263,"ON":6264,"buses":6265,"pment":6266,"tly":6267,"heels":6268,"ows":6269,"iders":6270,"beating":6271,"alled":6272,"terror":6273,"dep":6274,"curve":6275,"stepping":6276,"grabbing":6277,"labe":6278,"Charles":6279,"freezer":6280,"venture":6281,"suspect":6282,"surrounding":6283,"messages":6284,"shade":6285,"psych":6286,"Area":6287,"specif":6288,"digging":6289,"sequence":6290,"spinning":6291,"Warcraft":6292,"reluctantly":6293,"skills":6294,"Time":6295,"cotton":6296,"poured":6297,"irritated":6298,"Ralph":6299,"Jam":6300,"Ky":6301,"Kate":6302,"Lost":6303,"Won":6304,"aving":6305,"bon":6306,"bac":6307,"ders":6308,"daw":6309,"gloves":6310,"insur":6311,"replaced":6312,"thread":6313,"errand":6314,"itated":6315,"stiff":6316,"beth":6317,"nest":6318,"pled":6319,"term":6320,"raging":6321,"dev":6322,"aghet":6323,"worst":6324,"excell":6325,"igger":6326,"spark":6327,"spaghet":6328,"girlfriends":6329,"compe":6330,"bucket":6331,"bru":6332,"forehead":6333,"workshop":6334,"wrist":6335,"nightmare":6336,"thanked":6337,"nails":6338,"alongside":6339,"evidence":6340,"shove":6341,"clothed":6342,"ancing":6343,"tests":6344,"believed":6345,"panicked":6346,"powers":6347,"slim":6348,"burnt":6349,"records":6350,"belongs":6351,"Melissa":6352,"queen":6353,"lanes":6354,"transfer":6355,"umbrell":6356,"skiing":6357,"siblings":6358,"violent":6359,"advantage":6360,"released":6361,"statue":6362,"hurriedly":6363,"title":6364,"lonely":6365,"spaghetti":6366,"Brit":6367,"Creek":6368,"Dri":6369,"Dave":6370,"Sal":6371,"Sher":6372,"fare":6373,"ka":6374,"lers":6375,"mice":6376,"pushes":6377,"sword":6378,"ada":6379,"myster":6380,"whist":6381,"features":6382,"articles":6383,"carpe":6384,"nold":6385,"stored":6386,"smash":6387,"waving":6388,"resses":6389,"waitress":6390,"paralle":6391,"suppor":6392,"obst":6393,"pause":6394,"explains":6395,"arriving":6396,"elevators":6397,"engage":6398,"valley":6399,"slips":6400,"welcome":6401,"spoon":6402,"cellar":6403,"pleasure":6404,"exploded":6405,"Robin":6406,"electron":6407,"naldo":6408,"transport":6409,"pounds":6410,"desperate":6411,"Jenny":6412,"challen":6413,"insurance":6414,"Blood":6415,"Dep":6416,"Jes":6417,"Mac":6418,"Old":6419,"Str":6420,"gap":6421,"sive":6422,"ures":6423,"umin":6424,"wid":6425,"itting":6426,"acce":6427,"outer":6428,"roses":6429,"chip":6430,"locking":6431,"unpleasant":6432,"plus":6433,"shamp":6434,"agent":6435,"reddish":6436,"talent":6437,"handful":6438,"settled":6439,"hum":6440,"column":6441,"sleepy":6442,"sons":6443,"cuts":6444,"cleaner":6445,"collecting":6446,"sensu":6447,"faced":6448,"extended":6449,"Rock":6450,"barefoot":6451,"bulb":6452,"Barry":6453,"deliber":6454,"Millie":6455,"assigned":6456,"spiritual":6457,"emotional":6458,"Reynaldo":6459,"Resort":6460,"ridiculous":6461,"referring":6462,"shampoo":6463,"8th":6464,"Ad":6465,"Flor":6466,"IT":6467,"PA":6468,"Small":6469,"Was":6470,"fav":6471,"gross":6472,"nuts":6473,"wag":6474,"revol":6475,"tho":6476,"leaf":6477,"accompan":6478,"ribb":6479,"neare":6480,"acker":6481,"unts":6482,"maneu":6483,"Helen":6484,"owners":6485,"dece":6486,"akes":6487,"blah":6488,"stere":6489,"differently":6490,"curved":6491,"jelly":6492,"hallways":6493,"nicely":6494,"motions":6495,"drum":6496,"official":6497,"tightly":6498,"explode":6499,"consciousness":6500,"cooked":6501,"supervisor":6502,"paintings":6503,"kitty":6504,"divided":6505,"journal":6506,"SAID":6507,"supplies":6508,"innocent":6509,"fortunately":6510,"Cafe":6511,"commercial":6512,"excellent":6513,"Bru":6514,"Gro":6515,"bind":6516,"cough":6517,"fond":6518,"rhy":6519,"sour":6520,"tick":6521,"vas":6522,"vom":6523,"thed":6524,"mend":6525,"rie":6526,"whirl":6527,"appl":6528,"mbled":6529,"inton":6530,"icky":6531,"homework":6532,"ruff":6533,"streetcar":6534,"senior":6535,"portion":6536,"Franc":6537,"embarrassing":6538,"sandy":6539,"graphy":6540,"touches":6541,"dragging":6542,"teenagers":6543,"sneaking":6544,"succeed":6545,"corners":6546,"nonchal":6547,"Germany":6548,"activities":6549,"paste":6550,"transp":6551,"disability":6552,"greeted":6553,"Supernatural":6554,"rapid":6555,"NOT":6556,"disgusting":6557,"excitement":6558,"elaborate":6559,"5th":6560,"Beat":6561,"Coun":6562,"Jess":6563,"Kay":6564,"OR":6565,"Tal":6566,"Tiana":6567,"Vi":6568,"junior":6569,"lord":6570,"patch":6571,"zes":6572,"altar":6573,"ority":6574,"kemon":6575,"pered":6576,"whel":6577,"shark":6578,"ify":6579,"sucked":6580,"ilities":6581,"bund":6582,"realizes":6583,"humor":6584,"fined":6585,"persu":6586,"Chlo":6587,"creating":6588,"movements":6589,"jeep":6590,"steady":6591,"prize":6592,"warned":6593,"questioning":6594,"capture":6595,"Julie":6596,"popcorn":6597,"Christian":6598,"Pokemon":6599,"stitution":6600,"ghosts":6601,"annah":6602,"critic":6603,"reluctant":6604,"weapons":6605,"witness":6606,"deserted":6607,"thrilled":6608,"Looking":6609,"bloody":6610,"pajamas":6611,"sympathetic":6612,"trousers":6613,"Buffy":6614,"East":6615,"Ethan":6616,"Hawa":6617,"Lask":6618,"Virgin":6619,"Whe":6620,"castic":6621,"native":6622,"pens":6623,"zi":6624,"ano":6625,"era":6626,"acle":6627,"tric":6628,"decl":6629,"overwhel":6630,"prove":6631,"disappro":6632,"waterfall":6633,"fier":6634,"daylight":6635,"cording":6636,"oland":6637,"cient":6638,"hurts":6639,"condu":6640,"numer":6641,"farmer":6642,"swamp":6643,"strike":6644,"strips":6645,"spoken":6646,"mixer":6647,"bikes":6648,"Jean":6649,"cookie":6650,"amazing":6651,"wandered":6652,"bumped":6653,"counseling":6654,"tapes":6655,"landscape":6656,"feeding":6657,"Hillary":6658,"graduated":6659,"cuddle":6660,"blocking":6661,"sarcastic":6662,"Disney":6663,"quality":6664,"honest":6665,"London":6666,"Chloe":6667,"Hawai":6668,"Either":6669,"Hun":6670,"Liz":6671,"President":6672,"Wed":6673,"fences":6674,"lting":6675,"ngest":6676,"vale":6677,"xed":6678,"xim":6679,"stamp":6680,"admin":6681,"iction":6682,"ller":6683,"geo":6684,"rocking":6685,"therap":6686,"hiking":6687,"trad":6688,"tear":6689,"raged":6690,"dear":6691,"deter":6692,"youngest":6693,"homo":6694,"exclaim":6695,"playful":6696,"brand":6697,"intri":6698,"intent":6699,"fires":6700,"floated":6701,"insisted":6702,"trains":6703,"snap":6704,"warning":6705,"traveled":6706,"rubs":6707,"rented":6708,"hamburger":6709,"smelled":6710,"dusty":6711,"milling":6712,"Blue":6713,"attendant":6714,"Dyss":6715,"mobile":6716,"choosing":6717,"Jensen":6718,"Classmate":6719,"execut":6720,"specifically":6721,"Florida":6722,"Lasko":6723,"Celine":6724,"Lau":6725,"Men":6726,"Max":6727,"Tigger":6728,"Vince":6729,"eager":6730,"plo":6731,"sack":6732,"von":6733,"vation":6734,"analy":6735,"thes":6736,"beads":6737,"abby":6738,"safer":6739,"caut":6740,"indust":6741,"drill":6742,"drivers":6743,"brace":6744,"pron":6745,"deciding":6746,"joint":6747,"stress":6748,"sert":6749,"trial":6750,"Afterwards":6751,"grap":6752,"berg":6753,"approaches":6754,"lining":6755,"Archie":6756,"winning":6757,"grandpa":6758,"stronger":6759,"examine":6760,"striped":6761,"dragon":6762,"Short":6763,"sprink":6764,"McDyss":6765,"newspapers":6766,"costs":6767,"originally":6768,"earthqu":6769,"Elaine":6770,"Granma":6771,"masturbating":6772,"gymnas":6773,"doubt":6774,"frequently":6775,"ashamed":6776,"Catholic":6777,"explanation":6778,"Fre":6779,"Hannah":6780,"Mir":6781,"Pu":6782,"Sch":6783,"Shi":6784,"VW":6785,"dug":6786,"jer":6787,"mile":6788,"slot":6789,"zard":6790,"repor":6791,"thous":6792,"icient":6793,"rip":6794,"ups":6795,"dozen":6796,"pective":6797,"mold":6798,"unn":6799,"ideas":6800,"rook":6801,"conce":6802,"carved":6803,"ille":6804,"buck":6805,"proof":6806,"diaper":6807,"needing":6808,"skates":6809,"Jock":6810,"patter":6811,"positions":6812,"crystal":6813,"uniforms":6814,"popular":6815,"copies":6816,"Polly":6817,"cracked":6818,"robes":6819,"hooked":6820,"vampires":6821,"****************":6822,"destroyed":6823,"istration":6824,"Andrea":6825,"false":6826,"organization":6827,"parallel":6828,"deceased":6829,"Wednes":6830,"gymnasium":6831,"!!":6832,"7th":6833,"Ash":6834,"DV":6835,"Hacker":6836,"Life":6837,"Met":6838,"Nathan":6839,"broom":6840,"yo":6841,"andro":6842,"enna":6843,"statu":6844,"sole":6845,"beans":6846,"allig":6847,"loyd":6848,"anticip":6849,"spiders":6850,"partition":6851,"msy":6852,"lettu":6853,"attach":6854,"thanks":6855,"knives":6856,"Marian":6857,"France":6858,"valu":6859,"Ford":6860,"Neil":6861,"Thanks":6862,"mixing":6863,"banquet":6864,"lump":6865,"gherty":6866,"frog":6867,"assume":6868,"entirely":6869,"flirt":6870,"Clark":6871,"itors":6872,"issues":6873,"arrangements":6874,"expression":6875,"Dougherty":6876,"performing":6877,"temporary":6878,"sensation":6879,"Thurs":6880,"duty":6881,"twenty":6882,"lesbian":6883,"Midvale":6884,"Cha":6885,"Law":6886,"Middle":6887,"Tr":6888,"Wood":6889,"bone":6890,"lick":6891,"mmy":6892,"mumb":6893,"pairs":6894,"ugs":6895,"arn":6896,"stared":6897,"rim":6898,"upright":6899,"fest":6900,"shack":6901,"shrug":6902,"delighted":6903,"illness":6904,"exas":6905,"cane":6906,"stocking":6907,"scient":6908,"drift":6909,"boom":6910,"wrink":6911,"attacking":6912,"flame":6913,"wooded":6914,"forming":6915,"mount":6916,"border":6917,"sentence":6918,"ducked":6919,"Beck":6920,"checks":6921,"freaked":6922,"rubbed":6923,"Though":6924,"???.":6925,"softly":6926,"addition":6927,"Merri":6928,"nipp":6929,"indicating":6930,"defend":6931,"treatment":6932,"punched":6933,"puzzled":6934,"Palmer":6935,"shells":6936,"Child":6937,"assembly":6938,"Lori":6939,"thusi":6940,"ALLY":6941,"Bruce":6942,"numerous":6943,"tradition":6944,"500":6945,"Aaron":6946,"Have":6947,"Ple":6948,"Pro":6949,"Tues":6950,"faint":6951,"ras":6952,"tro":6953,"recalled":6954,"ata":6955,"enthusi":6956,"lee":6957,"idal":6958,"icu":6959,"vering":6960,"charm":6961,"saving":6962,"teens":6963,"bolt":6964,"mbling":6965,"grat":6966,"agency":6967,"tools":6968,"spar":6969,"brides":6970,"intend":6971,"clearing":6972,"sedu":6973,"ima":6974,"leted":6975,"march":6976,"lockers":6977,"ankle":6978,"snowy":6979,"Willie":6980,"fragment":6981,"suspected":6982,"materials":6983,"Going":6984,"Daniel":6985,"blinds":6986,"grip":6987,"responded":6988,"violin":6989,"liquor":6990,"identified":6991,"stacked":6992,"greeting":6993,"frantic":6994,"massive":6995,"advertise":6996,"beneath":6997,"slippery":6998,"opinion":6999,"Help":7000,"microphone":7001,"challenge":7002,"sensual":7003,"Francis":7004,"DVD":7005,"lettuce":7006,"6th":7007,"Clay":7008,"Great":7009,"Greek":7010,"Risk":7011,"ST":7012,"ja":7013,"jandro":7014,"ki":7015,"napped":7016,"pace":7017,"rink":7018,"rushes":7019,"mester":7020,"alike":7021,"arrested":7022,"sear":7023,"leak":7024,"stir":7025,"chand":7026,"chant":7027,"iring":7028,"unconscious":7029,"manip":7030,"placing":7031,"plump":7032,"tingu":7033,"Theresa":7034,"downhill":7035,"poke":7036,"poking":7037,"Solo":7038,"spare":7039,"avey":7040,"clown":7041,"diam":7042,"bricks":7043,"disgu":7044,"parties":7045,"award":7046,"interpret":7047,"crashing":7048,"Peavey":7049,"matches":7050,"policemen":7051,"puff":7052,"attraction":7053,"slipping":7054,"arrows":7055,"Modern":7056,"complains":7057,"pillar":7058,"silk":7059,"officers":7060,"nurses":7061,"volu":7062,"turtle":7063,"projects":7064,"Tech":7065,"bothering":7066,"bunny":7067,"arrangement":7068,"Alejandro":7069,"Dylan":7070,"repeatedly":7071,"committee":7072,"rehearsal":7073,"accused":7074,"Terri":7075,"literally":7076,"Hilary":7077,"dessert":7078,"batteries":7079,"intrigu":7080,"07":7081,"Down":7082,"Hen":7083,"Kathy":7084,"Pre":7085,"Sw":7086,"coff":7087,"glo":7088,"sending":7089,"twi":7090,"todd":7091,"merely":7092,"weal":7093,"goof":7094,"tips":7095,"delay":7096,"poe":7097,"confl":7098,"clin":7099,"ranch":7100,"scrat":7101,"helpless":7102,"broad":7103,"bites":7104,"paraly":7105,"steam":7106,"steak":7107,"China":7108,"mari":7109,"stays":7110,"tenance":7111,"ignoring":7112,"gible":7113,"strings":7114,"testing":7115,"Allen":7116,"maintenance":7117,"casually":7118,"involves":7119,"temper":7120,"Boston":7121,"Terence":7122,"battery":7123,"ennis":7124,"Those":7125,"detail":7126,"Emily":7127,"Dreamt":7128,"Brown":7129,"Williams":7130,"accessible":7131,"firmly":7132,"Farrah":7133,"infected":7134,"grateful":7135,"substance":7136,"umbrella":7137,"Jesus":7138,"favour":7139,"statues":7140,"AM":7141,"Fri":7142,"Hot":7143,"Nic":7144,"Roland":7145,"Too":7146,"Trying":7147,"cable":7148,"gger":7149,"hay":7150,"rey":7151,"arro":7152,"armed":7153,"arian":7154,"stamps":7155,"admir":7156,"idi":7157,"ropes":7158,"Its":7159,"excur":7160,"ppers":7161,"ulated":7162,"darkness":7163,"kidnapped":7164,"appearing":7165,"squish":7166,"rounded":7167,"charged":7168,"snowing":7169,"United":7170,"subway":7171,"pressing":7172,"engers":7173,"committed":7174,"teams":7175,"wrapping":7176,"tunnels":7177,"counted":7178,"solve":7179,"Melvin":7180,"posted":7181,"loading":7182,"protected":7183,"frightening":7184,"prints":7185,"stroke":7186,"ctures":7187,"remained":7188,"microw":7189,"Grey":7190,"personality":7191,"Abner":7192,"flashlight":7193,"release":7194,"corridors":7195,"average":7196,"pews":7197,"failed":7198,"multiple":7199,"automatic":7200,"latter":7201,"constantly":7202,"razor":7203,"Dorothy":7204,"excursion":7205,"Hale":7206,"Harr":7207,"IM":7208,"Lloyd":7209,"Mild":7210,"Near":7211,"Pl":7212,"Pol":7213,"Way":7214,"Water":7215,"dup":7216,"dash":7217,"fought":7218,"pul":7219,"pave":7220,"sinking":7221,"vir":7222,"vig":7223,"wn":7224,"yarn":7225,"zone":7226,"inne":7227,"ancient":7228,"melted":7229,"atic":7230,"erg":7231,"stacks":7232,"soo":7233,"accur":7234,"according":7235,"uphill":7236,"aby":7237,"unny":7238,"tram":7239,"shar":7240,"otherwise":7241,"devil":7242,"hockey":7243,"poem":7244,"ckles":7245,"ittens":7246,"prefer":7247,"windy":7248,"resid":7249,"Anita":7250,"jud":7251,"bookstore":7252,"ridge":7253,"horn":7254,"insists":7255,"directing":7256,"notices":7257,"cube":7258,"pennies":7259,"radi":7260,"teammate":7261,"recorded":7262,"Things":7263,"belongings":7264,"description":7265,"aisles":7266,"opera":7267,"Teavor":7268,"supermarket":7269,"fascin":7270,"distraught":7271,"labor":7272,"interrupt":7273,"scrap":7274,"spraying":7275,"Black":7276,"routine":7277,"elderly":7278,"borrowed":7279,"uneasy":7280,"announced":7281,"Russia":7282,"vegetables":7283,"symbol":7284,"weeds":7285,"detective":7286,"possess":7287,"Thursday":7288,"!'":7289,"Air":7290,"DS":7291,"Rusty":7292,"Tina":7293,"Viet":7294,"dough":7295,"fau":7296,"pins":7297,"sled":7298,"sions":7299,"sample":7300,"uel":7301,"vot":7302,"heck":7303,"inspe":7304,"insult":7305,"theless":7306,"issor":7307,"lef":7308,"lemon":7309,"stable":7310,"advis":7311,"admit":7312,"liar":7313,"champ":7314,"whi":7315,"Hector":7316,"gues":7317,"poles":7318,"exter":7319,"cancer":7320,"airy":7321,"fol":7322,"buff":7323,"scissor":7324,"playfully":7325,"rung":7326,"disappears":7327,"handing":7328,"cleared":7329,"winding":7330,"nighttime":7331,"darker":7332,"flush":7333,"earrings":7334,"layers":7335,"Bell":7336,"bowls":7337,"questioned":7338,"salt":7339,"gradually":7340,"agreement":7341,"Michel":7342,"secretly":7343,"bicycles":7344,"Shir":7345,"hesitated":7346,"transferred":7347,"skirts":7348,"anxiety":7349,"Walking":7350,"scheduled":7351,"lipstick":7352,"mechanical":7353,"Comm":7354,"honor":7355,"males":7356,"remodeled":7357,"Spaceman":7358,"retrieve":7359,"Jasmine":7360,"Virginia":7361,"vonne":7362,"Wednesday":7363,"Ali":7364,"Dennis":7365,"Fisher":7366,"Lad":7367,"Macy":7368,"Night":7369,"Over":7370,"Take":7371,"ae":7372,"cum":7373,"cott":7374,"dare":7375,"hut":7376,"oons":7377,"sie":7378,"scold":7379,"viron":7380,"heaven":7381,"institution":7382,"seve":7383,"secure":7384,"semester":7385,"lect":7386,"owed":7387,"beam":7388,"acles":7389,"abrup":7390,"Hello":7391,"delive":7392,"ainted":7393,"Sheila":7394,"exist":7395,"extension":7396,"canvas":7397,"spook":7398,"ula":7399,"tummy":7400,"dimen":7401,"disc":7402,"irsty":7403,"perman":7404,"windshield":7405,"nightgown":7406,"sliced":7407,"passengers":7408,"monsters":7409,"caress":7410,"internet":7411,"bathrooms":7412,"catalo":7413,"portable":7414,"hangs":7415,"cuff":7416,"sadness":7417,"flesh":7418,"deeply":7419,"Nelling":7420,"freed":7421,"magn":7422,"receiver":7423,"screams":7424,"repeating":7425,"blows":7426,"bumps":7427,"Sanders":7428,"cows":7429,"Canada":7430,"murde":7431,"counselors":7432,"tubes":7433,"scenery":7434,"salesman":7435,"skateboard":7436,"Beatles":7437,"homosexual":7438,"paralyzed":7439,"Mildred":7440,"scissors":7441,"delivered":7442,"55":7443,"CI":7444,"EN":7445,"Jr":7446,"Mal":7447,"bis":7448,"drank":7449,"fist":7450,"kicking":7451,"rice":7452,"rats":7453,"sac":7454,"ued":7455,"install":7456,"inappropriate":7457,"metery":7458,"educ":7459,"environ":7460,"idering":7461,"rial":7462,"riff":7463,"chy":7464,"woken":7465,"roots":7466,"deposit":7467,"hoe":7468,"nod":7469,"cany":7470,"blues":7471,"comic":7472,"tures":7473,"proced":7474,"prostitute":7475,"homeless":7476,"undressed":7477,"joins":7478,"phr":7479,"perspective":7480,"aky":7481,"persons":7482,"marine":7483,"minister":7484,"balloons":7485,"curls":7486,"slices":7487,"confir":7488,"Sean":7489,"mainly":7490,"Arab":7491,"paths":7492,"grandparents":7493,"Develo":7494,"sticky":7495,"necklace":7496,"nicer":7497,"nette":7498,"rearran":7499,"indicate":7500,"necessarily":7501,"emotionally":7502,"prayer":7503,"target":7504,"spaceship":7505,"Martin":7506,"chubby":7507,"appreciate":7508,"collapsed":7509,"Paris":7510,"Victori":7511,"tomato":7512,"crouched":7513,"retarded":7514,"deliberately":7515,"ribbon":7516,"coffin":7517,"favourite":7518,"microwave":7519,"pavement":7520,"Development":7521,"Book":7522,"Cleve":7523,"Mus":7524,"Mine":7525,"Na":7526,"Sop":7527,"Spain":7528,"Tre":7529,"Ver":7530,"WALLY":7531,"ec":7532,"react":7533,"mead":7534,"encing":7535,"lifting":7536,"ential":7537,"caps":7538,"tricks":7539,"histor":7540,"congre":7541,"comedy":7542,"fox":7543,"remend":7544,"commend":7545,"prec":7546,"proje":7547,"scul":7548,"displayed":7549,"reads":7550,"athlet":7551,"perpend":7552,"rum":7553,"colum":7554,"desp":7555,"juana":7556,"babysitting":7557,"slacks":7558,"satin":7559,"Noman":7560,"shaft":7561,"directed":7562,"courts":7563,"confess":7564,"Steven":7565,"straps":7566,"vibr":7567,"escaping":7568,"crime":7569,"Julia":7570,"Thank":7571,"filming":7572,"instrument":7573,"susp":7574,"pops":7575,"surroundings":7576,"consisted":7577,"refuses":7578,"ignores":7579,"cooper":7580,"shades":7581,"midget":7582,"products":7583,"assured":7584,"occurs":7585,"displays":7586,"successfully":7587,"society":7588,"slammed":7589,"dumped":7590,"debating":7591,"temporarily":7592,"Captain":7593,"reverse":7594,"earthquake":7595,"valuable":7596,"Solomon":7597,"toddler":7598,"Cleveland":7599,"perpendicular":7600,"columns":7601,"Bay":7602,"Emer":7603,"Ir":7604,"Son":7605,"Spr":7606,"Saw":7607,"Yams":7608,"bins":7609,"cone":7610,"glove":7611,"lind":7612,"rare":7613,"swell":7614,"vine":7615,"anda":7616,"attoo":7617,"femin":7618,"loaf":7619,"cemetery":7620,"backward":7621,"agle":7622,"agger":7623,"overall":7624,"overnight":7625,"blast":7626,"clever":7627,"standard":7628,"waits":7629,"Anth":7630,"keeper":7631,"ucky":7632,"seemingly":7633,"Marg":7634,"cylind":7635,"sadly":7636,"ringing":7637,"cashi":7638,"State":7639,"exams":7640,"sorting":7641,"experienced":7642,"grades":7643,"damaged":7644,"baked":7645,"containing":7646,"explore":7647,"Indians":7648,"considering":7649,"spirits":7650,"Sandy":7651,"bellige":7652,"electrical":7653,"effects":7654,"lovingly":7655,"screwed":7656,"crackers":7657,"appalled":7658,"Corinne":7659,"bombs":7660,"Earlier":7661,"apples":7662,"wrestling":7663,"gesture":7664,"incline":7665,"aggressive":7666,"muscles":7667,"crooked":7668,"delicious":7669,"coworker":7670,"Jessica":7671,"Tuesday":7672,"Technical":7673,"marijuana":7674,"Michelle":7675,"belligerent":7676,"Candy":7677,"Dion":7678,"ES":7679,"Gen":7680,"Greg":7681,"Kend":7682,"dle":7683,"hint":7684,"shaving":7685,"sinks":7686,"tremend":7687,"vul":7688,"repri":7689,"washer":7690,"aries":7691,"bees":7692,"kety":7693,"icans":7694,"icted":7695,"urge":7696,"moments":7697,"los":7698,"tile":7699,"shine":7700,"consp":7701,"epend":7702,"quad":7703,"ques":7704,"tool":7705,"chewing":7706,"clad":7707,"scent":7708,"stub":7709,"omi":7710,"daytime":7711,"compli":7712,"friendship":7713,"tense":7714,"landlord":7715,"slice":7716,"Pete":7717,"dram":7718,"Charlene":7719,"ankment":7720,"embankment":7721,"pools":7722,"snack":7723,"meantime":7724,"Behind":7725,"Arrested":7726,"logist":7727,"bowling":7728,"sorority":7729,"Dead":7730,"pots":7731,"folder":7732,"contained":7733,"frag":7734,"mirrors":7735,"cloudy":7736,"calmly":7737,"iami":7738,"maids":7739,"Kenny":7740,"cuddling":7741,"electricity":7742,"Palin":7743,"participate":7744,"sleeves":7745,"sweeping":7746,"wishes":7747,"cubicle":7748,"ejaculate":7749,"feathers":7750,"acknowledge":7751,"Elizabeth":7752,"accompanied":7753,"patterns":7754,"volume":7755,"intrigued":7756,"Henry":7757,"wealthy":7758,"residue":7759,"fauce":7760,"Shirley":7761,"suspended":7762,"Cary":7763,"Miami":7764,"Show":7765,"Tar":7766,"Und":7767,"Wow":7768,"bak":7769,"gly":7770,"gorge":7771,"mu":7772,"mild":7773,"ox":7774,"info":7775,"reci":7776,"repaired":7777,"thunder":7778,"meas":7779,"alumin":7780,"adop":7781,"beige":7782,"ribut":7783,"hike":7784,"hips":7785,"tease":7786,"backstage":7787,"quot":7788,"cameras":7789,"anyhow":7790,"foc":7791,"precar":7792,"scal":7793,"menu":7794,"couches":7795,"tah":7796,"ruin":7797,"ishment":7798,"surf":7799,"creative":7800,"marching":7801,"shovel":7802,"yours":7803,"squat":7804,"barrier":7805,"lessons":7806,"odor":7807,"strangely":7808,"rained":7809,"league":7810,"Alice":7811,"slowed":7812,"massage":7813,"subur":7814,"baskets":7815,"organs":7816,"Army":7817,"experiences":7818,"scarf":7819,"solved":7820,"instruments":7821,"Jewish":7822,"Leon":7823,"planted":7824,"production":7825,"harass":7826,"taped":7827,"defense":7828,"giggling":7829,"clients":7830,"gentleman":7831,"shadows":7832,"admitted":7833,"invites":7834,"chorus":7835,"sobbing":7836,"Jamie":7837,"stereo":7838,"rapidly":7839,"Shortly":7840,"Please":7841,"Clayton":7842,"environment":7843,"Naomi":7844,"Anthony":7845,"reprimand":7846,"!)":7847,"Ast":7848,"Mall":7849,"PE":7850,"Vol":7851,"dun":7852,"dling":7853,"gam":7854,"groom":7855,"gled":7856,"honey":7857,"mary":7858,"national":7859,"oes":7860,"hey":7861,"alt":7862,"arous":7863,"leen":7864,"rif":7865,"chart":7866,"entries":7867,"peach":7868,"mole":7869,"logs":7870,"unted":7871,"backseat":7872,"degre":7873,"grace":7874,"confined":7875,"izmo":7876,"icken":7877,"brass":7878,"courage":7879,"happiness":7880,"--.":7881,"boot":7882,"marily":7883,"ampli":7884,"elect":7885,"Joy":7886,"identity":7887,"sentences":7888,"ankles":7889,"snacks":7890,"leaking":7891,"drawings":7892,"Marshall":7893,"leaders":7894,"pancakes":7895,"daddy":7896,"approve":7897,"strap":7898,"flee":7899,"submarine":7900,"States":7901,"Arvonne":7902,"Reed":7903,"examining":7904,"Combs":7905,"ricia":7906,"rickety":7907,"Christina":7908,"organize":7909,"Bobby":7910,"damn":7911,"frustration":7912,"protection":7913,"bumper":7914,"Whatever":7915,"Island":7916,"Clinton":7917,"observe":7918,"belle":7919,"pinned":7920,"affected":7921,"represented":7922,"associated":7923,"puddle":7924,"affectionate":7925,"African":7926,"audition":7927,"political":7928,"mutual":7929,"Claire":7930,"True":7931,"paddle":7932,"intelligent":7933,"carpeted":7934,"nearest":7935,"rhyth":7936,"lefto":7937,"cottage":7938,"congreg":7939,"Margaret":7940,"degrees":7941,"26":7942,"27":7943,"Bud":7944,"Cat":7945,"Den":7946,"Fay":7947,"Gl":7948,"Kent":7949,"Mur":7950,"Ob":7951,"Pad":7952,"Rita":7953,"Ser":7954,"Utah":7955,"Whit":7956,"cunn":7957,"jack":7958,"nces":7959,"owe":7960,"pha":7961,"pity":7962,"reference":7963,"referred":7964,"recommend":7965,"aston":7966,"mery":7967,"editing":7968,"adventure":7969,"accus":7970,"oops":7971,"gee":7972,"liking":7973,"dome":7974,"mop":7975,"trade":7976,"anty":7977,"deaf":7978,"apt":7979,"congrat":7980,"carries":7981,"agitated":7982,"igning":7983,"thrit":7984,"commotion":7985,"selfish":7986,"wax":7987,"sings":7988,"elsewhere":7989,"laught":7990,"glue":7991,"mond":7992,"elegant":7993,"hitch":7994,"cris":7995,"shaved":7996,"swung":7997,"beautifully":7998,"collected":7999,"culiar":8000,"ilingus":8001,"Maria":8002,"louder":8003,"swept":8004,"approxim":8005,"facial":8006,"facility":8007,"hyster":8008,"knob":8009,"furnished":8010,"Really":8011,"dances":8012,"welve":8013,"furry":8014,"Christine":8015,"connecting":8016,"Through":8017,"bait":8018,"teenager":8019,"described":8020,"castically":8021,"spiral":8022,"argued":8023,"rotten":8024,"pitcher":8025,"palm":8026,"remains":8027,"subjects":8028,"sleeve":8029,"incredible":8030,"Africa":8031,"cluttered":8032,"crocodile":8033,"eyel":8034,"Wonder":8035,"British":8036,"engagement":8037,"width":8038,"transparent":8039,"sculp":8040,"aluminum":8041,"cunnilingus":8042,"Bel":8043,"Lord":8044,"Randy":8045,"atory":8046,"baking":8047,"cared":8048,"gau":8049,"ito":8050,"ske":8051,"tically":8052,"wool":8053,"review":8054,"meth":8055,"itals":8056,"lli":8057,"llis":8058,"geon":8059,"amic":8060,"amused":8061,"rio":8062,"chunks":8063,"whale":8064,"nephe":8065,"usive":8066,"peculiar":8067,"tractor":8068,"shrugs":8069,"antic":8070,"nox":8071,"iest":8072,"closes":8073,"scale":8074,"typed":8075,"enetr":8076,"skull":8077,"implying":8078,"babysit":8079,"curves":8080,"kidding":8081,"interior":8082,"crashes":8083,"jumper":8084,"squirt":8085,"eats":8086,"typewriter":8087,"panels":8088,"stations":8089,"velvet":8090,"checkout":8091,"Start":8092,"Road":8093,"Rosal":8094,"1950":8095,"Johnson":8096,"warf":8097,"burgers":8098,"solution":8099,"dragged":8100,"mailbox":8101,"nicke":8102,"physics":8103,"risk":8104,"banana":8105,"decorative":8106,"introduces":8107,"promised":8108,"designs":8109,"Patricia":8110,"Walter":8111,"responsibility":8112,"apprehen":8113,"victi":8114,"insects":8115,"antique":8116,"supply":8117,"services":8118,"developed":8119,"website":8120,"purchase":8121,"announcement":8122,"divorce":8123,"concentr":8124,"horizontal":8125,"overwhelmed":8126,"Hawaii":8127,"alligator":8128,"Friends":8129,"spooky":8130,"tremendous":8131,"conspicu":8132,"nephew":8133,"Bre":8134,"Chel":8135,"Fair":8136,"Gene":8137,"HP":8138,"MS":8139,"PR":8140,"Pot":8141,"Todd":8142,"UK":8143,"UP":8144,"aunts":8145,"bitten":8146,"dates":8147,"eth":8148,"eff":8149,"pred":8150,"sin":8151,"itter":8152,"album":8153,"arrest":8154,"wiped":8155,"forgetting":8156,"abo":8157,"dol":8158,"ural":8159,"independ":8160,"ceil":8161,"celia":8162,"applic":8163,"poker":8164,"nods":8165,"offended":8166,"sitive":8167,"itty":8168,"click":8169,"Myself":8170,"buzz":8171,"buffe":8172,"studied":8173,"mense":8174,"tors":8175,"intending":8176,"immense":8177,"parach":8178,"marking":8179,"aleck":8180,"slap":8181,"treasure":8182,"foods":8183,"drowned":8184,"swer":8185,"niece":8186,"basic":8187,"suitcases":8188,"value":8189,"involving":8190,"genitals":8191,"freight":8192,"graphic":8193,"heavily":8194,"jackets":8195,"describing":8196,"India":8197,"wishing":8198,"cruise":8199,"autograph":8200,"grim":8201,"scrape":8202,"Elvis":8203,"firing":8204,"poisonous":8205,"celebration":8206,"Among":8207,"hooks":8208,"robber":8209,"briefcase":8210,"sarcastically":8211,"Granny":8212,"kneeling":8213,"CRHP":8214,"figuring":8215,"Cecelia":8216,"habit":8217,"Firefly":8218,"bacon":8219,"supportive":8220,"Vienna":8221,"determine":8222,"Shift":8223,"searched":8224,"canyon":8225,"meadow":8226,"despite":8227,"cashier":8228,"Rosalie":8229,"ceilings":8230,"Ang":8231,"Brend":8232,"Call":8233,"Cour":8234,"ED":8235,"Gar":8236,"Gizmo":8237,"Hay":8238,"IV":8239,"Jac":8240,"NY":8241,"Pres":8242,"Rod":8243,"Room":8244,"Sur":8245,"Sister":8246,"Sci":8247,"Tra":8248,"Turn":8249,"Uh":8250,"Ve":8251,"ape":8252,"bour":8253,"dang":8254,"hing":8255,"jan":8256,"twelve":8257,"vor":8258,"heel":8259,"heap":8260,"toms":8261,"inger":8262,"aspect":8263,"meals":8264,"error":8265,"altogether":8266,"ooks":8267,"wig":8268,"rig":8269,"hire":8270,"usk":8271,"loso":8272,"unclear":8273,"univer":8274,"ante":8275,"carriage":8276,"aggrav":8277,"ulating":8278,"blades":8279,"clay":8280,"closure":8281,"handbag":8282,"finan":8283,"completed":8284,"Chic":8285,"Anato":8286,"glance":8287,"cracks":8288,"tones":8289,"hillside":8290,"inviting":8291,"cushion":8292,"photograp":8293,"primarily":8294,"circus":8295,"sunglasses":8296,"flipped":8297,"__________":8298,"capable":8299,"nursing":8300,"Note":8301,"ification":8302,"whiskey":8303,"hostess":8304,"Build":8305,"thorough":8306,"randomly":8307,"comfortably":8308,"rabbits":8309,"bouncing":8310,"buddy":8311,"rehearsing":8312,"incredibly":8313,"XXX":8314,"indeed":8315,"Smallville":8316,"scratched":8317,"arrogant":8318,"squishy":8319,"Vietnam":8320,"murderer":8321,");":8322,"28":8323,"Blake":8324,"Cast":8325,"Cru":8326,"La":8327,"Lind":8328,"Mate":8329,"Neither":8330,"National":8331,"Pret":8332,"RO":8333,"Rus":8334,"Rick":8335,"Texas":8336,"Went":8337,"bones":8338,"bik":8339,"kers":8340,"lamps":8341,"penetr":8342,"rust":8343,"raced":8344,"tide":8345,"tattoo":8346,"vit":8347,"insu":8348,"indoor":8349,"ishes":8350,"orna":8351,"stim":8352,"neth":8353,"domin":8354,"ustin":8355,"uster":8356,"dept":8357,"gul":8358,"overheard":8359,"sucking":8360,"illegal":8361,"oodle":8362,"cheated":8363,"dripping":8364,"undress":8365,"setup":8366,"rugged":8367,"steer":8368,".....":8369,"holder":8370,"minis":8371,"fluffy":8372,"glare":8373,"trigger":8374,"miser":8375,"formation":8376,"crushed":8377,"baggage":8378,"mature":8379,"Mario":8380,"maintain":8381,"calend":8382,"petting":8383,"petrol":8384,"crib":8385,"Johnny":8386,"examination":8387,"drums":8388,"operator":8389,"threaten":8390,"occurring":8391,"1000":8392,"episodes":8393,"whispered":8394,"cages":8395,"bbly":8396,"squeezed":8397,"Kenneth":8398,"encouraging":8399,"alcove":8400,"daily":8401,"plugged":8402,"tossed":8403,"instant":8404,"scoop":8405,"improve":8406,"survived":8407,"divorced":8408,"Women":8409,"convenient":8410,"scramble":8411,"peanut":8412,"electronic":8413,"Grove":8414,"nonchalantly":8415,"thousands":8416,"illegible":8417,"Ashley":8418,"procedure":8419,"Under":8420,"bakery":8421,"Astrid":8422,"aroused":8423,"Anatomy":8424,"Mateo":8425,"99":8426,"Bur":8427,"Du":8428,"Dill":8429,"Dian":8430,"Four":8431,"Hans":8432,"Would":8433,"Zack":8434,"bou":8435,"bree":8436,"cort":8437,"cils":8438,"diz":8439,"dots":8440,"iP":8441,"jig":8442,"jaw":8443,"kins":8444,"mn":8445,"sway":8446,"vote":8447,"wri":8448,"wider":8449,"hem":8450,"anas":8451,"refresh":8452,"reassure":8453,"tore":8454,"thirsty":8455,"measure":8456,"ites":8457,"alian":8458,"artific":8459,"leton":8460,"goat":8461,"gosh":8462,"rols":8463,"useful":8464,"useless":8465,"agne":8466,"mps":8467,"asser":8468,"fog":8469,"foggy":8470,"cheating":8471,"prov":8472,"protru":8473,"newborn":8474,"dime":8475,"omin":8476,"parks":8477,"Anne":8478,"maroon":8479,"navy":8480,"flashing":8481,"curl":8482,"Jody":8483,"layout":8484,"teddy":8485,"label":8486,"guessed":8487,"presented":8488,"aneously":8489,"ballet":8490,"udge":8491,"flimsy":8492,"strongly":8493,"Justin":8494,"archite":8495,"videos":8496,"relationships":8497,"sumably":8498,"speeding":8499,"rearrange":8500,"Elise":8501,"screws":8502,"writes":8503,"buddies":8504,"robots":8505,"muffin":8506,"automatically":8507,"investigate":8508,"awesome":8509,"packet":8510,"oriented":8511,"Half":8512,"Mira":8513,"Children":8514,"diamond":8515,"Haley":8516,"Music":8517,"gorgeous":8518,"Chelsea":8519,"buffet":8520,"alecki":8521,"Science":8522,"aggravated":8523,"Chicago":8524,"Pretty":8525,"artificial":8526,"AS":8527,"Ba":8528,"Binky":8529,"Baby":8530,"Dam":8531,"ET":8532,"Fr":8533,"Gra":8534,"Hor":8535,"LO":8536,"Les":8537,"Never":8538,"Van":8539,"bart":8540,"dice":8541,"glimp":8542,"jury":8543,"pike":8544,"scho":8545,"trol":8546,"tissue":8547,"ured":8548,"melt":8549,"alot":8550,"iser":8551,"seating":8552,"semin":8553,"stun":8554,"betray":8555,"acid":8556,"Theo":8557,"llen":8558,"outfits":8559,"irk":8560,"haul":8561,"plaid":8562,"bob":8563,"grump":8564,"offering":8565,"overweight":8566,"acey":8567,"ulation":8568,"foam":8569,"chess":8570,"blame":8571,"claimed":8572,"iley":8573,"presumably":8574,"partners":8575,"bris":8576,"runway":8577,"distingu":8578,"undy":8579,"ddie":8580,"gren":8581,"awfully":8582,"obsc":8583,"visual":8584,"slit":8585,"slender":8586,"shoved":8587,"tribe":8588,"counters":8589,"nedy":8590,"listed":8591,"boarding":8592,"swings":8593,"Albert":8594,"confidence":8595,"comforting":8596,"sycho":8597,"pub":8598,"Does":8599,"Stan":8600,"circum":8601,"Roger":8602,"furnish":8603,"Comp":8604,"warmly":8605,"pillars":8606,"variety":8607,"Doris":8608,"softball":8609,"northern":8610,"volley":8611,"weights":8612,"dryer":8613,"distract":8614,"product":8615,"Thomp":8616,"imagined":8617,"chiat":8618,"awakening":8619,"neatly":8620,"Kennedy":8621,"critical":8622,"foolish":8623,"intim":8624,"chapel":8625,"bubbles":8626,"required":8627,"volunteer":8628,"tomatoes":8629,"regarding":8630,"laser":8631,"burglar":8632,"Evans":8633,"Kyle":8634,"maneuver":8635,"persuade":8636,"Marianna":8637,"Francisco":8638,"conflict":8639,"athletic":8640,"Faye":8641,"Padalecki":8642,"laughter":8643,"Potter":8644,"aboard":8645,"trolley":8646,"29":8647,"300":8648,"Across":8649,"Ackles":8650,"Bundy":8651,"Isa":8652,"Krist":8653,"Lat":8654,"Lance":8655,"RA":8656,"Ri":8657,"Six":8658,"Tur":8659,"Vamp":8660,"Xmas":8661,"cran":8662,"dot":8663,"emotions":8664,"foo":8665,"filing":8666,"lure":8667,"mike":8668,"ole":8669,"inqu":8670,"influ":8671,"alert":8672,"arthrit":8673,"oral":8674,"lete":8675,"adding":8676,"beams":8677,"acade":8678,"outline":8679,"royal":8680,"verb":8681,"hig":8682,"hipp":8683,"sailing":8684,"fee":8685,"lovers":8686,"trance":8687,"indign":8688,"Italian":8689,"raped":8690,"destru":8691,"hostage":8692,"poses":8693,"posal":8694,"fried":8695,"housemates":8696,"situ":8697,"istics":8698,"scoot":8699,"affect":8700,"helper":8701,"helmet":8702,"immer":8703,"Ask":8704,"biting":8705,"blackboard":8706,"ceramic":8707,"surely":8708,"controls":8709,"merchand":8710,"haircut":8711,"darkroom":8712,"estate":8713,"badge":8714,"visitors":8715,"kidnap":8716,"swims":8717,"trained":8718,"hilly":8719,"paused":8720,"tested":8721,"curio":8722,"crowds":8723,"distressed":8724,"pencils":8725,"musicians":8726,"Holl":8727,"casino":8728,"Roman":8729,"knocks":8730,"oddly":8731,"Sub":8732,"brave":8733,"twisted":8734,"stripes":8735,"teleport":8736,"folds":8737,"soul":8738,"closets":8739,"unique":8740,"Tommy":8741,"cowboy":8742,"midnight":8743,"tourage":8744,"marker":8745,"Which":8746,"delivery":8747,"produce":8748,"promise":8749,"ramps":8750,"receiving":8751,"Wilbur":8752,"matching":8753,"pigs":8754,"bounced":8755,"symbols":8756,"ING":8757,"flooding":8758,"challeng":8759,"confronted":8760,"entertainment":8761,"concentrate":8762,"philoso":8763,"mounted":8764,"poetry":8765,"lecturing":8766,"abruptly":8767,"stubborn":8768,"faucet":8769,"conspicuous":8770,"dizzy":8771,"Mirabelle":8772,"?),":8773,"Along":8774,"Could":8775,"Dover":8776,"LT":8777,"Mont":8778,"Pi":8779,"Phoe":8780,"Spe":8781,"Tw":8782,"Tay":8783,"eli":8784,"kicks":8785,"latch":8786,"laces":8787,"mac":8788,"nick":8789,"rh":8790,"rusty":8791,"tin":8792,"wading":8793,"heater":8794,"ini":8795,"inn":8796,"indoors":8797,"astr":8798,"sey":8799,"owing":8800,"bean":8801,"achi":8802,"wives":8803,"coordin":8804,"moan":8805,"loll":8806,"tipped":8807,"terrace":8808,"noted":8809,"elson":8810,"apper":8811,"novel":8812,"cker":8813,"airplanes":8814,"spat":8815,"kinda":8816,"biggest":8817,"rule":8818,"goods":8819,"resign":8820,"bitch":8821,"?\",":8822,"ester":8823,"hardware":8824,"elements":8825,"bands":8826,"paperwork":8827,"shakes":8828,"Martha":8829,"dads":8830,"vili":8831,"ordering":8832,"hopes":8833,"cupboards":8834,"flips":8835,"tempted":8836,"dealing":8837,"registration":8838,"popped":8839,"banister":8840,"equally":8841,"Tell":8842,"locate":8843,"psychiat":8844,"landsca":8845,"resembles":8846,"Britt":8847,"Jenna":8848,"hhhh":8849,"residential":8850,"accommo":8851,"fifth":8852,"muffins":8853,"Grant":8854,"distinctly":8855,"thighs":8856,"administr":8857,"compliment":8858,"rhythm":8859,"approximately":8860,"janitor":8861,"universe":8862,"Building":8863,"calendar":8864,"bartender":8865,"scholar":8866,"volleyball":8867,"Thompson":8868,"Phoebe":8869,"\"...":8870,"95":8871,"Cir":8872,"DC":8873,"Ele":8874,"Eddie":8875,"Im":8876,"Isn":8877,"Mi":8878,"Much":8879,"Naz":8880,"Ric":8881,"Sy":8882,"Squ":8883,"Tri":8884,"UN":8885,"cue":8886,"crot":8887,"dor":8888,"data":8889,"dusk":8890,"gates":8891,"jars":8892,"lacy":8893,"moose":8894,"pony":8895,"rin":8896,"tarp":8897,"tangled":8898,"wart":8899,"wright":8900,"recess":8901,"alds":8902,"isol":8903,"orch":8904,"seas":8905,"semen":8906,"sted":8907,"ador":8908,"keting":8909,"wigg":8910,"limo":8911,"lizard":8912,"roast":8913,"chatted":8914,"abuse":8915,"otch":8916,"cope":8917,"haw":8918,"pepper":8919,"seek":8920,"tily":8921,"pla":8922,"Weird":8923,"loop":8924,"tem":8925,"debris":8926,"hollow":8927,"consu":8928,"ette":8929,"agged":8930,"overflow":8931,"expl":8932,"eping":8933,"foyer":8934,"bedspread":8935,"scam":8936,"brushed":8937,"toris":8938,"perched":8939,"performer":8940,"showers":8941,"lightning":8942,"Inter":8943,"awards":8944,"Angry":8945,"rena":8946,"olk":8947,"obli":8948,"civili":8949,"clitoris":8950,"tripped":8951,"shame":8952,"minded":8953,"rainy":8954,"patches":8955,"Margie":8956,"portal":8957,"panties":8958,"Heroes":8959,"submer":8960,"Holy":8961,"winners":8962,"sunlight":8963,"straightened":8964,"possibility":8965,"mediate":8966,"Ellen":8967,"mentions":8968,"rectangle":8969,"draft":8970,"frames":8971,"motioned":8972,"posts":8973,"supervis":8974,"trays":8975,"apply":8976,"harmon":8977,"Earl":8978,"uneven":8979,"vegetable":8980,"dimly":8981,"advertising":8982,"chopped":8983,"initi":8984,"puddles":8985,"peaceful":8986,"calculator":8987,"significant":8988,"faith":8989,"slanted":8990,"labels":8991,"acceler":8992,"bundle":8993,"industrial":8994,"fascinated":8995,"Victorian":8996,"Kendall":8997,"Diane":8998,"9th":8999,"?!\"":9000,"Bas":9001,"Dra":9002,"Dexter":9003,"Hard":9004,"Pay":9005,"Put":9006,"Sor":9007,"amy":9008,"bounce":9009,"hides":9010,"kar":9011,"mort":9012,"nar":9013,"sided":9014,"ums":9015,"zip":9016,"ani":9017,"anded":9018,"thur":9019,"asia":9020,"alpha":9021,"weigh":9022,"adjoining":9023,"beef":9024,"aco":9025,"oop":9026,"lions":9027,"amber":9028,"whip":9029,"fet":9030,"peas":9031,"caf":9032,"unlock":9033,"options":9034,"tiles":9035,"anter":9036,"rails":9037,"worms":9038,"worrying":9039,"quo":9040,"astasia":9041,"oodles":9042,"spa":9043,"doorbell":9044,"chem":9045,"diagon":9046,"torch":9047,"schools":9048,"huh":9049,"ferent":9050,"boobs":9051,"corre":9052,"topher":9053,"Anastasia":9054,"marrying":9055,"impact":9056,"hurrying":9057,"pedal":9058,"avy":9059,"ummy":9060,"insane":9061,"drama":9062,"muscular":9063,"knitting":9064,"Alask":9065,"arrie":9066,"annoy":9067,"syn":9068,"syrup":9069,"sooner":9070,"hyp":9071,"Sammy":9072,"profile":9073,"terrific":9074,"skinned":9075,"cooler":9076,"frustrating":9077,"jacent":9078,"chocolates":9079,"Gee":9080,"rison":9081,"banks":9082,"peeking":9083,"volcano":9084,"operate":9085,"decorating":9086,"beaten":9087,"healing":9088,"Christopher":9089,"rett":9090,"sprayed":9091,"harsh":9092,"hostile":9093,"defensive":9094,"applied":9095,"Worried":9096,"bbers":9097,"butterfly":9098,"sweatshirt":9099,"techno":9100,"insect":9101,"envelopes":9102,"cheerful":9103,"uttering":9104,"masturbate":9105,"generally":9106,"gallon":9107,"cubicles":9108,"convenience":9109,"lava":9110,"Store":9111,"stained":9112,"whistle":9113,"Strange":9114,"source":9115,"festival":9116,"traditional":9117,"clinic":9118,"freedom":9119,"Emerald":9120,"focused":9121,"Court":9122,"iPod":9123,"stunned":9124,"Vampire":9125,"verbally":9126,"merchandise":9127,"AC":9128,"Bat":9129,"Beach":9130,"Brook":9131,"Cho":9132,"Clu":9133,"EL":9134,"Find":9135,"Mason":9136,"NA":9137,"Nelson":9138,"Ol":9139,"Pas":9140,"Slayer":9141,"Wes":9142,"mint":9143,"mont":9144,"pads":9145,"rina":9146,"rinse":9147,"snot":9148,"sill":9149,"uine":9150,"remarked":9151,"reminis":9152,"arc":9153,"orche":9154,"rocket":9155,"amusing":9156,"riel":9157,"werewolf":9158,"forum":9159,"forces":9160,"hazy":9161,"feces":9162,"pear":9163,"deformed":9164,"grins":9165,"grasp":9166,"ets":9167,"illustr":9168,"worm":9169,"overflowing":9170,"assuring":9171,"comedi":9172,"icker":9173,"istent":9174,"diet":9175,"dissert":9176,"handic":9177,"perfu":9178,"prices":9179,"settle":9180,"tails":9181,"compared":9182,"marketing":9183,"flashed":9184,"cia":9185,"curvy":9186,"relations":9187,"central":9188,"reward":9189,"lists":9190,"cured":9191,"greatly":9192,"Steph":9193,"Arthur":9194,"understands":9195,"Donalds":9196,"flipping":9197,"ferry":9198,"dancers":9199,"magical":9200,"bridges":9201,"July":9202,"vacant":9203,"pleasantly":9204,"causes":9205,"rises":9206,"lux":9207,"hearts":9208,"chers":9209,"replies":9210,"bumpy":9211,"tourists":9212,"islands":9213,"struggled":9214,"wilder":9215,"stitut":9216,"gangster":9217,"relaxing":9218,"memories":9219,"attempting":9220,"attempted":9221,"indicates":9222,"constructed":9223,"gigantic":9224,"unex":9225,"celebrate":9226,"Excel":9227,"announcer":9228,"strawberries":9229,"acquaintances":9230,"Sara":9231,"communicate":9232,"communication":9233,"demonstration":9234,"initial":9235,"destroy":9236,"authorities":9237,"reflection":9238,"contents":9239,"aquar":9240,"criminal":9241,"fantasy":9242,"require":9243,"purchased":9244,"descending":9245,"tenderly":9246,"Jonathan":9247,"Maggie":9248,"sirens":9249,"analyst":9250,"Thanksgiving":9251,"wrinkled":9252,"Becky":9253,"champagne":9254,"catalog":9255,"biscu":9256,"amplifier":9257,"congregation":9258,"victim":9259,"furnishings":9260,"crotch":9261,"dissertation":9262,"32":9263,"Brand":9264,"Biology":9265,"Cre":9266,"Cle":9267,"Cent":9268,"Cross":9269,"FO":9270,"Fat":9271,"Give":9272,"Has":9273,"Lin":9274,"Len":9275,"Light":9276,"Nico":9277,"Tenn":9278,"Win":9279,"bie":9280,"cco":9281,"doo":9282,"dil":9283,"ego":9284,"ema":9285,"fuss":9286,"hatch":9287,"jerk":9288,"pir":9289,"pting":9290,"virgin":9291,"wen":9292,"thon":9293,"onge":9294,"erts":9295,"adjacent":9296,"cob":9297,"hail":9298,"entine":9299,"units":9300,"trou":9301,"trunks":9302,"tering":9303,"root":9304,"ifferent":9305,"youth":9306,"carav":9307,"ighed":9308,"inea":9309,"media":9310,"clue":9311,"teller":9312,"provo":9313,"dith":9314,"ffle":9315,"pically":9316,"ilyn":9317,"creation":9318,"controlled":9319,"skip":9320,"minor":9321,"sery":9322,"flushed":9323,"begun":9324,"triangle":9325,"Joel":9326,"century":9327,"identical":9328,"emptied":9329,"Charlot":9330,"paved":9331,"prior":9332,"Marilyn":9333,"sensitive":9334,"vial":9335,"attract":9336,"Arnold":9337,"fitting":9338,"bury":9339,"candies":9340,"bulbs":9341,"June":9342,"axe":9343,"Mickey":9344,"popping":9345,"protecting":9346,"bananas":9347,"mistak":9348,"McDonalds":9349,"Highway":9350,"ctively":9351,"threatens":9352,"tourist":9353,"murdered":9354,"grill":9355,"receipt":9356,"whispers":9357,"transit":9358,"giggle":9359,"Mostly":9360,"praying":9361,"Susie":9362,"Kelly":9363,"participating":9364,"sighs":9365,"Reynold":9366,"dinosaurs":9367,"wrestle":9368,"Kari":9369,"ivity":9370,"glowing":9371,"watersl":9372,"mushrooms":9373,"passionately":9374,"conductor":9375,"Disneyland":9376,"therapy":9377,"reporter":9378,"advertisement":9379,"accurate":9380,"dimension":9381,"precise":9382,"adopted":9383,"dangling":9384,"miserable":9385,"grumpy":9386,"chemical":9387,"Club":9388,"Nicole":9389,"08":9390,"Bus":9391,"Care":9392,"Da":9393,"Di":9394,"Emery":9395,"Fort":9396,"Folk":9397,"Gal":9398,"Grace":9399,"Mu":9400,"Napper":9401,"Oc":9402,"Pic":9403,"Pri":9404,"Phy":9405,"Raqu":9406,"Say":9407,"Sel":9408,"VCR":9409,"Wi":9410,"Wy":9411,"baw":9412,"dull":9413,"knot":9414,"narr":9415,"uary":9416,"zers":9417,"inery":9418,"resu":9419,"thirty":9420,"itive":9421,"enclosure":9422,"stur":9423,"advisor":9424,"utral":9425,"limit":9426,"rods":9427,"chap":9428,"onel":9429,"usher":9430,"urgy":9431,"lob":9432,"loan":9433,"tilted":9434,"ception":9435,"del":9436,"download":9437,"mbles":9438,"guinea":9439,"igner":9440,"quote":9441,"cheat":9442,"clar":9443,"preferred":9444,"typically":9445,"diapers":9446,"ddles":9447,"highly":9448,"wallpaper":9449,"certific":9450,"controlling":9451,"obnox":9452,"amped":9453,"ballroom":9454,"kills":9455,"misses":9456,"conditions":9457,"horns":9458,"treating":9459,"nuclear":9460,"invent":9461,"pasture":9462,"Marie":9463,"sandals":9464,"casket":9465,"fairy":9466,"Art":9467,"slimy":9468,"facts":9469,"wakes":9470,"sorrow":9471,"temple":9472,"speakers":9473,"necklaces":9474,"capsu":9475,"silence":9476,"eyebr":9477,"potential":9478,"drapes":9479,"crawls":9480,"nursery":9481,"lifts":9482,"turquo":9483,"bells":9484,"strokes":9485,"designed":9486,"scraping":9487,"naturally":9488,"remaining":9489,"indicated":9490,"applying":9491,"Connie":9492,"pounding":9493,"terminal":9494,"Japan":9495,"announces":9496,"Queer":9497,"intensely":9498,"principle":9499,"demonstrate":9500,"documents":9501,"collapse":9502,"criminals":9503,"THE":9504,"Victor":9505,"descend":9506,"accomplish":9507,"gravity":9508,"Office":9509,"Sherry":9510,"mystery":9511,"obstacle":9512,"applau":9513,"Counsel":9514,"stockings":9515,"nipples":9516,"charming":9517,"temperature":9518,"Harris":9519,"Police":9520,"permanent":9521,"Joyce":9522,"method":9523,"sinister":9524,"financial":9525,"Castle":9526,"curiosity":9527,"exploring":9528,"perfume":9529,"Charlotte":9530,"Raquel":9531,"turquoise":9532,"?]":9533,"Aid":9534,"Ban":9535,"Battle":9536,"Clo":9537,"Fall":9538,"Geral":9539,"Ham":9540,"Ire":9541,"Lap":9542,"Mil":9543,"Made":9544,"Mountain":9545,"Mittens":9546,"Play":9547,"Sk":9548,"Wall":9549,"bish":9550,"bio":9551,"dan":9552,"dged":9553,"eyed":9554,"fou":9555,"fund":9556,"gad":9557,"goo":9558,"ique":9559,"kite":9560,"lent":9561,"lens":9562,"mower":9563,"tapped":9564,"vast":9565,"thetic":9566,"rehear":9567,"rejected":9568,"eness":9569,"seal":9570,"sock":9571,"soaked":9572,"outing":9573,"gel":9574,"ammo":9575,"chases":9576,"escort":9577,"copper":9578,"entially":9579,"feature":9580,"manuel":9581,"sheriff":9582,"shuff":9583,"shrugged":9584,"conom":9585,"convey":9586,"carp":9587,"spun":9588,"spite":9589,"spreading":9590,"cheeks":9591,"claw":9592,"cloths":9593,"bums":9594,"venge":9595,"dip":9596,"disappearing":9597,"handles":9598,"boyhood":9599,"mothers":9600,"classrooms":9601,"needles":9602,"Chicken":9603,"skis":9604,"begged":9605,"passport":9606,"bookcase":9607,"mustache":9608,"shaky":9609,"hanger":9610,"choices":9611,"integr":9612,"sni":9613,"signals":9614,"grapes":9615,"pays":9616,"Mari":9617,"pengu":9618,"onda":9619,"Hospital":9620,"198":9621,"genuine":9622,"examined":9623,"include":9624,"Cole":9625,"silently":9626,"simult":9627,"burner":9628,"Carmen":9629,"posters":9630,"fearful":9631,"brilli":9632,"repul":9633,"Teacher":9634,"stretching":9635,"promin":9636,"wildly":9637,"humans":9638,"Spader":9639,"rotting":9640,"pitched":9641,"attempts":9642,"responds":9643,"brushing":9644,"reports":9645,"Emmanuel":9646,"crosses":9647,"exercises":9648,"strawberry":9649,"robbed":9650,"Peterson":9651,"techni":9652,"mechanism":9653,"instance":9654,"instantly":9655,"Marty":9656,"condom":9657,"drowning":9658,"fifteen":9659,"wreck":9660,"Hotel":9661,"Nichol":9662,"phrase":9663,"Irish":9664,"Sonja":9665,"General":9666,"suburban":9667,"electro":9668,"apprehensive":9669,"efficient":9670,"independent":9671,"Brenda":9672,"Rodney":9673,"glimpse":9674,"seminar":9675,"circumst":9676,"arthritis":9677,"hippie":9678,"Taylor":9679,"isolated":9680,"alphabet":9681,"caravan":9682,"Phyllis":9683,"sturdy":9684,"dancer":9685,"(\"":9686,"(!)":9687,"02":9688,"Agn":9689,"Bes":9690,"Buster":9691,"Ced":9692,"Cra":9693,"Der":9694,"Dark":9695,"Ku":9696,"Kids":9697,"Lar":9698,"Mis":9699,"OL":9700,"Oly":9701,"Ocean":9702,"Py":9703,"Raul":9704,"Sunny":9705,"Upon":9706,"Wind":9707,"bid":9708,"biology":9709,"dart":9710,"ew":9711,"frying":9712,"gal":9713,"gic":9714,"masks":9715,"pacing":9716,"rof":9717,"sche":9718,"ygen":9719,"theory":9720,"onna":9721,"owl":9722,"behave":9723,"accompany":9724,"ros":9725,"robbers":9726,"rik":9727,"absent":9728,"haunted":9729,"dore":9730,"getic":9731,"timing":9732,"plun":9733,"troom":9734,"tex":9735,"wol":9736,"iful":9737,"rag":9738,"boil":9739,"holic":9740,"poked":9741,"overcome":9742,"sucks":9743,"exper":9744,"canal":9745,"spies":9746,"isty":9747,"handcuff":9748,"flowered":9749,"hedge":9750,"classical":9751,"restless":9752,"greens":9753,"stein":9754,"spelling":9755,"mers":9756,"hairy":9757,"slick":9758,"boxer":9759,"trips":9760,"bandage":9761,"intern":9762,"centre":9763,"minds":9764,"stray":9765,"matic":9766,"matched":9767,"courtroom":9768,"coloring":9769,"snapped":9770,"machinery":9771,"vines":9772,"packs":9773,"porno":9774,"pudgy":9775,"Stein":9776,"engines":9777,"extent":9778,"effe":9779,"Rein":9780,"Real":9781,"allowing":9782,"___________":9783,"sticker":9784,"experiencing":9785,"groin":9786,"dealer":9787,"separately":9788,"Robbins":9789,"frosting":9790,"guarding":9791,"splash":9792,"vertically":9793,"skipped":9794,"Danny":9795,"observer":9796,"interviewing":9797,"smells":9798,"freshman":9799,"scription":9800,"chains":9801,"procession":9802,"drugstore":9803,"bbles":9804,"celebrating":9805,"Chevy":9806,"alcoholic":9807,"demanding":9808,"religion":9809,"Lionel":9810,"resistance":9811,"disturbing":9812,"scooter":9813,"authority":9814,"reflected":9815,"compartments":9816,"categor":9817,"pursued":9818,"politely":9819,"Cuddles":9820,"Girls":9821,"Katrina":9822,"passionate":9823,"suffering":9824,"peanuts":9825,"errands":9826,"obstacles":9827,"accepting":9828,"humming":9829,"barefooted":9830,"coughing":9831,"vomit":9832,"natives":9833,"enthusiastic":9834,"bridesmaids":9835,"idiot":9836,"insulted":9837,"buffalo":9838,"Lady":9839,"oxygen":9840,"Break":9841,"MSN":9842,"parachute":9843,"photographer":9844,"scholarship":9845,"Immediately":9846,"Sorry":9847,"orchestra":9848,"Tennant":9849,"mistaken":9850,"Agnes":9851,"Ame":9852,"BB":9853,"Bra":9854,"Bull":9855,"Bird":9856,"Cy":9857,"DJ":9858,"Duck":9859,"Dwarf":9860,"Fer":9861,"Fris":9862,"Nina":9863,"Pacey":9864,"Sn":9865,"TA":9866,"TO":9867,"Vis":9868,"Zates":9869,"aust":9870,"bould":9871,"bark":9872,"cti":9873,"ctory":9874,"cattle":9875,"drying":9876,"ored":9877,"pimp":9878,"pours":9879,"rons":9880,"shave":9881,"vase":9882,"xx":9883,"inity":9884,"inser":9885,"thouse":9886,"asc":9887,"asper":9888,"meters":9889,"melting":9890,"itation":9891,"lectures":9892,"aders":9893,"sop":9894,"veter":9895,"geese":9896,"roar":9897,"ropho":9898,"ambi":9899,"chunk":9900,"whack":9901,"core":9902,"dodge":9903,"ents":9904,"cavern":9905,"uncertain":9906,"unfinished":9907,"opard":9908,"option":9909,"tearing":9910,"raf":9911,"rator":9912,"hovering":9913,"dread":9914,"poline":9915,"ags":9916,"cancell":9917,"ilbert":9918,"throne":9919,"smashing":9920,"prope":9921,"scur":9922,"newly":9923,"torted":9924,"torture":9925,"dislike":9926,"wavy":9927,"adequ":9928,"pleading":9929,"cords":9930,"singers":9931,"mermaid":9932,"skit":9933,"implied":9934,"flap":9935,"flated":9936,"glanced":9937,"slapped":9938,"pedest":9939,"00am":9940,"surprisingly":9941,"identification":9942,"ctors":9943,"diner":9944,"shortcut":9945,"listens":9946,"hangers":9947,"courses":9948,"Ones":9949,"knit":9950,"Marita":9951,"10th":9952,"belief":9953,"irect":9954,"fills":9955,"subtle":9956,"30am":9957,"freezing":9958,"suggestion":9959,"Rebe":9960,"shutting":9961,"continuing":9962,"twist":9963,"burns":9964,"hamster":9965,"hesitates":9966,"nett":9967,"Colin":9968,"Color":9969,"vatory":9970,"zzle":9971,"amaze":9972,"apologizing":9973,"apologizes":9974,"bats":9975,"frogs":9976,"midst":9977,"assures":9978,"relatively":9979,"avoiding":9980,"automobile":9981,"stitches":9982,"interrupts":9983,"gained":9984,"harbor":9985,"Conf":9986,"rescent":9987,"rescued":9988,"sympathy":9989,"sausage":9990,"negle":9991,"fooling":9992,"status":9993,"mechanic":9994,"sleeved":9995,"Prin":9996,"escalators":9997,"debated":9998,"abortion":9999,"cockro":10000,"judges":10001,"tastes":10002,"gallery":10003,"Hollywood":10004,"reveal":10005,"constant":10006,"Katie":10007,"Claus":10008,"mushroom":10009,"seeds":10010,"chuckle":10011,"gorilla":10012,"alternate":10013,"sketch":10014,"Driving":10015,"whirlpool":10016,"humorous":10017,"********************************":10018,"sparse":10019,"admiring":10020,"duplic":10021,"trampoline":10022,"whipped":10023,"folks":10024,"rearranging":10025,"skeleton":10026,"Angie":10027,"bikini":10028,"Hollander":10029,"Alaska":10030,"unexpected":10031,"aquarium":10032,"simultaneously":10033,"circumstances":10034,"Clau":10035,"Dow":10036,"Erik":10037,"Hit":10038,"Kra":10039,"Navy":10040,"Pen":10041,"Pep":10042,"Sad":10043,"Spenny":10044,"bends":10045,"fenced":10046,"oy":10047,"ostr":10048,"pse":10049,"poodle":10050,"tid":10051,"tasks":10052,"wad":10053,"yrs":10054,"intric":10055,"anal":10056,"theast":10057,"reel":10058,"reset":10059,"toll":10060,"ono":10061,"legged":10062,"western":10063,"behaving":10064,"china":10065,"upward":10066,"uphol":10067,"forks":10068,"nered":10069,"neutral":10070,"dom":10071,"unlike":10072,"oppon":10073,"sheer":10074,"shr":10075,"shri":10076,"artists":10077,"boiling":10078,"appar":10079,"poin":10080,"console":10081,"cheering":10082,"cler":10083,"buggy":10084,"studies":10085,"disk":10086,"----":10087,"atherine":10088,"steamer":10089,"obtain":10090,"begging":10091,"plank":10092,"pedals":10093,"boxing":10094,"bookshelves":10095,"pictured":10096,"career":10097,"seeming":10098,"centered":10099,"latest":10100,"cluded":10101,"grape":10102,"payment":10103,"azz":10104,"embarrassment":10105,"views":10106,"ringe":10107,"casset":10108,"campground":10109,"craz":10110,"suggesting":10111,"pyram":10112,"Reilly":10113,"freaky":10114,"rics":10115,"Dee":10116,"excitedly":10117,"tware":10118,"rental":10119,"warmth":10120,"wraps":10121,"importance":10122,"folders":10123,"notebooks":10124,"instructed":10125,"brightly":10126,"framed":10127,"litter":10128,"hesitantly":10129,"batting":10130,"transformed":10131,"superior":10132,"Seems":10133,"Point":10134,"combined":10135,"Patty":10136,"imagining":10137,"sloppy":10138,"Blair":10139,"companions":10140,"Cory":10141,"truly":10142,"shyly":10143,"occasions":10144,"advances":10145,"January":10146,"mattresses":10147,"arranging":10148,"antiques":10149,"debate":10150,"servant":10151,"Libr":10152,"adjusting":10153,"pumpkin":10154,"pursue":10155,"selection":10156,"chalk":10157,"slippers":10158,"gestures":10159,"Ahmed":10160,"significance":10161,"camper":10162,"disapproving":10163,"Hunter":10164,"therapist":10165,"tropical":10166,"Preston":10167,"dramatic":10168,"sculpture":10169,"application":10170,"Hanson":10171,"academic":10172,"dorms":10173,"karate":10174,"Stephanie":10175,"wilderness":10176,"obnoxious":10177,"Gerald":10178,"amazement":10179,"\"-":10180,"\";":10181,"44":10182,"48":10183,"Abra":10184,"Cars":10185,"Cera":10186,"Des":10187,"Diana":10188,"EE":10189,"Fro":10190,"Ha":10191,"Lima":10192,"Mars":10193,"Museum":10194,"Op":10195,"Pam":10196,"Psycho":10197,"RR":10198,"Work":10199,"Wanda":10200,"damp":10201,"gir":10202,"groo":10203,"goose":10204,"link":10205,"mour":10206,"oak":10207,"rally":10208,"sends":10209,"tend":10210,"tidal":10211,"vs":10212,"vend":10213,"vory":10214,"hest":10215,"thea":10216,"recru":10217,"recollection":10218,"toler":10219,"thie":10220,"assa":10221,"oning":10222,"attor":10223,"erup":10224,"aloud":10225,"envious":10226,"lest":10227,"stic":10228,"veled":10229,"icia":10230,"wiping":10231,"lime":10232,"romance":10233,"verse":10234,"fortune":10235,"hions":10236,"herd":10237,"mock":10238,"trum":10239,"shanty":10240,"wobbly":10241,"raising":10242,"downward":10243,"mba":10244,"housing":10245,"contem":10246,"carrot":10247,"nostal":10248,"fries":10249,"overlooking":10250,"expen":10251,"sites":10252,"claws":10253,"claust":10254,"preacher":10255,"bedside":10256,"prop":10257,"divide":10258,"ctic":10259,"perm":10260,"percent":10261,"implic":10262,"awning":10263,"marsh":10264,"towns":10265,"dingy":10266,"cares":10267,"funnel":10268,"barking":10269,"strict":10270,"portage":10271,"boardwalk":10272,"dents":10273,"screens":10274,"Seth":10275,"panicky":10276,"ients":10277,"calf":10278,"liner":10279,"aneous":10280,"flex":10281,"perimeter":10282,"crap":10283,"freeze":10284,"Ross":10285,"Royal":10286,"laws":10287,"sunset":10288,"allows":10289,"software":10290,"Coke":10291,"smoked":10292,"stickers":10293,"conversations":10294,"striking":10295,"commenting":10296,"Americans":10297,"professors":10298,"protective":10299,"equal":10300,"cruel":10301,"preparation":10302,"skipping":10303,"Isra":10304,"combed":10305,"amongst":10306,"acquainted":10307,"observatory":10308,"gangsters":10309,"grief":10310,"palace":10311,"mistakes":10312,"poorly":10313,"croche":10314,"spills":10315,"puzzles":10316,"iki":10317,"celebrities":10318,"scores":10319,"punching":10320,"vividly":10321,"communicating":10322,"demonstrating":10323,"initially":10324,"European":10325,"tacky":10326,"requested":10327,"invitation":10328,"delivering":10329,"grinning":10330,"Shake":10331,"swirling":10332,"sewer":10333,"blurry":10334,"welcomed":10335,"ITI":10336,"Liza":10337,"cautious":10338,"pronoun":10339,"severe":10340,"Sophi":10341,"Whitman":10342,"hysterical":10343,"assertive":10344,"Theodore":10345,"narrator":10346,"transition":10347,"certificate":10348,"Counseling":10349,"Lapson":10350,"Reinhold":10351,"Downey":10352,"Library":10353,"Abraham":10354,"claustropho":10355,"Around":10356,"AID":10357,"Bad":10358,"Bald":10359,"Banks":10360,"Camp":10361,"DI":10362,"Db":10363,"HO":10364,"Han":10365,"Jung":10366,"Kit":10367,"Kings":10368,"LA":10369,"Las":10370,"Lily":10371,"Mit":10372,"Morgan":10373,"Mik":10374,"Oli":10375,"Ori":10376,"Pac":10377,"Rh":10378,"Snow":10379,"Sep":10380,"Shop":10381,"Sky":10382,"Town":10383,"Try":10384,"Want":10385,"droo":10386,"eagle":10387,"econom":10388,"fus":10389,"fying":10390,"french":10391,"fitted":10392,"harp":10393,"maps":10394,"oat":10395,"pans":10396,"sis":10397,"signing":10398,"yers":10399,"infant":10400,"injury":10401,"reck":10402,"removing":10403,"revenge":10404,"toaster":10405,"oured":10406,"wasting":10407,"ardo":10408,"segment":10409,"stroll":10410,"states":10411,"strung":10412,"beep":10413,"allic":10414,"liber":10415,"amb":10416,"amm":10417,"chances":10418,"essay":10419,"hio":10420,"dove":10421,"feast":10422,"peer":10423,"unting":10424,"uncovered":10425,"unfair":10426,"tier":10427,"trace":10428,"tember":10429,"teaches":10430,"raises":10431,"det":10432,"gran":10433,"grind":10434,"consult":10435,"quaint":10436,"blu":10437,"cled":10438,"ileen":10439,"hase":10440,"permit":10441,"decis":10442,"immediate":10443,"goodness":10444,"tablecloth":10445,"undercover":10446,"strewn":10447,"finishes":10448,"differences":10449,"parap":10450,"corpor":10451,"foundation":10452,"personally":10453,"estab":10454,"flashes":10455,"password":10456,"avin":10457,"relate":10458,"misunderstood":10459,"mouthed":10460,"cray":10461,"trainer":10462,"squished":10463,"barbe":10464,"barbed":10465,"barber":10466,"stradd":10467,"lazy":10468,"erect":10469,"slower":10470,"primit":10471,"clubs":10472,"sensed":10473,"pork":10474,"Billy":10475,"atively":10476,"Unfortunately":10477,"....\"":10478,"octop":10479,"animated":10480,"Roy":10481,"Arnett":10482,"195":10483,"balding":10484,"Remember":10485,"Moab":10486,"Molly":10487,"_________":10488,"____________":10489,"salon":10490,"narrowly":10491,"capac":10492,"countries":10493,"Pauline":10494,"filthy":10495,"spoiled":10496,"Carlos":10497,"informal":10498,"grows":10499,"Today":10500,"contains":10501,"regain":10502,"motorbike":10503,"sneaks":10504,"queue":10505,"anni":10506,"platter":10507,"copied":10508,"disappointment":10509,"splashing":10510,"produced":10511,"prompt":10512,"uncles":10513,"Monty":10514,"detailed":10515,"partial":10516,"ironing":10517,"violence":10518,"violently":10519,"spilling":10520,"fiction":10521,"squeezing":10522,"scope":10523,"Janet":10524,"conditioner":10525,"sweaters":10526,"technical":10527,"demanded":10528,"Didn":10529,"budget":10530,"association":10531,"titles":10532,"fifty":10533,"switches":10534,"scrambled":10535,"poop":10536,"acknowled":10537,"increasing":10538,"reserved":10539,"crocodiles":10540,"labeled":10541,"psychic":10542,"transportation":10543,"stressed":10544,"Probably":10545,"seduce":10546,"twir":10547,"IMDb":10548,"Wayne":10549,"Spring":10550,"feminine":10551,"overalls":10552,"recipe":10553,"precarious":10554,"hinges":10555,"refreshments":10556,"Latin":10557,"destruction":10558,"Nazi":10559,"prominent":10560,"Python":10561,"wolves":10562,"categories":10563,"rafters":10564,"cancelled":10565,"neglected":10566,"pyramid":10567,"AIDS":10568,"September":10569,"46":10570,"AA":10571,"Cass":10572,"Fa":10573,"Fill":10574,"Five":10575,"Gor":10576,"Gail":10577,"Getting":10578,"Gavin":10579,"HU":10580,"IC":10581,"Ivory":10582,"Kasper":10583,"ME":10584,"Mas":10585,"Ni":10586,"Nano":10587,"Ot":10588,"Perry":10589,"Rain":10590,"Rik":10591,"Sat":10592,"Swe":10593,"Scar":10594,"Tu":10595,"Ton":10596,"Twi":10597,"ament":10598,"cers":10599,"dic":10600,"diction":10601,"elo":10602,"echo":10603,"gaps":10604,"rating":10605,"vors":10606,"heated":10607,"inc":10608,"informed":10609,"insert":10610,"angu":10611,"reno":10612,"retail":10613,"anding":10614,"tox":10615,"ories":10616,"weighed":10617,"adill":10618,"beck":10619,"gears":10620,"roy":10621,"ribs":10622,"lyrics":10623,"butcher":10624,"cos":10625,"coax":10626,"peak":10627,"unusually":10628,"oph":10629,"opo":10630,"opposed":10631,"managing":10632,"plu":10633,"trout":10634,"trusted":10635,"index":10636,"terrain":10637,"ifying":10638,"bowel":10639,"grid":10640,"sidewalks":10641,"extr":10642,"existed":10643,"stomp":10644,"foil":10645,"remen":10646,"clid":10647,"presu":10648,"tucked":10649,"rights":10650,"brushes":10651,"amel":10652,"dynam":10653,"disrup":10654,"headlights":10655,"floats":10656,"winds":10657,"parlor":10658,"compar":10659,"stems":10660,"steward":10661,"ladders":10662,"hairs":10663,"clips":10664,"inker":10665,"Joan":10666,"crut":10667,"cramped":10668,"swift":10669,"policy":10670,"choke":10671,"matters":10672,"pauses":10673,"noticeable":10674,"slows":10675,"draws":10676,"cub":10677,"screened":10678,"arrior":10679,"believing":10680,"porcel":10681,"azed":10682,"pubic":10683,"loung":10684,"swear":10685,"spotlight":10686,"vanilla":10687,"Suz":10688,"furnace":10689,"horseback":10690,"Recollection":10691,"awareness":10692,"maggot":10693,"impressive":10694,"travelling":10695,"practiced":10696,"films":10697,"Willow":10698,"separating":10699,"fuel":10700,"liturgy":10701,"profession":10702,"trails":10703,"repeats":10704,"consist":10705,"ificent":10706,"preparations":10707,"stretches":10708,"Spike":10709,"interrupting":10710,"scraper":10711,"responding":10712,"screwdriver":10713,"appli":10714,"currents":10715,"flashback":10716,"punches":10717,"Jefferson":10718,"tanks":10719,"sequences":10720,"receptionist":10721,"represents":10722,"intimid":10723,"vicious":10724,"incidentally":10725,"demands":10726,"considerable":10727,"Prof":10728,"Euclid":10729,"fluid":10730,"wounded":10731,"develop":10732,"associate":10733,"AND":10734,"vacuuming":10735,"chooses":10736,"tackle":10737,"Barbie":10738,"Entourage":10739,"elbows":10740,"swallowed":10741,"alternative":10742,"failing":10743,"limous":10744,"dawn":10745,"Whenever":10746,"fierce":10747,"bracelet":10748,"nipple":10749,"goofy":10750,"ergart":10751,"cubes":10752,"education":10753,"measuring":10754,"Murphy":10755,"nickel":10756,"Jacob":10757,"bouquet":10758,"breeze":10759,"provided":10760,"protruding":10761,"Damn":10762,"indignant":10763,"psychiatrist":10764,"biscuits":10765,"Reynolds":10766,"Aidan":10767,"Besides":10768,"primitive":10769,"porcelain":10770,"31":10771,"39":10772,"BR":10773,"Coo":10774,"Dev":10775,"Drew":10776,"Fam":10777,"Hur":10778,"Jord":10779,"Mau":10780,"Neven":10781,"NAR":10782,"Open":10783,"Ohio":10784,"PM":10785,"Pers":10786,"Rep":10787,"Rest":10788,"SO":10789,"Sitting":10790,"Ta":10791,"Tam":10792,"Ugly":10793,"VI":10794,"Watch":10795,"Zach":10796,"atom":10797,"dging":10798,"dense":10799,"ee":10800,"fy":10801,"gur":10802,"gory":10803,"gutter":10804,"hass":10805,"lush":10806,"lids":10807,"mies":10808,"oe":10809,"oam":10810,"ply":10811,"rical":10812,"sank":10813,"swords":10814,"trench":10815,"ua":10816,"vault":10817,"reput":10818,"reassuring":10819,"atus":10820,"ario":10821,"seam":10822,"lever":10823,"soaking":10824,"bearing":10825,"accord":10826,"veil":10827,"chim":10828,"chure":10829,"chron":10830,"upwards":10831,"butto":10832,"dolly":10833,"peed":10834,"urance":10835,"plato":10836,"Wel":10837,"Italy":10838,"hog":10839,"contemp":10840,"ssip":10841,"carrier":10842,"housekeeper":10843,"overly":10844,"suction":10845,"expose":10846,"cancel":10847,"ilts":10848,"ieval":10849,"quilt":10850,"airline":10851,"ulty":10852,"foli":10853,"kswag":10854,"cheaper":10855,"thrust":10856,"realistic":10857,"presses":10858,"propri":10859,"provide":10860,"righte":10861,"dialo":10862,"kindergart":10863,"inten":10864,"intently":10865,"disagree":10866,"discrimin":10867,"disoriented":10868,"longtime":10869,"lottery":10870,"rump":10871,"wonders":10872,"greasy":10873,"brochure":10874,"compass":10875,"obje":10876,"fling":10877,"flung":10878,"breed":10879,"slug":10880,"ushing":10881,"partying":10882,"surprising":10883,"surprises":10884,"shaken":10885,"moral":10886,"fireworks":10887,"Peggy":10888,"climbs":10889,"anky":10890,"snoo":10891,"rainbow":10892,"raincoat":10893,"Almost":10894,"Alley":10895,"Beaut":10896,"charity":10897,"sweating":10898,"Darcy":10899,"meetings":10900,"fixture":10901,"escapes":10902,"faculty":10903,"Hollow":10904,"yellowish":10905,"hops":10906,"mouths":10907,"videot":10908,"countryside":10909,"warming":10910,"dealt":10911,"stripped":10912,"knelt":10913,"draped":10914,"mixture":10915,"Boys":10916,"growth":10917,"Leave":10918,"Should":10919,"peeing":10920,"annon":10921,"atured":10922,"consciously":10923,"speeds":10924,"smelly":10925,"sells":10926,"cigar":10927,"combat":10928,"Merchant":10929,"roughly":10930,"Monica":10931,"sians":10932,"performed":10933,"transm":10934,"tents":10935,"harmed":10936,"stabbing":10937,"Corn":10938,"Simpsons":10939,"resembling":10940,"assignments":10941,"aims":10942,"graduating":10943,"advanced":10944,"poisoned":10945,"encouraged":10946,"Superman":10947,"competent":10948,"smoothly":10949,"urinated":10950,"Jayne":10951,"announcing":10952,"Louie":10953,"accounting":10954,"tags":10955,"chucked":10956,"appreciated":10957,"condoms":10958,"vette":10959,"Kara":10960,"survivors":10961,"Australian":10962,"revealed":10963,"impatiently":10964,"banged":10965,"coinc":10966,"Fluffy":10967,"Juliet":10968,"nuns":10969,"packets":10970,"pineapple":10971,"devices":10972,"Drive":10973,"mysterious":10974,"Depart":10975,"succeeded":10976,"honestly":10977,"Lauren":10978,"yoga":10979,"disguise":10980,"disguised":10981,"voted":10982,"historic":10983,"Volkswag":10984,"leenex":10985,"leftover":10986,"Russians":10987,"Circle":10988,"Batman":10989,"Fatima":10990,"Amelia":10991,"adequate":10992,"pointy":10993,"attorney":10994,"Orient":10995,"limousine":10996,"Jordan":10997,"Nevena":10998,")<":10999,"01":11000,"400":11001,"Abig":11002,"Apri":11003,"BE":11004,"Bush":11005,"Brid":11006,"CC":11007,"Eileen":11008,"Game":11009,"Hol":11010,"Kleenex":11011,"Odd":11012,"SU":11013,"SV":11014,"Top":11015,"TER":11016,"Tinker":11017,"USA":11018,"cater":11019,"dit":11020,"fuse":11021,"gut":11022,"lac":11023,"mma":11024,"obe":11025,"pam":11026,"paw":11027,"pure":11028,"rural":11029,"tame":11030,"turing":11031,"vals":11032,"waf":11033,"inated":11034,"anus":11035,"tobac":11036,"melo":11037,"ouses":11038,"ativity":11039,"erotic":11040,"leash":11041,"stunt":11042,"webs":11043,"ido":11044,"solo":11045,"befriend":11046,"geant":11047,"versa":11048,"whar":11049,"arena":11050,"sake":11051,"cathe":11052,"lores":11053,"lowered":11054,"manages":11055,"plaster":11056,"tricked":11057,"shred":11058,"indirect":11059,"artistic":11060,"loosen":11061,"apron":11062,"poet":11063,"carton":11064,"whereas":11065,"overhear":11066,"excl":11067,"canop":11068,"quar":11069,"ulous":11070,"medieval":11071,"Mya":11072,"ranger":11073,"preced":11074,"tuxed":11075,"scree":11076,"scrub":11077,"scruff":11078,"sawdust":11079,"diver":11080,"dismissed":11081,"ptic":11082,"ademy":11083,"ontally":11084,"perple":11085,"headquarters":11086,"tavern":11087,"underpants":11088,"nightclub":11089,"attent":11090,"colleague":11091,"cornered":11092,"survey":11093,"designer":11094,"speare":11095,"specially":11096,"marvel":11097,"obsess":11098,"flan":11099,"flown":11100,"flav":11101,"visions":11102,"sleeps":11103,"passive":11104,"bookshelf":11105,"monkeys":11106,"election":11107,"ridden":11108,"interfere":11109,"crad":11110,"crate":11111,"00pm":11112,"shaw":11113,"empathy":11114,"strate":11115,"cleaners":11116,"pasta":11117,"dral":11118,"mats":11119,"intelle":11120,"cushions":11121,"versary":11122,"knick":11123,"footage":11124,"snat":11125,"slowing":11126,"continually":11127,"clump":11128,"distress":11129,"buys":11130,"fighter":11131,"mashed":11132,"purses":11133,"pane":11134,"excess":11135,"faction":11136,"brownish":11137,"suburb":11138,"odds":11139,"balancing":11140,"sunshine":11141,"suggestions":11142,"travels":11143,"heavier":11144,"groan":11145,"Think":11146,"Lyle":11147,"southern":11148,"cells":11149,"nervously":11150,"programs":11151,"laps":11152,"hamburgers":11153,"Leah":11154,"explodes":11155,"......":11156,"platforms":11157,"bumping":11158,"guarded":11159,"puppets":11160,"photography":11161,"channels":11162,"flirted":11163,"Without":11164,"aiming":11165,"millions":11166,"hosting":11167,"kerchief":11168,"gowns":11169,"greets":11170,"Between":11171,"speeches":11172,"advance":11173,"fruits":11174,"aloof":11175,"iffed":11176,"psychologist":11177,"Chester":11178,"respectful":11179,"Janice":11180,"Keith":11181,"Peru":11182,"quitting":11183,"Louis":11184,"Prince":11185,"tossing":11186,"scripts":11187,"honored":11188,"benefit":11189,"horizontally":11190,"allest":11191,"Guy":11192,"revealing":11193,"gymnastic":11194,"Capt":11195,"Phil":11196,"Philip":11197,"banging":11198,"sheepish":11199,"Joseph":11200,"Woman":11201,"accomplished":11202,"Uptown":11203,"peeling":11204,"Academy":11205,"Phys":11206,"talented":11207,"Country":11208,"cautiously":11209,"Chap":11210,"vigor":11211,"sharks":11212,"samples":11213,"Trek":11214,"projector":11215,"gambling":11216,"rifles":11217,"dolph":11218,"Vegas":11219,"Graham":11220,"grenade":11221,"highest":11222,"situations":11223,"resigned":11224,"submerged":11225,"diagonally":11226,"technology":11227,"snotty":11228,"comedian":11229,"emails":11230,"waterslide":11231,"chapter":11232,"eyebrows":11233,"gadget":11234,"Large":11235,"rofoam":11236,"Colorado":11237,"Princess":11238,"intricate":11239,"apparatus":11240,"Shakespeare":11241,"renov":11242,"crutches":11243,"chimney":11244,"platoon":11245,"kindergarten":11246,"Department":11247,"Volkswagen":11248,")</":11249,"Abigail":11250,"April":11251,"tobacco":11252,"38":11253,"42":11254,"Aren":11255,"Aug":11256,"Abby":11257,"BA":11258,"Bac":11259,"Burn":11260,"Cont":11261,"Case":11262,"Count":11263,"DO":11264,"End":11265,"Fel":11266,"Farm":11267,"Kill":11268,"Mack":11269,"OD":11270,"Pitt":11271,"Rooks":11272,"Rimmer":11273,"SF":11274,"Sing":11275,"Sort":11276,"Training":11277,"bbled":11278,"cit":11279,"fiddle":11280,"gaze":11281,"hound":11282,"lur":11283,"mama":11284,"noodles":11285,"punk":11286,"paws":11287,"sch":11288,"ya":11289,"yl":11290,"iner":11291,"remake":11292,"refu":11293,"tos":11294,"inge":11295,"ingred":11296,"asting":11297,"melon":11298,"iter":11299,"alma":11300,"severed":11301,"sealed":11302,"leaps":11303,"strolling":11304,"wee":11305,"weaving":11306,"addresses":11307,"som":11308,"socket":11309,"accents":11310,"veling":11311,"uten":11312,"wired":11313,"outrage":11314,"verbal":11315,"chute":11316,"uppity":11317,"abused":11318,"abilities":11319,"coon":11320,"neon":11321,"sailed":11322,"females":11323,"plugs":11324,"teased":11325,"histic":11326,"cember":11327,"usely":11328,"downloaded":11329,"apid":11330,"pover":11331,"grant":11332,"conut":11333,"contrap":11334,"agging":11335,"donut":11336,"izz":11337,"spaced":11338,"bucks":11339,"smallest":11340,"proposed":11341,"drip":11342,"dium":11343,"dimes":11344,"diplo":11345,"dispen":11346,"handled":11347,"handwriting":11348,"handkerchief":11349,"lotion":11350,"printer":11351,"decay":11352,"makeshift":11353,"imate":11354,"lts":11355,"residence":11356,"persistent":11357,"bitter":11358,"parrot":11359,"roadway":11360,"minim":11361,"sergeant":11362,"jug":11363,"landlady":11364,"slab":11365,"slump":11366,"avili":11367,"Josie":11368,"moust":11369,"cram":11370,"crab":11371,"morse":11372,"structures":11373,"strands":11374,"ookie":11375,"strangest":11376,"sounding":11377,"snide":11378,"!\",":11379,"pursuit":11380,"aza":11381,"excuses":11382,"neighbour":11383,"calmed":11384,"desktop":11385,"stages":11386,"Franco":11387,"Union":11388,"substitute":11389,"Rome":11390,"Arabs":11391,"hypo":11392,"hunters":11393,"Franklin":11394,"freaking":11395,"December":11396,"rubbish":11397,"necks":11398,"profusely":11399,"Paula":11400,"sixth":11401,"librarian":11402,"Toby":11403,"Shannon":11404,"trape":11405,"railings":11406,"cliffs":11407,"lumber":11408,"Luke":11409,"Luther":11410,"wanders":11411,"jammed":11412,"characteristics":11413,"ennon":11414,"puppet":11415,"published":11416,"district":11417,"stretcher":11418,"promot":11419,"flirty":11420,"acquired":11421,"farmhouse":11422,"newsletter":11423,"interviewed":11424,"describes":11425,"erox":11426,"canoes":11427,"currently":11428,"Working":11429,"crafts":11430,"giggled":11431,"14th":11432,"punishment":11433,"Whoever":11434,"Broud":11435,"urinating":11436,"Loren":11437,"princess":11438,"slamming":11439,"rapids":11440,"Adams":11441,"elephants":11442,"wounds":11443,"stingy":11444,"Karl":11445,"absence":11446,"pouch":11447,"Rosemary":11448,"volunteered":11449,"Thurman":11450,"clutch":11451,"Minne":11452,"remodeling":11453,"stares":11454,"sailors":11455,"lavender":11456,"disturbance":11457,"Julian":11458,"commanded":11459,"blurred":11460,"intentionally":11461,"compelled":11462,"supporting":11463,"electronics":11464,"anticipation":11465,"scientific":11466,"delayed":11467,"virtu":11468,"laboratory":11469,"possessions":11470,"folk":11471,"scolded":11472,"severely":11473,"magnificent":11474,"historical":11475,"graceful":11476,"accusing":11477,"squirted":11478,"ominous":11479,"Montana":11480,"moaning":11481,"Square":11482,"handicapped":11483,"Fortun":11484,"capsule":11485,"brilliant":11486,"Olymp":11487,"Frisbee":11488,"sophistic":11489,"Kramer":11490,"Psychology":11491,"claustrophobic":11492,"Baldwin":11493,"decisions":11494,"dictionary":11495,"accordion":11496,"righteous":11497,"Alleycat":11498,"avilion":11499,"56":11500,"64":11501,"Austin":11502,"Cli":11503,"Cher":11504,"Clar":11505,"Dana":11506,"Ever":11507,"Fried":11508,"Gard":11509,"Hold":11510,"Having":11511,"Jud":11512,"Lennon":11513,"MM":11514,"Muff":11515,"NS":11516,"OU":11517,"Power":11518,"Sun":11519,"Thu":11520,"Tara":11521,"bbling":11522,"crun":11523,"dairy":11524,"fisher":11525,"imb":11526,"ived":11527,"lend":11528,"lance":11529,"ology":11530,"sab":11531,"swo":11532,"sacks":11533,"uh":11534,"vat":11535,"vending":11536,"vases":11537,"inary":11538,"reje":11539,"recy":11540,"andra":11541,"asion":11542,"atter":11543,"itate":11544,"alie":11545,"arse":11546,"leis":11547,"stated":11548,"stacking":11549,"addressed":11550,"soak":11551,"ldg":11552,"uted":11553,"lls":11554,"gem":11555,"roe":11556,"forgiven":11557,"abroad":11558,"absor":11559,"ota":11560,"coy":11561,"entit":11562,"fever":11563,"mosqu":11564,"unpacking":11565,"tial":11566,"shabby":11567,"elphi":11568,"gras":11569,"exposing":11570,"cannon":11571,"quant":11572,"aircraft":11573,"spont":11574,"spins":11575,"spiff":11576,"chell":11577,"chewed":11578,"remembers":11579,"clicked":11580,"bure":11581,"prescription":11582,"veness":11583,"division":11584,"braces":11585,"disco":11586,"openings":11587,"decent":11588,"headache":11589,"tablets":11590,"hudd":11591,"rowboat":11592,"largest":11593,"surrend":11594,"awn":11595,"Annette":11596,"ladelphi":11597,"vieve":11598,"server":11599,"flavor":11600,"glances":11601,"glitter":11602,"ignition":11603,"slave":11604,"halluc":11605,"plainly":11606,"council":11607,"shire":11608,"barren":11609,"polish":11610,"stranded":11611,"boarded":11612,"choking":11613,"swarm":11614,"snaps":11615,"Always":11616,"Alvin":11617,"patrol":11618,"patrons":11619,"clues":11620,"cuit":11621,"porn":11622,"purposes":11623,"panicking":11624,"meets":11625,"presenting":11626,"recognizing":11627,"recognizes":11628,"basis":11629,"extend":11630,"Arts":11631,"knobs":11632,"hunted":11633,"cabins":11634,"grandchildren":11635,"Moz":11636,"affir":11637,"_______________":11638,"Death":11639,"experiments":11640,"strikes":11641,"territory":11642,"flats":11643,"employer":11644,"Jew":11645,"Jeep":11646,"hopefully":11647,"clocks":11648,"banjo":11649,"peeked":11650,"licking":11651,"cherry":11652,"acceptable":11653,"cornfield":11654,"carts":11655,"Monroe":11656,"ctual":11657,"Wilma":11658,"species":11659,"diagram":11660,"defending":11661,"cracker":11662,"sneakers":11663,"digital":11664,"napkin":11665,"ordinarily":11666,"sharply":11667,"Poppers":11668,"occasional":11669,"contestants":11670,"Dawn":11671,"exercising":11672,"static":11673,"satisfaction":11674,"bulls":11675,"Coming":11676,"chaos":11677,"Return":11678,"Simba":11679,"nesses":11680,"Hugh":11681,"Berg":11682,"Negroes":11683,"fantastic":11684,"clinging":11685,"defecate":11686,"Philadelphi":11687,"figur":11688,"crouch":11689,"rays":11690,"Joshua":11691,"twenties":11692,"desserts":11693,"whispering":11694,"Jasper":11695,"sufficient":11696,"coworkers":11697,"depth":11698,"carpeting":11699,"binder":11700,"nonchalant":11701,"zipper":11702,"pronounce":11703,"Publ":11704,"bolts":11705,"soothe":11706,"sharpen":11707,"Community":11708,"confirmed":11709,"fragile":11710,"fragments":11711,"scales":11712,"Obviously":11713,"recommended":11714,"Genevieve":11715,"robbery":11716,"aspects":11717,"thoroughly":11718,"distinguish":11719,"philosophy":11720,"rhino":11721,"achieve":11722,"lollies":11723,"landscaping":11724,"Ricardo":11725,"Central":11726,"Hasani":11727,"Wyatt":11728,"conveyor":11729,"expert":11730,"boulders":11731,"pedestri":11732,"Claude":11733,"opponent":11734,"cassette":11735,"Israel":11736,"octopus":11737,"capacity":11738,"Twilight":11739,"lounging":11740,"Family":11741,"plywood":11742,"canopy":11743,"scruffy":11744,"perplexed":11745,"August":11746,"Fortunately":11747,"sophisticated":11748,"spiffy":11749,"Philadelphia":11750,"\")":11751,"250":11752,"41":11753,"BI":11754,"Ball":11755,"Bart":11756,"Bloo":11757,"Bear":11758,"Brent":11759,"Brail":11760,"Bridge":11761,"Barrie":11762,"Came":11763,"Cele":11764,"Cadill":11765,"Dun":11766,"DDS":11767,"Euch":11768,"Fish":11769,"Fido":11770,"Grad":11771,"Hunt":11772,"Kie":11773,"Kirk":11774,"Math":11775,"Misty":11776,"Nice":11777,"Naver":11778,"Pan":11779,"Pet":11780,"Pau":11781,"Phill":11782,"Prison":11783,"RV":11784,"Rene":11785,"SS":11786,"Sa":11787,"Sen":11788,"Stone":11789,"UFO":11790,"WD":11791,"WW":11792,"Yester":11793,"aign":11794,"bothers":11795,"bending":11796,"cad":11797,"cies":11798,"cities":11799,"darts":11800,"eh":11801,"eel":11802,"fering":11803,"faking":11804,"gles":11805,"ias":11806,"iment":11807,"lons":11808,"mound":11809,"naught":11810,"pater":11811,"pses":11812,"puck":11813,"ptive":11814,"pavilion":11815,"rash":11816,"zan":11817,"zens":11818,"zona":11819,"thest":11820,"recl":11821,"refere":11822,"retain":11823,"recreation":11824,"thir":11825,"asph":11826,"mesh":11827,"oncoming":11828,"erve":11829,"ede":11830,"ala":11831,"alter":11832,"albums":11833,"stung":11834,"weeping":11835,"ooh":11836,"Thea":11837,"keen":11838,"goti":11839,"chamber":11840,"forcing":11841,"negoti":11842,"feared":11843,"urable":11844,"unaware":11845,"unstable":11846,"ops":11847,"wheat":11848,"troops":11849,"shines":11850,"indifferent":11851,"endless":11852,"demo":11853,"depress":11854,"diddling":11855,"holo":11856,"dreamer":11857,"guiding":11858,"poly":11859,"powered":11860,"redu":11861,"timetable":11862,"pple":11863,"ppings":11864,"sper":11865,"chew":11866,"aching":11867,"buckets":11868,"rano":11869,"propped":11870,"ilda":11871,"stumble":11872,"fron":11873,"disks":11874,"discount":11875,"disconnected":11876,"handling":11877,"cleare":11878,"watering":11879,"essor":11880,"athon":11881,"pertur":11882,"pride":11883,"boyfriends":11884,"fianc":11885,"firemen":11886,"ruins":11887,"lette":11888,"streaks":11889,"rowdy":11890,"attacks":11891,"parish":11892,"compare":11893,"highschool":11894,"armor":11895,"navig":11896,"hairdo":11897,"bathrobe":11898,"gler":11899,"vise":11900,"visits":11901,"hurric":11902,"slapping":11903,"stepmother":11904,"triangular":11905,"formula":11906,"incest":11907,"insisting":11908,"numb":11909,"fastened":11910,"catcher":11911,"swimsuit":11912,"concerns":11913,"custom":11914,"quicker":11915,"footprints":11916,"Alicia":11917,"signature":11918,"distribut":11919,"annoys":11920,"hotels":11921,"wheeler":11922,"wheeled":11923,"Sears":11924,"Sebas":11925,"yearbook":11926,"linole":11927,"Uni":11928,"viewing":11929,"Rox":11930,"lawns":11931,"Force":11932,"balanced":11933,"involve":11934,"sung":11935,"lakes":11936,"feroc":11937,"Coast":11938,"magne":11939,"renting":11940,"difficulties":11941,"varn":11942,"mentioning":11943,"gasp":11944,"Memor":11945,"Megan":11946,"staircases":11947,"practical":11948,"celloph":11949,"fucking":11950,"cult":11951,"pianos":11952,"consists":11953,"paintball":11954,"characteristic":11955,"gardens":11956,"crumbs":11957,"charges":11958,"handlebars":11959,"management":11960,"nonsense":11961,"retta":11962,"Wilson":11963,"privile":11964,"Mills":11965,"chained":11966,"scenario":11967,"Ruth":11968,"adole":11969,"responsive":11970,"jealousy":11971,"symptoms":11972,"expressing":11973,"belts":11974,"Except":11975,"admired":11976,"Lakeland":11977,"residents":11978,"considerably":11979,"fluo":11980,"servants":11981,"passageway":11982,"confrontation":11983,"descended":11984,"squirrels":11985,"defec":11986,"trimmed":11987,"Arizona":11988,"Madonna":11989,"sketchy":11990,"intelligence":11991,"devast":11992,"bruised":11993,"Dept":11994,"Grocer":11995,"pastel":11996,"swampy":11997,"intentions":11998,"scientist":11999,"puffy":12000,"rearranged":12001,"Tarzan":12002,"honeymoon":12003,"leftovers":12004,"Glenn":12005,"swerve":12006,"Presently":12007,"betrayed":12008,"obscure":12009,"challenged":12010,"Olson":12011,"dilapid":12012,"precisely":12013,"lobster":12014,"foul":12015,"rehearse":12016,"Hitler":12017,"pronounced":12018,"Mitchell":12019,"Rhonda":12020,"oatmeal":12021,"Tinkerbell":12022,"shawl":12023,"ingredients":12024,"contraption":12025,"entitled":12026,"Mozart":12027,"Braille":12028,"Cadillac":12029,"DDSI":12030,"Yesterday":12031,"perturbed":12032,"Sebastian":12033,"linoleum":12034,"cellophane":12035,"dilapidated":12036,"34":12037,"36":12038,"600":12039,"85":12040,"96":12041,"?,\"":12042,"BC":12043,"Bow":12044,"Bag":12045,"Bate":12046,"Brun":12047,"Curt":12048,"Fine":12049,"GE":12050,"Gab":12051,"Gram":12052,"Kind":12053,"Kath":12054,"Must":12055,"Mort":12056,"Mitch":12057,"Master":12058,"Nan":12059,"Nils":12060,"Pass":12061,"Rex":12062,"SC":12063,"Swed":12064,"Told":12065,"Usu":12066,"Wild":12067,"bam":12068,"batt":12069,"brook":12070,"dar":12071,"fidd":12072,"fainted":12073,"gical":12074,"grain":12075,"iable":12076,"iors":12077,"kah":12078,"lbs":12079,"mittens":12080,"noo":12081,"oct":12082,"rou":12083,"rul":12084,"ratt":12085,"racqu":12086,"rational":12087,"rasp":12088,"sip":12089,"splat":12090,"urious":12091,"wins":12092,"wanna":12093,"inspect":12094,"rein":12095,"recon":12096,"reins":12097,"rehab":12098,"remorse":12099,"token":12100,"tober":12101,"onion":12102,"istered":12103,"orting":12104,"weir":12105,"adam":12106,"advent":12107,"idget":12108,"bead":12109,"beast":12110,"ayer":12111,"vels":12112,"liable":12113,"rots":12114,"verge":12115,"riot":12116,"whit":12117,"irregular":12118,"forgive":12119,"abdo":12120,"abstr":12121,"cozy":12122,"petal":12123,"uns":12124,"unra":12125,"unconcerned":12126,"untie":12127,"shone":12128,"antagon":12129,"teases":12130,"bold":12131,"dee":12132,"concl":12133,"overcoat":12134,"expan":12135,"donkey":12136,"Social":12137,"spi":12138,"sped":12139,"chef":12140,"chev":12141,"clapping":12142,"props":12143,"dyed":12144,"kindly":12145,"intact":12146,"handler":12147,"bles":12148,"waken":12149,"prince":12150,"lightweight":12151,"sorted":12152,"maker":12153,"jogging":12154,"jockey":12155,"wrought":12156,"stered":12157,"spear":12158,"minnow":12159,"angels":12160,"hardwood":12161,"lasted":12162,"planks":12163,"slats":12164,"earn":12165,"ummer":12166,"mono":12167,"nevertheless":12168,"interfering":12169,"crabs":12170,"Nove":12171,"ggle":12172,"invasion":12173,"greenish":12174,"fours":12175,"embraced":12176,"rounds":12177,"dental":12178,"Alain":12179,"gravy":12180,"cubby":12181,"Marcia":12182,"wheelbar":12183,"elevated":12184,"excused":12185,"approval":12186,"crossword":12187,"recognition":12188,"30pm":12189,"pushy":12190,"expans":12191,"Dec":12192,"twisting":12193,"ginger":12194,"dealers":12195,"patiently":12196,"Carla":12197,"Box":12198,"bathe":12199,"Shut":12200,"physiology":12201,"fingernail":12202,"operated":12203,"introducing":12204,"Whoo":12205,"orky":12206,"stormy":12207,"crum":12208,"enjoyment":12209,"accepts":12210,"stroking":12211,"Mermaid":12212,"observed":12213,"ctured":12214,"nik":12215,"1800":12216,"copying":12217,"eldest":12218,"bunches":12219,"celebrity":12220,"medication":12221,"Exc":12222,"psychological":12223,"supported":12224,"tricky":12225,"Forest":12226,"Natasha":12227,"vicinity":12228,"participant":12229,"Ronnie":12230,"Ronald":12231,"vegetarian":12232,"Valentine":12233,"languages":12234,"Party":12235,"Delon":12236,"accum":12237,"select":12238,"selected":12239,"survival":12240,"Reserve":12241,"Eastern":12242,"Harvey":12243,"politic":12244,"fortunate":12245,"holidays":12246,"duties":12247,"barrels":12248,"Minister":12249,"peeled":12250,"marbles":12251,"Moran":12252,"paddling":12253,"bustling":12254,"Angel":12255,"Dorothea":12256,"reservation":12257,"limited":12258,"wrecked":12259,"Kore":12260,"dawned":12261,"competing":12262,"thodo":12263,"nearer":12264,"drummer":12265,"geography":12266,"Metro":12267,"boombox":12268,"virus":12269,"soothing":12270,"radiation":12271,"possessed":12272,"inspection":12273,"confirm":12274,"vulner":12275,"mildly":12276,"precariously":12277,"Leonard":12278,"dungeon":12279,"UPC":12280,"rigid":12281,"ROW":12282,"penetrate":12283,"architect":12284,"Leslie":12285,"Stanley":12286,"Twice":12287,"hawk":12288,"Davis":12289,"October":12290,"Selena":12291,"repulsed":12292,"effective":12293,"Rebekah":12294,"Sophia":12295,"establish":12296,"acknowledged":12297,"coincidence":12298,"Bridget":12299,"wharf":12300,"flannel":12301,"intellectual":12302,"Chapman":12303,"dispenser":12304,"Muffin":12305,"Bergman":12306,"figurines":12307,"Euchar":12308,"naughty":12309,"paternal":12310,"fluorescent":12311,"Grocery":12312,"Bateman":12313,"abdomen":12314,").\"":12315,"150":12316,"AD":12317,"Ama":12318,"Bank":12319,"Blu":12320,"Cer":12321,"CPR":12322,"Drum":12323,"Dustin":12324,"Eagle":12325,"Fur":12326,"Found":12327,"Food":12328,"Field":12329,"Gill":12330,"Ginger":12331,"Hoo":12332,"Iron":12333,"Kot":12334,"Kary":12335,"Katherine":12336,"LI":12337,"Lister":12338,"Madd":12339,"Pon":12340,"Rather":12341,"Spark":12342,"Syd":12343,"Ute":12344,"VE":12345,"Ya":12346,"ague":12347,"bake":12348,"dict":12349,"fate":12350,"fry":12351,"fade":12352,"fans":12353,"fender":12354,"fading":12355,"hr":12356,"ji":12357,"jazz":12358,"listing":12359,"lanter":12360,"mart":12361,"mim":12362,"nib":12363,"patted":12364,"rant":12365,"rund":12366,"sby":12367,"slea":12368,"vand":12369,"vard":12370,"wade":12371,"yment":12372,"Õs":12373,"reced":12374,"reimb":12375,"tomb":12376,"thump":12377,"atra":12378,"editor":12379,"wasted":12380,"orp":12381,"stals":12382,"stakes":12383,"adder":12384,"soil":12385,"kered":12386,"wiring":12387,"outskirts":12388,"riers":12389,"whoo":12390,"uptown":12391,"forts":12392,"hilar":12393,"opposing":12394,"plow":12395,"artwork":12396,"loops":12397,"rais":12398,"dejected":12399,"elle":12400,"hore":12401,"grud":12402,"concept":12403,"concess":12404,"conserv":12405,"gotta":12406,"thinner":12407,"agan":12408,"justice":12409,"overhang":12410,"sund":12411,"expressed":12412,"stoop":12413,"donate":12414,"quis":12415,"Soci":12416,"izer":12417,"sponge":12418,"clone":12419,"ousing":12420,"tuck":12421,"tumble":12422,"parted":12423,"afia":12424,"placement":12425,"auction":12426,"Sometime":12427,"torso":12428,"discou":12429,"disliked":12430,"disposal":12431,"readjust":12432,"unde":12433,"undo":12434,"essentially":12435,"openly":12436,"perio":12437,"actica":12438,"pless":12439,"afterward":12440,"busines":12441,"comparing":12442,"coln":12443,"Inn":12444,"spelled":12445,"marathon":12446,"sermon":12447,"storey":12448,"oblig":12449,"flick":12450,"flaming":12451,"curling":12452,"angeline":12453,"eval":12454,"evol":12455,"slush":12456,"killers":12457,"shoving":12458,"countered":12459,"Joanne":12460,"interven":12461,"interaction":12462,"crusty":12463,"upsetting":12464,"chores":12465,"embracing":12466,"knacks":12467,"steadily":12468,"snif":12469,"snug":12470,"patron":12471,"primary":12472,"arrival":12473,"Being":12474,"Marlene":12475,"senses":12476,"portra":12477,"wheelchairs":12478,"cali":12479,"caly":12480,"vibra":12481,"petted":12482,"campaign":12483,"restaurants":12484,"slither":12485,"hymn":12486,"Donna":12487,"sunk":12488,"straightening":12489,"legally":12490,"warns":12491,"Cosby":12492,"shuts":12493,"candid":12494,"silhou":12495,"settings":12496,"profit":12497,"potty":12498,"officials":12499,"ckett":12500,"spoons":12501,"pleasurable":12502,"oranges":12503,"apology":12504,"belonging":12505,"growling":12506,"crystals":12507,"sneaked":12508,"clockwise":12509,"Columb":12510,"springs":12511,"hearted":12512,"Scully":12513,"Scrubs":12514,"doubles":12515,"sweetly":12516,"turtles":12517,"smelling":12518,"markers":12519,"drunken":12520,"crumble":12521,"distraction":12522,"producer":12523,"Pope":12524,"murky":12525,"dishwasher":12526,"Monopo":12527,"textbook":12528,"observation":12529,"lecturer":12530,"engineer":12531,"tapping":12532,"freshly":12533,"northwest":12534,"screwing":12535,"Centerville":12536,"Budd":12537,"resemble":12538,"harmful":12539,"writers":12540,"priests":12541,"contacts":12542,"suspicion":12543,"toothbrush":12544,"punished":12545,"Jeffrey":12546,"scored":12547,"tasting":12548,"cuddled":12549,"heights":12550,"blob":12551,"bloke":12552,"Nicki":12553,"furiously":12554,"wastebasket":12555,"cheerfully":12556,"cartoons":12557,"pistols":12558,"generous":12559,"Huh":12560,"category":12561,"pudding":12562,"Waiting":12563,"fabrics":12564,"literature":12565,"focusing":12566,"entertaining":12567,"reversed":12568,"bursts":12569,"Flags":12570,"contrast":12571,"pajama":12572,"Shawn":12573,"III":12574,"stools":12575,"Ariana":12576,"chuckled":12577,"Golden":12578,"increase":12579,"Evangeline":12580,"Kylie":12581,"brunette":12582,"Sherman":12583,"revolution":12584,"Talking":12585,"persuaded":12586,"conducting":12587,"executive":12588,"Freud":12589,"thousand":12590,"Marianne":12591,"stirring":12592,"globe":12593,"Harrison":12594,"Ladies":12595,"installed":12596,"Sawyer":12597,"rarely":12598,"cylinder":12599,"Kentucky":12600,"crisis":12601,"IVE":12602,"rustic":12603,"ornaments":12604,"dominant":12605,"architecture":12606,"Bailey":12607,"Company":12608,"footing":12609,"influence":12610,"Milo":12611,"Drake":12612,"corrected":12613,"luxurious":12614,"Lincoln":12615,"Battlestar":12616,"Madelyn":12617,"genuinely":12618,"Craig":12619,"Windows":12620,"contempl":12621,"flexible":12622,"anniversary":12623,"Fillion":12624,"Otis":12625,"Suzanne":12626,"maggots":12627,"Professor":12628,"reputation":12629,"buttocks":12630,"quarrel":12631,"refuge":12632,"moustache":12633,"swollen":12634,"asphalt":12635,"hurricane":12636,"Curtis":12637,"Gabriel":12638,"Usually":12639,"abstract":12640,"November":12641,"thodox":12642,"vulnerable":12643,"Karyn":12644,"Madden":12645,"Sydney":12646,"rundown":12647,"reimbur":12648,"periods":12649,"businesses":12650,"Monopoly":12651,"2000":12652,"49":12653,"Boo":12654,"Block":12655,"Brock":12656,"Bond":12657,"Bldg":12658,"Cur":12659,"Chandler":12660,"Edu":12661,"FC":12662,"Fil":12663,"Free":12664,"Gy":12665,"Gri":12666,"Got":12667,"Gus":12668,"Gaston":12669,"Hon":12670,"Jun":12671,"Junior":12672,"Kh":12673,"Know":12674,"Lanc":12675,"MY":12676,"Mah":12677,"Norm":12678,"Olie":12679,"Pear":12680,"RS":12681,"Rouse":12682,"Sex":12683,"Sty":12684,"Sookie":12685,"Tow":12686,"Tran":12687,"Vader":12688,"WA":12689,"Wright":12690,"avers":12691,"cass":12692,"cile":12693,"cation":12694,"cious":12695,"dings":12696,"etor":12697,"eved":12698,"faul":12699,"faders":12700,"gloo":12701,"gno":12702,"gins":12703,"iot":12704,"imer":12705,"ko":12706,"lton":12707,"mming":12708,"pong":12709,"rint":12710,"skept":12711,"swearing":12712,"udes":12713,"vain":12714,"heating":12715,"rev":12716,"revi":12717,"reacted":12718,"tories":12719,"mellow":12720,"onaut":12721,"attire":12722,"erto":12723,"edit":12724,"alarmed":12725,"encountered":12726,"adap":12727,"sota":12728,"beaded":12729,"limbs":12730,"roles":12731,"chill":12732,"chimp":12733,"chicks":12734,"whiz":12735,"esses":12736,"therland":12737,"butts":12738,"coated":12739,"hibit":12740,"dope":12741,"dodging":12742,"dozens":12743,"peep":12744,"peering":12745,"peaches":12746,"cav":12747,"loses":12748,"unke":12749,"unic":12750,"unhurt":12751,"unpack":12752,"unwilling":12753,"tracing":12754,"shing":12755,"inder":12756,"teles":12757,"woven":12758,"rags":12759,"rains":12760,"ragged":12761,"ustered":12762,"dean":12763,"depot":12764,"delete":12765,"Therefore":12766,"consequences":12767,"cartons":12768,"caramel":12769,"nomin":12770,"household":12771,"mph":12772,"mplo":12773,"overpass":12774,"suf":12775,"exchanged":12776,"exotic":12777,"stout":12778,"assass":12779,"astro":12780,"izable":12781,"spur":12782,"clam":12783,"prospe":12784,"propel":12785,"proposal":12786,"scotch":12787,"sels":12788,"drifting":12789,"dialing":12790,"brat":12791,"bridal":12792,"disci":12793,"disorder":12794,"distorted":12795,"handgun":12796,"foreman":12797,"ffit":12798,"bless":12799,"waterfront":12800,"headphones":12801,"taker":12802,"lett":12803,"--,":12804,"tablecloths":12805,"classic":12806,"humid":12807,"pharm":12808,"waiters":12809,"compound":12810,"aker":12811,"?\"]":12812,"speci":12813,"creativity":12814,"contribut":12815,"mering":12816,"serial":12817,"implies":12818,"flour":12819,"flakes":12820,"glued":12821,"slicing":12822,"bandages":12823,"interact":12824,"intermission":12825,"horny":12826,"nub":12827,"bargain":12828,"invaded":12829,"kitties":12830,"halter":12831,"concerning":12832,"embro":12833,"embraces":12834,"lively":12835,"footsteps":12836,"clumsy":12837,"array":12838,"metallic":12839,"dedic":12840,"comforted":12841,"Beeth":12842,"troubles":12843,"mascul":12844,"Second":12845,"Doc":12846,"stationery":12847,"strapped":12848,"fixtures":12849,"facil":12850,"recognizable":12851,"casting":12852,"circuit":12853,"shelving":12854,"tracked":12855,"efforts":12856,"commander":12857,"Sutherland":12858,"Ree":12859,"respir":12860,"Dell":12861,"Deanna":12862,"connections":12863,"reminding":12864,"twists":12865,"ibilities":12866,"gingly":12867,"vari":12868,"groggy":12869,"skyscraper":12870,"telepath":12871,"alleys":12872,"sneers":12873,"sleek":12874,"torial":12875,"Benny":12876,"explosions":12877,"Barney":12878,"peeks":12879,"sprint":12880,"Scene":12881,"refusing":12882,"pregnancy":12883,"repairs":12884,"frosted":12885,"shady":12886,"locations":12887,"models":12888,"flirts":12889,"rotating":12890,"shouts":12891,"spreadsheet":12892,"scraped":12893,"streams":12894,"memorial":12895,"energetic":12896,"feedback":12897,"flowerbeds":12898,"Erin":12899,"napkins":12900,"writings":12901,"stringy":12902,"bagel":12903,"toothpaste":12904,"sympath":12905,"prayed":12906,"aroni":12907,"suspiciously":12908,"Zeb":12909,"Loretta":12910,"sequel":12911,"blos":12912,"yanked":12913,"NOW":12914,"participants":12915,"dives":12916,"bounces":12917,"symboli":12918,"Times":12919,"advertised":12920,"individually":12921,"failure":12922,"chopping":12923,"helicopters":12924,"bearded":12925,"padded":12926,"gallons":12927,"prevented":12928,"passages":12929,"affectionately":12930,"Grou":12931,"Harold":12932,"infection":12933,"replacement":12934,"ATM":12935,"volunteers":12936,"insistent":12937,"investigating":12938,"Alexis":12939,"grinned":12940,"sympathetically":12941,"Acquaint":12942,"stains":12943,"sewn":12944,"delicate":12945,"scratching":12946,"LED":12947,"terrorists":12948,"depending":12949,"sparkling":12950,"transported":12951,"tickle":12952,"tricycle":12953,"Hawaiian":12954,"industry":12955,"Freaks":12956,"Tracy":12957,"additional":12958,"sparks":12959,"scrapbook":12960,"advised":12961,"dimensions":12962,"Stevenson":12963,"cooperative":12964,"dramat":12965,"quotes":12966,"harassing":12967,"markings":12968,"autographs":12969,"Cruz":12970,"glares":12971,"swaying":12972,"Rigo":12973,"macaroni":12974,"astronaut":12975,"Brittany":12976,"Brookland":12977,"Pascal":12978,"reminiscent":12979,"Galactica":12980,"bawled":12981,"Ireland":12982,"penguin":12983,"Nicholson":12984,"Oprah":12985,"Worker":12986,"assault":12987,"Kingsley":12988,"Masters":12989,"stewardess":12990,"appliances":12991,"Restaur":12992,"Oriental":12993,"cathedral":12994,"obsessed":12995,"gymnastics":12996,"Casey":12997,"Minnesota":12998,"fiancé":12999,"adolescent":13000,"bamboo":13001,"expanse":13002,"Lancaster":13003,"Pearl":13004,"Beethoven":13005,"Acquaintance":13006,"%.":13007,"(?).":13008,"65":13009,"?!":13010,"Ass":13011,"Adri":13012,"BO":13013,"Band":13014,"Bot":13015,"Bang":13016,"Cr":13017,"Cly":13018,"Clear":13019,"Egy":13020,"Fi":13021,"Flying":13022,"Gib":13023,"Goose":13024,"Gwen":13025,"Ice":13026,"Jungle":13027,"Ka":13028,"Ki":13029,"List":13030,"Loc":13031,"Los":13032,"MB":13033,"MI":13034,"MCA":13035,"Mama":13036,"MUPC":13037,"NE":13038,"Nu":13039,"Nix":13040,"OP":13041,"Oz":13042,"Pa":13043,"Pap":13044,"Pink":13045,"Penn":13046,"Post":13047,"Ring":13048,"Rho":13049,"Riding":13050,"Slo":13051,"VER":13052,"Wis":13053,"Yuck":13054,"Zomb":13055,"avenue":13056,"blimp":13057,"cca":13058,"dwell":13059,"dummy":13060,"eving":13061,"frank":13062,"fencing":13063,"kha":13064,"mous":13065,"num":13066,"obl":13067,"pus":13068,"scars":13069,"sively":13070,"tiring":13071,"uated":13072,"wow":13073,"wrench":13074,"wicked":13075,"wicker":13076,"x4":13077,"inher":13078,"theft":13079,"refe":13080,"recovered":13081,"reacting":13082,"recovering":13083,"resolved":13084,"thic":13085,"mere":13086,"onds":13087,"onions":13088,"isance":13089,"orgy":13090,"ensed":13091,"enson":13092,"stroller":13093,"admi":13094,"beet":13095,"beers":13096,"allerg":13097,"icts":13098,"gover":13099,"rome":13100,"rockets":13101,"essays":13102,"uptight":13103,"oty":13104,"butler":13105,"neys":13106,"docks":13107,"enta":13108,"loaves":13109,"una":13110,"unition":13111,"unidentified":13112,"mann":13113,"tigers":13114,"pling":13115,"plush":13116,"Heidi":13117,"indent":13118,"indul":13119,"antlers":13120,"enda":13121,"rooming":13122,"bosses":13123,"deodor":13124,"polar":13125,"posure":13126,"illusion":13127,"illumin":13128,"atest":13129,"mpy":13130,"overcast":13131,"sue":13132,"exagger":13133,"exception":13134,"exquis":13135,"ept":13136,"queasy":13137,"spaz":13138,"spons":13139,"ulations":13140,"doorways":13141,"bluff":13142,"inevit":13143,"clap":13144,"clapped":13145,"composed":13146,"comics":13147,"bully":13148,"tuous":13149,"smir":13150,"partitions":13151,"scrun":13152,"venir":13153,"auer":13154,"mens":13155,"tortured":13156,"runner":13157,"disintegr":13158,"coup":13159,"undies":13160,"beings":13161,"perce":13162,"showering":13163,"everyday":13164,"hua":13165,"plead":13166,"nerve":13167,"rowing":13168,"Asians":13169,"bushy":13170,"parano":13171,"coral":13172,"cordu":13173,"hates":13174,"oline":13175,"skim":13176,"naire":13177,"nailed":13178,"storeys":13179,"uckoo":13180,"flatt":13181,"pretends":13182,"visitor":13183,"ignor":13184,"slur":13185,"slabs":13186,"jewels":13187,"careless":13188,"woodwork":13189,"rider":13190,"crust":13191,"centric":13192,"pains":13193,"treats":13194,"nuisance":13195,"squad":13196,"polished":13197,"launch":13198,"chore":13199,"guessing":13200,"Allure":13201,"Allison":13202,"Alshire":13203,"graffit":13204,"cuto":13205,"cumber":13206,"ios":13207,"ahl":13208,"Marge":13209,"glassed":13210,"seniors":13211,"spitting":13212,"fights":13213,"Billings":13214,"Segel":13215,"pantry":13216,"pancake":13217,"snowball":13218,"saddle":13219,"campsite":13220,"extends":13221,"cript":13222,"hopped":13223,"hopping":13224,"Neal":13225,"bows":13226,"Grandfather":13227,"sofas":13228,"rooftop":13229,"questionnaire":13230,"shutters":13231,"twitch":13232,"captive":13233,"capital":13234,"Bobbie":13235,"Judith":13236,"wrapper":13237,"wrappers":13238,"drags":13239,"brighter":13240,"souvenir":13241,"positioned":13242,"fumble":13243,"15th":13244,"culture":13245,"Geeks":13246,"lettering":13247,"licked":13248,"consin":13249,"refund":13250,"rushchev":13251,"Teller":13252,"transl":13253,"entrances":13254,"superhero":13255,"tours":13256,"pageant":13257,"pupils":13258,"stormed":13259,"crude":13260,"productive":13261,"assuming":13262,"gardener":13263,"enjoyable":13264,"Westland":13265,"denied":13266,"gangs":13267,"activate":13268,"scraps":13269,"pione":13270,"memorize":13271,"pinched":13272,"credits":13273,"switching":13274,"sloping":13275,"taping":13276,"Cartwright":13277,"reported":13278,"Conne":13279,"Orthodox":13280,"pilots":13281,"emerge":13282,"actuality":13283,"bunks":13284,"butterflies":13285,"awkwardly":13286,"Keep":13287,"splitting":13288,"crushing":13289,"Prayer":13290,"Quin":13291,"Quite":13292,"witnesses":13293,"repairing":13294,"development":13295,"stocky":13296,"qualified":13297,"examples":13298,"dragons":13299,"abandon":13300,"Terrence":13301,"biker":13302,"namon":13303,"bulletin":13304,"ATIVE":13305,"figurine":13306,"Alexander":13307,"chords":13308,"racist":13309,"scanner":13310,"resentful":13311,"lesbians":13312,"flags":13313,"topics":13314,"limits":13315,"shoveling":13316,"farewell":13317,"revolver":13318,"Cafeteria":13319,"applaud":13320,"Talk":13321,"zipped":13322,"stamped":13323,"executed":13324,"Laurie":13325,"thesis":13326,"reporting":13327,"moldy":13328,"conceal":13329,"Lawrence":13330,"exasper":13331,"manipulate":13332,"Plain":13333,"pulley":13334,"judged":13335,"Airport":13336,"existence":13337,"educational":13338,"confession":13339,"Denny":13340,"Obama":13341,"nickels":13342,"concentration":13343,"NYC":13344,"intimating":13345,"Kristy":13346,"teleported":13347,"challenging":13348,"elimin":13349,"Britta":13350,"administrator":13351,"performers":13352,"civilian":13353,"Payton":13354,"hypnot":13355,"Choir":13356,"arcade":13357,"ccoli":13358,"invented":13359,"sniper":13360,"Oceanside":13361,"ctives":13362,"Confusion":13363,"Pepsi":13364,"ostrich":13365,"upholstered":13366,"marshm":13367,"economics":13368,"ammunition":13369,"bluish":13370,"Sweet":13371,"proprietor":13372,"dialogue":13373,"Beautiful":13374,"pamph":13375,"citiz":13376,"slumped":13377,"Kiefer":13378,"Paulette":13379,"depression":13380,"ferocious":13381,"petals":13382,"wheelbarrow":13383,"crumpled":13384,"Kotnik":13385,"sleazy":13386,"hilarious":13387,"concession":13388,"Society":13389,"Khrushchev":13390,"Styrofoam":13391,"Restaurant":13392,"Nixon":13393,"Wisconsin":13394,"admires":13395,"deodorant":13396,"exquisite":13397,"graffiti":13398,"')":13399,".).":13400,"03":13401,"09":13402,"53":13403,"Brett":13404,"Bauer":13405,"Cathy":13406,"Dale":13407,"Dug":13408,"Edith":13409,"FE":13410,"Fast":13411,"Gall":13412,"HE":13413,"Hug":13414,"Imp":13415,"Kn":13416,"Land":13417,"Lang":13418,"Mather":13419,"NT":13420,"Nah":13421,"Natur":13422,"Orange":13423,"Rd":13424,"Ren":13425,"Sound":13426,"Same":13427,"Shall":13428,"Slick":13429,"Treat":13430,"Ugh":13431,"Ven":13432,"Vance":13433,"Yvette":13434,"YMCA":13435,"]\".":13436,"aer":13437,"bers":13438,"braid":13439,"bond":13440,"busted":13441,"cant":13442,"cence":13443,"cables":13444,"dunk":13445,"dened":13446,"draining":13447,"dagger":13448,"emission":13449,"flea":13450,"hanna":13451,"hiring":13452,"jut":13453,"oid":13454,"tt":13455,"tac":13456,"tamp":13457,"tling":13458,"vable":13459,"vations":13460,"inet":13461,"insp":13462,"inhal":13463,"infer":13464,"inflat":13465,"anes":13466,"ancho":13467,"recur":13468,"repet":13469,"retired":13470,"resolve":13471,"tourn":13472,"ington":13473,"onica":13474,"erased":13475,"itars":13476,"itially":13477,"orph":13478,"lem":13479,"leery":13480,"stitch":13481,"soiled":13482,"acro":13483,"outcome":13484,"goate":13485,"roaring":13486,"amor":13487,"rix":13488,"ripe":13489,"rips":13490,"ripping":13491,"chord":13492,"irable":13493,"upcoming":13494,"cox":13495,"coarse":13496,"neared":13497,"hauled":13498,"caine":13499,"ura":13500,"lowest":13501,"unning":13502,"unmarried":13503,"unbutton":13504,"unison":13505,"manhole":13506,"tiac":13507,"tians":13508,"plumb":13509,"trau":13510,"traps":13511,"Hell":13512,"Heaven":13513,"shrun":13514,"Wee":13515,"indu":13516,"tel":13517,"teal":13518,"notep":13519,"hissing":13520,"backroom":13521,"ravine":13522,"boiled":13523,"delight":13524,"depic":13525,"apric":13526,"Shelly":13527,"guitars":13528,"carn":13529,"carrots":13530,"peoples":13531,"agna":13532,"offense":13533,"exits":13534,"extingu":13535,"assisting":13536,"dreamwork":13537,"Anders":13538,"astically":13539,"spike":13540,"ulti":13541,"blot":13542,"blamed":13543,"blaze":13544,"clicking":13545,"bugging":13546,"rane":13547,"ickly":13548,"smug":13549,"projected":13550,"scrubbing":13551,"dialed":13552,"bras":13553,"torm":13554,"tortill":13555,"disagreement":13556,"schoolmate":13557,"undone":13558,"perse":13559,"priced":13560,"ruining":13561,"herent":13562,"underside":13563,"jog":13564,"classy":13565,"mayor":13566,"pleaded":13567,"boost":13568,"greater":13569,"grease":13570,"broccoli":13571,"stuffing":13572,"wellery":13573,"parag":13574,"colm":13575,"coloured":13576,"highways":13577,"Initially":13578,"creates":13579,"contacted":13580,"skid":13581,"childish":13582,"jumbled":13583,"flapping":13584,"glas":13585,"jewellery":13586,"aval":13587,"shorel":13588,"booklet":13589,"triple":13590,"tripping":13591,"kisser":13592,"mischie":13593,"mons":13594,"gia":13595,"funky":13596,"appeti":13597,"interse":13598,"intercom":13599,"interstate":13600,"shaven":13601,"trek":13602,"ggles":13603,"rollers":13604,"polka":13605,"gunk":13606,"fireman":13607,"duet":13608,"Pegg":13609,"ports":13610,"Charlton":13611,"rounding":13612,"pathetic":13613,"knitted":13614,"leagues":13615,"ikel":13616,"ixie":13617,"prizes":13618,"clumps":13619,"crows":13620,"Beckett":13621,"March":13622,"syringe":13623,"massa":13624,"Serena":13625,"panes":13626,"linen":13627,"linens":13628,"flows":13629,"subconscious":13630,"Hope":13631,"Station":13632,"eastern":13633,"ysis":13634,"suitable":13635,"emptying":13636,"circling":13637,"circled":13638,"windowsill":13639,"Arnie":13640,"Forum":13641,"hunter":13642,"Moon":13643,"fati":13644,"warmer":13645,"madge":13646,"Coach":13647,"affairs":13648,"furthest":13649,"roofs":13650,"salmon":13651,"Debb":13652,"momentarily":13653,"continuously":13654,"gingerly":13655,"Juan":13656,"stripe":13657,"county":13658,"gasoline":13659,"Melo":13660,"Willis":13661,"Board":13662,"apolo":13663,"Jewel":13664,"physic":13665,"equival":13666,"Notice":13667,"decorate":13668,"planting":13669,"transform":13670,"transaction":13671,"Norma":13672,"ritzy":13673,"CDs":13674,"cruc":13675,"lawnmower":13676,"sights":13677,"rambling":13678,"interviews":13679,"activated":13680,"ironic":13681,"minivan":13682,"Lynch":13683,"privately":13684,"Blind":13685,"Greta":13686,"Walk":13687,"resemblance":13688,"napping":13689,"dividing":13690,"identifiable":13691,"Years":13692,"assistance":13693,"tailor":13694,"unemplo":13695,"saucer":13696,"injuries":13697,"Douglas":13698,"Key":13699,"Lois":13700,"Lowell":13701,"representative":13702,"technic":13703,"incidents":13704,"insecure":13705,"limping":13706,"bouncy":13707,"cocky":13708,"zoomed":13709,"thrill":13710,"pursuing":13711,"ffel":13712,"Carolina":13713,"Looks":13714,"requires":13715,"biking":13716,"assembled":13717,"doubts":13718,"invitations":13719,"aspir":13720,"exhibition":13721,"Enter":13722,"spectators":13723,"Minikel":13724,"lasagna":13725,"entryway":13726,"scanning":13727,"inclined":13728,"Morris":13729,"swirls":13730,"Julius":13731,"Stoner":13732,"lunge":13733,"lungs":13734,"cinnamon":13735,"Angeles":13736,"suffer":13737,"CHR":13738,"sketches":13739,"Kogler":13740,"stereoty":13741,"Talmadge":13742,"overwhelming":13743,"execution":13744,"jerked":13745,"drifted":13746,"bridesmaid":13747,"interpretation":13748,"poems":13749,"admiration":13750,"fascinating":13751,"Communion":13752,"Aliens":13753,"Nightmare":13754,"Malcolm":13755,"phrases":13756,"Soprano":13757,"Veronica":13758,"vibrating":13759,"altitude":13760,"fleeing":13761,"astonished":13762,"Surpris":13763,"insul":13764,"Nevertheless":13765,"hauling":13766,"RAIN":13767,"Turtle":13768,"Subway":13769,"accommod":13770,"adorable":13771,"initiated":13772,"annoyance":13773,"Courtney":13774,"troupe":13775,"Clooney":13776,"biography":13777,"technique":13778,"Braun":13779,"inserted":13780,"whacked":13781,"unexpectedly":13782,"clerks":13783,"trumpet":13784,"expense":13785,"Olivia":13786,"Cassandra":13787,"SOCI":13788,"atomic":13789,"rumpus":13790,"caterpillar":13791,"tuxedo":13792,"Grammy":13793,"adamant":13794,"Pontiac":13795,"conservative":13796,"sniffing":13797,"portrait":13798,"caliber":13799,"masculine":13800,"dramatically":13801,"khaki":13802,"referee":13803,"paranoid":13804,"inflatable":13805,"shoreline":13806,"mischievous":13807,"Debbie":13808,"\"$":13809,"\").":13810,"(?":13811,".-":13812,"33":13813,"37":13814,"360":13815,"51":13816,"68th":13817,"AP":13818,"Ay":13819,"Aust":13820,"Best":13821,"Birth":13822,"CO":13823,"Cany":13824,"Cook":13825,"DE":13826,"Dut":13827,"DRE":13828,"Dairy":13829,"Dilbert":13830,"Elean":13831,"Eski":13832,"Fight":13833,"Fear":13834,"Ga":13835,"Gay":13836,"Harm":13837,"Hum":13838,"Hanks":13839,"LY":13840,"Luck":13841,"Lev":13842,"Lana":13843,"Make":13844,"Mach":13845,"Making":13846,"Pf":13847,"Pick":13848,"Rad":13849,"Rider":13850,"Rival":13851,"Ricky":13852,"Sir":13853,"Smo":13854,"Spo":13855,"Sony":13856,"Thor":13857,"Tris":13858,"Ur":13859,"Vent":13860,"Vill":13861,"Vision":13862,"Yo":13863,"ause":13864,"aire":13865,"bash":13866,"bber":13867,"dick":13868,"dild":13869,"dye":13870,"eerie":13871,"fang":13872,"gantly":13873,"hinting":13874,"huts":13875,"iac":13876,"knight":13877,"mug":13878,"naming":13879,"obey":13880,"pant":13881,"ptu":13882,"phed":13883,"phase":13884,"scaf":13885,"tact":13886,"vd":13887,"vage":13888,"wary":13889,"heimer":13890,"income":13891,"inspir":13892,"reen":13893,"redo":13894,"rebell":13895,"rebel":13896,"assho":13897,"itating":13898,"isms":13899,"arti":13900,"arose":13901,"enlar":13902,"leot":13903,"stam":13904,"strain":13905,"stinky":13906,"stilts":13907,"weave":13908,"soles":13909,"sopho":13910,"soggy":13911,"bes":13912,"ooter":13913,"vein":13914,"utens":13915,"llie":13916,"aminated":13917,"ria":13918,"rified":13919,"chman":13920,"otts":13921,"cocaine":13922,"haught":13923,"thereafter":13924,"doe":13925,"dose":13926,"saint":13927,"fetal":13928,"fears":13929,"uscript":13930,"peck":13931,"pebbles":13932,"urches":13933,"modif":13934,"unfortunately":13935,"manu":13936,"managers":13937,"manuscript":13938,"tified":13939,"plum":13940,"plowed":13941,"tridge":13942,"shined":13943,"shattered":13944,"antenna":13945,"ende":13946,"raffle":13947,"bodied":13948,"deals":13949,"deflated":13950,"holy":13951,"appoint":13952,"appointed":13953,"gully":13954,"gulf":13955,"pointer":13956,"whereupon":13957,"illian":13958,"offman":13959,"offend":13960,"houseboat":13961,"mpt":13962,"overjo":13963,"overgrown":13964,"suited":13965,"exten":13966,"exped":13967,"assy":13968,"donuts":13969,"spine":13970,"spool":13971,"blunt":13972,"meds":13973,"preoccupied":13974,"smith":13975,"smashes":13976,"scorp":13977,"playwright":13978,"fris":13979,"dipped":13980,"bron":13981,"dismay":13982,"disagreed":13983,"discomfort":13984,"discharged":13985,"walkways":13986,"opener":13987,"taunting":13988,"rumor":13989,"towing":13990,"goodnight":13991,"floppy":13992,"max":13993,"hub":13994,"hump":13995,"finals":13996,"compens":13997,"cork":13998,"corpse":13999,"walled":14000,"blacks":14001,"despair":14002,"spelt":14003,"talkative":14004,"dressers":14005,"enemies":14006,"merry":14007,"skimp":14008,"impul":14009,"darkish":14010,"fluff":14011,"flabby":14012,"flustered":14013,"civil":14014,"gliding":14015,"townhouse":14016,"evade":14017,"slugs":14018,"cuted":14019,"showered":14020,"nylon":14021,"format":14022,"bandits":14023,"bandaged":14024,"bottoms":14025,"interro":14026,"internal":14027,"intertwin":14028,"morphed":14029,"fasten":14030,"squid":14031,"ducking":14032,"rewound":14033,"directory":14034,"deadly":14035,"husbands":14036,"interests":14037,"charred":14038,"Seinfe":14039,"voy":14040,"mainland":14041,"swee":14042,"Darlene":14043,"presently":14044,"tico":14045,"Herman":14046,"Hermi":14047,"subtly":14048,"bashed":14049,"freely":14050,"valent":14051,"expand":14052,"messes":14053,"mountainous":14054,"cupcakes":14055,"udder":14056,"granddaughter":14057,"legit":14058,"teammates":14059,"softer":14060,"welcoming":14061,"smokes":14062,"smoky":14063,"Deep":14064,"narrower":14065,"graphics":14066,"Elliot":14067,"bulky":14068,"filmed":14069,"spoil":14070,"cello":14071,"employed":14072,"Feeling":14073,"hammock":14074,"postcard":14075,"Geo":14076,"risky":14077,"banner":14078,"licence":14079,"misty":14080,"seaweed":14081,"decoration":14082,"cherries":14083,"chats":14084,"cigars":14085,"splashed":14086,"forests":14087,"stroked":14088,"combing":14089,"Students":14090,"pigeon":14091,"Lynne":14092,"sloped":14093,"slopes":14094,"hostel":14095,"Walt":14096,"customs":14097,"Dreamed":14098,"directors":14099,"Ernest":14100,"attendance":14101,"attendants":14102,"Erica":14103,"emerged":14104,"buns":14105,"bunched":14106,"demons":14107,"tanned":14108,"Cheer":14109,"rubbery":14110,"thankful":14111,"representing":14112,"squirting":14113,"mechanics":14114,"accessories":14115,"Louise":14116,"vegetation":14117,"commitment":14118,"Comic":14119,"Bryson":14120,"convincing":14121,"majority":14122,"Farber":14123,"drained":14124,"gallop":14125,"improv":14126,"individuals":14127,"ovens":14128,"behaved":14129,"pheas":14130,"protesting":14131,"progressed":14132,"defeat":14133,"spectator":14134,"sailboat":14135,"Accounting":14136,"crooks":14137,"reserve":14138,"Jamison":14139,"sparkly":14140,"whistling":14141,"agents":14142,"ribbons":14143,"binders":14144,"vomiting":14145,"applause":14146,"criticizing":14147,"witnessed":14148,"Wheel":14149,"joints":14150,"doubtful":14151,"jerky":14152,"alligators":14153,"mumbled":14154,"mumbles":14155,"mumbling":14156,"wrinkles":14157,"Merrilee":14158,"diamonds":14159,"Swiss":14160,"twilight":14161,"radiator":14162,"champion":14163,"permanently":14164,"CIIS":14165,"cooperate":14166,"cylindrical":14167,"hints":14168,"suburbs":14169,"reprimanded":14170,"Throughout":14171,"eyelashes":14172,"Duane":14173,"grenades":14174,"Turk":14175,"royalty":14176,"lollip":14177,"oblivious":14178,"supervising":14179,"accelerator":14180,"provocat":14181,"Muriel":14182,"resume":14183,"Wallace":14184,"carpenter":14185,"techniques":14186,"Cedar":14187,"Cedric":14188,"Birds":14189,"cockroach":14190,"shrimp":14191,"vendors":14192,"thief":14193,"crayons":14194,"barbeque":14195,"Gordon":14196,"Satan":14197,"anguish":14198,"NARROW":14199,"videotape":14200,"SUV":14201,"melody":14202,"befriended":14203,"attentive":14204,"renovated":14205,"outrageous":14206,"bitterly":14207,"trapeze":14208,"Thuy":14209,"fisherman":14210,"WDF":14211,"reclining":14212,"hologram":14213,"sperm":14214,"clearer":14215,"Kathleen":14216,"fiddling":14217,"ruler":14218,"racquet":14219,"Film":14220,"gloomy":14221,"skeptical":14222,"unkempt":14223,"discipl":14224,"Adrian":14225,"Clyde":14226,"Gibson":14227,"Goosebumps":14228,"Locke":14229,"oblong":14230,"allergic":14231,"Plainview":14232,"tournament":14233,"plumbing":14234,"avalan":14235,"equivalent":14236,"Eleanor":14237,"Eskimo":14238,"Harmony":14239,"Luckily":14240,"Trisha":14241,"sophomore":14242,"appointments":14243,"overjoyed":14244,"expedition":14245,"Seinfeld":14246,"Hermione":14247,".(":14248,".--":14249,"79":14250,"Cut":14251,"Cone":14252,"Cong":14253,"Carrie":14254,"Dall":14255,"Dance":14256,"Eva":14257,"Fra":14258,"Fion":14259,"Files":14260,"Gover":14261,"Gale":14262,"Glady":14263,"Grab":14264,"Glee":14265,"GTA":14266,"Gilbert":14267,"Hes":14268,"Hmm":14269,"Hoffman":14270,"IL":14271,"Ian":14272,"Int":14273,"Ker":14274,"Lab":14275,"Lex":14276,"Lero":14277,"Lucky":14278,"MA":14279,"MO":14280,"MT":14281,"Mam":14282,"Mry":14283,"Mount":14284,"Ooh":14285,"Port":14286,"Playing":14287,"Porky":14288,"Ra":14289,"Roo":14290,"Rae":14291,"Sleep":14292,"Summer":14293,"Tan":14294,"Thig":14295,"VA":14296,"Vik":14297,"Wat":14298,"Wars":14299,"awaiting":14300,"bast":14301,"cante":14302,"fart":14303,"fled":14304,"fists":14305,"fudge":14306,"hort":14307,"jagged":14308,"km":14309,"kay":14310,"minton":14311,"nite":14312,"shim":14313,"tv":14314,"tacks":14315,"uing":14316,"ubl":14317,"wan":14318,"xerox":14319,"zas":14320,"zards":14321,"zero":14322,"hend":14323,"intr":14324,"infl":14325,"inflated":14326,"incorpor":14327,"inadequate":14328,"recover":14329,"retire":14330,"reactions":14331,"replacing":14332,"regul":14333,"tosses":14334,"thugs":14335,"atre":14336,"itan":14337,"ales":14338,"aroo":14339,"orice":14340,"ordeal":14341,"seiz":14342,"seals":14343,"secured":14344,"bever":14345,"Theatre":14346,"ldo":14347,"ici":14348,"someday":14349,"rivers":14350,"rigged":14351,"chup":14352,"chlor":14353,"esy":14354,"upstream":14355,"lys":14356,"forb":14357,"aback":14358,"abbing":14359,"coherent":14360,"feat":14361,"usable":14362,"pecting":14363,"urinal":14364,"uristic":14365,"moss":14366,"moped":14367,"mocking":14368,"logo":14369,"logged":14370,"lodge":14371,"unload":14372,"unprepared":14373,"unplug":14374,"uncaring":14375,"unharmed":14376,"tiveness":14377,"plac":14378,"traged":14379,"traded":14380,"trading":14381,"shin":14382,"sham":14383,"Were":14384,"Western":14385,"arter":14386,"boa":14387,"bolted":14388,"depend":14389,"hover":14390,"posh":14391,"postu":14392,"concluded":14393,"carbon":14394,"worship":14395,"offensive":14396,"overlooked":14397,"canned":14398,"storing":14399,"assurance":14400,"dont":14401,"donation":14402,"izard":14403,"spout":14404,"spades":14405,"ulum":14406,"menting":14407,"mentary":14408,"clasp":14409,"cloak":14410,"tutor":14411,"tulips":14412,"prospect":14413,"sci":14414,"scu":14415,"scuff":14416,"olden":14417,"tying":14418,"stumbled":14419,"stumbling":14420,"stumps":14421,"fray":14422,"intends":14423,"discre":14424,"disorganized":14425,"handwritten":14426,"ffman":14427,"sedan":14428,"workmen":14429,"mailing":14430,"restrooms":14431,"pointless":14432,"nerves":14433,"dding":14434,"greed":14435,"greatest":14436,"resour":14437,"evenly":14438,"busily":14439,"stuffy":14440,"colours":14441,"Chan":14442,"surfing":14443,"personnel":14444,"desired":14445,"spears":14446,"obstru":14447,"hairdresser":14448,"tenants":14449,"floral":14450,"pretz":14451,"badminton":14452,"glide":14453,"clipped":14454,"slou":14455,"stepfather":14456,"plains":14457,"eleven":14458,"conduct":14459,"Johanna":14460,"appease":14461,"croft":14462,"insign":14463,"lifeguard":14464,"tongues":14465,"ighth":14466,"paints":14467,"ggie":14468,"baggy":14469,"barriers":14470,"fireplaces":14471,"dune":14472,"duel":14473,"stricken":14474,"choked":14475,"swapped":14476,"sincere":14477,"integrate":14478,"pail":14479,"musk":14480,"husky":14481,"knuck":14482,"snoring":14483,"snapping":14484,"Alf":14485,"signaling":14486,"crowding":14487,"meanwhile":14488,"Marine":14489,"Market":14490,"Seab":14491,"Marybeth":14492,"Dog":14493,"Darth":14494,"ticking":14495,"brownies":14496,"submit":14497,"Stadium":14498,"easiest":14499,"camped":14500,"motiv":14501,"Rolling":14502,"Roswell":14503,"19th":14504,"ilia":14505,"cabbage":14506,"itchard":14507,"genital":14508,"Moving":14509,"Movie":14510,"includes":14511,"birthdays":14512,"magnet":14513,"experimental":14514,"complaint":14515,"grammar":14516,"bulldo":14517,"stripping":14518,"flattered":14519,"grading":14520,"gasping":14521,"pottery":14522,"instruction":14523,"radios":14524,"thicker":14525,"snee":14526,"Lewis":14527,"sleigh":14528,"shooter":14529,"ledges":14530,"exploding":14531,"furthermore":14532,"........":14533,"trailers":14534,"decorator":14535,"Newman":14536,"stalled":14537,"sweets":14538,"communion":14539,"Luc":14540,"crumbled":14541,"collage":14542,"struggles":14543,"occurrence":14544,"squealing":14545,"Sponge":14546,"missions":14547,"interruption":14548,"Arend":14549,
[...]
