{"<s>":0,"<pad>":1,"</s>":2,"<unk>":3,"<mask>":4,"!":5,"\"":6,"#":7,"$":8,"%":9,"&":10,"'":11,"(":12,")":13,"*":14,"+":15,",":16,"-":17,".":18,"/":19,"0":20,"1":21,"2":22,"3":23,"4":24,"5":25,"6":26,"7":27,"8":28,"9":29,":":30,";":31,"<":32,"=":33,">":34,"?":35,"@":36,"A":37,"B":38,"C":39,"D":40,"E":41,"F":42,"G":43,"H":44,"I":45,"J":46,"K":47,"L":48,"M":49,"N":50,"O":51,"P":52,"Q":53,"R":54,"S":55,"T":56,"U":57,"V":58,"W":59,"X":60,"Y":61,"Z":62,"[":63,"\\":64,"]":65,"^":66,"_":67,"`":68,"a":69,"b":70,"c":71,"d":72,"e":73,"f":74,"g":75,"h":76,"i":77,"j":78,"k":79,"l":80,"m":81,"n":82,"o":83,"p":84,"q":85,"r":86,"s":87,"t":88,"u":89,"v":90,"w":91,"x":92,"y":93,"z":94,"{":95,"|":96,"}":97,"~":98,"¡":99,"¢":100,"£":101,"¤":102,"¥":103,"¦":104,"§":105,"¨":106,"©":107,"ª":108,"«":109,"¬":110,"®":111,"¯":112,"°":113,"±":114,"²":115,"³":116,"´":117,"µ":118,"¶":119,"·":120,"¸":121,"¹":122,"º":123,"»":124,"¼":125,"½":126,"¾":127,"¿":128,"À":129,"Á":130,"Â":131,"Ã":132,"Ä":133,"Å":134,"Æ":135,"Ç":136,"È":137,"É":138,"Ê":139,"Ë":140,"Ì":141,"Í":142,"Î":143,"Ï":144,"Ð":145,"Ñ":146,"Ò":147,"Ó":148,"Ô":149,"Õ":150,"Ö":151,"×":152,"Ø":153,"Ù":154,"Ú":155,"Û":156,"Ü":157,"Ý":158,"Þ":159,"ß":160,"à":161,"á":162,"â":163,"ã":164,"ä":165,"å":166,"æ":167,"ç":168,"è":169,"é":170,"ê":171,"ë":172,"ì":173,"í":174,"î":175,"ï":176,"ð":177,"ñ":178,"ò":179,"ó":180,"ô":181,"õ":182,"ö":183,"÷":184,"ø":185,"ù":186,"ú":187,"û":188,"ü":189,"ý":190,"þ":191,"ÿ":192,"Ā":193,"ā":194,"Ă":195,"ă":196,"Ą":197,"ą":198,"Ć":199,"ć":200,"Ĉ":201,"ĉ":202,"Ċ":203,"ċ":204,"Č":205,"č":206,"Ď":207,"ď":208,"Đ":209,"đ":210,"Ē":211,"ē":212,"Ĕ":213,"ĕ":214,"Ė":215,"ė":216,"Ę":217,"ę":218,"Ě":219,"ě":220,"Ĝ":221,"ĝ":222,"Ğ":223,"ğ":224,"Ġ":225,"ġ":226,"Ģ":227,"ģ":228,"Ĥ":229,"ĥ":230,"Ħ":231,"ħ":232,"Ĩ":233,"ĩ":234,"Ī":235,"ī":236,"Ĭ":237,"ĭ":238,"Į":239,"į":240,"İ":241,"ı":242,"Ĳ":243,"ĳ":244,"Ĵ":245,"ĵ":246,"Ķ":247,"ķ":248,"ĸ":249,"Ĺ":250,"ĺ":251,"Ļ":252,"ļ":253,"Ľ":254,"ľ":255,"Ŀ":256,"ŀ":257,"Ł":258,"ł":259,"Ń":260,"Ġt":261,"Ġa":262,"he":263,"Ġw":264,"in":265,"Ġs":266,"ĠI":267,"Ġthe":268,"nd":269,"re":270,"Ġo":271,"Ġand":272,"ing":273,"Ġb":274,"Ġm":275,"Ġto":276,"Ġwa":277,"ha":278,"it":279,"Ġc":280,"er":281,"ed":282,"Ġf":283,"Ġd":284,"ou":285,"Ġwas":286,"Ġl":287,"om":288,"is":289,"Ġg":290,"Ġp":291,"Ġin":292,"ll":293,"on":294,"en":295,"ar":296,"Ġof":297,"or":298,"Ġh":299,"Ġha":300,"ut":301,"an":302,"et":303,"es":304,"Ġwe":305,"Ġhe":306,"Ġit":307,"ow":308,"Ġon":309,"ot":310,"Ġth":311,"id":312,"ĠT":313,"at":314,"hat":315,"Ġn":316,"le":317,"Ġbe":318,"us":319,"ac":320,"ĠThe":321,"Ġst":322,"ld":323,"Ġthat":324,"Ġmy":325,"ic":326,"Ġme":327,"Ġr":328,"Ġre":329,"ke":330,"ay":331,"ve":332,"gh":333,"ome":334,"Ġe":335,"oo":336,"im":337,"Ġu":338,"ith":339,"am":340,"Ġis":341,"Ġwith":342,"ver":343,"'t":344,"al":345,"her":346,"ir":347,"se":348,"Ġwere":349,"Ġhad":350,"Ġse":351,"ent":352,"st":353,"Ġat":354,"ad":355,"ĠS":356,"all":357,"Ġli":358,"ly":359,"ĠA":360,"Ġgo":361,"ri":362,"Ġbut":363,"Ġup":364,"Ġan":365,"Ġfor":366,"ur":367,"'s":368,"Ġk":369,"Ġthere":370,"Ġout":371,"Ġsome":372,"king":373,"ght":374,"Ġwh":375,"ĠH":376,"Ġdo":377,"ĠW":378,"ould":379,"Ġas":380,"op":381,"nt":382,"Ġsa":383,"Ġthis":384,"Ġher":385,"ack":386,"ch":387,"rou":388,"as":389,"ĠM":390,"Ġsee":391,"Ġget":392,"out":393,"Ġy":394,"Ġlike":395,"Ġ\"":396,"Ġshe":397,"ked":398,"Ġhim":399,"ion":400,"Ġare":401,"art":402,"if":403,"ĠHe":404,"Ġab":405,"Ġso":406,"Ġor":407,"hing":408,"ter":409,"Ġfr":410,"ge":411,"ind":412,"Ġro":413,"Ġsh":414,"Ġthey":415,"Ġne":416,"ĠWe":417,"Ġthem":418,"ra":419,"Ġj":420,"ide":421,"Ġnot":422,"one":423,"ro":424,"Ġloo":425,"Ġwhe":426,"Ġone":427,"ĠIt":428,"el":429,"Ġabout":430,"ill":431,"own":432,"very":433,"ry":434,"Ġpl":435,"Ġle":436,"Ġam":437,"Ġback":438,"ust":439,"Ġsaid":440,"ally":441,"Ġhave":442,"pp":443,"ct":444,"ore":445,"Ġkn":446,"un":447,"Ġall":448,"ame":449,"ight":450,"ce":451,"Ġdid":452,"Ġcl":453,"Ġint":454,"Ġsay":455,"il":456,"ca":457,"Ġthen":458,"ther":459,"Ġal":460,"Ġyou":461,"'m":462,"ain":463,"use":464,"ĠB":465,"omet":466,"Ġta":467,"Ġgoing":468,"Ġfe":469,"Ġdown":470,"Ġfrom":471,"Ġhis":472,"ĠThere":473,"end":474,"Ġroom":475,"Ġdre":476,"other":477,"ting":478,"Ġpe":479,"Ġman":480,"ĠShe":481,"Ġother":482,"Ġwent":483,"ĠC":484,"omething":485,"round":486,"Ġcom":487,"ople":488,"ig":489,"Ġinto":490,"Ġvery":491,"Ġcar":492,"Ġwant":493,"Ġwould":494,"ie":495,"Ġsomething":496,"mb":497,"Ġte":498,"Ġ(":499,"Ġus":500,"Ġsu":501,"ĠThen":502,"Ġhou":503,"ers":504,"Ġpeople":505,"Ġcould":506,"and":507,"Ġwal":508,"Ġgot":509,"Ġthin":510,"red":511,"cause":512,"Ġjust":513,"Ġbecause":514,"Ġoff":515,"ep":516,"ong":517,"ck":518,"ĠD":519,"ving":520,"Ġbo":521,"ace":522,"Ġover":523,"riend":524,"Ġwho":525,"ass":526,"Ġdream":527,"Ġwor":528,"ss":529,"ort":530,"Ġhouse":531,"ard":532,"way":533,".\"":534,"Ġthing":535,"Ġknow":536,"Ġcan":537,"ood":538,"Ġaround":539,"Ġde":540,"Ġif":541,"ate":542,"Ġwhat":543,"Ġdidn":544,"qu":545,"ul":546,"ast":547,"Ġex":548,"ĠE":549,"Ġcon":550,"Ġdon":551,"ice":552,"ol":553,"ĠThey":554,"ich":555,"Ġgu":556,"ĠAnd":557,"ble":558,"Ġsp":559,"Ġtoo":560,"Ġstart":561,"os":562,"Ġby":563,"Ġwhere":564,"Ġrem":565,"iz":566,"Ġthou":567,"Ġtry":568,"Ġbl":569,"Ġthink":570,"Ġmo":571,"Ġtim":572,"Ġtal":573,"Ġfriend":574,"Ġfl":575,"irl":576,"Ġwhich":577,"ĠN":578,"Ġma":579,"ks":580,"ĠJ":581,"Ġwom":582,"itt":583,"wo":584,"Ġv":585,"urn":586,"Ġcame":587,"ĠO":588,"Ġgirl":589,"fe":590,"ess":591,"Ġwhen":592,"ft":593,"mber":594,"Ġdoor":595,"ant":596,"Ġany":597,"ool":598,"Ġ-":599,"are":600,"Ġseem":601,"pt":602,"Ġtime":603,"ine":604,"ist":605,"ĠF":606,"Ġsm":607,"Ġcha":608,"ick":609,"side":610,"ĠL":611,"Ġno":612,"Ġsit":613,"Ġbu":614,"est":615,"Ġco":616,"Ġreme":617,"ach":618,"Ġtwo":619,"Ġlo":620,"Ġreal":621,"Ġag":622,"ite":623,"ĠR":624,"ation":625,"ment":626,"ure":627,"lf":628,"ild":629,"Ġhow":630,"ab":631,"ud":632,"Ġbeen":633,"ng":634,"Ġput":635,"Ġch":636,"ĠP":637,"ous":638,"Ġfeel":639,"ittle":640,"Ġguy":641,"Ġke":642,"Ġtell":643,"Ġpart":644,"ĠMy":645,"Ġwoman":646,"ne":647,"Ġremember":648,"Ġlittle":649,"ive":650,"Ġreally":651,"um":652,"__":653,"pl":654,"Ġway":655,"nder":656,"Ġhas":657,"ven":658,"ff":659,"hed":660,"Ġpo":661,"Ġsaw":662,"Ġleft":663,"pe":664,"ag":665,"Ġbr":666,"Ġcou":667,"Ġold":668,"Ġpre":669,"rough":670,"Ġqu":671,"ave":672,"Ġlook":673,"Ġplace":674,"Ġour":675,"Ġdri":676,"Ġthrough":677,"ound":678,"Ġplay":679,"ru":680,"Ġtrying":681,"ile":682,"Ġtold":683,"ather":684,"Ġanother":685,"air":686,"ree":687,"ap":688,"Ġnow":689,"Ġsays":690,"chool":691,"ull":692,"Ġlooked":693,"Ġsc":694,"hen":695,"Ġkind":696,"xt":697,"Ġstarted":698,"Ġbed":699,"Ġfind":700,"Ġthought":701,"ont":702,"Ġhome":703,"Ġturn":704,"age":705,"so":706,"Ġthings":707,"Ġar":708,"Ġmore":709,"ried":710,"Ġbig":711,"Ġtake":712,"Ġright":713,"Ġaway":714,"Ġop":715,"Ġhand":716,"ĠG":717,"ved":718,"Ġaf":719,"Ġcall":720,"ĠTh":721,"ater":722,"Ġun":723,"Ġschool":724,"Ġlooking":725,"ire":726,"Ġcome":727,"ell":728,"Ġsomeone":729,"Ġsl":730,"Ġasked":731,"hes":732,"igh":733,"Ġrun":734,"Ġagain":735,"Ġwanted":736,"Ġdis":737,"irst":738,"Ġrealiz":739,"ade":740,"Ġtalking":741,"Ġlot":742,"au":743,"self":744,"ark":745,"Ġwater":746,"Ġside":747,"ity":748,"Ġdec":749,"ies":750,"Ġlong":751,"Ġbeing":752,"ady":753,"Ġsmall":754,"Ġopen":755,"Ġshow":756,"ves":757,"Ġnext":758,"Ġtheir":759,"ose":760,"here":761,"Ġac":762,"Ġalso":763,"Ġpro":764,"ath":765,"od":766,"int":767,"Ġhel":768,"uch":769,"fore":770,"Ġthese":771,"ran":772,"Ġfront":773,"Ġwo":774,"ue":775,"Ġhapp":776,"ear":777,"Ġboy":778,"th":779,"Ġwalk":780,"Ġstu":781,"Ġonly":782,"ated":783,"room":784,"ĠSome":785,"Ġfirst":786,"Ġgood":787,"Ġhelp":788,"Ġevery":789,"Ġen":790,"ew":791,"Ġend":792,"Ġsw":793,"Ġclass":794,"act":795,"Ġwat":796,"ning":797,"Ġflo":798,"iss":799,"Ġsitting":800,"Ġoutside":801,"row":802,"Ġsort":803,"Ġwill":804,"be":805,"Ġwalking":806,"Ġ'":807,"ip":808,"Ġbefore":809,"Ġwasn":810,"Ġfo":811,"Ġstand":812,").":813,"han":814,"Ġpr":815,"Ġdif":816,"Ġ1":817,"Ġunder":818,"Ġtow":819,"Ġmake":820,"co":821,"Ġneed":822,"Ġstop":823,"Ġdoing":824,"Ġbuild":825,"Ġapp":826,"fere":827,"ĠThis":828,"Ġgetting":829,"Ġstre":830,"Ġmother":831,"thing":832,"Ġwork":833,"Ġact":834,"Ġnear":835,"ĠMom":836,"Ġcouldn":837,"ped":838,"Ġpic":839,"Ġmay":840,"Ġho":841,"'re":842,"ak":843,"Ġbot":844,"Ġmuch":845,"ary":846,"ty":847,"Ġbuilding":848,"Ġwind":849,"Ġhu":850,"Ġafter":851,"'d":852,"Ġatt":853,"Ġtook":854,"Ġfloor":855,"ĠBut":856,"Ġwr":857,"Ġstill":858,"Ġlar":859,"orm":860,"Ġwatch":861,"Ġhead":862,"Ġmade":863,"Ġhere":864,"Ġph":865,"ĠOne":866,"Ġseemed":867,"ish":868,"Ġfin":869,"Ġdoes":870,"Ġbus":871,"ĠAs":872,"Ġmyself":873,"Ġthough":874,"airs":875,"Ġeach":876,"les":877,"Ġknew":878,"Ġdiffere":879,"ner":880,"dd":881,"Ġstuff":882,"Ġtra":883,"ĠK":884,"ook":885,"ered":886,"ĠSo":887,"ually":888,"Ġwait":889,"Ġeven":890,"ating":891,"Ġshould":892,"Ġsha":893,"ĠWhen":894,"get":895,"ross":896,"Ġbet":897,"ily":898,"Ġim":899,"Ġlet":900,"erson":901,"Ġ2":902,"..":903,"Ġlarge":904,"Ġel":905,"Ġhigh":906,"Ġdifferent":907,"Ġwindow":908,"Ġwall":909,"osed":910,"Ġjo":911,"ance":912,"Ġleave":913,"ction":914,"Ġfound":915,"Ġwhile":916,"ious":917,"Ġgre":918,"Ġthan":919,"Ġpull":920,"Ġnight":921,"Ġcomes":922,"Ġcont":923,"gg":924,"Ġnew":925,"Ġblack":926,"Ġstreet":927,"Ġpoint":928,"'ll":929,"Ġyoung":930,"Ġche":931,"Ġperson":932,"Ġbit":933,"oy":934,"ere":935,"Ġask":936,"Ġsur":937,"Ġwell":938,"?\"":939,"ough":940,"Ġtop":941,"Ġran":942,"Ġcoming":943,"where":944,"Ġlight":945,"ger":946,"roup":947,"Ġfriends":948,"Ġelse":949,"rd":950,"Ġkeep":951,"li":952,"Ġday":953,"Ġgroup":954,"leep":955,"Ġgr":956,"Ġtalk":957,"Ġhaving":958,"Ġkept":959,"llow":960,"elt":961,"ake":962,"Ġwalked":963,"Ġtable":964,"Ġhappen":965,"Ġdr":966,"ĠSt":967,"Ġgl":968,"hind":969,"ĠNow":970,"Ġfam":971,"Ġcle":972,"Ġgra":973,"Ġdes":974,"Ġsupp":975,"Ġbehind":976,"Ġdress":977,"our":978,"Ġfelt":979,"ĠAn":980,"Ġwhite":981,"aring":982,"ple":983,"Ġ--":984,"ĠIn":985,"'ve":986,"Ġbab":987,"Ġstore":988,"ren":989,"Ġmen":990,"Ġbre":991,"Ġsho":992,"Ġsame":993,"Ġtr":994,"ign":995,"ister":996,"Ġstanding":997,"Ġsure":998,"bb":999,"ird":1000,"Ġthree":1001,"Ġrealized":1002,"Ġstay":1003,"ost":1004,"Ġfew":1005,"ps":1006,"ody":1007,"Ġroad":1008,"Ġwhy":1009,"____":1010,"Ġsk":1011,"ene":1012,"Ġthinking":1013,"Ġtried":1014,"Ġinside":1015,"ĠAt":1016,"Ġset":1017,"ert":1018,"ence":1019,"Ġcalled":1020,"Ġyear":1021,"Ġhold":1022,"ian":1023,"Ġchild":1024,"Ġseems":1025,"Ġspe":1026,"ings":1027,"ors":1028,"body":1029,"Ġdark":1030,"gether":1031,"Ġhair":1032,"per":1033,"Ġ[":1034,"Ġalong":1035,"kes":1036,"ase":1037,"ĠDad":1038,"Ġanything":1039,"Ġcomp":1040,"arent":1041,"Ġsaying":1042,"Ġcor":1043,"Ġcat":1044,"ris":1045,"Ġturned":1046,"Ġfather":1047,"Ġper":1048,"Ġpass":1049,"ided":1050,"Ġbaby":1051,"Ġtogether":1052,"ful":1053,"Ġclot":1054,"Ġbeg":1055,"zra":1056,"Ġothers":1057,"ens":1058,"Ġplaying":1059,"Ġdriving":1060,"Ġbath":1061,"Ġwatching":1062,"ress":1063,"Ġarea":1064,"Ġrec":1065,"Ġap":1066,"Ġrest":1067,"wn":1068,"Ġname":1069,"Ġbel":1070,"Ġmaybe":1071,"vie":1072,"irt":1073,"Ġhard":1074,"Ġrel":1075,"Ġpret":1076,"friend":1077,"Ġmany":1078,"Ġbrother":1079,"ied":1080,"Ġsleep":1081,"Ġacross":1082,"Ġsn":1083,"Ġlast":1084,"Ġclose":1085,"Ġkid":1086,"we":1087,"ual":1088,"able":1089,"Ġbad":1090,"Ġlau":1091,"Ġres":1092,"Ġshop":1093,"ĠEzra":1094,"ason":1095,"Ġworking":1096,"Ġdoesn":1097,"vers":1098,"Ġpap":1099,"vel":1100,"urt":1101,"ying":1102,"og":1103,"Ġhuge":1104,"Ġ3":1105,"Ġem":1106,"Ġkill":1107,"veral":1108,"Ġgi":1109,"amp":1110,",\"":1111,"Ġsister":1112,"ia":1113,"Ġmar":1114,"ial":1115,"Ġlooks":1116,"Ġyell":1117,"Ġrealize":1118,"Ġdecided":1119,"Ġarm":1120,"Ġfamily":1121,"Ġent":1122,"Ġgive":1123,"Ġgave":1124,"Ġpar":1125,"ĠCh":1126,"Ġsomewhere":1127,"Ġdrive":1128,"Ġcol":1129,"Ġface":1130,"Ġlove":1131,"ink":1132,"ards":1133,"Ġfinally":1134,"Ġwoke":1135,"led":1136,"Ġmove":1137,"Ġhall":1138,"Ġrunning":1139,"gs":1140,"em":1141,"Ġplan":1142,"Ġsupposed":1143,"ix":1144,"ect":1145,"ock":1146,"ken":1147,"ĠV":1148,"ĠY":1149,"Ġfall":1150,"Ġseat":1151,"ture":1152,"cle":1153,"Ġsex":1154,"Ġmeet":1155,"Ġboth":1156,"cked":1157,"Ġmust":1158,"how":1159,"Ġhit":1160,"Ġkiss":1161,"Ġuse":1162,"Ġad":1163,"Ġaw":1164,"anc":1165,"Ġang":1166,"Ġred":1167,"Ġbox":1168,"ife":1169,"aught":1170,"ma":1171,"Ġoffice":1172,"Ġwomen":1173,"Ġfollow":1174,"ny":1175,"Ġseveral":1176,"ub":1177,"Ġpicture":1178,"Ġcut":1179,"ets":1180,"dy":1181,"artment":1182,"Ġreason":1183,"Ġcr":1184,"Ġused":1185,"Ġele":1186,"der":1187,"ail":1188,"Ġcare":1189,"Ġhot":1190,"Ġste":1191,"Ġchair":1192,"Ġmom":1193,"\".":1194,"Ġlea":1195,"Ġgirls":1196,"Ġlater":1197,"itc":1198,"Ġhear":1199,"Ġactually":1200,"unch":1201,"Ġinc":1202,"Ġfeeling":1203,"Ġimp":1204,"Ġclothes":1205,"Ġread":1206,"Ġcount":1207,"vin":1208,"Ġey":1209,"ds":1210,"ĠSomeone":1211,"Ġbathroom":1212,"Ġnever":1213,"plain":1214,"Ġmet":1215,"pris":1216,"Ġtaking":1217,"app":1218,"Ġlady":1219,"Ġmine":1220,"Ġwouldn":1221,"Ġdra":1222,"att":1223,"Ġfun":1224,"Ġsat":1225,"Ġteac":1226,"idd":1227,"ator":1228,"Ġstairs":1229,"Ġret":1230,"Ġgone":1231,"Ġquite":1232,"Ġmovie":1233,"00":1234,"Ġdecide":1235,"Ġstep":1236,"Ġinst":1237,"ĠU":1238,"most":1239,"ĠLater":1240,"Ġsurpris":1241,"Ġwearing":1242,"Ġlots":1243,"Ġlife":1244,"ars":1245,"Ġnice":1246,"Ġcre":1247,"Ġinv":1248,"ions":1249,"Ġparty":1250,"cer":1251,"Ġpie":1252,"Ġtri":1253,"av":1254,"ents":1255,"Ġmin":1256,"Ġphone":1257,"man":1258,"Ġwonder":1259,"--":1260,"ular":1261,"Ġwood":1262,"mer":1263,"Ġacc":1264,"ten":1265,"like":1266,"ween":1267,"Ġdone":1268,"Ġjum":1269,"Ġcouple":1270,"Ġair":1271,"ise":1272,"har":1273,"Ġstud":1274,"Ġalmost":1275,"Ġpaper":1276,"ory":1277,"ned":1278,"Ġbott":1279,"iding":1280,"ident":1281,"Ġyears":1282,"Ġpretty":1283,"Ġenough":1284,"Ġwaiting":1285,"ince":1286,"Ġca":1287,"ling":1288,"ount":1289,"ither":1290,"ical":1291,"Ġbetween":1292,"ize":1293,"Ġhappened":1294,"Ġpick":1295,"Ġgame":1296,"Ġground":1297,"enly":1298,"Ġtru":1299,"ush":1300,"ins":1301,"ank":1302,"ult":1303,"Ġpol":1304,"oney":1305,"Ġyour":1306,"my":1307,"Ġheard":1308,"Ġchan":1309,"cond":1310,"ug":1311,"Ġmight":1312,"Ġpast":1313,"cept":1314,"set":1315,"Ġfar":1316,"iv":1317,"Ġliving":1318,"Ġwon":1319,"ched":1320,"stairs":1321,"Ġmaking":1322,"ever":1323,"Ġbook":1324,"Ġswim":1325,"Ġpain":1326,"Ġsecond":1327,"lle":1328,"Ġfire":1329,"Ġgoes":1330,"Ġblue":1331,"ash":1332,"range":1333,"form":1334,"imb":1335,"ons":1336,"ond":1337,"Ġfig":1338,"ping":1339,"sh":1340,"Ġinter":1341,"up":1342,"Ġfull":1343,"Ġ$":1344,"Ġown":1345,"Ġlay":1346,"Ġfeet":1347,"Ġsudd":1348,"Ġbetter":1349,"Ġshort":1350,"Ġsqu":1351,"Ġunt":1352,"Ġneeded":1353,"Ġhappy":1354,"rying":1355,"Ġbag":1356,"Ġdist":1357,"Ġhands":1358,"gn":1359,"Ġtrain":1360,"Ġfood":1361,"Ġclean":1362,"Ġes":1363,"Ġangry":1364,"ared":1365,"Ġready":1366,"Ġteacher":1367,"Ġmoney":1368,"aut":1369,"Ġ4":1370,"Ġdire":1371,"rew":1372,"ctor":1373,"Ġann":1374,"iddle":1375,"ired":1376,"Ġsing":1377,"Ġeveryone":1378,"Ġty":1379,"Ġbec":1380,"Ġupset":1381,"Ġstopped":1382,"Ġwants":1383,"Ġvis":1384,"Ġfast":1385,"Ġwhole":1386,"ention":1387,"Ġser":1388,"Ġdin":1389,"Ġob":1390,"Ġuntil":1391,"itchen":1392,"pped":1393,"br":1394,"Ġchang":1395,"Ġlaugh":1396,"ob":1397,"Ġglass":1398,"Ġkitchen":1399,"'.":1400,"Ġconf":1401,"ower":1402,"iting":1403,"Ġnotic":1404,"Ġapartment":1405,"Ġhor":1406,"ways":1407,"Ġwithout":1408,"Ġchildren":1409,"Ġexc":1410,"Ġear":1411,"Ġtelling":1412,"day":1413,"Ġclimb":1414,"fter":1415,"Ġseen":1416,"Ġtown":1417,"Ġrather":1418,"Ġbeaut":1419,"Ġnu":1420,"Ġev":1421,"Ġlist":1422,"mate":1423,"Ġbar":1424,"Ġbedroom":1425,"Ġgun":1426,"oc":1427,"Ġboat":1428,"Ġwife":1429,"Ġhill":1430,"Ġmost":1431,"Ġlate":1432,"Ġkids":1433,"Ġsurprised":1434,"ition":1435,"uck":1436,"Ġhang":1437,"to":1438,"ready":1439,"Ġmiddle":1440,"aw":1441,"Ġdog":1442,"ee":1443,"Ġalready":1444,"Ġmean":1445,"Ġgreen":1446,"ey":1447,"ĠJo":1448,"Ġsince":1449,"aces":1450,"raid":1451,"ming":1452,"unt":1453,"Ġfour":1454,"Ġtruck":1455,"ah":1456,"Ġeat":1457,"Ġeither":1458,"Ġclos":1459,"Ġhalf":1460,"ĠChar":1461,"Ġended":1462,"The":1463,"Ġgets":1464,"Ġdead":1465,"Ġreturn":1466,"Ġland":1467,"Ġfly":1468,"Ġemb":1469,"Ġable":1470,"Ġball":1471,"Ġdreamt":1472,"ited":1473,"Ġafraid":1474,"son":1475,"ted":1476,"ph":1477,"urch":1478,"Ġline":1479,"ang":1480,"Ġquest":1481,"band":1482,"iver":1483,"Ġroll":1484,"ible":1485,"ces":1486,"ates":1487,"Ġquick":1488,"Ġwar":1489,"Ġcra":1490,"ters":1491,"Ġguys":1492,"Ġpat":1493,"ead":1494,"ord":1495,"Ġnotice":1496,"Ġmus":1497,"Ġtre":1498,"ĠThat":1499,"Ġguess":1500,"Ġmess":1501,"Ġsomehow":1502,"Ġtrou":1503,"Ġ5":1504,"Ġjob":1505,"Ġcorner":1506,"sw":1507,"Ġhop":1508,"Ġweird":1509,"erest":1510,"Ġbeautif":1511,"Ġhurt":1512,"Ġsound":1513,"ys":1514,"Ġpool":1515,"ĠAfter":1516,"Ġeverything":1517,"ĠĠ":1518,"usband":1519,"Ġits":1520,"oth":1521,"Ġcour":1522,"Ġpres":1523,"Ġpulled":1524,"ject":1525,"ants":1526,"pect":1527,"Ġnoticed":1528,"az":1529,"Ġminut":1530,"Ġmiss":1531,"Ġstrange":1532,"!\"":1533,"Ġcontin":1534,"Ġinterest":1535,"ike":1536,"Ġthose":1537,"Ġyet":1538,"bo":1539,"Ġed":1540,"ots":1541,"by":1542,"Ġmoving":1543,"head":1544,"ooks":1545,"ĠAl":1546,"ĠOn":1547,"Ġsign":1548,"Ġparent":1549,"Ġsca":1550,"Ġphot":1551,"Ġchar":1552,"Ġbeautiful":1553,"Ġpolice":1554,"io":1555,"used":1556,"Ġeyes":1557,"We":1558,"Ġansw":1559,"Ġslow":1560,"outh":1561,"ames":1562,"Ġlive":1563,"Ġmoved":1564,"Ġwrong":1565,"Ġstra":1566,"Ġasks":1567,"Ġexplain":1568,"ably":1569,"ball":1570,"Ġpur":1571,"Ġtimes":1572,"Ġlying":1573,"ove":1574,"ought":1575,"te":1576,"right":1577,"ital":1578,"ĠAll":1579,"iles":1580,"Ġhusband":1581,"aur":1582,"ides":1583,"Ġdressed":1584,"Ġfell":1585,"Ġdreamed":1586,"ĠWh":1587,"ield":1588,"ĠPe":1589,"vered":1590,"ract":1591,"Ġcrow":1592,"Ġrock":1593,"Ġscre":1594,"fort":1595,"ines":1596,"Ġbegan":1597,"med":1598,"Ġfoot":1599,"Ġtaken":1600,"Ġannoy":1601,"Ġhadn":1602,"Ġcomput":1603,"Ġpay":1604,"ci":1605,"rs":1606,"Ġtoward":1607,"Ġpicked":1608,"arr":1609,"Ġtells":1610,"Ġbreak":1611,"[\"":1612,"osp":1613,"Ġbro":1614,"Ġagainst":1615,"Ġbody":1616,"ically":1617,"ense":1618,"Ġboyfriend":1619,"ished":1620,"Ġalone":1621,"ib":1622,"ored":1623,"unk":1624,"Ġparents":1625,"uc":1626,"Ġdoors":1627,"Ġchange":1628,"ached":1629,"sp":1630,"Ġopened":1631,"Ġisn":1632,"als":1633,"ĠBe":1634,"ric":1635,"Ġhotel":1636,"Ġthrow":1637,"ask":1638,"It":1639,"rove":1640,"Ġfigure":1641,"Ġtrouble":1642,"Ġrooms":1643,"Ġbelie":1644,"ding":1645,"ĠYou":1646,"ĠHow":1647,"Ġsuch":1648,"Ġcur":1649,"Ġworried":1650,"Ġtall":1651,"Ġfight":1652,"ĠHis":1653,"Ġrep":1654,"),":1655,"ined":1656,"Ġbase":1657,"Ġstr":1658,"Ġass":1659,"Ġliked":1660,"ĠBill":1661,"Ġgreat":1662,"Ġple":1663,"Ġlead":1664,"rist":1665,"the":1666,"Ġscene":1667,"Ġclear":1668,"Ġalways":1669,"Ġref":1670,"Ġelev":1671,"ugene":1672,"Ġwheel":1673,"Ġonto":1674,"There":1675,"??":1676,"Ġtoil":1677,"Ġtree":1678,"Ġquickly":1679,"Ġreco":1680,"Ġcrowd":1681,"Ġconcer":1682,"Ġarri":1683,".)":1684,"Ġdrop":1685,"etc":1686,"Ġaud":1687,"Ġpiece":1688,"ely":1689,"ience":1690,"Ġolder":1691,"Ġpack":1692,"nie":1693,"ighb":1694,"ĠTV":1695,"Ġsteps":1696,"Ġcomputer":1697,"ward":1698,"Ġnothing":1699,"Ġsuddenly":1700,"arently":1701,"uss":1702,"Ġsomebody":1703,"cc":1704,"Ġshot":1705,"Ġleaving":1706,"udd":1707,"llege":1708,"Ġholding":1709,"ately":1710,"Ġcompl":1711,"My":1712,"Ġshirt":1713,"Ġscared":1714,"Ġchurch":1715,"Ġneighb":1716,"ospital":1717,"Ġdisc":1718,"Ġride":1719,"ĠEugene":1720,"ized":1721,"ane":1722,"Ġce":1723,"Ġmusic":1724,"Ġter":1725,"ĠEvery":1726,"Ġmor":1727,"Ġdaught":1728,"ung":1729,"iling":1730,"Ġdesk":1731,"Ġsnow":1732,"bably":1733,"Ġunderst":1734,"arrass":1735,"Ġsoon":1736,"Ġlou":1737,"Ġanyway":1738,"Oh":1739,"Ġcomm":1740,"Ġones":1741,"Ġboys":1742,"Ġbottom":1743,"olog":1744,"Ġembarrass":1745,"Ġeating":1746,"rand":1747,"Ġdraw":1748,"ĠPeople":1749,"Ġnumber":1750,"Ġsad":1751,"Ġinstead":1752,"Ġrow":1753,"ĠBr":1754,"Ġdad":1755,".\"]":1756,"Ġext":1757,"blem":1758,"la":1759,"zy":1760,"Âł":1761,"Ġcars":1762,"ured":1763,"Ġmarried":1764,"Ġstation":1765,"Ġhospital":1766,"ertain":1767,"Ġtype":1768,"Ġproblem":1769,"ret":1770,"Ġbooks":1771,"Ġlost":1772,"Ġind":1773,"ĠMary":1774,"Ġpark":1775,"ently":1776,"Ġasking":1777,"ĠCal":1778,"Ġshowed":1779,"Ġtowards":1780,"cha":1781,"Ġforg":1782,"amed":1783,"inally":1784,"land":1785,"Ġexcept":1786,"itten":1787,"Ġmeeting":1788,"eter":1789,"Ġtoilet":1790,"Ġbelieve":1791,"Ġmat":1792,"Ġupstairs":1793,"You":1794,"Ġfill":1795,"Ġlisten":1796,"ness":1797,"Ġcolor":1798,"Ġmind":1799,"Ġcity":1800,"ĠDar":1801,"Ġelevator":1802,"Ġpartic":1803,"aked":1804,"ĠMar":1805,"oice":1806,"Ġcross":1807,"Ġshoot":1808,"Ġrecogn":1809,"Ġmach":1810,"Ġ6":1811,"Ġsy":1812,"Ġok":1813,"ountain":1814,"ift":1815,"Ġreg":1816,"Ġprobably":1817,"Ġtw":1818,"Ġannoyed":1819,"Ġswe":1820,"Ġmot":1821,"Ġfield":1822,"Ġcatch":1823,"Ġmorning":1824,"Ġetc":1825,"Ġspace":1826,"Ġbegin":1827,"Ġplane":1828,"Ġsim":1829,"Ġpen":1830,"Ġonce":1831,"iny":1832,"Ġempt":1833,"na":1834,"Ġstarts":1835,"Ġcop":1836,"Ġdrove":1837,"Ġla":1838,"Ġswimming":1839,"Ġgar":1840,"Ġweren":1841,"Ġsub":1842,"Ġcheck":1843,"ivers":1844,"Ġrecall":1845,"Ġbeach":1846,"wh":1847,"Ġdisapp":1848,"Ġbunch":1849,"enter":1850,"Ġfact":1851,"edding":1852,"though":1853,"Ġdaughter":1854,"Ġahead":1855,"Ġfix":1856,"Th":1857,"Ġdance":1858,"ĠFran":1859,"ches":1860,"ĠHer":1861,"Ġcaught":1862,"ony":1863,"Ġsand":1864,"Ġtalked":1865,"Ġunderstand":1866,"Ġide":1867,"Ġchanged":1868,"Ġforgot":1869,"Ġbrown":1870,"ĠUn":1871,"...":1872,"Ġdied":1873,"eared":1874,"Ġbest":1875,"oof":1876,"Ġbuy":1877,"Ġputting":1878,"Ġspec":1879,"Ġedge":1880,"ans":1881,"Ġsong":1882,"ĠMatt":1883,"uring":1884,"ages":1885,"Ġart":1886,"bbed":1887,"Ġconcerned":1888,"ina":1889,"rought":1890,"Ġgotten":1891,"Ġhur":1892,"Ġleast":1893,"Ġsuit":1894,"astic":1895,"Ġexp":1896,"Ġ10":1897,"ouse":1898,"ram":1899,"Ġarms":1900,"ĠFinally":1901,"Ġlock":1902,"nce":1903,"Ġrain":1904,"Ġtrip":1905,"fect":1906,"fortable":1907,"ses":1908,"omb":1909,"ier":1910,"ature":1911,"Ġlegs":1912,"aurant":1913,"Ġcomplet":1914,"Ġyellow":1915,"Ġpus":1916,"ork":1917,"oke":1918,"Ġseeing":1919,"Ġwindows":1920,"Ġembarrassed":1921,"old":1922,"Ġtest":1923,"Ġsleeping":1924,"ient":1925,"Ġprop":1926,"Ġempty":1927,"Ġyard":1928,"Ġdeep":1929,"Ġesca":1930,"Ġz":1931,"Ġcamp":1932,"Ġanim":1933,"Ġra":1934,"Ġbrought":1935,"Ġkilled":1936,"Ġeas":1937,"Ġorder":1938,"Ġattract":1939,"ton":1940,"ana":1941,"Ġstage":1942,"Ġgirlfriend":1943,"Ġcir":1944,"idge":1945,"hn":1946,"ative":1947,"Ġyes":1948,"hew":1949,"Ġusing":1950,"ime":1951,"Ġclosed":1952,"Ġminutes":1953,"Ġsec":1954,"Ġpa":1955,"Ġrestaurant":1956,"iet":1957,"ĠNo":1958,"Ġhanging":1959,"acks":1960,"Ġlights":1961,"lves":1962,"Ġparking":1963,"ster":1964,"Ġlived":1965,"Ġ8":1966,"Ġround":1967,"Ġpictures":1968,"ĠCalvin":1969,"Ġheld":1970,"ully":1971,"ÂłÂł":1972,"Ġpleas":1973,"Ġice":1974,"Ġriver":1975,"ĠChrist":1976,"This":1977,"ope":1978,"ations":1979,"Ġins":1980,"iversity":1981,"Ġfree":1982,"Ġorg":1983,"Ġtakes":1984,"Ġwin":1985,"iness":1986,"Ġmouth":1987,"Ġcab":1988,"Ġincl":1989,"Ġidea":1990,"Ġfore":1991,"Ġve":1992,"Ġcertain":1993,"Ġexact":1994,"ek":1995,"Ġstru":1996,"ium":1997,"Ġtouch":1998,"Ġmale":1999,"Ġdirection":2000,"Ġmain":2001,"Ġcard":2002,"ude":2003,"Ġinvol":2004,"Ġson":2005,"ments":2006,"mbers":2007,"Ġdreams":2008,"ering":2009,"Ġshoes":2010,"Ġcounter":2011,"Ġmountain":2012,"anger":2013,"Ġwords":2014,"Ġcons":2015,"acing":2016,"what":2017,"aking":2018,"Ġage":2019,"haps":2020,"ĠSp":2021,"less":2022,"ndered":2023,"Ġworked":2024,"vious":2025,"Ġsugg":2026,"Ġhide":2027,"Ġru":2028,"ooking":2029,"imes":2030,"ced":2031,"Ġgrab":2032,"Ġneighbor":2033,"Ġriding":2034,"Ġcovered":2035,"Ġwalls":2036,"Ġdinner":2037,"Ġstraight":2038,"No":2039,"Ġhole":2040,"board":2041,"Ġdi":2042,"Ġvoice":2043,"aged":2044,"Ġunc":2045,"itch":2046,"Ġwhether":2047,"Ġstory":2048,"ened":2049,"Ġform":2050,"Ġcover":2051,"Ġcollege":2052,"Ġtrees":2053,"Ġparticular":2054,"Ġfurn":2055,"Ġcold":2056,"ery":2057,"iff":2058,"Ġcourse":2059,"bles":2060,"port":2061,"Ġpri":2062,"eth":2063,"Ġcrying":2064,"mbered":2065,"Ġdel":2066,"ĠSam":2067,"Ġfing":2068,"ĠJere":2069,"Ġmachine":2070,"oon":2071,"Ġplastic":2072,"ĠJohn":2073,"Ġdep":2074,"ustr":2075,"Ġbring":2076,"Ġwake":2077,"Ġhelping":2078,"ĠDo":2079,"Ġsuggest":2080,"Ġdanc":2081,"Ġodd":2082,"Ġshower":2083,"Ġapparently":2084,"Ġhorse":2085,"Ġthru":2086,"erv":2087,"fic":2088,"its":2089,"Ġpath":2090,"Ġgrabbed":2091,"ison":2092,"alk":2093,"Ġteam":2094,"Ġappear":2095,"Ġattention":2096,"Ġdanger":2097,"Ġdriver":2098,"Ġgiving":2099,"Ġexam":2100,"Ġgrand":2101,"cl":2102,"any":2103,"fully":2104,"Ġwhom":2105,"Ġremembered":2106,"Ġ9":2107,"Ġlunch":2108,"ĠNe":2109,"Ġgrass":2110,"Ġfish":2111,"ote":2112,"Ġcouch":2113,"Ġsquare":2114,"ipp":2115,"irth":2116,"uff":2117,"Ġpos":2118,"ishing":2119,"acters":2120,"mp":2121,"Ġfat":2122,"Ġfair":2123,"Ġpassed":2124,"Ġtran":2125,"Ġdoll":2126,"gu":2127,"ĠGrand":2128,"Ġvisit":2129,"cy":2130,"Ġanyone":2131,"reat":2132,"Ġmakes":2133,"ona":2134,"Ġexactly":2135,"Ġtired":2136,"Ġvan":2137,"Ġprep":2138,"Ġcountry":2139,"Ġevent":2140,"ĠMatthew":2141,"Ġadd":2142,"Ġlevel":2143,"Ġdiscuss":2144,"Ġcam":2145,"era":2146,"aybe":2147,"ĠRam":2148,"Ġleaves":2149,"Ġpor":2150,"Ġever":2151,"ometimes":2152,"Ġbecame":2153,"oint":2154,"Ġmad":2155,"Ġocc":2156,"ressed":2157,"ged":2158,"Ġappro":2159,"arrow":2160,"________":2161,"Ġabove":2162,"Ġsun":2163,"Ġquestion":2164,"Ġgarage":2165,"Ġsection":2166,"ips":2167,"Ġboard":2168,"aul":2169,"Ġnearby":2170,"Ġdoctor":2171,"Ġtick":2172,"Ġgiven":2173,"Ġfive":2174,"Ġpants":2175,"ĠAr":2176,"Ġposs":2177,"Ġwondered":2178,"Ġresp":2179,"Ġsize":2180,"Ġpan":2181,"Ġvide":2182,"Ġchas":2183,"Ġbirth":2184,"Ġshut":2185,"Ġseated":2186,"ĠSe":2187,"Ġagre":2188,"nel":2189,"Ġthrew":2190,"ĠFrank":2191,"Ġpresent":2192,"Ġcous":2193,"ĠAunt":2194,"Ġinclud":2195,"What":2196,"Ġturns":2197,"Ġjumped":2198,"Ġ7":2199,"Ġlake":2200,"Ġalthough":2201,"Ġlean":2202,"Ġtables":2203,"Ġago":2204,"Ġjump":2205,"Ġwriting":2206,"Ġspot":2207,"Ġmoment":2208,"Ġflying":2209,"Ġled":2210,"Ġnorm":2211,"Ġmeant":2212,"Ġconvers":2213,"Ġyounger":2214,"joy":2215,"ground":2216,"Ġexper":2217,"iar":2218,"Ġbare":2219,"Ġfence":2220,"Ġexcited":2221,"enn":2222,"rol":2223,"eel":2224,"Ġnamed":2225,"Ġnaked":2226,"Ġclassmate":2227,"Ġremind":2228,"cted":2229,"Ġwrite":2230,"Ġhat":2231,"Ġnarrow":2232,"Ġinterested":2233,"ring":2234,"Ġfre":2235,"ised":2236,"Ġblood":2237,"Ġbusiness":2238,"Ġcontinu":2239,"Ġfur":2240,"Ġblock":2241,"Ġaware":2242,"Ġbow":2243,"Ġroof":2244,"ended":2245,"male":2246,"ror":2247,"Ġsent":2248,"Ġasleep":2249,"Ġplaces":2250,"Ġdays":2251,"Ġreading":2252,"lo":2253,"Ġstrong":2254,"Ġdownstairs":2255,"Ġcomplain":2256,"Ġlaughing":2257,"Ġfunny":2258,"Ġstudents":2259,"Ġanswer":2260,"Ġinvolved":2261,"Ġstaying":2262,"**":2263,"ĠTwo":2264,"Ġmetal":2265,"ĠJust":2266,"Ġdiffic":2267,"Ġleg":2268,"Ġfinished":2269,"Ġearly":2270,"ilt":2271,"Ġcost":2272,"Ġparked":2273,"Ġpieces":2274,"avy":2275,"Ġpower":2276,"Ġlear":2277,"Ġenjoy":2278,"Ġperhaps":2279,"Ġbought":2280,"ĠFor":2281,"Ġlad":2282,"Ġreach":2283,"ogra":2284,"ĠJeremy":2285,"Ġcand":2286,"Ġtiny":2287,"Ġwaking":2288,"iture":2289,"Ġconc":2290,"BL":2291,"Ġbra":2292,"Ġfellow":2293,"Ġspeak":2294,"walk":2295,"Ġprog":2296,"sit":2297,"Ġmon":2298,"Ġwalks":2299,"Ġsinging":2300,"asket":2301,"etting":2302,"Ġrad":2303,"Ġslowly":2304,"cean":2305,"iled":2306,"ĠSomething":2307,"ĠAnother":2308,"Ġfurniture":2309,"Ġhimself":2310,"Ġcoll":2311,"Ġappeared":2312,"uddenly":2313,"Ġloud":2314,"Ġbroken":2315,"Ġcase":2316,"ĠMe":2317,"Ġflow":2318,"rie":2319,"mas":2320,"erry":2321,"Ġblank":2322,"Ġokay":2323,"icy":2324,"Ġtravel":2325,"Ġstood":2326,"ĠSuddenly":2327,"ĠZ":2328,"Ġcenter":2329,"Ġwear":2330,"Ġkey":2331,"Ġbridge":2332,"Ġpill":2333,"Ġescape":2334,"ĠMr":2335,"ending":2336,"Ġaccident":2337,"Ġconne":2338,"Ġvar":2339,"ĠStep":2340,"Ġwarm":2341,"Ġsick":2342,"Ġband":2343,"orn":2344,"Ġsetting":2345,"Ġconversation":2346,"Ġwedding":2347,"Ġopp":2348,"Ġhaven":2349,"Ġbasement":2350,"Ġexpect":2351,"de":2352,"Ġneck":2353,"Ġfine":2354,"Ġdeal":2355,"ĠEveryone":2356,"Ġsil":2357,"cture":2358,"ĠWhile":2359,"Ġmed":2360,"arm":2361,"Ġcompletely":2362,"Ġexpl":2363,"Ġchairs":2364,"Ġsell":2365,"Ġdrink":2366,"Ġvideo":2367,"Ġbird":2368,"Ġsafe":2369,"Ġprof":2370,"Ġstuck":2371,"lier":2372,"Ġeye":2373,"umb":2374,"lly":2375,"Ġtape":2376,"Ġwritten":2377,"Ġspecial":2378,"itor":2379,"acking":2380,"Ġtele":2381,"Ġless":2382,"iliar":2383,"ĠCity":2384,"Ġcal":2385,"erg":2386,"ĠKe":2387,"ĠEll":2388,"Ġshowing":2389,"chair":2390,"Ġthird":2391,"ilar":2392,"Ġboxes":2393,"Ġcabin":2394,"urb":2395,"Ġseats":2396,"par":2397,"Ġocean":2398,"ĠDe":2399,"Ġquestions":2400,"ees":2401,"Ġsense":2402,"arch":2403,"Ġblond":2404,"ĠPaul":2405,"cess":2406,"not":2407,"sy":2408,"Ġstri":2409,"Ġwooden":2410,"ĠJack":2411,"Ġcontinue":2412,"cri":2413,"ĠDarren":2414,"Ġcurt":2415,"Ġcomment":2416,"Ġuniversity":2417,"Ġwatched":2418,"Ġ20":2419,"Ġfollowed":2420,"Ġimport":2421,"Ġsor":2422,"Ġinform":2423,"Ġstair":2424,"Ġchick":2425,"Ġplayed":2426,"Ġloc":2427,"Ġsky":2428,"uation":2429,"Ġfriendly":2430,"Ġlow":2431,"Ġoffic":2432,"Ġdistance":2433,"Ġporch":2434,"Ġlonger":2435,"Ġeng":2436,"Ġprot":2437,"Ġglad":2438,"Ġterri":2439,"Ġslight":2440,"Ġlaying":2441,"Ġpush":2442,"ump":2443,"Ġpract":2444,"Ġgrad":2445,"brary":2446,"Ġwet":2447,"ange":2448,"Ġstick":2449,"Ġsteep":2450,"Ġpink":2451,"Ġorgan":2452,"ining":2453,"aced":2454,"icle":2455,"Ġhug":2456,"Ġfilled":2457,"Ġwra":2458,"Ġhallway":2459,"pes":2460,"Ġhell":2461,"Ġincluding":2462,"Ġcurtain":2463,"ym":2464,"ze":2465,"Ġdou":2466,"Ġsoft":2467,"ploy":2468,"lic":2469,"ĠCo":2470,"ĠDor":2471,"Ġwondering":2472,"ograph":2473,"Ġsal":2474,"Ġinstru":2475,"Ġwheelchair":2476,"Ġgives":2477,"ĠStephen":2478,"Ġcarp":2479,"iew":2480,"Ġnote":2481,"Ġflat":2482,"Ġcraw":2483,"Ġaudience":2484,"Ġbasket":2485,"Ġsidewalk":2486,"hood":2487,"Ġmention":2488,"Ġfemale":2489,"Ġeverybody":2490,"Ġproper":2491,"Ġtun":2492,"Ġpu":2493,"Ġbelow":2494,"Ġsecret":2495,"mon":2496,"Ġbright":2497,"Ġlocked":2498,"Ġfil":2499,"Ġgas":2500,"Ġview":2501,"Ġfit":2502,"athe":2503,"du":2504,"Ġheavy":2505,"Ġnerv":2506,"Ġsepar":2507,"ĠRo":2508,"Ġpress":2509,"Ġfalling":2510,"Ġcrazy":2511,"vis":2512,"Ġhours":2513,"Ġcontrol":2514,"Ġnervous":2515,"icha":2516,"Ġgrade":2517,"Ġsudden":2518,"medi":2519,"Ġimportant":2520,"icks":2521,"Ġcarrying":2522,"Ġconfused":2523,"Ġrail":2524,"Ġdining":2525,"do":2526,"Ġcoat":2527,"30":2528,"Ġign":2529,"Ġbal":2530,"bby":2531,"Ġskin":2532,"Ġdie":2533,"Ġgather":2534,"lew":2535,"ries":2536,"Ġclassroom":2537,"ĠAnn":2538,"Ġsexual":2539,"vice":2540,"Ġsix":2541,"Ġbuildings":2542,"Ġemploy":2543,"Ġcousin":2544,"Ġdet":2545,"irty":2546,"Ġcute":2547,"Ġfrustr":2548,"aps":2549,"gged":2550,"Ġscream":2551,"???":2552,"res":2553,"Ġcart":2554,"Ġpapers":2555,"Well":2556,"Ġsomewhat":2557,"Ġworld":2558,"aper":2559,"Ġbelong":2560,"ancy":2561,"Ġflight":2562,"ĠCl":2563,"Ġrecognize":2564,"Ġdorm":2565,"Ġpair":2566,"ĠAndrew":2567,"ĠFeel":2568,"oose":2569,"Ġlibrary":2570,"cket":2571,"Ġbusy":2572,"ives":2573,"ics":2574,"ĠWhat":2575,"Ġje":2576,"ĠLy":2577,"Ġsimilar":2578,"Ġdancing":2579,"ĠBob":2580,"ĠEng":2581,"Ġagree":2582,"Ġquiet":2583,"Ġshows":2584,"ĠChristmas":2585,"Ġcool":2586,"Ġthick":2587,"ĠMel":2588,"Ġdef":2589,"Ġcloser":2590,"ĠMrs":2591,"Ġcalling":2592,"Ġ12":2593,"Ġrelation":2594,"ghed":2595,"Ġburn":2596,"Ġpile":2597,"Ġnur":2598,"Ġsees":2599,"Ġwhatever":2600,"wards":2601,"Ġ???":2602,"Ġaut":2603,"Ġsometimes":2604,"Ġcarry":2605,"Ġpointed":2606,"Ġprogram":2607,"ĠWill":2608,"Ġbes":2609,"Ġmix":2610,"Ġstarting":2611,"Ġpushed":2612,"?)":2613,"Ġbat":2614,"ĠNana":2615,"Ġcond":2616,"Ġfollowing":2617,"Ġbottle":2618,"ship":2619,"Ġearlier":2620,"ĠEllie":2621,"Ġhum":2622,"ider":2623,"Ġreached":2624,"selves":2625,"cially":2626,"Ġnormal":2627,"Ġgrow":2628,"Ġcontain":2629,"meric":2630,"case":2631,"Ġhouses":2632,"Ġword":2633,"place":2634,"aster":2635,"Ġfeels":2636,"Ġradio":2637,"ĠKevin":2638,"ler":2639,"inking":2640,"Ġallow":2641,"ffic":2642,"Ġlaughed":2643,"ĠCharla":2644,"Ġarrived":2645,"Ġcamera":2646,"Ġorange":2647,"Ġbecome":2648,"Ġbill":2649,"ĠMaybe":2650,"Ġsmo":2651,"ĠThought":2652,"Ġmir":2653,"key":2654,"ific":2655,"Ġdisco":2656,"Ġopening":2657,"Ġposition":2658,"looking":2659,"ager":2660,"ĠIf":2661,"mediately":2662,"ray":2663,"Ġben":2664,"Ġcook":2665,"Ġhung":2666,"ley":2667,"ashed":2668,"play":2669,"Ġstayed":2670,"Ġmotor":2671,"hy":2672,"ipped":2673,"ones":2674,"Ġsits":2675,"Ġshape":2676,"Ġdangerous":2677,"ax":2678,"Ġlab":2679,"Ġgen":2680,"ĠSu":2681,"Ġcolored":2682,"Ġclimbed":2683,"Ġceiling":2684,"read":2685,"Ġcup":2686,"ĠSetting":2687,"Ġfold":2688,"ocol":2689,"ĠHoward":2690,"pa":2691,"Ġpost":2692,"Ġperform":2693,"ĠThoughts":2694,"ffe":2695,"Ġwide":2696,"ĠSim":2697,"Ġsold":2698,"Ġmag":2699,"Ġzomb":2700,"ien":2701,"uri":2702,"Ġhope":2703,"ues":2704,"oun":2705,"ney":2706,"Ġeverywhere":2707,"Ġ19":2708,"ĠCharacters":2709,"Ġhar":2710,"Ġlift":2711,"Ġhour":2712,"ĠFather":2713,"Ġuncom":2714,"ĠFeelings":2715,"ocked":2716,"Ġcry":2717,"Ġfacing":2718,"Ġdru":2719,"Ġpot":2720,"vert":2721,"ĠĠĠĠ":2722,"Ġsus":2723,"Ġdirt":2724,"ĠWell":2725,"ĠOK":2726,"Ġtor":2727,"Ġrid":2728,"Ġbicy":2729,"Ġvag":2730,"Ġanimals":2731,"ging":2732,"eral":2733,"Ġdate":2734,"ĠSchool":2735,"Ġnearly":2736,"Ġhurry":2737,"In":2738,"Ġsne":2739,"orrow":2740,"Ġchocol":2741,"pecially":2742,"Ġkissed":2743,"Ġvarious":2744,"ĠCar":2745,"Ġnoise":2746,"line":2747,"ns":2748,"Ġtrans":2749,"Ġav":2750,"Ġduring":2751,"Ġrocks":2752,"ls":2753,"Ġow":2754,"Ġmater":2755,"ows":2756,"Ġord":2757,"ĠSomehow":2758,"Ġtrack":2759,"Ġprofess":2760,"Ġmil":2761,"atur":2762,"Ġrece":2763,"els":2764,"Ġcards":2765,"Ġvac":2766,"Ġproject":2767,"Ġmissed":2768,"ĠThese":2769,"Ġjoin":2770,"Ġenter":2771,"Ġbull":2772,"Ġinformation":2773,"Ġill":2774,"Ġsle":2775,"ility":2776,"Ġapolog":2777,"Ġstudent":2778,"Ġgym":2779,"Ġring":2780,"ĠAmeric":2781,"Ġattracted":2782,"Ġrace":2783,"Ġsmile":2784,"Ġfear":2785,"Ġattack":2786,"Ġdescri":2787,"Ġcloset":2788,"Ġbank":2789,"Ġhesit":2790,"Ġtou":2791,"Ġnames":2792,"augh":2793,"Ġmatter":2794,"ĠUncle":2795,"Ġstrugg":2796,"Ġuncomfortable":2797,"light":2798,"Ġur":2799,"Ġfeelings":2800,"Ġneeds":2801,"Ġadm":2802,"Ġcrowded":2803,"vent":2804,"work":2805,"ĠGin":2806,"Ġfamiliar":2807,"Ġshopping":2808,"Ġphoto":2809,"Ġdifficult":2810,"Ġimmediately":2811,"Ġespecially":2812,"eah":2813,"Ġpop":2814,"Ġsurround":2815,"Ġlistening":2816,".,":2817,"Ġgro":2818,"ĠBl":2819,"antly":2820,"onth":2821,"Ġrecord":2822,"Ġinches":2823,"Ġcleaning":2824,"Ġdirect":2825,"cious":2826,"ior":2827,"ities":2828,"Ġphys":2829,"Ġveh":2830,"Ġbur":2831,"ĠBon":2832,"ĠRe":2833,"Ġfurther":2834,"Ġslightly":2835,"Ġhiding":2836,"Ġrelie":2837,"Ġobject":2838,"Ġminute":2839,"Ġbirthday":2840,"laugh":2841,"Ġforward":2842,"mmer":2843,"Ġir":2844,"Ġchat":2845,"ume":2846,"Ġyelled":2847,"How":2848,"Ġpub":2849,"Ġship":2850,"ĠDr":2851,"....":2852,"Ġscreen":2853,"ges":2854,"Ġslide":2855,"Ġchest":2856,"Ġforgotten":2857,"Ġrelationship":2858,"Ġamaz":2859,"ts":2860,"Ġcircle":2861,"fer":2862,"ream":2863,"Ġdirty":2864,"Ġruns":2865,"Ġtries":2866,"str":2867,"Ġboss":2868,"bs":2869,"more":2870,"Ġtight":2871,"Ġtot":2872,"Ġstate":2873,"Ġequ":2874,"Ġcliff":2875,"\",":2876,"Ġmonth":2877,"Ġweek":2878,"Ġkeeps":2879,"Ġpet":2880,"ĠOh":2881,"Ġparts":2882,"Ġbigger":2883,"Ġcream":2884,"Ġhoping":2885,"lish":2886,"view":2887,"book":2888,"cking":2889,"rop":2890,"Ġgold":2891,"ĠBen":2892,"Ġstor":2893,"ict":2894,"Ġrese":2895,"stem":2896,"Ġcontinued":2897,"bed":2898,"ĠInd":2899,"Ġpian":2900,"Ġrepe":2901,"ĠMother":2902,"ists":2903,"Ġmud":2904,"ference":2905,"Ġfinish":2906,"Ġpulling":2907,"gging":2908,"ffee":2909,"Ġchocolate":2910,"Ġcomfortable":2911,"Ġknows":2912,"Ġhappening":2913,"Ġlit":2914,"Ġscary":2915,"ĠAny":2916,"Ġsystem":2917,"ĠGrandma":2918,"Ġroommate":2919,"Ġknife":2920,"Ġalive":2921,"ĠBar":2922,"Ġbeds":2923,"fast":2924,"Ġclou":2925,"Ġbreast":2926,"Ġelect":2927,"zz":2928,"acter":2929,"lyn":2930,"orth":2931,"Ġpregn":2932,"Ġjoke":2933,"Ġnewsp":2934,"Ġmostly":2935,"Ġmissing":2936,"Ġcirc":2937,"Ġmembers":2938,"Ġherself":2939,"illy":2940,"antha":2941,"Ġ&":2942,"Ġbike":2943,"Ġmist":2944,"using":2945,"Ġplate":2946,"Ġcoffee":2947,"rest":2948,"Ġitem":2949,"Ġtrail":2950,"ĠAlso":2951,"Ġfrustrated":2952,"hel":2953,"Ġhol":2954,"Ġbutt":2955,"Ġplat":2956,".]":2957,"Ġais":2958,"Ġaren":2959,"arth":2960,"Ġpee":2961,"Ġworks":2962,"Ġcommun":2963,"Ġagreed":2964,"Ġobs":2965,"ĠTom":2966,"Ġforth":2967,"Ġalarm":2968,"Ġteeth":2969,"ĠNew":2970,"Ġshoulder":2971,"Ġwire":2972,"Ġsink":2973,"aded":2974,"ĠMc":2975,"Ġargu":2976,"Ġswing":2977,"Ġtunnel":2978,"aks":2979,"Ġteen":2980,"Ġhunt":2981,"Ġletter":2982,"Ġcolors":2983,"Ġmentioned":2984,"Ġcake":2985,"Ġjack":2986,"Ġdisplay":2987,"ices":2988,"ĠDw":2989,"Ġtraffic":2990,"Ġsweet":2991,"Ġsorry":2992,"ese":2993,"Ġlives":2994,"Ġpassen":2995,"Ġvisiting":2996,"Ġbreakfast":2997,"Ġfinger":2998,"gly":2999,"ening":3000,"Ġsearch":3001,"Ġsituation":3002,"Ġunus":3003,"Ġmirror":3004,"Ġbicycle":3005,"mates":3006,"yle":3007,"rent":3008,"Ġlower":3009,"Ġevening":3010,"Ġpoints":3011,"Ġcharacter":3012,"sych":3013,"Ġcalls":3014,"Ġcompany":3015,"Ġdriveway":3016,"ĠDora":3017,"ially":3018,"Ġwanting":3019,"Ġflowers":3020,"Ġawo":3021,"Ġpaint":3022,"Ġsides":3023,"Ġdogs":3024,"Ġattached":3025,"rench":3026,"Ġwaves":3027,"icking":3028,"Ġsmaller":3029,"akes":3030,"Ġphotos":3031,"Ġpregnant":3032,"ĠHigh":3033,"Ġintro":3034,"Ġconst":3035,"Ġdecor":3036,"Ġentran":3037,"Ġdropped":3038,"Ġheart":3039,"ĠWally":3040,"ĠNot":3041,"Ġputs":3042,"Ġpatient":3043,"Ġbroke":3044,"ichael":3045,"Ġble":3046,"Ġloose":3047,"Ġcapt":3048,"Ġdouble":3049,"Ġcell":3050,"usted":3051,"Ġspeed":3052,"Ġshooting":3053,"rem":3054,"alley":3055,"Ġshift":3056,"Ġmail":3057,"Ġprison":3058,"Ġchasing":3059,"Ġchicken":3060,"Ġbench":3061,"Ġpiano":3062,"19":3063,"ety":3064,"ased":3065,"Ġdreaming":3066,"ĠRamona":3067,"arter":3068,"Ġdeath":3069,"Ġkeys":3070,"Ġregular":3071,"Ġbarely":3072,"Ġbeside":3073,"ms":3074,"Ġways":3075,"ĠSamantha":3076,"oes":3077,"Ġsuper":3078,"Ġowner":3079,"rom":3080,"reet":3081,"Ġthreat":3082,"Ġshar":3083,"Ġawoke":3084,"ĠSand":3085,"Ġbuilt":3086,"ode":3087,"Ġwaited":3088,"Ġladder":3089,"Ġ<":3090,"ĠSh":3091,"Ġbags":3092,"ĠQ":3093,"omes":3094,"alth":3095,"Ġpocket":3096,"rief":3097,"Ġbeat":3098,"ibly":3099,"Ġoppos":3100,"but":3101,"Ġgift":3102,"ĠEve":3103,"rupt":3104,"Ġpleased":3105,"ĠEnglish":3106,"urious":3107,"Ġflew":3108,"orge":3109,"Ġspl":3110,"ails":3111,"Ġfigured":3112,"icked":3113,"Ġchoose":3114,"Ġfinding":3115,"Ġenc":3116,"Ġstreets":3117,"Ġinteresting":3118,"Ġban":3119,"Ġspir":3120,"Ġloved":3121,"ky":3122,"inting":3123,"Ġsheet":3124,"Ġvi":3125,"Ġshouldn":3126,"ĠAnnie":3127,"Ġwoods":3128,"Ġdisappoint":3129,"Ġpriv":3130,"Ġprotect":3131,"ĠFirst":3132,"ĠAnyway":3133,"ĠOther":3134,"udy":3135,"Ġclasses":3136,"Ġyelling":3137,"ipe":3138,"ĠRob":3139,"Ġkinds":3140,"rid":3141,"Ġtu":3142,"Ġgard":3143,"Ġisland":3144,"house":3145,"Ġ____":3146,"ĠEl":3147,"Ġnose":3148,"Ġunderw":3149,"Ġglasses":3150,"Ġunusual":3151,"].":3152,"oe":3153,"ination":3154,"Ġegg":3155,"Ġthinks":3156,"erek":3157,"Ġhappens":3158,"Ġcareful":3159,"Ġlawn":3160,"let":3161,"Ġcast":3162,"Ġdam":3163,"Ġbeer":3164,"Ġmanaged":3165,"Ġusually":3166,"Ġknowing":3167,"Ġhowever":3168,"ĠSte":3169,"Ġsnake":3170,"Ġreturned":3171,"ology":3172,"Ġfairly":3173,"Ġblonde":3174,"Ġentrance":3175,"Some":3176,"rect":3177,"Ġweight":3178,"Ġrus":3179,"ashing":3180,"ĠMichael":3181,"Ġ15":3182,"ensive":3183,"ression":3184,"Ġairport":3185,"which":3186,"ale":3187,"ĠTo":3188,"Ġsea":3189,"Ġanymore":3190,"Ġeasy":3191,"viously":3192,"ĠSc":3193,"Ġstands":3194,"ĠStreet":3195,"Ġextra":3196,"ĠX":3197,"Ġtoday":3198,"ĠJe":3199,"Ġlarger":3200,"Ġclimbing":3201,"Ġident":3202,"Ġtom":3203,"cks":3204,"Ġphotograph":3205,"Ġvehicle":3206,"oid":3207,"ole":3208,"Ġcig":3209,"Ġsem":3210,"Ġarrive":3211,"Ġpaid":3212,"vies":3213,"Ġdry":3214,"Ġshelf":3215,"Ġblow":3216,"Ġoper":3217,"Ġhelped":3218,"Ġapart":3219,"ĠCD":3220,"ĠGe":3221,"Ġacting":3222,"Ġfalls":3223,"ivid":3224,"ĠDwight":3225,"ffect":3226,"mit":3227,"Ġfright":3228,"Ġfishing":3229,"Ġlines":3230,"Ġpage":3231,"imson":3232,"Ġsmell":3233,"Ġpulls":3234,"Ġ30":3235,"!\".":3236,"mother":3237,"ita":3238,"Ġhid":3239,"Ġhig":3240,"Ġstall":3241,"Ġlie":3242,"Ġforget":3243,"Ġguard":3244,"Ġsmoke":3245,"ĠHowever":3246,"Ġpenis":3247,"Ġpicking":3248,"Ġhorri":3249,"Ġbeginning":3250,"ĠNext":3251,"Ġten":3252,"Ġhors":3253,"ats":3254,"ĠHall":3255,"Ġturning":3256,"Ġkissing":3257,"rit":3258,"Ġrear":3259,"Ġsave":3260,"Ġsmiles":3261,"Ġpurse":3262,"lor":3263,"Ġgray":3264,"Ġcalm":3265,"Ġmall":3266,"Ġugly":3267,"Ġbooth":3268,"Ġdrinking":3269,"Ġoccur":3270,"Ġaisle":3271,"Ġcas":3272,"Ġpsych":3273,"Ġmovies":3274,"Ġthrowing":3275,"Ġrows":3276,"Ġrelieved":3277,"no":3278,"Ġfancy":3279,"oring":3280,"Ġsummer":3281,"aret":3282,"Ġcoun":3283,"Ġcreature":3284,"Ġmeans":3285,"inal":3286,"rey":3287,"erman":3288,"Ġgay":3289,"Ġwee":3290,"Ġsend":3291,"Ġleading":3292,"Ġeventually":3293,"Ġmaterial":3294,"Ġopposite":3295,"nown":3296,"ĠOur":3297,"Ġhanded":3298,"Ġfingers":3299,"Ġticket":3300,"Ġpassenger":3301,"Ġhorses":3302,"tern":3303,"Ġlecture":3304,"ĠEd":3305,"ĠEach":3306,"Ġdishes":3307,"Ġpainting":3308,"Ġfighting":3309,"uit":3310,"Ġbrief":3311,"Ġdow":3312,"aching":3313,"Ġanx":3314,"ĠDerek":3315,"Ġlose":3316,"Ġwrote":3317,"Ġshocked":3318,"Ġsingle":3319,"Ġlaid":3320,"Ġanimal":3321,"Ġsuggested":3322,"Ġfilm":3323,"Ġnurse":3324,"Ġgrocer":3325,"Yes":3326,"nic":3327,"Ġ________":3328,"Ġstom":3329,"Ġself":3330,"Ġnobody":3331,"Ġdrunk":3332,"Ġchance":3333,"ĠBrimson":3334,"Ġblanket":3335,"Ġbasketball":3336,"ĠIndian":3337,"fied":3338,"pid":3339,"aint":3340,"ĠGod":3341,"Ġprom":3342,"Ġextrem":3343,"Ġnewspaper":3344,"ik":3345,"ute":3346,"Ġate":3347,"ntown":3348,"Ġplant":3349,"Ġclock":3350,"Ġuncle":3351,"Ġhighway":3352,"Ġskirt":3353,"Ġsurprise":3354,"avor":3355,"ĠAmerican":3356,"Ġtub":3357,"Ġbutton":3358,"Ġconference":3359,"Ġends":3360,"Ġentire":3361,"Ġimpressed":3362,"Ġcandy":3363,"Ġzombies":3364,"Ġport":3365,"Ġrepl":3366,"ional":3367,"Ġworry":3368,"Ġaccept":3369,"Ġserious":3370,"ĠGinny":3371,"Ġaff":3372,"ching":3373,"Ġnotes":3374,"Ġtast":3375,"Ġtext":3376,"Ġconvin":3377,"Ġletters":3378,"Ġtracks":3379,"ults":3380,"Ġdrawing":3381,"ÂłÂłÂłÂł":3382,"Ġparticularly":3383,"Ġdisappointed":3384,"gon":3385,"Ġmark":3386,"ams":3387,"Ġant":3388,"izing":3389,"Ġentered":3390,"Ġinvited":3391,"Ġneighborhood":3392,"Ġlearn":3393,"Ġaccidentally":3394,"time":3395,"Ġwave":3396,"Ġstupid":3397,"Ġnumbers":3398,"Ġmessage":3399,"Ġrespond":3400,"Ġaunt":3401,"acy":3402,"Ġgarden":3403,"Ġdowntown":3404,"Mom":3405,"fl":3406,"Ġbother":3407,"Ġwash":3408,"Ġplatform":3409,"oot":3410,"arry":3411,"ĠMs":3412,"ppy":3413,"Ġguest":3414,"****":3415,"Ġsight":3416,"Ġeffect":3417,"ĠJim":3418,"Ġhandle":3419,"Ġfloating":3420,"Ġstops":3421,"Ġdesign":3422,"Ġforest":3423,"Ġdirections":3424,"Ġdepartment":3425,"ĠWest":3426,"Ġstret":3427,"Ġbowl":3428,"itorium":3429,"ĠBonnie":3430,"Ġhigher":3431,"Ġhomet":3432,"Ġbear":3433,"ĠApp":3434,"ilty":3435,"venue":3436,"Ġopens":3437,"Ġcarefully":3438,"Ġappears":3439,"Ġcarpet":3440,"Ġtouched":3441,"Ġhometown":3442,"nn":3443,"night":3444,"Ġstran":3445,"pping":3446,"Ġdisg":3447,"bbing":3448,"Ġauditorium":3449,"Ġwild":3450,"Ġori":3451,"Ġcow":3452,"icious":3453,"Ġep":3454,"Ġamong":3455,"Ġknocked":3456,"Ġguilty":3457,"Ġheaded":3458,"Ġnews":3459,"bye":3460,"Ġrecognized":3461,"97":3462,"Ġsteal":3463,"Ġlikes":3464,"Ġsurf":3465,"Ġcharge":3466,"Ġtotally":3467,"Ġitems":3468,"Ġcounse":3469,"Ġoh":3470,"Ġfaces":3471,"ency":3472,"Ġoutdo":3473,"Ġshore":3474,"roll":3475,"Ġmoves":3476,"Ġtalks":3477,"Ġchanges":3478,"Ġtwice":3479,"Ġallowed":3480,"Ġjacket":3481,"ott":3482,"Ġstorm":3483,"Ġmanage":3484,"Ġdest":3485,"Ġduck":3486,"ĠHo":3487,"ĠDan":3488,"neath":3489,"Ġjoking":3490,"ocking":3491,"yl":3492,"Ġsens":3493,"ara":3494,"Ġund":3495,"Ġfarm":3496,"Ġshout":3497,"Ġblind":3498,"Ġimage":3499,"Ġinterview":3500,"Ġ50":3501,"Ġexperience":3502,"1997":3503,"gy":3504,"men":3505,"orts":3506,"Ġperfect":3507,"Ġamazed":3508,"ĠEvelyn":3509,"That":3510,"ived":3511,"oura":3512,"Ġkitt":3513,"road":3514,"ille":3515,"Ġmanager":3516,"Ġclearly":3517,"Ġgathering":3518,"Ġmilk":3519,"Ġsilly":3520,"Ġdiv":3521,"Ġsol":3522,"Ġevil":3523,"Ġeasily":3524,"Ġpublic":3525,"ex":3526,"Ġmid":3527,"inda":3528,"Ġsusp":3529,"well":3530,"Ġer":3531,"Ġwish":3532,"Ġoutf":3533,"Ġfootball":3534,"Ġmagaz":3535,"me":3536,"Ġgames":3537,"ooked":3538,"Ġforce":3539,"Ġknown":3540,"issa":3541,"Ġprint":3542,"Ġbread":3543,"Ġbadly":3544,"Ġstepped":3545,"Ġconcert":3546,"Ġvague":3547,"Ġunderneath":3548,"Ġbabies":3549,"Ġtraveling":3550,"Ġstomach":3551,"you":3552,"Ġtour":3553,"Ġcere":3554,"Ġrope":3555,"ĠFrench":3556,"ĠPat":3557,"Ġhost":3558,"Ġshare":3559,"Ġservice":3560,"Ġraining":3561,"ech":3562,"Ġgently":3563,"Ġknock":3564,"Ġusual":3565,"Ġspend":3566,"ĠJane":3567,"Ġcats":3568,"Ġrelated":3569,"Ġteaching":3570,"Ġanswered":3571,"Ġtheater":3572,"Ġclub":3573,"ĠJoe":3574,"Ġbaseball":3575,"Ġteleph":3576,"Ġequip":3577,"ron":3578,"Ġitself":3579,"ĠRedding":3580,"Ġlaund":3581,"Ġwrapped":3582,"Ġproperly":3583,"Ġequipment":3584,"50":3585,"Ġpacking":3586,"Ġrob":3587,"ĠPh":3588,"Ġrelax":3589,"Ġextremely":3590,"cial":3591,"jam":3592,"Ġgate":3593,"asm":3594,"izz":3595,"Ġactiv":3596,"Ġimag":3597,"Ġguns":3598,"ennis":3599,"Ġbreasts":3600,"een":3601,"Ġmur":3602,"ĠGerman":3603,"Ġcourt":3604,"Ġbalc":3605,"ĠAd":3606,"ĠMike":3607,"ĠOak":3608,"Ġgreet":3609,"empt":3610,"Ġhitting":3611,"Ġairpl":3612,"Ġseries":3613,"ĠBefore":3614,"Ġscreaming":3615,"Ġepis":3616,"rat":3617,"Ġnone":3618,"ĠEven":3619,"Ġpicnic":3620,"Ġgroups":3621,"Ġterrible":3622,"Don":3623,"ises":3624,"Ġpad":3625,"Ġmem":3626,"Ġupon":3627,"Ġkitten":3628,"Ġwhis":3629,"Ġspread":3630,"Ġcorrect":3631,"000":3632,"Ġmountains":3633,"Ġchased":3634,"Ġlap":3635,"oming":3636,"ĠAvenue":3637,"ĠChurch":3638,"ival":3639,"Ġcollect":3640,"ĠApparently":3641,"ught":3642,"Ġalley":3643,"ĠEli":3644,"Ġhardly":3645,"ĠGeorge":3646,"miss":3647,"Ġearth":3648,"Ġunf":3649,"Ġstruggle":3650,"Ġrent":3651,"iment":3652,"Ġvol":3653,"elling":3654,"velop":3655,"Ġaccom":3656,"ashion":3657,"Ġchanging":3658,"ĠRamos":3659,"nge":3660,"Ġcap":3661,"eng":3662,"iform":3663,"ĠBig":3664,"Ġcomb":3665,"ĠDon":3666,"Ġcannot":3667,"que":3668,"Ġballs":3669,"Ġleader":3670,"who":3671,"Ġcust":3672,"Ġcash":3673,"Ġknees":3674,"ĠCharl":3675,"10":3676,"Ġlim":3677,"atives":3678,"Ġoffer":3679,"Ġplayer":3680,"pson":3681,"ĠValley":3682,"Ġawake":3683,"Ġpreparing":3684,"Ġaddress":3685,"Ġpossible":3686,"Ġlaundry":3687,"ius":3688,"oss":3689,"uct":3690,"ingly":3691,"Ġwander":3692,"ĠWil":3693,"Ġspoke":3694,"Ġuniform":3695,"Ġtickets":3696,"Ġcigaret":3697,"Ġbite":3698,"Ġstone":3699,"Ġrect":3700,"Ġwhose":3701,"Ġspray":3702,"reek":3703,"Ġpainted":3704,"Ġpurple":3705,"onald":3706,"val":3707,"Ġsou":3708,"Ġstyle":3709,"Ġshelves":3710,"isted":3711,"Ġscra":3712,"Ġtowel":3713,"ĠAsian":3714,"Ġcement":3715,"Ġengine":3716,"pha":3717,"ĠBu":3718,"ĠDav":3719,"Ġmap":3720,"Ġswitch":3721,"Ġsisters":3722,"Ġlounge":3723,"Ġagrees":3724,"Ġbalcony":3725,"Ġgang":3726,"Ġoften":3727,"ĠLe":3728,"Ġpartner":3729,"Ġemot":3730,"Ġadv":3731,"Ġsounds":3732,"Ġexplained":3733,"Ġviol":3734,"Ġtoy":3735,"Ġremain":3736,"Ġbum":3737,"Ġfollows":3738,"Ġproblems":3739,"Ġcampus":3740,"Ġattractive":3741,"Ġpleasant":3742,"ĠDoctor":3743,"ĠCollege":3744,"car":3745,"she":3746,"Ġstab":3747,"ĠAb":3748,"Ġflower":3749,"Ġshad":3750,"ances":3751,"Ġfixed":3752,"Ġpushing":3753,"ec":3754,"now":3755,"usion":3756,"Ġhers":3757,"Ġoffered":3758,"ĠNate":3759,"Ġreality":3760,"Ġacqu":3761,"appy":3762,"Ġmonths":3763,"Ġtelephone":3764,"aff":3765,"ply":3766,"sing":3767,"Ġfut":3768,"anish":3769,"Ġloving":3770,"ires":3771,"Ġprodu":3772,"Ġ11":3773,"Ġshoulders":3774,"Ġlanded":3775,"Ġpurp":3776,"Ġpossibly":3777,"Ġreminds":3778,"Ġreminded":3779,"Ġtorn":3780,"Ġavoid":3781,"Ġholes":3782,"Ġorig":3783,"ald":3784,"ber":3785,"Ġmass":3786,"Ġpin":3787,"Ġnorth":3788,"aches":3789,"ceed":3790,"ĠJames":3791,"Ġsmiling":3792,"Ġchecked":3793,"Ġgiant":3794,"Ġsounded":3795,"ipping":3796,"cu":3797,"ĠIs":3798,"Ġmis":3799,"Ġcave":3800,"Ġhealth":3801,"Ġanxious":3802,"ading":3803,"ĠMill":3804,"Ġthemselves":3805,"Ġflood":3806,"Ġinterrupt":3807,"Ġconnected":3808,"rel":3809,"Ġinj":3810,"arily":3811,"ĠMark":3812,"Ġbackwards":3813,"ĠEm":3814,"Ġbuying":3815,"___":3816,"Ġmini":3817,"Ġstudy":3818,"ĠSpanish":3819,"Ġdiscovered":3820,"Ġmeat":3821,"Ġplants":3822,"ĠCenter":3823,"Ġpartially":3824,"Ġours":3825,"Ġkeeping":3826,"idden":3827,"Ġselling":3828,"Ġpractice":3829,"Ġseparate":3830,"At":3831,"xic":3832,"zen":3833,"Ġdying":3834,"Ġpour":3835,"Ġramp":3836,"cing":3837,"hip":3838,"Ġanybody":3839,"ctions":3840,"Ġbegins":3841,"Ġtrue":3842,"Ġcops":3843,"Ġsandw":3844,"Ġdiscussing":3845,"Ġsilver":3846,"Ġsneak":3847,"bl":3848,"feter":3849,"that":3850,"Ġrich":3851,"Ġformer":3852,"Ġabs":3853,"Ġslip":3854,"Ġplanning":3855,"Ġ40":3856,"Ġbarn":3857,"Ġhuman":3858,"feteria":3859,"ients":3860,"race":3861,"Ġbomb":3862,"Ġlaw":3863,"Ġthr":3864,"ĠHeather":3865,"Ġneat":3866,"Ġsmiled":3867,"Ġattend":3868,"Ġcreep":3869,"Ġledge":3870,"Ġcurtains":3871,"ĠMcD":3872,"boy":3873,"nal":3874,"vre":3875,"inc":3876,"Ġrough":3877,"rian":3878,"Ġfeed":3879,"ĠNat":3880,"Ġprevious":3881,"ĠThom":3882,"Ġadj":3883,"ĠPaulina":3884,"Ġprofessor":3885,"Ġ.":3886,"Ġdig":3887,"ision":3888,"icles":3889,"Ġsucc":3890,"itted":3891,"Ġdisab":3892,"Ġenem":3893,"Ġheads":3894,"Ġspeaking":3895,"Ġawak":3896,"Ġdisturb":3897,"Ġfaster":3898,"Ġrolling":3899,"Ġdisappeared":3900,"Ġresemb":3901,"Ġcustom":3902,"Ġrectang":3903,"zzy":3904,"Ġment":3905,"Ġcru":3906,"Ġnon":3907,"Ġprocess":3908,"Ġpersonal":3909,"Ġrolled":3910,"Ġassign":3911,"Ġexpensive":3912,"atural":3913,"host":3914,"ising":3915,"ĠLuc":3916,"Ġpoor":3917,"Ġdrives":3918,"Ġscrew":3919,"Ġcontact":3920,"Ġpassing":3921,"Ġcause":3922,"iod":3923,"Ġmill":3924,"Ġrout":3925,"ĠFl":3926,"Ġdresses":3927,"Ġlovely":3928,"Ġwonderful":3929,"Ġindic":3930,"Ġstories":3931,"Ġconstru":3932,"ength":3933,"Ġwaist":3934,"Ġbackground":3935,"Ġourselves":3936,"Ġshake":3937,"ault":3938,"go":3939,"Ġhi":3940,"Ġhearing":3941,"ids":3942,"Ġteach":3943,"Ġcorn":3944,"Ġleaning":3945,"noon":3946,"sion":3947,"itive":3948,"Ġrush":3949,"Ġliqu":3950,"ĠHill":3951,"antic":3952,"ures":3953,"Ġgoodbye":3954,"Ġattic":3955,"Ġshaped":3956,"Ġsurv":3957,"Ġcrack":3958,"apped":3959,"Ġtouching":3960,"Ġsurrounded":3961,"mitri":3962,"Ġtent":3963,"enny":3964,"acher":3965,"ĠMer":3966,"ĠBy":3967,"Ġsliding":3968,"inese":3969,"Ġofficer":3970,"He":3971,"gers":3972,"ators":3973,"Ġstat":3974,"Ġcarried":3975,"Ġscen":3976,"Ġperiod":3977,"Ġclothing":3978,"Ġshorts":3979,"Ġlaughs":3980,"Ġlocker":3981,"ĠSteve":3982,"Ġsuccess":3983,"father":3984,"year":3985,"ples":3986,"Ġkisses":3987,"Ġconscious":3988,"Ġobser":3989,"che":3990,"duc":3991,"iers":3992,"known":3993,"Ġrequ":3994,"Ġdoorway":3995,"ĠDaddy":3996,"Ġmotorcy":3997,"Ġfrightened":3998,"Ġgrocery":3999,"Ġairplane":4000,"Why":4001,"law":4002,"Ġdust":4003,"Ġhon":4004,"ĠJul":4005,"Ġafternoon":4006,"Ġeggs":4007,"Ġoutfit":4008,"ĠDavid":4009,"Ġgig":4010,"ette":4011,"ĠTim":4012,"Ġmod":4013,"Ġstream":4014,"Ġkilling":4015,"Ġmeaning":4016,"Ġcomplained":4017,"Ġemployees":4018,"Ġpurpose":4019,"cal":4020,"Ġpers":4021,"Ġthro":4022,"oop":4023,"rill":4024,"Ġdeer":4025,"ĠEr":4026,"Ġattempt":4027,"Ġsupport":4028,"bber":4029,"Ġcompet":4030,"Ġimpression":4031,"shirt":4032,"Ġroller":4033,"Ġcharacters":4034,"Ġexplaining":4035,"Ġdrug":4036,"wing":4037,"ndy":4038,"Ġborrow":4039,"Ġward":4040,"ĠSm":4041,"Ġdem":4042,"Ġspill":4043,"ĠFred":4044,"Ġbrick":4045,"Ġdirector":4046,"Ġdiam":4047,"Ġdescribe":4048,"Ġtube":4049,"Ġepisode":4050,"nday":4051,"erc":4052,"Ġstar":4053,"ĠSue":4054,"riage":4055,"ified":4056,"ĠDmitri":4057,"Ġ18":4058,"Ġdrawer":4059,"Ġcrawl":4060,"Ġignore":4061,"ĠLynn":4062,"uce":4063,"alous":4064,"andom":4065,"Ġsched":4066,"Ġholds":4067,"Ġcloth":4068,"Ġsexually":4069,"Ġcafeteria":4070,"Ġpriest":4071,"Ġdirectly":4072,"Ġsharp":4073,"Ġenemy":4074,"girl":4075,"inks":4076,"lebr":4077,"Ġrandom":4078,"ĠHappy":4079,"Ġplaced":4080,"Ġexit":4081,"ĠOut":4082,"ational":4083,"ĠChinese":4084,"Ġpacked":4085,"Ġrespons":4086,"vision":4087,"ĠĠĠĠĠĠĠĠ":4088,"Ġspirit":4089,"ern":4090,"Ġpil":4091,"ulty":4092,"ĠEric":4093,"Ġshoe":4094,"Ġsimply":4095,"ĠDovre":4096,"Ġhorrible":4097,"for":4098,"hile":4099,"Ġfac":4100,"Ġlined":4101,"Ġsale":4102,"Ġjoined":4103,"Ġpretend":4104,"Ġjumping":4105,"Ġbottles":4106,"Ġdistract":4107,"Ġlands":4108,"Ġpaying":4109,"Ġvacation":4110,"inite":4111,"Ġmath":4112,"Ġghost":4113,"uts":4114,"Ġjew":4115,"Ġval":4116,"Ġassist":4117,"Ġsubject":4118,"ĠUniversity":4119,"ĠSeveral":4120,"Ġhello":4121,"Ġjealous":4122,"ĠSunday":4123,"cil":4124,"Ġdim":4125,"Ġpow":4126,"Ġrap":4127,"ĠWith":4128,"Ġsaf":4129,"Ġneg":4130,"cape":4131,"ians":4132,"Ġbecomes":4133,"Ġstructure":4134,"Ġmistake":4135,"chan":4136,"Ġtooth":4137,"irm":4138,"ases":4139,"Ġju":4140,"Ġfallen":4141,"Ġcurrent":4142,"Ġrailroad":4143,"ĠSimpson":4144,"Ġclouds":4145,"Ġtomorrow":4146,"jah":4147,"Ġbell":4148,"Ġmeal":4149,"Ġjour":4150,"Ġlobby":4151,"abb":4152,"Ġbrothers":4153,"Ġcrew":4154,"Ġoccas":4155,"Ġmixed":4156,"Ġcontainer":4157,"sha":4158,"Ġcent":4159,"Ġlu":4160,"Ġpig":4161,"Ġflash":4162,"ĠPop":4163,"Ġunderground":4164,"Ġactual":4165,"Ġfloors":4166,"Ġrecently":4167,"Ġteachers":4168,"Ġraised":4169,"Ġdrugs":4170,"Ġprivate":4171,"Ġmotorcycle":4172,"ution":4173,"ĠMost":4174,"ify":4175,"ĠJake":4176,"Ġsquee":4177,"Ġobviously":4178,"Ġneighbors":4179,"ĠMexic":4180,"Ġiron":4181,"Hey":4182,"aven":4183,"Ġcu":4184,"Ġsticks":4185,"aly":4186,"ĠPark":4187,"Ġplays":4188,"Ġdesert":4189,"plex":4190,"Ġwinter":4191,"Ġemployee":4192,"20":4193,"dia":4194,"Ġtied":4195,"Ġtennis":4196,"Ġfavor":4197,"Ġrif":4198,"ĠSee":4199,"istic":4200,"ĠRiver":4201,"Ġtray":4202,"ception":4203,"Ġcardboard":4204,"uffy":4205,"Ġsurface":4206,"ĠElijah":4207,"oh":4208,"Ġpages":4209,"vern":4210,"Ġupper":4211,"ĠLots":4212,"Ġpoison":4213,"Ġbreath":4214,"Ġfresh":4215,"Ġblocks":4216,"Ġgradu":4217,"Ġpuzz":4218,"Ġgrowing":4219,"ĠSandra":4220,"11":4221,"rim":4222,"Ġpun":4223,"Ġpound":4224,"order":4225,"Ġmel":4226,"Ġcorrid":4227,"ĠBev":4228,"Ġstring":4229,"Ġdiscussion":4230,"ox":4231,"Ġmember":4232,"amps":4233,"ĠWor":4234,"Ġworth":4235,"Ġdeb":4236,"Ġdeck":4237,"ĠOr":4238,"Ġcontest":4239,"Ġanswers":4240,"Ġrefri":4241,"Ġcelebr":4242,"Ġdisappear":4243,"Ġexpected":4244,"Ġhungry":4245,"Ġcage":4246,"erk":4247,"asing":4248,"Ġframe":4249,"Ġalien":4250,"ĠCan":4251,"Ġloves":4252,"Ġshallow":4253,"Ġstores":4254,"Ġcrash":4255,"Ġinterse":4256,"ĠDarius":4257,"ropri":4258,"Ġhunting":4259,"ĠJeff":4260,"',":4261,"cul":4262,"ule":4263,"yer":4264,"yard":4265,"Ġdu":4266,"ounce":4267,"Ġsheets":4268,"terday":4269,"Ġnecess":4270,"cast":4271,"Ġappre":4272,"Ġdesper":4273,"Ġski":4274,"attered":4275,"Ġcookies":4276,"Ġperformance":4277,"Ġslept":4278,"iam":4279,"Ġfake":4280,"Ġluck":4281,"Ġbeha":4282,"icing":4283,"Ġwithin":4284,"Ġsomeplace":4285,"Ġexerc":4286,"ĠGre":4287,"Ġbits":4288,"?\".":4289,"Ġsuppose":4290,"Ġsexy":4291,"Ġcopy":4292,"Ġdollars":4293,"Ġbirds":4294,"Ġencoura":4295,"Ġfuture":4296,"Ġrefriger":4297,"Ġwagon":4298,"itting":4299,"Ġgent":4300,"Ġcomfort":4301,"izes":4302,"Ġquart":4303,"Ġseconds":4304,"Ġfully":4305,"ĠWhite":4306,"Ġcommunity":4307,"mission":4308,"Ġthroat":4309,"Let":4310,"Ġsouth":4311,"Ġoil":4312,"Ġbas":4313,"Ġmiles":4314,"uses":4315,"iring":4316,"ĠNorm":4317,"Ġappoint":4318,"ergy":4319,"athered":4320,"Do":4321,"cent":4322,"cra":4323,"hol":4324,"ndred":4325,"oug":4326,"Ġhidden":4327,"ĠMart":4328,"Ġshy":4329,"Ġshru":4330,"ĠBJ":4331,"ĠBrian":4332,"ĠCarter":4333,"Ġpray":4334,"ĠStu":4335,"Ġreport":4336,"Ġleaned":4337,"AS":4338,"Ġtur":4339,"Ġpiles":4340,"ena":4341,"ĠTony":4342,"Ġstack":4343,"ionally":4344,"Ġamount":4345,"Ġbrings":4346,"Ġcostume":4347,"Ġsales":4348,"ĠLydia":4349,"Ġdiscover":4350,"back":4351,"kward":4352,"min":4353,"Ġtie":4354,"Ġdue":4355,"Ġlength":4356,"Ġrack":4357,"ĠCa":4358,"Ġarrange":4359,"Ġunknown":4360,"Ġcheese":4361,"Ġrespect":4362,"Ġmonster":4363,"Ġordered":4364,"Ġreceived":4365,"Look":4366,"Ġwore":4367,"Ġbun":4368,"Ġfu":4369,"Ġdeter":4370,"onna":4371,"idence":4372,"achel":4373,"Ġstaff":4374,"Ġrele":4375,"Ġreact":4376,"Ġlips":4377,"Ġpointing":4378,"Ġdish":4379,"Ġladies":4380,"Ġmedic":4381,"Ġsafety":4382,"ĠStuart":4383,"eg":4384,"iens":4385,"sed":4386,"ites":4387,"Ġhy":4388,"Ġbend":4389,"Ġplain":4390,"ender":4391,"Ġmarry":4392,"Ġcutting":4393,"ĠGrandpa":4394,"Ġapologize":4395,"wood":4396,"itar":4397,"Ġcudd":4398,"osing":4399,"umn":4400,"Ġcheek":4401,"Ġspeech":4402,"Ġawkward":4403,"Ġdetails":4404,"Ġintrodu":4405,"But":4406,"Dad":4407,"She":4408,"off":4409,"Ġune":4410,"chie":4411,"ĠJerry":4412,"Ġpond":4413,"Ġclassmates":4414,"Ġawhile":4415,"Ġclosing":4416,"span":4417,"they":4418,"Ġtelevision":4419,"Ġattacked":4420,"ĠWestport":4421,"Ġgentle":4422,"Now":4423,"itude":4424,"ĠAle":4425,"Ġdod":4426,"ĠWar":4427,"Ġbod":4428,"ĠRuss":4429,"ously":4430,"Ġuns":4431,"ĠInst":4432,"Ġrelatives":4433,"Ġarmy":4434,"Ġsupposedly":4435,"awson":4436,"Ġmotion":4437,"ĠBarb":4438,"Ġmagazine":4439,"Ġconstruction":4440,"ait":4441,"Ġtill":4442,"Ġwashing":4443,"Ġspent":4444,"Ġletting":4445,"ggy":4446,"Ġmatch":4447,"Ġsmooth":4448,"Ġgeneral":4449,"Ġurin":4450,"Ġobjects":4451,"ĠLucy":4452,"py":4453,"town":4454,"oman":4455,"Ġinf":4456,"ica":4457,"ĠSus":4458,"Ġalco":4459,"Ġanywhere":4460,"rank":4461,"Ġtyp":4462,"Ġpackage":4463,"Ġsuitcase":4464,"Ġenjoying":4465,"Ġelectric":4466,"Ġcreepy":4467,"Ġonline":4468,"ĠAm":4469,"asy":4470,"Ġjud":4471,"Ġaliens":4472,"ĠBet":4473,"Ġtail":4474,"olen":4475,"Ġremo":4476,"Ġvamp":4477,"Ġhundred":4478,"Ġstuffed":4479,"Ġdrown":4480,"Ġowned":4481,"Ġsigns":4482,"Ġseparated":4483,"Ġbelonged":4484,"Ġkittens":4485,"Ġsuspicious":4486,"mo":4487,"isa":4488,"llen":4489,"roud":4490,"eled":4491,"apan":4492,"Ġtrapped":4493,"Ġ25":4494,"Ġtrick":4495,"ĠOnly":4496,"Ġprepared":4497,"Ġdifficulty":4498,"Ġdefinite":4499,"Ġargument":4500,"ĠRobert":4501,"tub":4502,"Ġbored":4503,"Ġfile":4504,"anie":4505,"atic":4506,"Ġtem":4507,"Ġdemon":4508,"Ġplanned":4509,"Ġwheels":4510,"Ġcomplete":4511,"Ġgrabs":4512,"Ġcomplaining":4513,"Ġphysical":4514,"hor":4515,"Ġtank":4516,"inary":4517,"Ġdating":4518,"Ġgathered":4519,"Ġhose":4520,"Ġweak":4521,"ented":4522,"ĠHar":4523,"ĠDoug":4524,"Ġchecking":4525,"Ġtrunk":4526,"Ġtan":4527,"itions":4528,"Ġcooking":4529,"Ġlat":4530,"Ġlane":4531,"Ġped":4532,"ences":4533,"Ġnet":4534,"Ġbutter":4535,"Ġkick":4536,"ĠChe":4537,"ĠEvent":4538,"Ġmoder":4539,"ĠJapan":4540,"Ġenergy":4541,"Ġgrey":4542,"Ġmessy":4543,"Ġstairway":4544,"Ġunderwear":4545,"ĠThomas":4546,"Ġrectangular":4547,"ĠEventually":4548,"05":4549,"cher":4550,"vy":4551,"Ġtoys":4552,"ĠTheir":4553,"Ġstolen":4554,"Ġeight":4555,"Ġdock":4556,"Ġbackyard":4557,"Ġclosely":4558,"ĠVery":4559,"ĠYork":4560,"Ġannoun":4561,"Ġsongs":4562,"Ġapproach":4563,"Ġsmoking":4564,"duced":4565,"Ġpilot":4566,"ropriate":4567,"hh":4568,"Ġ#":4569,"rete":4570,"Ġgown":4571,"Ġrehe":4572,"urity":4573,"ĠJan":4574,"Ġchase":4575,"Ġlog":4576,"Ġsorts":4577,"Ġbathtub":4578,"Ġapproached":4579,"bage":4580,"ront":4581,"Ġaim":4582,"Ġbi":4583,"Ġfool":4584,"ĠLike":4585,"Ġcho":4586,"Ġbrush":4587,"Ġrolls":4588,"Ġstraw":4589,"Ġoutdoors":4590,"Ġintersection":4591,"ige":4592,"ville":4593,"hered":4594,"Ġdial":4595,"ism":4596,"Ġpipe":4597,"ett":4598,"Ġheight":4599,"ushed":4600,"Ġreception":4601,"Ġeff":4602,"irting":4603,"Ġanger":4604,"Ġsports":4605,"ĠJay":4606,"Ġrealised":4607,"ĠRachel":4608,"ĠPal":4609,"Ġdressing":4610,"Ġtrust":4611,"box":4612,"Ġpoliceman":4613,"Ġsweat":4614,"Ġinstructor":4615,"Ġcondition":4616,"Ġrifle":4617,"gain":4618,"pm":4619,"zed":4620,"Ġmic":4621,"Ġtoss":4622,"Ġseven":4623,"enty":4624,"Ġfro":4625,"Ġamb":4626,"Ġpole":4627,"Ġrepres":4628,"Ġautom":4629,"Ġguests":4630,"Ġacquaint":4631,"col":4632,"Ġbul":4633,"Ġcurious":4634,"Ġpizz":4635,"ĠWal":4636,"Ġintim":4637,"ĠCha":4638,"ĠCon":4639,"Ġhelps":4640,"Ġbushes":4641,"Ġcheap":4642,"ĠChris":4643,"Ġpatio":4644,"Ġlifted":4645,"Ġpotat":4646,"Ġweeks":4647,"Ġrefrigerator":4648,"nam":4649,"Ġsticking":4650,"Ġgolf":4651,"oph":4652,"ĠMany":4653,"Ġsocks":4654,"cts":4655,"Ġcanoe":4656,"Ġspin":4657,"Ġremark":4658,"Ġscri":4659,"Ġthank":4660,"Ġcord":4661,"ension":4662,"Ġreluct":4663,"Ġcrit":4664,"Ġfuneral":4665,"Ġcleaned":4666,"Ġconfusion":4667,"ĠWhy":4668,"Ġpowerful":4669,"Ġharm":4670,"Ġjewel":4671,"Ġvers":4672,"Ġmult":4673,"Ġmechan":4674,"ifer":4675,"Ġslam":4676,"Ġwallet":4677,"Ġbreaking":4678,"Ġdrawers":4679,"Ġcrossed":4680,"Ġgrandmother":4681,"Ġjeans":4682,"ĠSuper":4683,"ĠInstead":4684,"Ġbent":4685,"Ġcub":4686,"ĠAud":4687,"Ġareas":4688,"Ġfruit":4689,"Ġintense":4690,"ption":4691,"Ġcoins":4692,"Ġchips":4693,"Ġprice":4694,"Ġ14":4695,"Ġfinal":4696,"Ġparade":4697,"Ġrefused":4698,"Ġpencil":4699,"Ġtransp":4700,"Ġstaircase":4701,"Ġsoldiers":4702,"iving":4703,"Ġpunch":4704,"Ġrom":4705,"ols":4706,"ĠPl":4707,"Ġcompan":4708,"Ġpretending":4709,"Ġdrawn":4710,"Ġescal":4711,"Ġlanding":4712,"Ġparticip":4713,"Ġhurried":4714,"Ġblankets":4715,"Ġconvince":4716,"Ġdeterm":4717,"af":4718,"Ġver":4719,"rea":4720,"Ġmatt":4721,"haired":4722,"Ġcine":4723,"erie":4724,"Ġweap":4725,"Ġrate":4726,"Ġyeah":4727,"Ġspaces":4728,"umed":4729,"ĠGo":4730,"Ġfamous":4731,"Ġdesks":4732,"Ġresults":4733,"Ġcafe":4734,"ĠMarissa":4735,"Ġexperiment":4736,"Ġconcrete":4737,"Ġpillow":4738,"Ġcarpark":4739,"Ġmuddy":4740,"Ġbodies":4741,"gar":4742,"ique":4743,"oned":4744,"orter":4745,"Ġrings":4746,"aling":4747,"ĠSometimes":4748,"ashes":4749,"ortun":4750,"Ġremar":4751,"Ġchose":4752,"ĠPer":4753,"Ġhugged":4754,"Ġtrash":4755,"angu":4756,"Ġeasier":4757,"Ġyesterday":4758,"Ġtrailer":4759,"Ġdamage":4760,"Ġsoup":4761,"ĠErnie":4762,"Ġdemand":4763,"Ġappointment":4764,"Ġmodern":4765,"Ġbunk":4766,"iced":4767,"Ġiss":4768,"ĠSince":4769,"Ġrode":4770,"Ġleather":4771,"Ġtax":4772,"Ġguitar":4773,"ĠLou":4774,"ively":4775,"Ġcaused":4776,"Ġreturning":4777,"ĠEverything":4778,"Ġsecurity":4779,"Ġsuspect":4780,"Ġunderwater":4781,"Ġmast":4782,"Ġfail":4783,"ama":4784,"Ġsaved":4785,"Ġspots":4786,"ĠLake":4787,"ĠThree":4788,"Ġmarriage":4789,"ennifer":4790,"ĠMelanie":4791,"Ġsemi":4792,"Is":4793,"Ġcents":4794,"uth":4795,"Ġhist":4796,"ĠCom":4797,"ĠJudy":4798,"Ġchain":4799,"Ġaction":4800,"Ġawful":4801,"Ġangle":4802,"onscious":4803,"Ġscreamed":4804,"Ġsweater":4805,"phant":4806,"het":4807,"Ġwine":4808,"Ġcried":4809,"Ġhook":4810,"Ġstove":4811,"Ġrev":4812,"ĠHan":4813,"Ġcomplex":4814,"Ġdeg":4815,"Ġdev":4816,"ĠRay":4817,"Ġplayers":4818,"ledge":4819,"Ġaccess":4820,"ĠBrad":4821,"Ġcolorful":4822,"Ġorgasm":4823,"Ġignored":4824,"ĠCarl":4825,"mar":4826,"of":4827,"helle":4828,"Ġtheat":4829,"Ġrabb":4830,"ctually":4831,"Ġtech":4832,"ĠEx":4833,"Ġscrat":4834,"athy":4835,"Ġchem":4836,"Ġshops":4837,"Ġemerg":4838,"Ġangri":4839,"Ġtypes":4840,"Ġpurs":4841,"Ġannoying":4842,"Ġsymp":4843,"Ġfixing":4844,"Ġrubber":4845,"Ġcabinet":4846,"Ġpupp":4847,"Ġrepeated":4848,"jamin":4849,"ĠPoppa":4850,"Ġdent":4851,"Ġlangu":4852,"anch":4853,"Ġrot":4854,"ĠHank":4855,"ĠMo":4856,"Ġtemp":4857,"ules":4858,"Ġmaj":4859,"Ġvo":4860,"Ġencl":4861,"Ġstudying":4862,"They":4863,"Ġhoped":4864,"Ġbatter":4865,"Ġbriefly":4866,"Ġliquid":4867,"ĠAudrey":4868,"Ġcinema":4869,"cles":4870,"gan":4871,"pack":4872,"ral":4873,"Ġboun":4874,"Ġnap":4875,"lying":4876,"ĠHome":4877,"ĠDel":4878,"ĠFrom":4879,"umes":4880,"Ġskill":4881,"Ġpermission":4882,"Ġpretended":4883,"Ġcrashed":4884,"Ġsymb":4885,"Ġvagina":4886,"ĠQue":4887,"Ġquarters":4888,"under":4889,"Ġsar":4890,"eds":4891,"Ġdude":4892,"isting":4893,"Ġstro":4894,"Ġsoap":4895,"fection":4896,"Ġchoice":4897,"Ġhelpful":4898,"Ġfoc":4899,"Ġpicks":4900,"Ġgrown":4901,"Ġbreathe":4902,"Ġforeign":4903,"Ġtaste":4904,"Ġactivity":4905,"Ġwandering":4906,"girlfriend":4907,"If":4908,"den":4909,"hib":4910,"ware":4911,"yond":4912,"Ġfashion":4913,"esting":4914,"Ġbelly":4915,"Ġbeyond":4916,"adium":4917,"Ġshell":4918,"ores":4919,"cell":4920,"ĠBo":4921,"Ġmanner":4922,"Ġboots":4923,"Ġworse":4924,"ĠJennifer":4925,"Ġunlo":4926,"elly":4927,"Ġproceed":4928,"Ġtower":4929,"...\"":4930,"Ġrelig":4931,"itched":4932,"Ġaccount":4933,"Ġfreeway":4934,"Ġveget":4935,"Ġbalance":4936,"ĠNorman":4937,"cut":4938,"foot":4939,"Ġfurious":4940,"owing":4941,"athing":4942,"sters":4943,"ads":4944,"Ġshed":4945,"Ġknee":4946,"Ġspo":4947,"ĠNick":4948,"ĠRudy":4949,"Ġfloat":4950,"erton":4951,"ĠVal":4952,"Ġshirts":4953,"Ġgarbage":4954,"Ġcertainly":4955,"Ġcovering":4956,"ĠRover":4957,"Ġstorage":4958,"Ġresearch":4959,"Ġaffair":4960,"ĠMcDonald":4961,"Ġdiameter":4962,"Ġfrozen":4963,"mony":4964,"pan":4965,"Ġgonna":4966,"Ġweather":4967,"Ġrub":4968,"aled":4969,"ades":4970,"ĠSil":4971,"Ġnotion":4972,"Ġpew":4973,"ĠCor":4974,"Ġflirting":4975,"Ġcoach":4976,"Ġpartly":4977,"Ġ100":4978,"Ġbelt":4979,"Ġpresident":4980,"Ġrefer":4981,"Ġindivid":4982,"ĠJackson":4983,"Ġceremony":4984,"Ġmattress":4985,"06":4986,"Something":4987,"gun":4988,"kay":4989,"there":4990,"Ġtip":4991,"Ġgear":4992,"arre":4993,"ords":4994,"lee":4995,"Ġsof":4996,"Ġvivid":4997,"Ġarran":4998,"Ġdecides":4999,"Ġswam":5000,"Ġhugging":5001,"Ġattitude":5002,"Ġplans":5003,"Ġhits":5004,"Ġtraining":5005,"ĠOnce":5006,"ĠBecause":5007,"Ġconsider":5008,"Ġnormally":5009,"Ġexperien":5010,"Ġpills":5011,"Ġtransfer":5012,"ĠBenjamin":5013,"ĠScott":5014,"ÂłÂłÂłÂłÂłÂł":5015,"********":5016,"Ġdisgusted":5017,"Ġoriginal":5018,"Ġpizza":5019,"Ġjewelry":5020,"15":5021,"ER":5022,"yan":5023,"Ġbars":5024,"Ġdumb":5025,"Ġhate":5026,"ĠTerry":5027,"ĠMiss":5028,"Ġshots":5029,"cend":5030,"Ġguide":5031,"ession":5032,"ĠPart":5033,"Ġwatches":5034,"Ġkiller":5035,"Ġadult":5036,"Ġcastle":5037,"Ġoccurred":5038,"Ġimagine":5039,"Ġcigarette":5040,"Wh":5041,"Yeah":5042,"something":5043,"tle":5044,"Ġtar":5045,"gel":5046,"Ġteasing":5047,"ĠNiles":5048,"Ġbothered":5049,"Ġpatients":5050,"aura":5051,"Ġregister":5052,"Ġcamping":5053,"aturday":5054,"Ġchatting":5055,"Ġsplit":5056,"Ġcreatures":5057,"Ġthrown":5058,"Ġroute":5059,"Ġmodel":5060,"Ġscript":5061,"cue":5062,"mm":5063,"Ġmer":5064,"Ġfirm":5065,"isk":5066,"Ġpiled":5067,"Ġinch":5068,"Ġjunk":5069,"union":5070,"ĠBoth":5071,"ĠRed":5072,"Ġhasn":5073,"Ġhills":5074,"Ġplease":5075,"Ġconnect":5076,"Ġexpecting":5077,"Ġfolded":5078,"Ġsandwich":5079,"Ġdisabled":5080,"Ġrehears":5081,"Ġangrily":5082,"Ezra":5083,"awn":5084,"wise":5085,"Ġproud":5086,"Ġplates":5087,"ĠCam":5088,"Ġcovers":5089,"Ġdecision":5090,"Ġcrush":5091,"Ġsatis":5092,"llection":5093,"Ġescaped":5094,"Ġlearning":5095,"craft":5096,"Ġeffort":5097,"ners":5098,"Ġpist":5099,"ĠTy":5100,"Ġacted":5101,"Ġcheer":5102,"ĠChuck":5103,"Ġsteel":5104,"Ġleads":5105,"Ġphysically":5106,"Ġinjured":5107,"Ġdefinitely":5108,"hop":5109,"hill":5110,"Ġfi":5111,"Ġwaste":5112,"Ġnor":5113,"icop":5114,"kend":5115,"ĠSha":5116,"ĠSaturday":5117,"usty":5118,"ulate":5119,"type":5120,"Ġbreaks":5121,"Ġresist":5122,"Ġadvert":5123,"Ġelephant":5124,"Ġmotel":5125,"Ġdeli":5126,"Ġsuggests":5127,"Ġdollar":5128,"Ġconnection":5129,"Ġburning":5130,"Ġzombie":5131,"Ġbleed":5132,"Ġassistant":5133,"Ġdemonstr":5134,"Ġmajor":5135,"ID":5136,"Where":5137,"ino":5138,"Ġboring":5139,"itary":5140,"Ġfault":5141,"Ġdocu":5142,"ĠWhere":5143,"Ġshif":5144,"usting":5145,"ĠBry":5146,"ĠCol":5147,"Ġcomments":5148,"ĠDawson":5149,"ĠAndy":5150,"Ġsite":5151,"Ġbump":5152,"ĠRun":5153,"aging":5154,"Ġquit":5155,"soci":5156,"Ġincident":5157,"Ġcommunic":5158,"Ġsearching":5159,"Ġintroduced":5160,"Ġcompetition":5161,"Ġjuice":5162,"\"]":5163,"can":5164,"come":5165,"Ġwest":5166,"ĠWendy":5167,"ctors":5168,"Ġtea":5169,"Ġ(?)":5170,"Ġconv":5171,"ptop":5172,"Ġscience":5173,"Ġhelicop":5174,"Ġ16":5175,"Ġ17":5176,"Ġresort":5177,"Ġcreated":5178,"Ġeaten":5179,"Ġthrows":5180,"Ġrepair":5181,"Ġmachines":5182,"Ġlaptop":5183,"Ġsecretary":5184,"Ġvacu":5185,"ĠOthers":5186,"Ġweekend":5187,"Ġmemory":5188,"bly":5189,"zer":5190,"Ġtig":5191,"Ġwound":5192,"Ġsigh":5193,"Ġinit":5194,"onne":5195,"utter":5196,"anes":5197,"ĠTe":5198,"Ġears":5199,"alled":5200,"Ġassoci":5201,"useum":5202,"ĠCAS":5203,"Ġtears":5204,"Ġagg":5205,"Ġdriven":5206,"Ġ13":5207,"Ġsharing":5208,"Ġimm":5209,"iah":5210,"apping":5211,"attle":5212,"Ġsquir":5213,"Ġbeauty":5214,"Ġreturns":5215,"Ġtreat":5216,"Ġcousins":5217,"Ġlearned":5218,"ĠDean":5219,"Ġgraduation":5220,"Ġcrawling":5221,"Ġbullets":5222,"Ġphotographs":5223,"incip":5224,"ĠJapanese":5225,"com":5226,"gin":5227,"Ġmouse":5228,"Ġcro":5229,"Ġcong":5230,"Ġdive":5231,"ĠMed":5232,"Ġshook":5233,"Ġboards":5234,"Ġhousemate":5235,"Ġdevelop":5236,"osaur":5237,"Ġblocked":5238,"Ġvill":5239,"ĠLinda":5240,"ums":5241,"Ġquarter":5242,"Ġthoughts":5243,"Ġactor":5244,"aryl":5245,"Ġrelative":5246,"Ġjumps":5247,"clock":5248,"Ġbills":5249,"Ġapologized":5250,"Ġhesitate":5251,"Ġschedule":5252,"shaped":5253,"Ġnecessary":5254,"Ġemergency":5255,"AL":5256,"Ġft":5257,"Ġlic":5258,"Ġbeard":5259,"see":5260,"ado":5261,"Ġrod":5262,"roy":5263,"osen":5264,"ĠLaura":5265,"ĠRyan":5266,"Ġrealizing":5267,"hange":5268,"Ġprincip":5269,"Ġglo":5270,"Ġcommented":5271,"Ġskinny":5272,"ĠQu":5273,"Ġrushed":5274,"Ġgigg":5275,"Ġmasturb":5276,"nes":5277,"over":5278,"top":5279,"Ġmask":5280,"Ġfiles":5281,"Ġlip":5282,"Ġforced":5283,"Ġshiny":5284,"Ġmansion":5285,"Ġexha":5286,"ĠJason":5287,"Ġnois":5288,"ĠRet":5289,"Ġattending":5290,"iously":5291,"Ġgrew":5292,"ibility":5293,"Ġfilling":5294,"Ġbringing":5295,"Ġstrip":5296,"Ġrepeat":5297,"Ġsolid":5298,"ĠCharlie":5299,"Ġcorridor":5300,"ĠWorld":5301,"Ġappreci":5302,"bell":5303,"Ġnatural":5304,"Ġstaring":5305,"aming":5306,"stit":5307,"ĠActually":5308,"ander":5309,"Ġoffers":5310,"ĠDaryl":5311,"Ġbranch":5312,"Ġimages":5313,"Ġrestroom":5314,"Ġcreate":5315,"Ġinvest":5316,"Ġchannel":5317,"Ġcrossing":5318,"Ġappearance":5319,"Ġloudly":5320,"Ġopportun":5321,"Ġswinging":5322,"Ġbleacher":5323,"Ġreplied":5324,"Ġmarket":5325,"Ġstranger":5326,"Ġfavorite":5327,"An":5328,"Dream":5329,"ker":5330,"Ġbald":5331,"Ġtong":5332,"Ġtonight":5333,"Ġnic":5334,"ays":5335,"ĠMan":5336,"Ġcla":5337,"ĠRey":5338,"iana":5339,"Ġhoriz":5340,"Ġfigures":5341,"Ġexplos":5342,"Ġbuttons":5343,"Ġvaguely":5344,"ĠWilm":5345,"ĠOutside":5346,"Ġdistracted":5347,"Ġtypical":5348,"bur":5349,"Ġvert":5350,"Ġwished":5351,"Ġbene":5352,"Ġfart":5353,"Ġheaps":5354,"Ġshel":5355,"Ġfrag":5356,"Ġbacked":5357,"Ġclerk":5358,"ained":5359,"ĠCle":5360,"Ġspring":5361,"Ġscar":5362,"Ġfinds":5363,"Ġarrow":5364,"ĠInside":5365,"Ġpickup":5366,"lley":5367,"Ġrefle":5368,"Ġconcern":5369,"Ġspecific":5370,"Ġexpress":5371,"Ġpuppy":5372,"Ġarguing":5373,"Ġrushing":5374,"Ġvacuum":5375,"ĠWilmerton":5376,"AR":5377,"cel":5378,"Ġtask":5379,"inct":5380,"Ġtoast":5381,"Ġfab":5382,"Ġeast":5383,"ĠAf":5384,"ĠMon":5385,"Ġconvert":5386,"Ġspr":5387,"Ġflames":5388,"ĠJer":5389,"ĠFace":5390,"Ġchallen":5391,"ĠLarry":5392,"about":5393,"Ġwilling":5394,"Ġrang":5395,"Ġcompartment":5396,"Ġcurb":5397,"Ġraft":5398,"Ġraise":5399,"Ġprepare":5400,"Ġapproaching":5401,"Ġexplod":5402,"Ġexercise":5403,"Ġsarcast":5404,"Last":5405,"rick":5406,"happy":5407,"Ġpitch":5408,"amiliar":5409,"Ġsequ":5410,"ĠHouse":5411,"ils":5412,"Ġages":5413,"Ġchop":5414,"ĠPet":5415,"Ġqual":5416,"ĠGran":5417,"Ġdifference":5418,"Ġskate":5419,"Ġexchange":5420,"Ġboats":5421,"iber":5422,"Ġauthor":5423,"Ġprofessional":5424,"Ġtough":5425,"Ġmedicine":5426,"colored":5427,"Ġlanguage":5428,"gro":5429,"tered":5430,"Ġboo":5431,"Ġblew":5432,"erve":5433,"utely":5434,"Ġthumb":5435,"ĠTed":5436,"Ġnude":5437,"Ġstock":5438,"Ġrude":5439,"Ġank":5440,"Ġaside":5441,"Ġneither":5442,"Ġclient":5443,"andy":5444,"Ġspider":5445,"ĠOf":5446,"Ġdise":5447,"ipes":5448,"Ġstopping":5449,"Ġworkers":5450,"ĠKing":5451,"anches":5452,"Ġelement":5453,"Ġdrag":5454,"Ġinvis":5455,"Ġfireplace":5456,"Ġdinosaur":5457,"Ġgrassy":5458,"Ġbrakes":5459,"Ġbathing":5460,"rested":5461,"ossible":5462,"ĠSusan":5463,"Ġtheatre":5464,"Ġindividual":5465,"Ġsofa":5466,"con":5467,"from":5468,"zing":5469,"Ġstadium":5470,"Ġrit":5471,"amb":5472,"semb":5473,"Ġupside":5474,"Ġrole":5475,"ĠCla":5476,"ĠEst":5477,"olf":5478,"Ġguards":5479,"osh":5480,"aren":5481,"ĠLisa":5482,"Ġwrit":5483,"Ġbreathing":5484,"Ġchildhood":5485,"while":5486,"Ġcontinues":5487,"Ġproperty":5488,"ichard":5489,"Ġgifts":5490,"Ġpadd":5491,"Ġabsol":5492,"Ġremoved":5493,"Are":5494,"kin":5495,"Ġwings":5496,"Ġcred":5497,"isher":5498,"Ġpal":5499,"Ġheat":5500,"Ġreaching":5501,"ĠSl":5502,"urope":5503,"Ġsocial":5504,"Ġkneel":5505,"Ġflirt":5506,"ĠRes":5507,"ĠPres":5508,"Ġslid":5509,"ggage":5510,"Ġdesire":5511,"Ġhalls":5512,"Ġincred":5513,"Ġoccup":5514,"Ġsections":5515,"Ġpresentation":5516,"Ġbrake":5517,"Ġlocated":5518,"ĠEngland":5519,"Ġquietly":5520,"Ġburned":5521,"Ġordinary":5522,"Ġteenage":5523,"Ġencount":5524,"Ġperfectly":5525,"Ġstabbed":5526,"Ġscenes":5527,"Ġluggage":5528,"Ġalcohol":5529,"Be":5530,"Ġden":5531,"Ġlosing":5532,"Ġpit":5533,"Ġere":5534,"Ġsele":5535,"ĠSw":5536,"Ġrobe":5537,"Ġcarn":5538,"ief":5539,"Ġexhib":5540,"Ġblouse":5541,"Ġmoon":5542,"Ġchosen":5543,"Ġslim":5544,"this":5545,"Ġshaking":5546,"Ġsets":5547,"Ġrescue":5548,"Ġsteering":5549,"Ġconfident":5550,"Ġpresence":5551,"ristan":5552,"Ġpackages":5553,"Ġgrandfather":5554,"Ġpracticing":5555,"Ġdoub":5556,"visor":5557,"Ġcloud":5558,"Ġcounselor":5559,"Ġacquaintance":5560,"pting":5561,"ration":5562,"school":5563,"Ġwrest":5564,"ham":5565,"Ġfan":5566,"Ġpou":5567,"Ġhated":5568,"Ġstars":5569,"icul":5570,"store":5571,"ader":5572,"ĠSant":5573,"ĠMass":5574,"ĠHere":5575,"ĠDis":5576,"Ġstartled":5577,"ĠPeter":5578,"Ġbranches":5579,"Ġnowhere":5580,"Ġaffection":5581,"Ġbush":5582,"Ġpasses":5583,"ĠYear":5584,"Ġpresents":5585,"ungle":5586,"Ġrape":5587,"ĠNegro":5588,"Ġinstructions":5589,"athet":5590,"Ġcupboard":5591,"ĠAdam":5592,"ĠFacebook":5593,"reg":5594,"itory":5595,"Ġcot":5596,"ester":5597,"oween":5598,"Ġrides":5599,"ĠAustr":5600,"ury":5601,"ĠMore":5602,"Ġsod":5603,"Ġjail":5604,"eling":5605,"quet":5606,"Ġspell":5607,"apers":5608,"Ġprim":5609,"Ġmakeup":5610,"Ġmovement":5611,"Ġyourself":5612,"Ġpainful":5613,"Ġnoticing":5614,"Ġpattern":5615,"Ġgrandma":5616,"Ġpressure":5617,"Ġmilitary":5618,"Ġhesitant":5619,"ĠHolly":5620,"Ġmemor":5621,"ĠAustral":5622,"lt":5623,"Ġi":5624,"Ġwig":5625,"Ġoval":5626,"Ġwaved":5627,"Ġfired":5628,"stal":5629,"ĠSally":5630,"ĠAgain":5631,"Ġking":5632,"Ġfeature":5633,"Ġcans":5634,"ĠRon":5635,"Ġjokes":5636,"Ġdresser":5637,"Ġplanet":5638,"Ġplanes":5639,"Ġsteam":5640,"Ġ60":5641,"ĠArm":5642,"Ġlocation":5643,"Ġflights":5644,"ictor":5645,"ĠHalloween":5646,"Ġconvinced":5647,"ĠMiller":5648,"ĠBetty":5649,"Ġconvertible":5650,"miah":5651,"Ġx":5652,"rehouse":5653,"Ġwarehouse":5654,"hand":5655,"Ġgall":5656,"Ġinn":5657,"Ġhood":5658,"ĠTristan":5659,"ache":5660,"Ġreunion":5661,"ĠHarry":5662,"Ġaband":5663,"rog":5664,"ĠRichard":5665,"Ġprov":5666,"gery":5667,"Ġroads":5668,"Ġimpossible":5669,"Ġedges":5670,"laim":5671,"Ġarticle":5672,"fected":5673,"Ġwinner":5674,"Ġchickens":5675,"Ġlocal":5676,"ĠCarol":5677,"Ġslee":5678,"Someone":5679,"Ġunfamiliar":5680,"Ġvolunt":5681,"Ġshadow":5682,"Ġresponsible":5683,"Ġescalator":5684,"Ġnoisy":5685,"Ġfabric":5686,"bert":5687,"nity":5688,"Ġ...":5689,"Ġtit":5690,"Ġinse":5691,"icated":5692,"ales":5693,"irgin":5694,"Ġfort":5695,"Ġkicked":5696,"ĠHel":5697,"Ġknocking":5698,"ckets":5699,"ĠDay":5700,"ĠNancy":5701,"ĠFar":5702,"ĠPr":5703,"agers":5704,"Ġunable":5705,"Ġimpat":5706,"Ġaccent":5707,"Ġdistant":5708,"Ġhalfway":5709,"ĠCalif":5710,"Ġsweep":5711,"ĠZelling":5712,"Ġnotebook":5713,"Ġgener":5714,"Ġcircular":5715,"Ġwires":5716,"Ġoutdoor":5717,"Ġresembled":5718,"!'.":5719,"bble":5720,"pers":5721,"tes":5722,"Ġsen":5723,"Ġborn":5724,"Ġdum":5725,"Ġseason":5726,"Ġlies":5727,"illa":5728,"Ġuses":5729,"Ġremove":5730,"Ġcoast":5731,"Ġslides":5732,"Ġstreng":5733,"Ġsnakes":5734,"Ġstudio":5735,"Ġconfront":5736,"Ġembrace":5737,"Ġpurcha":5738,"Ġassumed":5739,"Ġsimple":5740,"iety":5741,"Ġhats":5742,"ĠMelinda":5743,"Ġjourney":5744,"Ġhelicopter":5745,"Ġtiger":5746,"Ġopportunity":5747,"Ġinvisible":5748,"ai":5749,"Ġtone":5750,"erick":5751,"Ġfif":5752,"Ġditch":5753,"Ġwel":5754,"Ġwears":5755,"ĠSouth":5756,"ĠMic":5757,"unks":5758,"Ġcomed":5759,"ĠEv":5760,"ĠEurope":5761,"istry":5762,"Ġcock":5763,"ĠRos":5764,"Ġchoo":5765,"Ġprevent":5766,"Ġscattered":5767,"ĠGr":5768,"Ġunit":5769,"Ġslipp":5770,"Ġ24":5771,"Ġsurgery":5772,"ĠAnna":5773,"Ġyells":5774,"Ġcausing":5775,"Ġserv":5776,"Ġserving":5777,"Ġconfusing":5778,"ĠJeremiah":5779,"Ġbesides":5780,"Ġmagic":5781,"Ġbullet":5782,"riday":5783,"Ġidentify":5784,"Ġdestroy":5785,"Ġinterrupted":5786,"IN":5787,"ccer":5788,"ĠTer":5789,"Ġri":5790,"Ġrules":5791,"ĠSar":5792,"Ġlion":5793,"urance":5794,"Ġleans":5795,"Ġflip":5796,"Ġmaid":5797,"Ġunhappy":5798,"Ġslop":5799,"Ġ22":5800,"itches":5801,"Ġexcuse":5802,"ĠEverybody":5803,"Ġhurting":5804,"Ġoffices":5805,"Ġgymn":5806,"ĠGino":5807,"Ġrecording":5808,"Ġmurd":5809,"Ġcups":5810,"Ġtempor":5811,"Ġbleeding":5812,"Ġbleachers":5813,"OT":5814,"fall":5815,"with":5816,"inated":5817,"escape":5818,"Ġreplace":5819,"vey":5820,"asure":5821,"ĠMay":5822,"Ġshit":5823,"Ġshown":5824,"pper":5825,"ometime":5826,"Ġsuck":5827,"Ġremod":5828,"ĠJens":5829,"Ġslipped":5830,"ĠSomebody":5831,"Ġ200":5832,"Ġdrinks":5833,"bba":5834,"Ġbabysit":5835,"Ġresting":5836,"atory":5837,"Ġsuits":5838,"Ġpanic":5839,"Ġfellows":5840,"Ġkeyboard":5841,"ornia":5842,"Ġcartoon":5843,"Ġdormitory":5844,"worker":5845,"Ġpouring":5846,"ĠTyler":5847,"Ġexhausted":5848,"Come":5849,"gie":5850,"sized":5851,"Ġtender":5852,"Ġwashed":5853,"Ġlin":5854,"orate":5855,"Ġham":5856,"ĠTiny":5857,"Ġreass":5858,"indy":5859,"Ġintell":5860,"Ġpeace":5861,"Ġwhoever":5862,"ĠEaster":5863,"izarre":5864,"antically":5865,"ĠPo":5866,"Ġcouples":5867,"Ġappropriate":5868,"Ġtrap":5869,"Ġkidn":5870,"Ġintern":5871,"Ġobvious":5872,"Ġsignal":5873,"Ġcurly":5874,"Ġtaller":5875,"Ġshotgun":5876,"Ġforever":5877,"Ġcandles":5878,"Ġsilent":5879,"Ġpressed":5880,"ĠAbout":5881,"Ġminiature":5882,"Ġintroduce":5883,"Ġdodgy":5884,"Ġreligious":5885,"ĠSilas":5886,"Ġpistol":5887,"ĠAfric":5888,"Ġerection":5889,"hold":5890,"maybe":5891,"Ġwit":5892,"Ġwitch":5893,"ishes":5894,"Ġbee":5895,"Ġrac":5896,"ept":5897,"Ġprinting":5898,"Ġdrain":5899,"Ġannounce":5900,"Ġterm":5901,"Ġcostumes":5902,"Ġengaged":5903,"Ġwrap":5904,"Ġcaptain":5905,"Ġstealing":5906,"Ġassignment":5907,"Ġhistory":5908,"Ġtechn":5909,"Ġtongue":5910,"Ġvolunte":5911,"ĠCalifornia":5912,"fly":5913,"fashion":5914,"lass":5915,"mosp":5916,"Ġmuff":5917,"edro":5918,"ĠMor":5919,"Ġdevice":5920,"ĠFriday":5921,"Ġsmashed":5922,"abel":5923,"ague":5924,"Ġactress":5925,"ĠSoon":5926,"Ġimpl":5927,"Ġsigned":5928,"Ġmedical":5929,"Ġcrawled":5930,"Ġcaptured":5931,"ĠJimmy":5932,"Ġcigarettes":5933,"Ġhealthy":5934,"Ġcustomers":5935,"ĠSmith":5936,"Ġsqueeze":5937,"Ġcompanion":5938,"Ġcarnival":5939,"Ġstrength":5940,"mosphere":5941,"12":5942,"IS":5943,"bow":5944,"gue":5945,"uous":5946,"Ġest":5947,"Ġwha":5948,"Ġhamb":5949,"Ġreve":5950,"Ġatmosphere":5951,"Ġgovern":5952,"asant":5953,"Ġbacks":5954,"Ġalt":5955,"Ġpeek":5956,"iece":5957,"Ġworn":5958,"ĠRight":5959,"Ġplayground":5960,"Ġheading":5961,"Ġjoy":5962,"Ġgravel":5963,"Ġemail":5964,"Ġserved":5965,"Ġdrops":5966,"Ġstruck":5967,"Ġexample":5968,"Ġ911":5969,"Ġterribly":5970,"Ġrailing":5971,"Ġavail":5972,"strong":5973,"Ġthreatening":5974,"Ġtomat":5975,"ĠBubba":5976,"ĠFrederick":5977,"Ġshifted":5978,"Ġdisease":5979,"ĠEsther":5980,"Ġhambur":5981,"?).":5982,"AN":5983,"Ġbizarre":5984,"Ġsewing":5985,"ĠMain":5986,"Ġsoccer":5987,"Ġshorter":5988,"ĠEar":5989,"olic":5990,"Ġmagn":5991,"ĠRoc":5992,"Ġremembering":5993,"Ġending":5994,"Ġtrim":5995,"_____":5996,"idently":5997,"Ġsinger":5998,"Ġtyping":5999,"Ġbedrooms":6000,"ĠAlthough":6001,"Ġarrives":6002,"Ġcatching":6003,"Ġcandle":6004,"Ġstairwell":6005,"ĠBonita":6006,"Ġirrit":6007,"Ġholid":6008,"Ġdecorated":6009,"Ġprisoner":6010,"Ġsuccessful":6011,"Ġvampire":6012,"ĠQueen":6013,"Ġarranged":6014,"fashioned":6015,"AT":6016,"iel":6017,"some":6018,"Ġgest":6019,"esb":6020,"ĠMond":6021,"une":6022,"Ġconside":6023,"Ġbug":6024,"Ġbudd":6025,"ĠPar":6026,"Ġoldest":6027,"Ġthroughout":6028,"ĠKaren":6029,"Ġsnuck":6030,"Ġhorror":6031,"Ġevents":6032,"boat":6033,"Ġinsist":6034,"Ġfrequ":6035,"Ġmonkey":6036,"Ġblowing":6037,"Ġdivor":6038,"ĠRunescape":6039,"ĠJerome":6040,"Ġabsolutely":6041,"Ġconsidered":6042,"?'":6043,"],":6044,"mare":6045,"inger":6046,"Ġmaster":6047,"Ġcreek":6048,"Ġlone":6049,"omen":6050,"Ġpiss":6051,"aning":6052,"Ġsheep":6053,"Ġtheme":6054,"eless":6055,"elia":6056,"Ġmaze":6057,"Ġbuff":6058,"Ġprefer":6059,"ĠGu":6060,"elle":6061,"Ġapple":6062,"ourse":6063,"Ġadults":6064,"Ġpolit":6065,"Ġlays":6066,"Ġbecoming":6067,"ĠJoey":6068,"Ġexposed":6069,"Ġdeliver":6070,"Ġlevels":6071,"Ġspeaker":6072,"Ġsalad":6073,"Ġdetect":6074,"Ġstruggling":6075,"Ġpsychology":6076,"Ġawakened":6077,"ĠĠĠĠĠĠĠĠĠĠĠĠĠĠĠĠ":6078,"Ġencourage":6079,"Ġenclosed":6080,"ĠValerie":6081,"ĠBryan":6082,"Ġritual":6083,"Ġinnoc":6084,"Ġtire":6085,"Ġbin":6086,"Ġcrou":6087,"Ġfaded":6088,"Ġlack":6089,"Ġpier":6090,"Ġthrill":6091,"acious":6092,"icide":6093,"ĠAc":6094,"ĠAve":6095,"Ġassemb":6096,"ĠDuring":6097,"Ġsideways":6098,"Ġlets":6099,"Ġdescend":6100,"Ġsupper":6101,"ressive":6102,"Ġenters":6103,"Ġentertain":6104,"Ġobst":6105,"Ġballoon":6106,"Ġcomputers":6107,"Ġtoilets":6108,"Ġconcent":6109,"Ġpillows":6110,"Ġsafely":6111,"Ġdetail":6112,"Ġcircles":6113,"Ġurinate":6114,"Ġambul":6115,"Ġrabbit":6116,"Ġprincipal":6117,"?'.":6118,"Ġmut":6119,"etch":6120,"Ġracing":6121,"imp":6122,"stick":6123,"ĠShar":6124,"Ġfork":6125,"rah":6126,"Ġplot":6127,"ilies":6128,"Ġmanual":6129,"Ġsuite":6130,"Ġoverhead":6131,"Ġspending":6132,"ization":6133,"ĠNative":6134,"ĠNorth":6135,"ĠJose":6136,"Ġsmart":6137,"Ġnoises":6138,"Ġburied":6139,"ĠRose":6140,"ables":6141,"Ġcolour":6142,"ĠUS":6143,"Ġpolite":6144,"Ġdropping":6145,"etcher":6146,"Ġdaughters":6147,"Ġcommon":6148,"ĠZena":6149,"ĠClass":6150,"ĠWilliam":6151,"Ġorders":6152,"Ġdecorations":6153,"Ġstalls":6154,"Ġjokingly":6155,"Ġprinted":6156,"Ġcrumb":6157,"Ġsurvive":6158,"Ġbehav":6159,"Ġinvestig":6160,"ĠSanta":6161,"ĠSarah":6162,"40":6163,"Go":6164,"Here":6165,"lies":6166,"Ġtack":6167,"rely":6168,"omy":6169,"Ġpudd":6170,"onse":6171,"Ġhomes":6172,"ĠTr":6173,"ĠHaven":6174,"Ġrose":6175,"Ġclut":6176,"ĠBoy":6177,"Ġtaught":6178,"Ġbride":6179,"ĠGary":6180,"Ġdisp":6181,"Ġshapes":6182,"Ġshock":6183,"Ġmarked":6184,"Ġgrounds":6185,"Ġhandsome":6186,"Ġvisible":6187,"Ġserve":6188,"Ġtrucks":6189,"Ġcourty":6190,"Ġfields":6191,"Ġpajam":6192,"Ġformal":6193,"Ġdolls":6194,"Ġresponse":6195,"Ġridicul":6196,"Ġthreatened":6197,"Ġaccepted":6198,"Ġaccompl":6199,"Ġlawyer":6200,"Ġpowder":6201,"ĠMexico":6202,"Ġremarks":6203,"Ġunlocked":6204,"ĠArmstrong":6205,"Okay":6206,"aid":6207,"gest":6208,"Ġturt":6209,"Ġoven":6210,"Ġmuseum":6211,"hall":6212,"owed":6213,"otic":6214,"Ġstones":6215,"Ġdoctors":6216,"asc":6217,"Ġyards":6218,"Ġjun":6219,"Ġjungle":6220,"Ġamuse":6221,"Ġsugar":6222,"ĠJew":6223,"Ġload":6224,"Ġposter":6225,"Ġscore":6226,"Ġscram":6227,"Ġslope":6228,"ints":6229,"Ġtowels":6230,"Ġhugs":6231,"dded":6232,"ĠKat":6233,"Ġwaiter":6234,"Ġlighting":6235,"Ġpassage":6236,"Ġentering":6237,"anced":6238,"Ġdistinct":6239,"Ġunderstood":6240,"Ġofficial":6241,"Ġorganized":6242,"Ġtotal":6243,"Ġstretched":6244,"ĠFletcher":6245,"Ġobserving":6246,"Ġrequest":6247,"ĠRivertown":6248,"Ġbasically":6249,"ĠJayson":6250,"Ġchemistry":6251,"ĠRetreat":6252,"cream":6253,"gr":6254,"just":6255,"rate":6256,"rical":6257,"oms":6258,"Ġstare":6259,"Ġeld":6260,"Ġfrog":6261,"Ġalright":6262,"ĠBack":6263,"asty":6264,"ĠLor":6265,"Ġloft":6266,"Ġchu":6267,"umps":6268,"Ġarch":6269,"Ġhappily":6270,"Ġenvel":6271,"ĠKim":6272,"ĠStill":6273,"Ġsett":6274,"Ġexclaim":6275,"Ġrocky":6276,"Ġregret":6277,"lessly":6278,"Ġpositive":6279,"Ġneckl":6280,"Ġprotest":6281,"Ġseriously":6282,"Ġducks":6283,"ĠPhil":6284,"Ġnegative":6285,"Ġdesperately":6286,"ĠAlex":6287,"Ġversion":6288,"Ġromantic":6289,"ĠPerhaps":6290,"Ġdocument":6291,"Ġsoda":6292,"Ġenvelope":6293,"Can":6294,"Did":6295,"When":6296,"berry":6297,"field":6298,"lings":6299,"Ġpump":6300,"Ġpipes":6301,"Ġstole":6302,"ĠAut":6303,"asp":6304,"ĠMin":6305,"Ġoverhe":6306,"Ġknowledge":6307,"Ġspy":6308,"ĠJill":6309,"Ġscru":6310,"ĠGirl":6311,"action":6312,"Ġwaitress":6313,"inky":6314,"ĠVictor":6315,"Ġinterc":6316,"Ġpale":6317,"Ġsoldier":6318,"Ġshifts":6319,"Ġshouting":6320,"Ġdisturbed":6321,"Ġjudge":6322,"Ġsympathet":6323,"Ġpuppies":6324,"ĠMedia":6325,"Ġvillage":6326,"Ġfarther":6327,"OK":6328,"bag":6329,"jac":6330,"lock":6331,"ta":6332,"wr":6333,"Ġwipe":6334,"Ġsed":6335,"Ġfountain":6336,"Ġhired":6337,"iders":6338,"Ġreaches":6339,"rier":6340,"acker":6341,"ryl":6342,"ila":6343,"essert":6344,"antage":6345,"ĠLet":6346,"ummy":6347,"aternity":6348,"Ġwaters":6349,"ĠStar":6350,"Ġharder":6351,"Ġreasons":6352,"Ġinvite":6353,"ĠAlan":6354,"Ġaudio":6355,"ĠDarryl":6356,"Ġruined":6357,"Ġforms":6358,"Ġsunny":6359,"Ġliter":6360,"Ġstretch":6361,"rolling":6362,"Ġcorrectly":6363,"Ġtaxi":6364,"Ġcourtyard":6365,"lin":6366,"pr":6367,"than":6368,"Ġsib":6369,"Ġinfl":6370,"arn":6371,"Ġnail":6372,"Ġnature":6373,"amus":6374,"ada":6375,"ĠSca":6376,"Ġgoal":6377,"Ġsauce":6378,"Ġorn":6379,"Ġjar":6380,"ĠDown":6381,"Ġflu":6382,"ĠJared":6383,"ĠJosh":6384,"Ġdried":6385,"ĠThur":6386,"Ġdiss":6387,"Ġenorm":6388,"Ġgrin":6389,"Ġcounting":6390,"Ġsque":6391,"Ġapartments":6392,"Ġexciting":6393,"Ġlately":6394,"Ġjobs":6395,"boards":6396,"ĠWho":6397,"Ġcurled":6398,"Ġrefuse":6399,"Ġtwin":6400,"Ġburst":6401,"Ġgolden":6402,"iction":6403,"Ġworkshop":6404,"ĠNothing":6405,"Ġprisoners":6406,"Ġstrangers":6407,"Ġmagazines":6408,"Ġcombination":6409,"Ġfuzzy":6410,"Ġproceeded":6411,"Ġclaim":6412,"Ġavailable":6413,"Ġamusement":6414,"All":6415,"On":6416,"natural":6417,"Ġ=":6418,"Ġess":6419,"Ġmop":6420,"Ġmush":6421,"Ġcries":6422,"Ġdut":6423,"Ġdessert":6424,"atio":6425,"ushing":6426,"iches":6427,"Ġintended":6428,"ĠBre":6429,"Ġsuicide":6430,"oses":6431,"Ġwalkway":6432,"Ġactors":6433,"Ġcatches":6434,"Ġrecorder":6435,"Ġentry":6436,"Ġretreat":6437,"Ġsignific":6438,"Ġcommand":6439,"Ġindo":6440,"Ġdeeper":6441,"Ġstraighten":6442,"Ġterrified":6443,"Ġcontainers":6444,"Ġdestination":6445,"Ġshouted":6446,"Ġwhisper":6447,"ĠBarbara":6448,"Ġencounter":6449,"Ġintercourse":6450,"LY":6451,"Not":6452,"ckey":6453,"down":6454,"mark":6455,"Ġ,":6456,"Ġbattle":6457,"Ġdies":6458,"Ġlid":6459,"Ġlesb":6460,"otch":6461,"Ġnun":6462,"Ġripped":6463,"ooper":6464,"ĠSA":6465,"ĠMad":6466,"Ġfrantically":6467,"inder":6468,"Ġshining":6469,"Ġplenty":6470,"Ġfeather":6471,"Ġroommates":6472,"Ġdrew":6473,"Ġguilt":6474,"Ġflag":6475,"Ġwhenever":6476,"Ġscoot":6477,"Ġfamilies":6478,"ems":6479,"ĠYet":6480,"Ġwarn":6481,"Ġmessed":6482,"aze":6483,"Ġincluded":6484,"Ġbenches":6485,"ashington":6486,"Ġmental":6487,"ĠGreen":6488,"Ġdetermined":6489,"Ġwitness":6490,"Ġgovernment":6491,"45":6492,"Ch":6493,"First":6494,"Just":6495,"both":6496,"cod":6497,"iqu":6498,"oons":6499,"sa":6500,"xual":6501,"Ġsizes":6502,"Ġcaps":6503,"Ġpant":6504,"aron":6505,"esh":6506,"Ġrise":6507,"Ġtherefore":6508,"Ġsail":6509,"ĠMid":6510,"eline":6511,"ĠBurt":6512,"Ġcommer":6513,"Ġcaring":6514,"ĠJon":6515,"ĠJen":6516,"ĠJones":6517,"Ġcoke":6518,"Ġpreviously":6519,"Ġargue":6520,"Ġlighter":6521,"Ġtruth":6522,"bbles":6523,"Ġskating":6524,"Ġfourth":6525,"Ġmessing":6526,"Ġreply":6527,"Ġregard":6528,"Ġunderstanding":6529,"Ġartist":6530,"Ġzoo":6531,"Ġdelight":6532,"Ġtransform":6533,"Ġcases":6534,"Ġcasual":6535,"Ġafford":6536,"Ġrelaxed":6537,"Ġmurder":6538,"Ġtornado":6539,"ĠMexican":6540,"Ġpuzzle":6541,"Ġpotatoes":6542,"Ġdentist":6543,"Who":6544,"Ġlicense":6545,"Ġshelter":6546,"Ġcredit":6547,"Ġabandoned":6548,"Ġbehavior":6549,"For":6550,"So":6551,"See":6552,"met":6553,"Ġack":6554,"rell":6555,"rees":6556,"Ġgri":6557,"Ġhom":6558,"Ġejac":6559,"ĠWashington":6560,"Ġfraternity":6561,"Ġleap":6562,"ĠCindy":6563,"Ġdefe":6564,"uled":6565,"ĠAnderson":6566,"anted":6567,"Ġchuck":6568,"Ġwaterfall":6569,"Ġswall":6570,"Ġneedle":6571,"Ġdesp":6572,"Ġspeaks":6573,"ancing":6574,"Ġaccord":6575,"aws":6576,"Ġanswering":6577,"ucid":6578,"rict":6579,"Ġdiary":6580,"Ġspotted":6581,"Ġcollar":6582,"Ġlesson":6583,"Ġcalcul":6584,"Ġcabinets":6585,"ĠMerle":6586,"Ġoccasionally":6587,"Ġvoices":6588,"ĠAustralia":6589,"Ġambulance":6590,"ĠSharon":6591,"Ġacknow":6592,"And":6593,"Father":6594,"bing":6595,"sk":6596,"ti":6597,"ued":6598,"Ġtires":6599,"Ġsang":6600,"real":6601,"Ġbay":6602,"Ġbass":6603,"Ġbacking":6604,"Ġfle":6605,"ĠTw":6606,"Ġnasty":6607,"Ġbears":6608,"Ġstool":6609,"Ġrat":6610,"Ġrising":6611,"stand":6612,"ĠAnt":6613,"ĠHa":6614,"ĠMont":6615,"Ġfridge":6616,"ĠDick":6617,"ĠEmer":6618,"Ġloss":6619,"ĠPedro":6620,"pless":6621,"Ġdrill":6622,"Ġtheirs":6623,"Ġattended":6624,"Ġshared":6625,"Ġpassion":6626,"Ġadvice":6627,"Ġincre":6628,"Ġexcite":6629,"unknown":6630,"Ġadded":6631,"ĠMean":6632,"ĠAmerica":6633,"Ġprivacy":6634,"Ġ______":6635,"Ġoperation":6636,"Ġoperating":6637,"ĠEdward":6638,"ĠEmma":6639,"Ġspilled":6640,"Ġturkey":6641,"ĠCamden":6642,"stitute":6643,"ĠReyna":6644,"Ġexplosion":6645,"Ġelementary":6646,"ĠRochelle":6647,"Ġornate":6648,"Ġcommercial":6649,"Then":6650,"aves":6651,"conscious":6652,"Ġ_":6653,"Ġwip":6654,"Ġsession":6655,"Ġsometime":6656,"Ġmood":6657,"Ġfed":6658,"Ġfal":6659,"arse":6660,"ĠTree":6661,"Ġreb":6662,"alph":6663,"Ġlif":6664,"ĠAng":6665,"ĠAmy":6666,"ĠMars":6667,"ĠMabel":6668,"rain":6669,"Ġjam":6670,"ainted":6671,"Ġspacious":6672,"Ġwherever":6673,"Ġnodded":6674,"agon":6675,"Ġgrate":6676,"Ġshoots":6677,"Ġmusical":6678,"cient":6679,"Ġcomplicated":6680,"Ġdepressed":6681,"Ġdanced":6682,"ĠSeamus":6683,"Ġenjoyed":6684,"ĠSimon":6685,"Ġadmire":6686,"Ġrobot":6687,"Ġsandwiches":6688,"Ġlucky":6689,"Ġrevol":6690,"Ġdegree":6691,"Ġconvention":6692,"ĠMonday":6693,"Ġpissed":6694,"ĠScared":6695,".'":6696,"Frank":6697,"coming":6698,"lar":6699,"mend":6700,"Ġbang":6701,"Ġbased":6702,"hang":6703,"Ġinner":6704,"Ġthread":6705,"ĠThan":6706,"verage":6707,"ĠSch":6708,"ĠAri":6709,"ĠAra":6710,"ops":6711,"Ġbackpack":6712,"Ġaltern":6713,"aine":6714,"igger":6715,"Ġexec":6716,"Ġblown":6717,"ĠNa":6718,"Ġloaded":6719,"Ġscan":6720,"Ġafterwards":6721,"Ġshovel":6722,"Ġresid":6723,"maid":6724,"Ġshortly":6725,"Ġevidently":6726,"Ġclosest":6727,"Ġtreated":6728,"othy":6729,"Ġfellatio":6730,"Ġterms":6731,"Ġlistened":6732,"Ġtwins":6733,"Ġfactory":6734,"ĠSpace":6735,"Ġsquares":6736,"ĠJackie":6737,"Ġpractically":6738,"Ġvehicles":6739,"Ġ_____":6740,"ĠEliz":6741,"Ġgroceries":6742,"Ġ________________":6743,"Ġflooded":6744,"Ġadjust":6745,"Ġhundreds":6746,"Ġsymbol":6747,"Ġvertical":6748,"ĠMeanwhile":6749,"ae":6750,"ios":6751,"iently":6752,"mall":6753,"rings":6754,"und":6755,"Ġtons":6756,"itated":6757,"Ġthigh":6758,"acting":6759,"Ġstiff":6760,"ldo":6761,"Ġraz":6762,"ĠSher":6763,"Ġgod":6764,"Ġsore":6765,"Ġpean":6766,"ĠCath":6767,"Ġblade":6768,"Ġchap":6769,"Ġbugs":6770,"Ġopin":6771,"Ġactions":6772,"ĠKen":6773,"Ġelab":6774,"Ġjoked":6775,"Ġtops":6776,"arents":6777,"Ġresult":6778,"ĠYes":6779,"Ġcrim":6780,"Ġinstit":6781,"Ġlayer":6782,"Ġrubbing":6783,"Ġprogress":6784,"Ġexplan":6785,"Ġcoats":6786,"ĠSims":6787,"Ġreceive":6788,"Ġrelief":6789,"Ġstatement":6790,"Ġhorrified":6791,"Ġbooths":6792,"Ġtasted":6793,"ĠPatrick":6794,"Ġunsure":6795,"Ġweapon":6796,"Ġexhibit":6797,"Ġenormous":6798,"16":6799,"As":6800,"eu":6801,"lers":6802,"nies":6803,"pre":6804,"ĠInt":6805,"Ġlame":6806,"anne":6807,"ida":6808,"Ġumb":6809,"ĠArea":6810,"Ġplu":6811,"Ġsuff":6812,"Ġoverw":6813,"Ġoverfl":6814,"ĠEarth":6815,"Ġspit":6816,"ĠFishing":6817,"ĠRock":6818,"Ġpockets":6819,"Ġunless":6820,"Ġswitched":6821,"covered":6822,"aker":6823,"Ġbuses":6824,"Ġgrave":6825,"Ġgrabbing":6826,"pleasant":6827,"Ġenth":6828,"Ġstepping":6829,"Ġfunction":6830,"Ġretard":6831,"Ġretrie":6832,"---":6833,"Ġvisited":6834,"Ġtrous":6835,"Ġmission":6836,"Ġcurve":6837,"Ġsubst":6838,"Ġsuburb":6839,"Ġfreezer":6840,"Ġforehead":6841,"Ġdiscussed":6842,"Ġmedium":6843,"ĠBlood":6844,"Ġcowork":6845,"Ġdigging":6846,"ĠCapt":6847,"ĠWarcraft":6848,"ĠBradley":6849,"Ġskills":6850,"Ġsquirrel":6851,"Ġpoured":6852,"Ġirritated":6853,"25":6854,"Me":6855,"OR":6856,"One":6857,"hlet":6858,"Ġwing":6859,"Ġwid":6860,"Ġsire":6861,"Ġbrand":6862,"Ġfant":6863,"Ġlace":6864,"omin":6865,"orting":6866,"Ġsew":6867,"rof":6868,"ĠBible":6869,"Ġspag":6870,"ĠLove":6871,"Ġbucket":6872,"ĠRalph":6873,"ildren":6874,"ĠGood":6875,"Ġwrist":6876,"Ġ23":6877,"Ġthanked":6878,"Ġnightmare":6879,"Ġalongside":6880,"Ġrecords":6881,"Ġswims":6882,"Ġmessages":6883,"Ġbelieved":6884,"Ġspecif":6885,"Ġtests":6886,"ĠNobody":6887,"Ġpanel":6888,"Ġpanicked":6889,"Ġmonitor":6890,"Ġcollaps":6891,"Ġbelongs":6892,"Ġmaternal":6893,"Ġsurrounding":6894,"roph":6895,"Ġreplaced":6896,"Ġerrand":6897,"Ġaccompan":6898,"Ġadvantage":6899,"Ġmentally":6900,"Ġmillion":6901,"Ġstatue":6902,"Ġreleased":6903,"Ġreaction":6904,"Ġchoir":6905,"Ġreluctantly":6906,"Ġmultip":6907,"Ġhurriedly":6908,"Ġissue":6909,"hetti":6910,"Ġcrocod":6911,"Ġgloves":6912,"Ġlonely":6913,"Ġsiblings":6914,"Ġumbrell":6915,"Ġspaghetti":6916,"Maybe":6917,"ixt":6918,"nold":6919,"yss":6920,"Ġbound":6921,"Ġbroom":6922,"Ġmice":6923,"Ġwaving":6924,"Ġcakes":6925,"Ġdump":6926,"Ġlucid":6927,"Ġge":6928,"idly":6929,"ĠTH":6930,"Ġredd":6931,"oops":6932,"Ġwhist":6933,"asper":6934,"ĠMod":6935,"Ġintention":6936,"ĠBeth":6937,"eps":6938,"ĠNone":6939,"Ġvalley":6940,"Ġsmash":6941,"ĠLittle":6942,"ĠLee":6943,"uding":6944,"umer":6945,"auc":6946,"ĠSomewhere":6947,"Ġfinishing":6948,"Ġshade":6949,"Ġ21":6950,"Ġlightly":6951,"ĠUp":6952,"Ġevidence":6953,"Ġlandl":6954,"Ġexplains":6955,"ucking":6956,"Ġarriving":6957,"Ġterror":6958,"ĠBrother":6959,"Ġpushes":6960,"Ġpause":6961,"Ġinsurance":6962,"Ġelectron":6963,"Ġvibr":6964,"Ġcereal":6965,"Ġpounds":6966,"Ġdesperate":6967,"ĠRussian":6968,"Ġrepresent":6969,"Ġspinning":6970,"Ġfocus":6971,"cellent":6972,"Ġhorizont":6973,"Ġexploded":6974,"Ġcotton":6975,"Ġfeatures":6976,"Ġtitle":6977,"Ġimpatient":6978,"Ġintellig":6979,"Ġholiday":6980,"ĠAutumn":6981,"60":6982,"Hi":6983,"nah":6984,"Ġtoe":6985,"erly":6986,"Ġlas":6987,"Ġpine":6988,"Ġheav":6989,"Ġbeating":6990,"Ġmyster":6991,"vering":6992,"verse":6993,"alog":6994,"ĠHal":6995,"ĠHil":6996,"Ġclown":6997,"Ġdownlo":6998,"ends":6999,"ĠCreek":7000,"Ġworst":7001,"Ġgum":7002,"Ġspark":7003,"Ġmob":7004,"icky":7005,"ĠLong":7006,"Ġchin":7007,"Ġhandful":7008,"ĠGold":7009,"Ġunw":7010,"ĠKar":7011,"ĠKate":7012,"Ġshamp":7013,"Ġsleepy":7014,"Ġparall":7015,"Ġcolumn":7016,"Ġcraft":7017,"ciety":7018,"ĠYoung":7019,"Ġelevators":7020,"ĠBrit":7021,"Ġarticles":7022,"Ġdeliber":7023,"Ġbarefoot":7024,"ĠMelissa":7025,"Ġcollecting":7026,"Ġviolent":7027,"Ġhonest":7028,"Ġskiing":7029,"Ġintimate":7030,"Ġtransport":7031,"Ġfiance":7032,"ĠResort":7033,"Ġridiculous":7034,"Ġshampoo":7035,"Mary":7036,"St":7037,"Two":7038,"corn":7039,"lie":7040,"Ġfav":7041,"Ġgross":7042,"Ġheels":7043,"atically":7044,"ayton":7045,"Ġease":7046,"ĠSan":7047,"Ġangel":7048,"Ġouter":7049,"Ġwhirl":7050,"ĠHaw":7051,"ĠMac":7052,"tery":7053,"Ġroses":7054,"Ġneare":7055,"Ġjelly":7056,"Ġplug":7057,"unately":7058,"cakes":7059,"anda":7060,"ands":7061,"Ġconven":7062,"Ġremote":7063,"Ġblur":7064,"ĠJenny":7065,"pted":7066,"ĠLook":7067,"Ġqueen":7068,"avey":7069,"Ġunpleasant":7070,"ears":7071,"Ġswirl":7072,"Ġsword":7073,"Ġdifferently":7074,"Ġdrum":7075,"Ġsupplies":7076,"Ġhallways":7077,"Ġnicely":7078,"Ġcleaner":7079,"Ġ45":7080,"ĠCharles":7081,"Ġscare":7082,"Ġcurved":7083,"Ġextended":7084,"chal":7085,"Ġdiving":7086,"Ġbrain":7087,"ography":7088,"Ġfolding":7089,"Ġurine":7090,"Ġburnt":7091,"Ġtightly":7092,"Ġpaintings":7093,"Ġkitty":7094,"Ġemotional":7095,"Ġspiritual":7096,"Ġgraduate":7097,"Ġribb":7098,"100":7099,"Wait":7100,"bet":7101,"cat":7102,"cceed":7103,"dra":7104,"iat":7105,"parents":7106,"rot":7107,"Ġwre":7108,"Ġtouc":7109,"Ġhammer":7110,"Ġstere":7111,"Ġrug":7112,"story":7113,"Ġjet":7114,"Ġalb":7115,"Ġsucceed":7116,"oles":7117,"Ġsport":7118,"Ġspoon":7119,"Ġvom":7120,"Ġvent":7121,"Ġchip":7122,"Ġcough":7123,"Ġhomework":7124,"Ġdisag":7125,"Ġappla":7126,"Ġstreetcar":7127,"Ġvision":7128,"teen":7129,"ĠFranc":7130,"Ġsandy":7131,"Ġgirlfriends":7132,"Ġexplode":7133,"ĠBarry":7134,"Ġcellar":7135,"Ġgreeted":7136,"Ġcustomer":7137,"Ġnonchal":7138,"Ġassigned":7139,"Ġcorners":7140,"Ġpowers":7141,"Ġsatisfied":7142,"Ġexcitement":7143,"Ġelaborate":7144,"Ġreddish":7145,"Ġtouches":7146,"Am":7147,"bit":7148,"rors":7149,"Ġthera":7150,"Ġcri":7151,"Ġcush":7152,"Ġdy":7153,"Ġlanes":7154,"Ġgap":7155,"ority":7156,"ĠTime":7157,"icip":7158,"alking":7159,"ston":7160,"ĠMag":7161,"Ġlikely":7162,"rage":7163,"eler":7164,"ilities":7165,"Ġtap":7166,"Ġsucked":7167,"ula":7168,"essed":7169,"ĠFlor":7170,"ĠLa":7171,"Ġcode":7172,"Ġquiz":7173,"ello":7174,"Ġslips":7175,"Ġrealizes":7176,"inton":7177,"Ġfond":7178,"Ġdaylight":7179,"Ġemp":7180,"Ġmovements":7181,"Ġdragging":7182,"Ġcreating":7183,"Ġowners":7184,"Ġwarned":7185,"okemon":7186,"Ġpleasure":7187,"cloth":7188,"ograp":7189,"Ġengage":7190,"Ġorganizing":7191,"Ġpopcorn":7192,"Ġsupervisor":7193,"Ġcounsel":7194,"Ġdivided":7195,"Ġactivities":7196,"Ġdisability":7197,"Ġpersu":7198,"Ġreluctant":7199,"Ġcritic":7200,"Ġthrilled":7201,"Ġpajamas":7202,"Ġjunior":7203,"Ġtrousers":7204,"ON":7205,"don":7206,"vas":7207,"inch":7208,"Ġsour":7209,"Ġwandered":7210,"omed":7211,"Ġink":7212,"arian":7213,"ĠTra":7214,"acle":7215,"Ġtag":7216,"Ġtapes":7217,"Ġmaneu":7218,"ĠDream":7219,"ulated":7220,"Ġblocking":7221,"ĠLask":7222,"Ġque":7223,"Ġworker":7224,"Ġnights":7225,"Ġclothed":7226,"ĠVirgin":7227,"Ġadvent":7228,"Ġhurts":7229,"Ġembarrassing":7230,"Ġquestioning":7231,"Ġbloody":7232,"loe":7233,"Ġflowing":7234,"Ġstrips":7235,"Ġmixer":7236,"Ġhumor":7237,"Ġsneaking":7238,"Howard":7239,"Ġdisgusting":7240,"Ġcounseling":7241,"ĠGermany":7242,"ĠMillie":7243,"Ġfeeding":7244,"Ġghosts":7245,"Ġjournal":7246,"Ġdeserted":7247,"Ġgraduated":7248,"Ġcuddle":7249,"Ġbulb":7250,"Ġweapons":7251,"Ġreferring":7252,"Ġsarcastic":7253,"Ġsequence":7254,"ĠHelen":7255,"ĠSAID":7256,"ĠReynaldo":7257,"Ġoverwhel":7258,"ED":7259,"husband":7260,"iation":7261,"vale":7262,"xim":7263,"Ġid":7264,"ĠIzzy":7265,"Ġmas":7266,"Ġfences":7267,"isc":7268,"lling":7269,"ĠTiana":7270,"Ġsting":7271,"ament":7272,"stage":7273,"Ġathlet":7274,"ĠSal":7275,"ĠSol":7276,"arted":7277,"Ġrocking":7278,"Ġintri":7279,"Ġdear":7280,"Ġexcellent":7281,"ĠEast":7282,"ĠJam":7283,"Ġbubble":7284,"Ġcoin":7285,"Ġcoaster":7286,"Ġcollection":7287,"ĠRa":7288,"rue":7289,"ĠGl":7290,"odd":7291,"Ġswamp":7292,"Ġappli":7293,"Ġtrains":7294,"ĠKay":7295,"Ġcontent":7296,"rison":7297,"Ġbarrel":7298,"Ġpatch":7299,"jected":7300,"pective":7301,"Ġinsisted":7302,"Ġprize":7303,"Ġcookie":7304,"Ġillness":7305,"Ġadmin":7306,"Ġamazing":7307,"Ġteenagers":7308,"Ġshark":7309,"althy":7310,"Ġsmelled":7311,"Ġbumped":7312,"berries":7313,"Ġattendant":7314,"Ġconsciousness":7315,"Ġdusty":7316,"Ġflashlight":7317,"Ġmicroph":7318,"Ġpotato":7319,"Ġquality":7320,"Ġsenior":7321,"Ġchoosing":7322,"ĠJensen":7323,"Ġhamburger":7324,"Ġsympathetic":7325,"Ġmushroom":7326,"Ġspecifically":7327,"ĠHawai":7328,"ĠLasko":7329,"bor":7330,"van":7331,"Ġske":7332,"Ġsung":7333,"ĠID":7334,"reen":7335,"hamed":7336,"eness":7337,"Ġnumer":7338,"Ġbeads":7339,"Ġeager":7340,"alie":7341,"Ġashamed":7342,"asium":7343,"ĠCR":7344,"Ġtear":7345,"olk":7346,"Ġflies":7347,"ĠJess":7348,"ĠOld":7349,"ĠOff":7350,"Ġbund":7351,"Ġcoal":7352,"ĠPokemon":7353,"Ġpoet":7354,"Ġplayful":7355,"Ġdeciding":7356,"Ġfloated":7357,"Ġyoungest":7358,"Ġperp":7359,"weight":7360,"ondon":7361,"Ġwarning":7362,"cience":7363,"ĠBeat":7364,"ological":7365,"Ġindust":7366,"Ġlocks":7367,"Ġapproaches":7368,"Ġ70":7369,"Ġstronger":7370,"Ġcosts":7371,"Ġtraveled":7372,"Ġstrike":7373,"Ġnewspapers":7374,"Ġearthqu":7375,"Ġrented":7376,"ĠMcDyss":7377,"Ġmilling":7378,"Ġlandscape":7379,"Ġmasturbating":7380,"Ġsprink":7381,"Ġoccupied":7382,"Ġdoubt":7383,"Ġgymnasium":7384,"Ġaltar":7385,"ĠClassmate":7386,"Ġsettled":7387,"market":7388,"Ġexplanation":7389,"Ġparallel":7390,"ĠFlorida":7391,"Cal":7392,"ded":7393,"uel":7394,"Ġsack":7395,"Ġcy":7396,"Ġcate":7397,"ednes":7398,"Ġdug":7399,"Ġlamp":7400,"Ġlining":7401,"ories":7402,"oted":7403,"ĠTigger":7404,"Ġnarr":7405,"usi":7406,"Ġrag":7407,"ima":7408,"herty":7409,"opes":7410,"Ġsafer":7411,"Ġjer":7412,"unn":7413,"ceased":7414,"Ġclip":7415,"Ġintent":7416,"ĠBus":7417,"ĠBru":7418,"ĠCeline":7419,"Ġcarved":7420,"ulation":7421,"istration":7422,"ĠLiz":7423,"umin":7424,"Ġprove":7425,"Ġneeding":7426,"Ġlett":7427,"Ġsnap":7428,"Ġmarble":7429,"Ġcuts":7430,"Ġdragon":7431,"Ġtrial":7432,"angled":7433,"ĠAfterwards":7434,"Ġideas":7435,"Ġwinning":7436,"Ġdiaper":7437,"Ġdelay":7438,"Ġcapture":7439,"Ġuniforms":7440,"Ġawaken":7441,"ĠJulie":7442,"Ġhyp":7443,"Ġvampires":7444,"****************":7445,"ĠDisney":7446,"Ġdestroyed":7447,"ĠCatholic":7448,"ednesday":7449,"!!":7450,"Get":7451,"away":7452,"iams":7453,"sday":7454,"wor":7455,"Ġax":7456,"inter":7457,"itation":7458,"ota":7459,"otion":7460,"Ġnipp":7461,"Ġnails":7462,"Ġracks":7463,"amped":7464,"iron":7465,"ĠHacker":7466,"ĠMir":7467,"Ġability":7468,"Ġallig":7469,"ĠDV":7470,"ĠEthan":7471,"ĠAndrea":7472,"Ġspiders":7473,"Ġblast":7474,"Ġblah":7475,"ĠFord":7476,"ĠRol":7477,"Ġslot":7478,"oyd":7479,"Ġleaf":7480,"Ġimpro":7481,"Ġtriang":7482,"ucky":7483,"ĠBrown":7484,"Ġcopies":7485,"Ġexpression":7486,"ĠChristian":7487,"Ġexamine":7488,"umble":7489,"Ġmixing":7490,"Ġcrystal":7491,"ĠElaine":7492,"ĠJean":7493,"Ġentirely":7494,"Ġanticip":7495,"Ġsensation":7496,"Ġoriginally":7497,"ĠHillary":7498,"alyzed":7499,"ĠDougherty":7500,"Ġbikes":7501,"ĠHannah":7502,"ĠGranma":7503,"Ġfrequently":7504,"Ġlesbian":7505,"ĠMidvale":7506,"22":7507,"OW":7508,"books":7509,"eed":7510,"jo":7511,"ka":7512,"made":7513,"Ġaqu":7514,"Ġsch":7515,"Ġsons":7516,"Ġought":7517,"Ġbik":7518,"Ġborder":7519,"Ġtools":7520,"Ġfuck":7521,"Ġlun":7522,"adition":7523,"Ġupright":7524,"Ġdozen":7525,"ĠWhe":7526,"ĠMax":7527,"Ġknives":7528,"unny":7529,"andro":7530,"Ġthous":7531,"Ġmold":7532,"Ġflame":7533,"ĠJes":7534,"ĠFox":7535,"ĠPA":7536,"Ġdrivers":7537,"ĠGra":7538,"Ġattacking":7539,"gger":7540,"Ġskates":7541,"ĠChloe":7542,"Ġeleg":7543,"Ġimpress":7544,"Ġwooded":7545,"ivil":7546,"Ġfires":7547,"Ġpatter":7548,"Ġassume":7549,"Ġcommitt":7550,"Ġtwenty":7551,"Ġgrandpa":7552,"Ġ90":7553,"ĠNeil":7554,"Ġaddition":7555,"Ġfreaked":7556,"Ġstriped":7557,"Ġsoftly":7558,"Ġdefend":7559,"Ġ???.":7560,"Ġperforming":7561,"Ġ____________":7562,"Ġindicating":7563,"Ġcracked":7564,"Ġpuzzled":7565,"Ġducked":7566,"Ġarrangements":7567,"Ġtarget":7568,"ALLY":7569,"Ġwriter":7570,"Ġdelighted":7571,"Ġnumerous":7572,"Our":7573,"With":7574,"dge":7575,"ij":7576,"iest":7577,"ki":7578,"pret":7579,"rated":7580,"uish":7581,"hell":7582,"Ġsam":7583,"Ġbust":7584,"Ġfaint":7585,"Ġdated":7586,"Ġpairs":7587,"Ġweb":7588,"ĠThing":7589,"Ġstared":7590,"Ġstocking":7591,"ĠHu":7592,"Ġfrost":7593,"Ġfrantic":7594,"robably":7595,"Ġdownhill":7596,"ckles":7597,"ĠDonald":7598,"Ġcane":7599,"ĠEither":7600,"ĠLast":7601,"Ġlover":7602,"Ġagency":7603,"aby":7604,"Ġpartition":7605,"pered":7606,"Ġbrides":7607,"Ġdrift":7608,"osexual":7609,"Ġenv":7610,"Ġwrink":7611,"Ġgraph":7612,"ĠVW":7613,"Ġembr":7614,"ĠBeck":7615,"Ġsnowy":7616,"ĠMarian":7617,"Ġrecalled":7618,"why":7619,"ĠFrance":7620,"umpy":7621,"Ġinstrument":7622,"uesday":7623,"ĠShort":7624,"Ġmaterials":7625,"Ġviolin":7626,"Ġmassive":7627,"Ġshrug":7628,"Ġstacked":7629,"Ġtemper":7630,"ĠPalmer":7631,"Ġsuspected":7632,"Ġshells":7633,"Ġadvertise":7634,"Ġtreatment":7635,"Ġbeneath":7636,"Ġchallenge":7637,"Ġankle":7638,"Ġfalse":7639,"Ġopinion":7640,"Ġlettuce":7641,"ĠDVD":7642,"07":7643,"EN":7644,"dling":7645,"iology":7646,"jandro":7647,"mun":7648,"rack":7649,"sc":7650,"vated":7651,"Ġvel":7652,"Ġtid":7653,"Ġmate":7654,"Ġcooked":7655,"erved":7656,"iser":7657,"Ġpens":7658,"Ġinapp":7659,"lled":7660,"ĠTere":7661,"ĠTech":7662,"Ġnine":7663,"acon":7664,"ential":7665,"ĠAaron":7666,"ural":7667,"ĠHunt":7668,"ĠWednesday":7669,"Ġsaving":7670,"Ġleak":7671,"ĠBell":7672,"Ġmanip":7673,"ĠDave":7674,"olks":7675,"ĠRisk":7676,"ĠPol":7677,"Ġpoke":7678,"Ġpoking":7679,"Ġbrid":7680,"Ġbricks":7681,"Ġarrested":7682,"ĠThough":7683,"Ġslipping":7684,"Ġstumb":7685,"Ġstress":7686,"ĠAsh":7687,"Ġtopic":7688,"Ġclearing":7689,"Ġ35":7690,"Ġmarch":7691,"Ġcrashing":7692,"Ġcaress":7693,"Ġsteady":7694,"Ġaccused":7695,"Ġfarmer":7696,"Ġpolicemen":7697,"ĠPeavey":7698,"Ġbroad":7699,"Ġmatches":7700,"Ġchecks":7701,"Ġlockers":7702,"Ġattraction":7703,"Ġunconscious":7704,"Ġprepar":7705,"ĠArchie":7706,"Ġcomplains":7707,"ĠZe":7708,"Ġofficers":7709,"ĠWillie":7710,"Ġgenital":7711,"Ġprojects":7712,"Ġbothering":7713,"ylan":7714,"Ġmidget":7715,"Ġliquor":7716,"Ġvalu":7717,"Ġpunched":7718,"Ġbunny":7719,"Ġissues":7720,"Ġrepeatedly":7721,"Ġbatteries":7722,"Ġrehearsal":7723,"ĠPresident":7724,"Ġslippery":7725,"Ġassembly":7726,"Ġturtle":7727,"ĠLori":7728,"ĠFrancis":7729,"Ġintrigu":7730,"Ar":7731,"Good":7732,"gment":7733,"inne":7734,"Ġfest":7735,"Ġfasc":7736,"Ġda":7737,"Ġgoof":7738,"Ġhooked":7739,"Ġthunder":7740,"lend":7741,"Ġmerely":7742,"Ġrip":7743,"Ġraces":7744,"alls":7745,"ĠWood":7746,"outs":7747,"ĠBost":7748,"Ġboom":7749,"Ġspare":7750,"ĠNear":7751,"ĠJock":7752,"Ġvict":7753,"ĠLondon":7754,"Ġcoff":7755,"ilding":7756,"Ġchief":7757,"Ġparties":7758,"ivered":7759,"Ġscient":7760,"Ġdisgu":7761,"Ġhelpless":7762,"Ġtradition":7763,"Ġstays":7764,"ĠVince":7765,"Ġaward":7766,"Ġsteak":7767,"Ġmeth":7768,"tenance":7769,"Ġcaut":7770,"Ġmaintenance":7771,"Ġinvolves":7772,"Ġsilk":7773,"Ġlocking":7774,"Ġorganization":7775,"Ġignoring":7776,"Ġjeep":7777,"Ġnurses":7778,"Ġpopular":7779,"Ġrushes":7780,"Ġcasually":7781,"Ġsending":7782,"Ġrobes":7783,"Ġstatues":7784,"Ġdiamond":7785,"Ġarrangement":7786,"ĠAlejandro":7787,"Ġgrateful":7788,"Ġenthusi":7789,"Ġsubstance":7790,"Ġumbrella":7791,"ĠHilary":7792,"Ġfavour":7793,"Ġmicrophone":7794,"Calvin":7795,"ĠBoston":7796,"ET":7797,"dri":7798,"iven":7799,"uana":7800,"vet":7801,"Ġtesting":7802,"nders":7803,"Ġmile":7804,"Ġpace":7805,"Ġhip":7806,"Ġhay":7807,"Ġstir":7808,"Ġstamps":7809,"keep":7810,"Ġuphill":7811,"ursion":7812,"Ġplus":7813,"Ġplump":7814,"Ġknob":7815,"ĠBra":7816,"ĠCec":7817,"Ġteens":7818,"ĠDylan":7819,"icken":7820,"uded":7821,"ago":7822,"Ġpron":7823,"Ġapples":7824,"Ġthanks":7825,"Ġstored":7826,"rence":7827,"Ġdarkness":7828,"Ġrecent":7829,"Ġresent":7830,"Ġmarks":7831,"Ġdistra":7832,"Ġexcursion":7833,"Ġstrand":7834,"askets":7835,"Ġsnowing":7836,"Ġteams":7837,"Ġsentence":7838,"ĠClark":7839,"ĠMelvin":7840,"ĠWilliams":7841,"Ġposted":7842,"Ġobserv":7843,"Ġconstantly":7844,"Ġmailbox":7845,"ĠRobin":7846,"Ġfrightening":7847,"ĠDaniel":7848,"Ġsensual":7849,"asmine":7850,"Ġremained":7851,"ĠEmily":7852,"ĠNathan":7853,"Ġcorridors":7854,"Ġrelease":7855,"Ġlatter":7856,"Ġmicrow":7857,"Ġverb":7858,"Ġfailed":7859,"Ġfirmly":7860,"Ġfragment":7861,"Ġarrows":7862,"ĠFarrah":7863,"ĠThursday":7864,"Ġgrip":7865,"Ġrazor":7866,"ĠBruce":7867,"ĠRoland":7868,"Ġcommittee":7869,"Sh":7870,"born":7871,"fact":7872,"loyd":7873,"mond":7874,"ups":7875,"whe":7876,"Ġaverage":7877,"Ġopt":7878,"Ġmount":7879,"Ġtoes":7880,"Ġtodd":7881,"Ġfought":7882,"Ġfaced":7883,"Ġpave":7884,"Ġinfected":7885,"ĠTuesday":7886,"Ġbeans":7887,"ĠAre":7888,"ĠMa":7889,"Ġotherwise":7890,"ittens":7891,"Ġnod":7892,"Ġopera":7893,"ĠGreek":7894,"coat":7895,"Ġhockey":7896,"Ġwindy":7897,"Ġbites":7898,"ĠChic":7899,"Ġbookstore":7900,"Ġsquish":7901,"Ġnotices":7902,"ĠAllen":7903,"Ġcommitted":7904,"Ġdisappro":7905,"ĠUnited":7906,"ombs":7907,"Ġinsists":7908,"Ġteammate":7909,"Ġwrapping":7910,"ĠDorothy":7911,"Ġbelongings":7912,"Ġlabor":7913,"Ġrecorded":7914,"Ġdirecting":7915,"Ġaisles":7916,"Ġtunnels":7917,"Ġsupermarket":7918,"Ġbanquet":7919,"Ġrearran":7920,"rolled":7921,"Ġblinds":7922,"Ġspraying":7923,"Ġpersonality":7924,"Ġroutine":7925,"Ġvegetables":7926,"Ġpews":7927,"ĠTeavor":7928,"ĠTerri":7929,"ĠPolly":7930,"Ġduty":7931,"Ġmultiple":7932,"ĠModern":7933,"Ġdistraught":7934,"!'":7935,"Matt":7936,"XX":7937,"des":7938,"gown":7939,"nical":7940,"pit":7941,"tain":7942,"ugg":7943,"vonne":7944,"writ":7945,"zard":7946,"Ġtil":7947,"Ġsinking":7948,"Ġwax":7949,"Ġdash":7950,"Ġdawn":7951,"organ":7952,"Ġweeds":7953,"Ġheck":7954,"ĠTina":7955,"icular":7956,"Ġrig":7957,"Ġropes":7958,"ĠAir":7959,"Ġancient":7960,"ĠMild":7961,"Ġyarn":7962,"Ġrobb":7963,"Ġcancer":7964,"ĠJu":7965,"ĠRoy":7966,"Ġprec":7967,"Ġsciss":7968,"Ġhanding":7969,"aky":7970,"Ġshall":7971,"Ġnighttime":7972,"Ġcleared":7973,"Ġdarker":7974,"Ġcorre":7975,"Ġangles":7976,"Ġowns":7977,"Ġconflic":7978,"Ġearrings":7979,"Ġstrings":7980,"Ġpennies":7981,"Ġrounded":7982,"Ġrubbed":7983,"Ġquestioned":7984,"Ġbowls":7985,"Ġexplore":7986,"Ġgradually":7987,"Ġsecretly":7988,"Ġbicycles":7989,"Ġhesitated":7990,"Ġanxiety":7991,"Ġportion":7992,"Ġresponded":7993,"Ġscrap":7994,"Ġhonor":7995,"Ġborrowed":7996,"Ġdisappears":7997,"ĠMartin":7998,"Ġuneasy":7999,"Ġautomatic":8000,"Ġmechanical":8001,"Ġbattery":8002,"Ġstroke":8003,"Ġtransferred":8004,"Ġlipstick":8005,"Ġkidnapped":8006,"Ġretrieve":8007,"ĠVirginia":8008,"aired":8009,"iot":8010,"wind":8011,"word":8012,"yes":8013,"Ġtummy":8014,"Ġcable":8015,"Ġcows":8016,"Ġcott":8017,"Ġfer":8018,"Ġfen":8019,"Ġfuss":8020,"Ġdough":8021,"Ġpred":8022,"Ġpud":8023,"acles":8024,"ste":8025,"rial":8026,"ĠHen":8027,"arts":8028,"Ġabrupt":8029,"Ġsoot":8030,"Ġintend":8031,"ĠSheila":8032,"epend":8033,"ĠDennis":8034,"Ġcanvas":8035,"osure":8036,"Ġflesh":8037,"ĠNelling":8038,"Ġchamp":8039,"ĠLloyd":8040,"ĠRich":8041,"Ġpoem":8042,"Ġplayfully":8043,"Ġunp":8044,"ĠKathy":8045,"Ġelbow":8046,"Ġnightgown":8047,"Ġresol":8048,"Ġparalyzed":8049,"emeter":8050,"ĠViet":8051,"Ġbathrooms":8052,"shield":8053,"Ġlayers":8054,"Ġextension":8055,"Ġbookshe":8056,"Ġsubway":8057,"Ġdeeply":8058,"Ġsecure":8059,"Ġdelivered":8060,"Ġsalt":8061,"Ġtune":8062,"Ġscreams":8063,"Ġrepeating":8064,"velopment":8065,"Ġemotion":8066,"Ġscenery":8067,"Ġscheduled":8068,"Ġmelted":8069,"ĠCanada":8070,"ĠRussia":8071,"Ġmulti":8072,"ĠSupernatural":8073,"Dreamt":8074,"Ġskateboard":8075,"Ġinternet":8076,"lasses":8077,"Ġdetective":8078,"Ġelderly":8079,"Ġliterally":8080,"Ġinstitution":8081,"ironment":8082,"Ġscissors":8083,"ES":8084,"Jo":8085,"berg":8086,"his":8087,"put":8088,"point":8089,"Ġtension":8090,"ini":8091,"erm":8092,"Ġfist":8093,"Ġdrank":8094,"Ġlav":8095,"Ġhut":8096,"ete":8097,"Ġwebs":8098,"Ġheaven":8099,"idering":8100,"ata":8101,"atch":8102,"Ġbeam":8103,"Ġrhy":8104,"ribut":8105,"Ġants":8106,"Ġanaly":8107,"Ġhero":8108,"ĠIts":8109,"Ġcling":8110,"Ġalike":8111,"Ġcomic":8112,"Ġcomfor":8113,"ĠDid":8114,"Ġcany":8115,"Ġexist":8116,"ĠNor":8117,"Ġcolle":8118,"ĠRusty":8119,"abeth":8120,"Ġchor":8121,"Ġscold":8122,"Ġarrog":8123,"Ġsliced":8124,"Ġproced":8125,"Ġprote":8126,"Ġacts":8127,"Ġsketch":8128,"Ġcatalog":8129,"Ġcounted":8130,"azy":8131,"Ġcommit":8132,"Ġmainly":8133,"Ġdepos":8134,"Ġpaths":8135,"ĠSean":8136,"ĠDevelopment":8137,"Ġreceiver":8138,"Ġilleg":8139,"lights":8140,"Ġpassengers":8141,"Ġsemester":8142,"Ġtubes":8143,"Ġportable":8144,"Ġundressed":8145,"Ġemotionally":8146,"Ġhiking":8147,"Ġprayer":8148,"Ġspaceship":8149,"Ġappreciate":8150,"Ġmurdere":8151,"Ġremodeled":8152,"Ġcrouched":8153,"Ġchubby":8154,"Ġnecklace":8155,"ĠSpaceman":8156,"Ġcollapsed":8157,"Ġdeliberately":8158,"Ġribbon":8159,"Ġcounselors":8160,"ĠBeatles":8161,"Ġenvironment":8162,"Ġcoffin":8163,"Ġmicrowave":8164,"Ġpavement":8165,"ĠMildred":8166,"emetery":8167,"aving":8168,"lines":8169,"run":8170,"Ġtips":8171,"Ġarou":8172,"hest":8173,"resh":8174,"eras":8175,"Ġding":8176,"Ġdang":8177,"omon":8178,"Ġrh":8179,"Ġrats":8180,"seat":8181,"Ġkicking":8182,"ĠMal":8183,"Ġsociety":8184,"Ġroots":8185,"thern":8186,"ĠTheresa":8187,"endicular":8188,"Ġboot":8189,"Ġspook":8190,"Ġblows":8191,"Ġflush":8192,"ĠNoman":8193,"ĠNOT":8194,"ĠJr":8195,"umns":8196,"agger":8197,"Ġslacks":8198,"Ġslices":8199,"Ġprostitute":8200,"Ġwindshield":8201,"Ġshack":8202,"Ġpersons":8203,"ĠAnita":8204,"Ġtricks":8205,"Ġresident":8206,"veland":8207,"Ġcolumns":8208,"apper":8209,"Ġsatin":8210,"Ġballoons":8211,"Ġcourts":8212,"Ġstraps":8213,"Ġcurls":8214,"Ġrefuses":8215,"Ġsadness":8216,"Ġsubmar":8217,"Ġvend":8218,"Ġconsisted":8219,"ĠSpain":8220,"Ġdelicious":8221,"Ġgrandparents":8222,"Ġpositions":8223,"Ġfreed":8224,"Ġmonsters":8225,"Ġsticky":8226,"Ġfilming":8227,"Ġsurroundings":8228,"Ġdisplays":8229,"Ġdisplayed":8230,"Ġoccurs":8231,"Ġcowboy":8232,"Ġgreeting":8233,"Ġperspective":8234,"Ġignores":8235,"Ġdebating":8236,"Ġsalesman":8237,"Ġslammed":8238,"Ġaccessible":8239,"Ġspoken":8240,"Ġnicer":8241,"ĠCleveland":8242,"Ġdumped":8243,"Ġcomedy":8244,"Ġtemporarily":8245,"Ġbabysitting":8246,"Ġtomato":8247,"Ġhomosexual":8248,"Ġretarded":8249,"ĠSolomon":8250,"Ġperpendicular":8251,"Ġearthquake":8252,"Ġcateg":8253,"ijuana":8254,"Ġinappropriate":8255,"ĠTerence":8256,"Ġvaluable":8257,"Ġfavourite":8258,"Matthew":8259,"18":8260,"aith":8261,"cular":8262,"fish":8263,"good":8264,"iated":8265,"ja":8266,"lene":8267,"non":8268,"Ġted":8269,"Ġaid":8270,"Ġcyl":8271,"Ġcemetery":8272,"Ġfare":8273,"Ġdare":8274,"uted":8275,"esome":8276,"Ġstacks":8277,"Ġmead":8278,"Ġrice":8279,"Ġrare":8280,"Ġrum":8281,"Ġrink":8282,"ĠHot":8283,"ĠWater":8284,"ĠMall":8285,"ĠMil":8286,"ĠMacy":8287,"cting":8288,"Ġovernight":8289,"Ġblues":8290,"ĠFisher":8291,"ĠLu":8292,"ĠLore":8293,"Ġagent":8294,"udge":8295,"agle":8296,"Ġscul":8297,"through":8298,"Ġfox":8299,"Ġappalled":8300,"Ġpict":8301,"Ġwaits":8302,"ĠState":8303,"Ġglove":8304,"Ġclever":8305,"Ġspect":8306,"ĠYams":8307,"Ġcrime":8308,"Ġcrooked":8309,"attoo":8310,"Ġminister":8311,"Ġobl":8312,"These":8313,"Ġmuscles":8314,"Ġsadly":8315,"ĠMarg":8316,"Ġescaping":8317,"Ġ80":8318,"Ġincline":8319,"Ġexams":8320,"Ġcontaining":8321,"Ġharass":8322,"Ġpops":8323,"Ġelectrical":8324,"ĠSanders":8325,"ĠShir":8326,"Ġ_______":8327,"Ġdamaged":8328,"Ġshades":8329,"Ġlovingly":8330,"Ġproduct":8331,"Ġproducts":8332,"Ġbombs":8333,"going":8334,"Ġbellige":8335,"ĠCafe":8336,"Ġannounced":8337,"Ġinitial":8338,"Ġgesture":8339,"ĠParis":8340,"Ġinnocent":8341,"ĠAnth":8342,"ĠArab":8343,"ĠThings":8344,"ĠTechnical":8345,"Ġbelligerent":8346,"burn":8347,"dle":8348,"ev":8349,"fire":8350,"giving":8351,"home":8352,"hole":8353,"onder":8354,"paper":8355,"sort":8356,"west":8357,"water":8358,"yeah":8359,"Ġwishes":8360,"incess":8361,"Ġsinks":8362,"Ġbaked":8363,"Ġcone":8364,"Ġcivil":8365,"Ġfauc":8366,"arf":8367,"Ġwealthy":8368,"ĠTre":8369,"ĠTex":8370,"Ġnuts":8371,"Ġseve":8372,"ĠSub":8373,"ĠHad":8374,"Ġlemon":8375,"Ġbackward":8376,"ĠDion":8377,"ulating":8378,"ĠNic":8379,"ĠNight":8380,"ĠJac":8381,"ĠLife":8382,"odes":8383,"Ġfoam":8384,"Ġstandard":8385,"ferent":8386,"Ġwinding":8387,"Ġphones":8388,"ĠKenny":8389,"Ġshaft":8390,"Ġjoins":8391,"Ġchewing":8392,"Ġfriendship":8393,"Ġperman":8394,"Ġsnack":8395,"Ġmarijuana":8396,"Ġmoments":8397,"itcher":8398,"Ġhears":8399,"ountry":8400,"ankment":8401,"ships":8402,"Ġdirected":8403,"Ġhangs":8404,"together":8405,"Ġembankment":8406,"Ġtremend":8407,"Ġpools":8408,"Ġconsidering":8409,"Ġmeantime":8410,"Ġbowling":8411,"Ġsorting":8412,"Ġmirrors":8413,"Ġfolder":8414,"Ġringing":8415,"Ġcloudy":8416,"Ġcalmly":8417,"ĠIndians":8418,"Ġeffects":8419,"Ġlimp":8420,"Ġscrewed":8421,"Ġindicate":8422,"iami":8423,"Ġcuddling":8424,"ĠPalin":8425,"Ġparticipate":8426,"Ġdevil":8427,"Ġcongreg":8428,"Ġscarf":8429,"ĠPete":8430,"Ġsweeping":8431,"Ġfeathers":8432,"iques":8433,"Ġejaculate":8434,"Ġcoworker":8435,"ĠCaptain":8436,"ĠJesus":8437,"Ġpatterns":8438,"Ġintrigued":8439,"Ġtoddler":8440,"writer":8441,"24":8442,"Al":8443,"CA":8444,"Hel":8445,"apt":8446,"bra":8447,"gage":8448,"ipt":8449,"mod":8450,"ok":8451,"pass":8452,"pany":8453,"sive":8454,"inating":8455,"Ġsized":8456,"Ġoct":8457,"Ġmal":8458,"Ġmort":8459,"Ġmild":8460,"Ġmumb":8461,"Ġcul":8462,"Ġder":8463,"omi":8464,"Ġpins":8465,"aries":8466,"ĠTar":8467,"lease":8468,"usic":8469,"ushes":8470,"Ġrick":8471,"Ġreverse":8472,"Ġsear":8473,"ĠSon":8474,"ĠSure":8475,"ĠMiami":8476,"ĠHector":8477,"Ġampl":8478,"Ġbackstage":8479,"Ġalumin":8480,"ĠCat":8481,"Ġtease":8482,"ĠDri":8483,"orted":8484,"ortion":8485,"oline":8486,"Ġanyhow":8487,"ĠFriend":8488,"ĠLooking":8489,"Ġbrass":8490,"Ġprecar":8491,"Ġhomeless":8492,"cover":8493,"ishment":8494,"ĠKend":8495,"Ġmenu":8496,"Ġmarching":8497,"Ġadop":8498,"Ġeyel":8499,"Ġcreative":8500,"Ġinvites":8501,"Ġaccur":8502,"Ġpoles":8503,"Ġyours":8504,"formed":8505,"Ġbarrier":8506,"pected":8507,"Ġslowed":8508,"ĠBehind":8509,"Ġreprim":8510,"Ġrepaired":8511,"Ġorgans":8512,"Ġruin":8513,"Ġcameras":8514,"Ġporn":8515,"ĠArmy":8516,"Ġlessons":8517,"Ġsorority":8518,"Ġinstruments":8519,"Ġadmitted":8520,"ĠBlack":8521,"Ġprotected":8522,"leton":8523,"ĠSteven":8524,"Ġdisgust":8525,"ourage":8526,"ĠIsland":8527,"Ġrapidly":8528,"Ġgentleman":8529,"Ġelectricity":8530,"Ġcubicle":8531,"Ġexperiences":8532,"Ġgiggling":8533,"Ġwrestling":8534,"ĠMichelle":8535,"ĠNaomi":8536,"Ġchorus":8537,"ĠAnthony":8538,"!)":8539,"dream":8540,"gen":8541,"high":8542,"rad":8543,"turn":8544,"uh":8545,"uary":8546,"was":8547,"yal":8548,"Ġties":8549,"Ġtense":8550,"Ġwolf":8551,"Ġsings":8552,"ĠIr":8553,"eram":8554,"Ġflee":8555,"Ġgroom":8556,"amn":8557,"ĠAstr":8558,"ĠWay":8559,"ophy":8560,"ĠMine":8561,"ĠMiddle":8562,"ifier":8563,"Ġsobbing":8564,"Ġshr":8565,"Ġlect":8566,"Ġbackseat":8567,"Ġclients":8568,"Ġalert":8569,"ĠBook":8570,"Ġtaped":8571,"Ġpeach":8572,"ĠCombs":8573,"ĠDead":8574,"ĠEle":8575,"ĠEuc":8576,"Ġconsp":8577,"izmo":8578,"ĠNan":8579,"Ġvia":8580,"Ġseemingly":8581,"ĠFire":8582,"ĠLo":8583,"Ġbuck":8584,"Ġcouches":8585,"ĠGen":8586,"eller":8587,"Ġslice":8588,"Ġhappiness":8589,"Ġactive":8590,"Ġshaving":8591,"ĠStates":8592,"Ġtract":8593,"Ġrecom":8594,"Ġsnacks":8595,"Ġentries":8596,"Ġleaking":8597,"ĠUt":8598,"Ġconfined":8599,"Ġstrangely":8600,"Ġeduc":8601,"ricia":8602,"Ġaudition":8603,"Ġdrawings":8604,"Ġexamining":8605,"Ġpancakes":8606,"Ġsentences":8607,"door":8608,"Ġfrustration":8609,"ĠReed":8610,"Ġobsc":8611,"Ġspirits":8612,"Ġidentity":8613,"Ġsuspended":8614,"Ġvolume":8615,"ĠCharlene":8616,"ĠAbner":8617,"Ġcrackers":8618,"Ġobserve":8619,"Ġfacial":8620,"Ġnecessarily":8621,"ĠGreg":8622,"Ġrepresented":8623,"Ġdegrees":8624,"Ġassociated":8625,"Ġankles":8626,"Ġpaddle":8627,"Ġaffectionate":8628,"Ġsleeves":8629,"ĠAfrican":8630,"Ġpuddle":8631,"ĠMarshall":8632,"Ġresidue":8633,"ĠElizabeth":8634,"Ġaccompanied":8635,"Ġnearest":8636,"Ġstereo":8637,"ĠJessica":8638,"ĠShortly":8639,"Ġvelvet":8640,"Ġcottage":8641,"Ġrhyth":8642,"Ġprotection":8643,"Ġsubmarine":8644,"Ġsculpt":8645,"Ġrickety":8646,"Ann":8647,"bled":8648,"gle":8649,"nces":8650,"Ġ___":8651,"inse":8652,"Ġbaskets":8653,"Ġcunn":8654,"Ġgorge":8655,"Ġpitcher":8656,"Ġhoney":8657,"Ġthor":8658,"Ġnut":8659,"usk":8660,"icted":8661,"Ġmeas":8662,"sea":8663,"stra":8664,"state":8665,"storm":8666,"Ġliking":8667,"Ġashes":8668,"ĠMen":8669,"ifferent":8670,"elve":8671,"ĠCandy":8672,"igning":8673,"Ġcarries":8674,"ĠLost":8675,"Ġnovel":8676,"Ġlogs":8677,"Ġagitated":8678,"ĠRh":8679,"abelle":8680,"uman":8681,"Ġquad":8682,"airy":8683,"Ġdecl":8684,"earing":8685,"Ġswung":8686,"Ġapprove":8687,"ĠKent":8688,"Ġcontra":8689,"Ġnewborn":8690,"Ġelsewhere":8691,"Ġdaytime":8692,"Ġtablecloth":8693,"Ġdram":8694,"Ġtrade":8695,"bbie":8696,"Ġhitch":8697,"--.":8698,"unted":8699,"Ġbeautifully":8700,"Ġphotograp":8701,"balls":8702,"ilingus":8703,"Ġlouder":8704,"ĠChristine":8705,"Ġinsult":8706,"Ġdances":8707,"ilts":8708,"Ġprotr":8709,"Ġgrades":8710,"Ġpressing":8711,"ification":8712,"Ġdescribed":8713,"Ġteenager":8714,"ĠSandy":8715,"Ġspiral":8716,"Ġselfish":8717,"Ġremains":8718,"Ġshadows":8719,"boyfriend":8720,"ĠJulia":8721,"Ġfacility":8722,"Ġsubjects":8723,"Ġoccasion":8724,"culiar":8725,"Ġtransparent":8726,"Ġscratch":8727,"ĠCorinne":8728,"Ġreferred":8729,"Ġaggressive":8730,"Ġcongrat":8731,"Ġpalm":8732,"Ġincredible":8733,"ĠiP":8734,"Ġpolitical":8735,"Ġmutual":8736,"Ġcluttered":8737,"ĠJewish":8738,"Ġaccording":8739,"Ġlandlord":8740,"ĠBritish":8741,"Ġengagement":8742,"Ġelegant":8743,"ĠHenry":8744,"ĠMargaret":8745,"ĠShirley":8746,"Ġaluminum":8747,"ĠUtah":8748,"Ġcunnilingus":8749,"Se":8750,"aiting":8751,"ugs":8752,"Ġwool":8753,"rels":8754,"Ġbaking":8755,"Ġtool":8756,"itter":8757,"Ġdun":8758,"Ġgru":8759,"Ġgau":8760,"llie":8761,"Ġhaired":8762,"anks":8763,"Ġthirst":8764,"atomy":8765,"usive":8766,"Ġstroll":8767,"Ġstern":8768,"Ġreview":8769,"Ġreference":8770,"aying":8771,"ircle":8772,"Ġwerew":8773,"ĠAh":8774,"ĠWes":8775,"Ġash":8776,"ĠMet":8777,"Ġamused":8778,"ĠBuffy":8779,"Ġpeculiar":8780,"ĠJasmine":8781,"Ġloaf":8782,"ĠRod":8783,"ĠRandy":8784,"Ġchunks":8785,"ĠPot":8786,"Ġhandbag":8787,"ĠGreat":8788,"Ġaffect":8789,"Ġunlock":8790,"thrit":8791,"Ġenvelop":8792,"Ġproof":8793,"akery":8794,"Ġphil":8795,"ĠStud":8796,"Ġkidding":8797,"Ġcrashes":8798,"Ġimpact":8799,"Ġimplying":8800,"atted":8801,"Ġjumper":8802,"Ġinterior":8803,"Ġsquat":8804,"Ġsquirt":8805,"Ġediting":8806,"Ġcurves":8807,"Ġcommotion":8808,"ologist":8809,"Ġtypewriter":8810,"Ġpenny":8811,"Ġcheckout":8812,"ĠChristina":8813,"uffs":8814,"uffed":8815,"Ġpanels":8816,"Ġcollap":8817,"ĠRoad":8818,"ĠClinton":8819,"Ġauto":8820,"Ġcondu":8821,"ienna":8822,"aturally":8823,"Ġdescription":8824,"Ġargued":8825,"Ġbanana":8826,"Ġpromised":8827,"Ġdesigns":8828,"Ġcollected":8829,"Ġcashier":8830,"Ġpinned":8831,"Ġshrugs":8832,"Ġhyster":8833,"Ġintroduces":8834,"Ġsweatshirt":8835,"Ġrotten":8836,"Ġexperienced":8837,"Ġinsects":8838,"Ġpurchase":8839,"Ġservices":8840,"Ġtemporary":8841,"ĠAfrica":8842,"Ġannouncement":8843,"Ġdivorce":8844,"Ġdefec":8845,"Ġacknowledge":8846,"Ġhorizontal":8847,"Ġintelligent":8848,"Ġoverwhelmed":8849,"Ġalligator":8850,"Ġvictim":8851,"Ġmethod":8852,"Ġwebsite":8853,"Ġtremendous":8854,"80":8855,"HP":8856,"Sure":8857,"Un":8858,"gible":8859,"kn":8860,"kins":8861,"lest":8862,"nch":8863,"phew":8864,"spe":8865,"zes":8866,"Ġwishing":8867,"Ġsac":8868,"ĠIm":8869,"nda":8870,"Ġbone":8871,"Ġbitten":8872,"Ġbacon":8873,"Ġcher":8874,"Ġfiring":8875,"Ġgor":8876,"llis":8877,"Ġhipp":8878,"Ġhaird":8879,"ĠTodd":8880,"icate":8881,"Ġrisk":8882,"ayer":8883,"stone":8884,"stru":8885,"ĠSaw":8886,"ĠWas":8887,"ĠWonder":8888,"opher":8889,"Ġnephew":8890,"Ġclin":8891,"ilings":8892,"cake":8893,"ĠBay":8894,"ĠBud":8895,"Ġsuitc":8896,"Ġoffended":8897,"ĠDra":8898,"Ġdeaf":8899,"Ġconce":8900,"Ġflop":8901,"ĠJoy":8902,"itty":8903,"Ġvul":8904,"ĠFre":8905,"Ġnods":8906,"ĠRick":8907,"ĠRita":8908,"pled":8909,"Ġarrest":8910,"Ġslap":8911,"issue":8912,"Ġapplic":8913,"Ġshaved":8914,"Ġranch":8915,"Ġsupply":8916,"ĠAnge":8917,"Ġshove":8918,"Ġskull":8919,"ĠYour":8920,"Ġreads":8921,"Ġdragged":8922,"Ġstudied":8923,"ivity":8924,"Ġfoods":8925,"Ġtyped":8926,"Ġhorn":8927,"Ġcloses":8928,"Ġstrap":8929,"Ġceilings":8930,"ĠMaria":8931,"Ġinsert":8932,"Ġinvolving":8933,"Ġfurnished":8934,"Ġapproxim":8935,"ĠArvonne":8936,"Ġfreight":8937,"Ġfurry":8938,"ĠClayton":8939,"Ġ1950":8940,"Ġdescribing":8941,"Ġdecorative":8942,"Ġbriefcase":8943,"Ġantique":8944,"Ġcarpeted":8945,"Ġhostess":8946,"Ġscrape":8947,"ĠLeon":8948,"Ġresponsibility":8949,"Ġpoisonous":8950,"Ġapprehen":8951,"Ġbasic":8952,"Ġinfo":8953,"Ġdrowned":8954,"Ġdetermine":8955,"Ġimmense":8956,"Ġsarcastically":8957,"ĠClaire":8958,"Ġkneeling":8959,"Ġwhale":8960,"Ġdespite":8961,"Ġwidth":8962,"Ġcrocodile":8963,"Ġheavily":8964,"Ġalbum":8965,"ĠHawaii":8966,"ĠCRHP":8967,"Ġgenitals":8968,"Ġcanyon":8969,"Ġsuitcases":8970,"200":8971,"Bl":8972,"EL":8973,"Sc":8974,"bad":8975,"je":8976,"mic":8977,"mpt":8978,"pen":8979,"por":8980,"inn":8981,"Ġsin":8982,"Ġcass":8983,"Ġcooper":8984,"Ġgain":8985,"Ġpy":8986,"Ġpets":8987,"only":8988,"Ġheap":8989,"idget":8990,"Ġbees":8991,"Ġbeige":8992,"Ġmeals":8993,"ental":8994,"Ġformed":8995,"ĠHay":8996,"Ġaspect":8997,"Ġintending":8998,"Ġaltogether":8999,"ĠCast":9000,"ĠCary":9001,"Ġconcl":9002,"Ġflim":9003,"Ġvest":9004,"istics":9005,"ĠFair":9006,"Ġbuzz":9007,"ĠPad":9008,"Ġpoker":9009,"ĠGet":9010,"ĠThose":9011,"Ġfinanc":9012,"Ġchew":9013,"Ġglue":9014,"Ġglance":9015,"bbly":9016,"ĠVienna":9017,"Ġcared":9018,"Ġfiguring":9019,"obile":9020,"Ġhillside":9021,"Ġeats":9022,"Ġtreasure":9023,"fortunately":9024,"Ġassure":9025,"Ġstations":9026,"Ġindepend":9027,"Ġtwelve":9028,"ĠJohnson":9029,"ĠRoom":9030,"Ġautograph":9031,"Ġcontained":9032,"Ġtort":9033,"Ġavo":9034,"Ġphysics":9035,"ĠMcC":9036,"Ġjackets":9037,"ĠShift":9038,"aleck":9039,"Ġforgetting":9040,"Ġundress":9041,"Ġbumper":9042,"Ġmassage":9043,"Ġmisunder":9044,"Ġcruise":9045,"Ġrandomly":9046,"Ġcelebration":9047,"ĠAmong":9048,"ĠWalter":9049,"Ġscratched":9050,"Ġconnecting":9051,"Ġfixt":9052,"Ġaggra":9053,"Ġdeveloped":9054,"Ġnicke":9055,"Ġincredibly":9056,"Ġprimarily":9057,"ĠEarlier":9058,"Ġwiped":9059,"Ġadventure":9060,"ĠJamie":9061,"Ġadminist":9062,"Ġsunglasses":9063,"ĠCecelia":9064,"John":9065,"Ġmurderer":9066,"Ġspooky":9067,"Ġmeadow":9068,"Ġthorough":9069,");":9070,"14":9071,"Hello":9072,"Mer":9073,"Mar":9074,"Stop":9075,"To":9076,"bird":9077,"front":9078,"oard":9079,"sm":9080,"uits":9081,"xy":9082,"Ġut":9083,"Ġtide":9084,"inis":9085,"ĠII":9086,"Ġbind":9087,"Ġceram":9088,"Ġlens":9089,"Ġgrill":9090,"Ġpetting":9091,"uther":9092,"oting":9093,"Ġniece":9094,"acent":9095,"Ġstain":9096,"keys":9097,"alian":9098,"iration":9099,"sequ":9100,"ĠShow":9101,"cho":9102,"ĠMur":9103,"ifying":9104,"Ġornam":9105,"ustin":9106,"ĠBel":9107,"ĠCome":9108,"Ġuseless":9109,"Ġbol":9110,"oodle":9111,"ateo":9112,"Ġflipped":9113,"ĠNY":9114,"ĠNational":9115,"ĠOver":9116,"essions":9117,"ĠLi":9118,"ĠLaw":9119,"Ġscoop":9120,"ĠGene":9121,"ĠGrove":9122,"ĠThrough":9123,"Ġslit":9124,"Ġswept":9125,"ission":9126,"because":9127,"ĠKrist":9128,".....":9129,"Ġcontem":9130,"Ġcheated":9131,"Ġbitch":9132,"Ġrange":9133,"Ġdrums":9134,"Ġglare":9135,"Ġtramp":9136,"Ġsetup":9137,"Ġperf":9138,"Ġsniff":9139,"Ġparach":9140,"ocks":9141,"Ġcrushed":9142,"Ġsteer":9143,"Ġimprove":9144,"Ġinviting":9145,"Ġtrigger":9146,"Ġcalend":9147,"Ġbaggage":9148,"ĠAlice":9149,"ĠAlbert":9150,"Ġindeed":9151,"chand":9152,"Ġpenet":9153,"Ġcompleted":9154,"Ġexamination":9155,"enneth":9156,"Ġlegal":9157,"Ġnursing":9158,"Ġpetrol":9159,"ĠIndia":9160,"Ġcircus":9161,"Ġthreaten":9162,"ĠElvis":9163,"Ġoperator":9164,"Ġoccurring":9165,"illegible":9166,"Ġepisodes":9167,"Ġwhiskey":9168,"Ġwhispered":9169,"Ġsurvived":9170,"Ġsuccessfully":9171,"Ġsupportive":9172,"Ġnegle":9173,"Ġsqueezed":9174,"Ġencouraging":9175,"Ġalcove":9176,"Ġtossed":9177,"Ġrabbits":9178,"Ġbouncing":9179,"ĠBobby":9180,"Ġrehearsing":9181,"ĠRosalie":9182,"ĠĠĠĠĠĠĠĠĠĠĠĠĠĠĠĠĠĠĠĠĠĠĠĠĠĠĠĠĠĠĠĠ":9183,"Ġoverheard":9184,"Ġindoor":9185,"Ġpeanut":9186,"Ġelectronic":9187,"Ġdisagree":9188,"Ġnonchalantly":9189,"Ġtemperature":9190,"ĠAshley":9191,"Ġdaily":9192,"Ġsquishy":9193,"ĠVietnam":9194,"Ġarrogant":9195,"Ġprocedure":9196,"Ġaroused":9197,"ĠTexas":9198,"Ġtractor":9199,"After":9200,"hot":9201,"pool":9202,"size":9203,"win":9204,"Ã©":9205,"Ġtattoo":9206,"Ġwider":9207,"inished":9208,"inals":9209,"Ġsway":9210,"ĠIM":9211,"Ġbou":9212,"Ġbree":9213,"Ġcris":9214,"Ġcult":9215,"Ġdime":9216,"oud":9217,"Ġlamps":9218,"Ġpoo":9219,"orry":9220,"anitor":9221,"otes":9222,"athan":9223,"Ġstamp":9224,"Ġmeasure":9225,"aye":9226,"immer":9227,"although":9228,"sey":9229,"Ġseed":9230,"ĠSister":9231,"Ġgoat":9232,"Ġforming":9233,"illing":9234,"Ġfemin":9235,"ĠChel":9236,"Ġsucking":9237,"ĠEdd":9238,"Ġflashing":9239,"Ġfluffy":9240,"ĠJud":9241,"Ġvote":9242,"Ġchains":9243,"umably":9244,"ffle":9245,"agne":9246,"Ġdripping":9247,"Ġaffected":9248,"Ġslab":9249,"bee":9250,"Ġfoggy":9251,"Ġappe":9252,"Ġwrites":9253,"Ġcheating":9254,"Ġgrace":9255,"ĠAnatomy":9256,"ĠChina":9257,"Ġinstant":9258,"Ġlayout":9259,"Ġballet":9260,"iverse":9261,"ĠWhit":9262,"Ġcurl":9263,"Ġpacket":9264,"aneously":9265,"Ġdaddy":9266,"retty":9267,"ĠMarc":9268,"ĠMario":9269,"Ġartific":9270,"Ġdept":9271,"ĠNeither":9272,"Ġvideos":9273,"Ġpresented":9274,"Ġstrongly":9275,"Ġorganize":9276,"Ġdefense":9277,"Ġrelationships":9278,"Ġurge":9279,"Ġspeeding":9280,"ĠElise":9281,"Ġidentified":9282,"Ġunclear":9283,"Ġaunts":9284,"Ġvolcan":9285,"Ġproduction":9286,"Ġadjo":9287,"Ġvalue":9288,"Ġautomatically":9289,"Ġsatisf":9290,"ambling":9291,"Ġreassure":9292,"Ġbuddy":9293,"Ġbuddies":9294,"Ġdivorced":9295,"Ġbuffet":9296,"Ġinvestigate":9297,"Ġarchite":9298,"ĠHaley":9299,"Ġlifting":9300,"ĠThanks":9301,"keeper":9302,"Ġillegal":9303,"Ġteddy":9304,"ĠAstrid":9305,"Ġgorgeous":9306,"Ġflimsy":9307,"Ġaggravated":9308,"Ġartificial":9309,"Eugene":9310,"US":9311,"bes":9312,"look":9313,"Ġtro":9314,"Ġtissue":9315,"iner":9316,"Ġbart":9317,"Ġbait":9318,"Ġbakery":9319,"Ġtore":9320,"Ġcages":9321,"Ġdil":9322,"oust":9323,"Ġlick":9324,"Ġhem":9325,"atter":9326,"amily":9327,"hern":9328,"irk":9329,"ĠSur":9330,"ĠScience":9331,"ĠAp":9332,"ĠMusic":9333,"ĠMateo":9334,"Ġaboard":9335,"Ġjig":9336,"Ġjaw":9337,"Ġplacing":9338,"ĠBinky":9339,"ĠCru":9340,"Ġoffering":9341,"ĠDian":9342,"acey":9343,"Ġoverweight":9344,"ulf":9345,"ĠEnt":9346,"izzy":9347,"ĠFe":9348,"ĠLind":9349,"Ġaged":9350,"Ġbru":9351,"iley":9352,"Ġunlike":9353,"Ġrunway":9354,"Ġdisting":9355,"Ġdismiss":9356,"Ġhelmet":9357,"Ġswings":9358,"Ġfog":9359,"Ġbetray":9360,"ourt":9361,"Ġshoved":9362,"______":9363,"Ġrescu":9364,"Ġmaroon":9365,"Ġuseful":9366,"Ġawfully":9367,"Ġawesome":9368,"nedy":9369,"Ġfigur":9370,"Ġinterpret":9371,"Ġvisual":9372,"Ġguessed":9373,"ĠJohnny":9374,"erald":9375,"Ġ75":9376,"ĠJustin":9377,"Ġpillar":9378,"Ġvariety":9379,"cript":9380,"Ġsoftball":9381,"Ġlabel":9382,"Ġslender":9383,"ĠBlue":9384,"Ġburg":9385,"Ġcircum":9386,"Ġdryer":9387,"nox":9388,"Ġoutfits":9389,"ĠPatricia":9390,"Ġrobots":9391,"Ġneatly":9392,"Ġawakening":9393,"Ġscrews":9394,"Ġrequired":9395,"ĠSmall":9396,"Ġfoolish":9397,"Ġvolley":9398,"Another":9399,"Ġhorizon":9400,"Ġvolunteer":9401,"Ġmuffin":9402,"Ġtomatoes":9403,"Ġchapel":9404,"ĠKennedy":9405,"Ġlaser":9406,"Ġcrib":9407,"Ġpersuade":9408,"Ġathletic":9409,"Ġthousands":9410,"ĠChicago":9411,"Ġconflict":9412,"Ġcomforting":9413,"Ġsearched":9414,"ĠFriends":9415,"Ġreprimand":9416,"ĠPotter":9417,"ĠPadaleck":9418,"ĠChelsea":9419,"ĠPadalecki":9420,"75":9421,"CH":9422,"Re":9423,"TI":9424,"Than":9425,"bel":9426,"dad":9427,"lets":9428,"nest":9429,"pants":9430,"piece":9431,"uge":9432,"uction":9433,"Ġicy":9434,"Ġtas":9435,"Ġsout":9436,"Ġcuri":9437,"Ġfiling":9438,"Ġdates":9439,"Ġdots":9440,"Ġpots":9441,"Ġhing":9442,"anas":9443,"Ġnest":9444,"Ġnavy":9445,"Ġsty":9446,"icuous":9447,"Ġseating":9448,"aders":9449,"ĠAli":9450,"ĠAckles":9451,"Ġoutline":9452,"Ġroast":9453,"Ġroyal":9454,"Ġjanitor":9455,"robe":9456,"elson":9457,"Ġplaid":9458,"Ġclay":9459,"Ġalot":9460,"ĠCr":9461,"Ġcarriage":9462,"Ġsum":9463,"ĠDill":9464,"osal":9465,"osity":9466,"Ġblame":9467,"ĠJody":9468,"Ġsitu":9469,"Ġbubbles":9470,"Ġchim":9471,"Ġpartners":9472,"new":9473,"Ġhandwr":9474,"Ġwoken":9475,"Ġstubb":9476,"Ġapparent":9477,"aken":9478,"Ġattach":9479,"ĠKyle":9480,"Ġgren":9481,"Ġblackboard":9482,"Ġgrim":9483,"ĠStan":9484,"Ġglow":9485,"Ġdarkroom":9486,"Ġhaircut":9487,"Ġbadge":9488,"clear":9489,"maids":9490,"Ġcracks":9491,"ĠUnder":9492,"Ġdistressed":9493,"Ġhilly":9494,"Ġclosets":9495,"Ġcrowds":9496,"Ġindign":9497,"Ġtwisted":9498,"Ġvisitors":9499,"Ġwarmly":9500,"ĠDoris":9501,"Ġcontrols":9502,"Ġreceiving":9503,"ĠBlake":9504,"Ġweights":9505,"ĠXmas":9506,"Ġpromise":9507,"Ġmarker":9508,"ĠHoll":9509,"Ġknocks":9510,"Ġimagined":9511,"ĠBundy":9512,"Ġemotions":9513,"Ġflooding":9514,"Ġpigs":9515,"Ġhistor":9516,"Ġbounced":9517,"Ġsymbols":9518,"Ġmerchand":9519,"Ġnorthern":9520,"Ġbenef":9521,"ING":9522,"Ġestate":9523,"ĠAcross":9524,"Ġconcentrate":9525,"Ġscramble":9526,"Ġinflu":9527,"Ġcushion":9528,"Ġmaneuver":9529,"Ġpoetry":9530,"Ġschol":9531,"ĠMarianna":9532,"ĠFrancisco":9533,"Ġabruptly":9534,"Ġfaucet":9535,"Ġthirsty":9536,"Ġphilos":9537,"Ġceramic":9538,"Ġstubborn":9539,"?),":9540,"Char":9541,"Every":9542,"Luc":9543,"RE":9544,"Sam":9545,"eks":9546,"hem":9547,"Ġsoph":9548,"Ġsixt":9549,"Ġber":9550,"Ġbones":9551,"Ġwading":9552,"Ġcran":9553,"Ġcert":9554,"Ġwasher":9555,"Ġlure":9556,"Ġlimb":9557,"Ġpm":9558,"Ġhooks":9559,"Ġheater":9560,"atin":9561,"Ġbeams":9562,"acel":9563,"Ġstew":9564,"Ġrust":9565,"Ġrevers":9566,"imate":9567,"ĠSpe":9568,"ĠSara":9569,"Ġgosh":9570,"rior":9571,"ĠHam":9572,"Ġsailing":9573,"ppers":9574,"unned":9575,"Ġclo":9576,"ilight":9577,"ĠCarm":9578,"ĠCourt":9579,"Ġflips":9580,"ĠNich":9581,"ĠOb":9582,"Ġlovers":9583,"udes":9584,"Ġbracel":9585,"Ġcourage":9586,"Ġkinda":9587,"Ġbedsp":9588,"Ġarthrit":9589,"Ġbiggest":9590,"ĠGar":9591,"ĠGrey":9592,"ĠGizmo":9593,"Ġhelper":9594,"Ġshakes":9595,"Ġjoint":9596,"Ġbiting":9597,"?\",":9598,"Ġlighted":9599,"Ġsurely":9600,"Ġhardware":9601,"weet":9602,"Ġresign":9603,"ĠVC":9604,"aughter":9605,"Ġelements":9606,"Ġtribe":9607,"avan":9608,"Ġpaperwork":9609,"Ġconfidence":9610,"Ġhopes":9611,"Ġleaders":9612,"Ġmusicians":9613,"Ġterrace":9614,"ĠBritt":9615,"Ġdads":9616,"Ġregistration":9617,"white":9618,"Ġordering":9619,"class":9620,"Ġtrance":9621,"Ġbrave":9622,"Ġdealing":9623,"Ġlocate":9624,"Ġcupboards":9625,"Ġadmit":9626,"Ġequally":9627,"Ġelectro":9628,"Ġbanister":9629,"oebe":9630,"ĠXXX":9631,"Ġsemin":9632,"Ġcasino":9633,"Ġpsychiat":9634,"Ġplanted":9635,"Ġdestru":9636,"Ġmidnight":9637,"ĠPhoebe":9638,"Ġairplanes":9639,"Ġunfold":9640,"ĠWilbur":9641,"ĠBuilding":9642,"Ġresembles":9643,"Ġlandsca":9644,"Ġraped":9645,"Ġtempted":9646,"Ġpencils":9647,"Ġdelivery":9648,"Ġconfronted":9649,"Ġfifth":9650,"Ġdistinctly":9651,"grown":9652,"ĠJenna":9653,"Ġregarding":9654,"Ġthighs":9655,"ĠHalf":9656,"Ġmounted":9657,"Ġlecturing":9658,"Ġrhythm":9659,"Ġphotographer":9660,"ĠiPod":9661,"Ġapproximately":9662,"Ġcalendar":9663,"Ġbartender":9664,"Ġvolleyball":9665,"23":9666,"70":9667,"SN":9668,"after":9669,"gic":9670,"green":9671,"iate":9672,"iant":9673,"rons":9674,"uper":9675,"when":9676,"wright":9677,"Ġtangled":9678,"Ġairl":9679,"Ġwed":9680,"Ġwise":9681,"Ġfried":9682,"Ġfits":9683,"Ġdata":9684,"Ġdizzy":9685,"Ġginger":9686,"Ġpup":9687,"Ġpony":9688,"arium":9689,"orient":9690,"Ġhike":9691,"Ġhaul":9692,"owell":9693,"ĠTay":9694,"icard":9695,"Ġeffic":9696,"Ġisol":9697,"Ġlizard":9698,"Ġkicks":9699,"ĠHard":9700,"ĠWALLY":9701,"asia":9702,"Ġshield":9703,"Ġships":9704,"Ġjars":9705,"Ġnoted":9706,"ĠItalian":9707,"Ġclick":9708,"Ġclitor":9709,"Ġpepper":9710,"eping":9711,"ĠNaz":9712,"ĠOl":9713,"Ġloll":9714,"agged":9715,"Ġbrushed":9716,"Ġuniverse":9717,"Ġslanted":9718,"Ġacade":9719,"Ġpros":9720,"Ġfoyer":9721,"Ġhollow":9722,"Ġshame":9723,"Ġjoining":9724,"oga":9725,"ampire":9726,"Ġawards":9727,"Ġincor":9728,"Ġtripped":9729,"Ġacceler":9730,"Ġtrained":9731,"brush":9732,"Ġpatches":9733,"Ġchart":9734,"Ġcharged":9735,"theless":9736,"Ġrefresh":9737,"Ġcompliment":9738,"Ġloung":9739,"rett":9740,"Ġmatching":9741,"Ġtested":9742,"Ġzone":9743,"Ġpaired":9744,"Ġwinners":9745,"Ġrule":9746,"Ġrubb":9747,"Ġfurnishing":9748,"ĠDover":9749,"Ġoddly":9750,"Ġadding":9751,"Ġsunlight":9752,"Ġpossibility":9753,"ĠZack":9754,"deceased":9755,"Ġteleport":9756,"Ġstripes":9757,"ĠRoger":9758,"Ġagreement":9759,"Ġlabels":9760,"Ġposts":9761,"ounse":9762,"Ġpopped":9763,"Ġchatted":9764,"Ġsemen":9765,"Ġrearrange":9766,"Ġaccommod":9767,"ĠThompson":9768,"Ġmentions":9769,"Ġdimly":9770,"Ġdebris":9771,"Ġuneven":9772,"Ġmotioned":9773,"hhhh":9774,"Ġfashioned":9775,"Ġtarp":9776,"Ġadvertising":9777,"ĠGranny":9778,"ĠEvans":9779,"ĠGrant":9780,"Ġentertainment":9781,"Ġpuddles":9782,"Ġsignificant":9783,"Ġindoors":9784,"Ġpanties":9785,"Ġcalculator":9786,"ĠEmerald":9787,"Ġbundle":9788,"Ġindustrial":9789,"Ġresidential":9790,"Ġtrolley":9791,"Ġbedspread":9792,"Ġclitoris":9793,"90":9794,"?!\"":9795,"VE":9796,"bar":9797,"dog":9798,"even":9799,"iac":9800,"iors":9801,"lit":9802,"oom":9803,"rina":9804,"uine":9805,"wal":9806,"woman":9807,"Ġtipped":9808,"inity":9809,"Ġbounce":9810,"erable":9811,"Ġgates":9812,"Ġpul":9813,"Ġinqu":9814,"Ġhides":9815,"Ġhips":9816,"Ġhabit":9817,"Ġweigh":9818,"ĠToo":9819,"atched":9820,"Ġnational":9821,"Ġraw":9822,"Ġlions":9823,"Ġange":9824,"Ġyouth":9825,"Ġframes":9826,"illed":9827,"Ġknitting":9828,"Ġalpha":9829,"ĠBro":9830,"Ġfee":9831,"Ġworrying":9832,"astasia":9833,"Ġconvey":9834,"Ġspa":9835,"ĠJun":9836,"Ġdoorbell":9837,"istent":9838,"ĠLance":9839,"pelled":9840,"Ġscam":9841,"Ġunique":9842,"Ġschools":9843,"Ġsled":9844,"Ġstunt":9845,"Ġgoods":9846,"iper":9847,"ĠAsk":9848,"Ġlightning":9849,"ĠStore":9850,"ĠAnne":9851,"Ġholder":9852,"Ġperched":9853,"Ġmarvel":9854,"empting":9855,"arship":9856,"Ġmuscular":9857,"ĠAlong":9858,"Ġbroch":9859,"Ġassert":9860,"Ġassured":9861,"Ġneighbour":9862,"Ġsooner":9863,"ĠMargie":9864,"Ġsyru":9865,"Ġhurrying":9866,"Ġmaintain":9867,"Ġstraightened":9868,"Ġdiagon":9869,"Ġpillars":9870,"Ġprofile":9871,"ĠEllen":9872,"Ġterrific":9873,"mediate":9874,"Ġfrustrating":9875,"Ġcooler":9876,"Ġharsh":9877,"Ġchocolates":9878,"Ġpeeking":9879,"ĠTommy":9880,"Ġhearts":9881,"Ġbeaten":9882,"Ġoperate":9883,"Ġ__________":9884,"Ġhostile":9885,"Ġproduce":9886,"blue":9887,"Ġrectangle":9888,"ĠWorried":9889,"chief":9890,"Ġpedal":9891,"Ġaimed":9892,"ĠChap":9893,"ĠGoing":9894,"uttering":9895,"Ġmasturbate":9896,"Ġchopped":9897,"Ġgenerally":9898,"Ġpeaceful":9899,"Ġbeef":9900,"ĠVictorian":9901,"Ġwhistle":9902,"Ġsource":9903,"Ġapplied":9904,"ĠMirabelle":9905,"Ġfestival":9906,"Ġfascinated":9907,"Ġoptions":9908,"Help":9909,"ĠKendall":9910,"Ġclinic":9911,"Ġadjoining":9912,"Ġmerchandise":9913,"Ah":9914,"Have":9915,"Le":9916,"Will":9917,"ext":9918,"lan":9919,"ua":9920,"vity":9921,"via":9922,"Ġsher":9923,"Ġsill":9924,"Ġod":9925,"Ġowe":9926,"Ġmike":9927,"Ġmoose":9928,"Ġdiet":9929,"Ġdusk":9930,"oul":9931,"Ġlacy":9932,"Ġinha":9933,"ora":9934,"orse":9935,"Ġhazy":9936,"otte":9937,"Ġstunned":9938,"Ġrusty":9939,"Ġrinse":9940,"entine":9941,"ĠSqu":9942,"Ġlied":9943,"Ġforum":9944,"Ġwhip":9945,"ĠWomen":9946,"ĠMason":9947,"ione":9948,"Ġabuse":9949,"Ġorche":9950,"rase":9951,"Ġamusing":9952,"Ġfeces":9953,"Ġpear":9954,"ĠCH":9955,"ĠCent":9956,"oodles":9957,"Ġdeformed":9958,"quo":9959,"quel":9960,"Ġspan":9961,"Ġspat":9962,"Ġreminis":9963,"Ġflashed":9964,"Ġflipping":9965,"ĠNelson":9966,"ĠFour":9967,"ĠFaye":9968,"icker":9969,"ĠLT":9970,"ĠLord":9971,"Ġbud":9972,"Ġcoord":9973,"ĠPretty":9974,"ĠMyself":9975,"umped":9976,"Ġhandic":9977,"ĠGab":9978,"Ġdisint":9979,"Ġshowers":9980,"Ġacid":9981,"thur":9982,"rows":9983,"Ġprices":9984,"Ġapply":9985,"Ġattempting":9986,"Ġcontents":9987,"Ġgrins":9988,"Ġgrasp":9989,"ĠStop":9990,"Ġsettle":9991,"ertation":9992,"Ġcompared":9993,"Ġrested":9994,"Ġmarking":9995,"Ġmarrying":9996,"ĠVan":9997,"ĠVampire":9998,"Ġcrotch":9999,"Ġcauses":10000,"brown":10001,"Ġlisted":10002,"Ġballroom":10003,"ĠAlask":10004,"Ġscale":10005,"Ġcurvy":10006,"Ġgreatly":10007,"Ġsubmer":10008,"Ġunderstands":10009,"atively":10010,"Ġpaused":10011,"Ġpleasantly":10012,"ĠChristopher":10013,"Ġdancers":10014,"Ġdefensive":10015,"Ġtorch":10016,"Ġtransl":10017,"Ġvacant":10018,"Ġillustr":10019,"Ġstruggled":10020,"ĠReally":10021,"Ġtux":10022,"Ġislands":10023,"Ġreplies":10024,"Ġsolve":10025,"meaning":10026,"Ġrelaxing":10027,"Ġpads":10028,"Ġcapable":10029,"Ġsprayed":10030,"Ġbumps":10031,"Ġindicates":10032,"Ġsurviv":10033,"Ġrequire":10034,"Ġgigantic":10035,"Ġattempted":10036,"Ġcentral":10037,"Ġcelebrate":10038,"ĠMartha":10039,"Ġlatch":10040,"chers":10041,"Ġannouncer":10042,"Ġstrawberries":10043,"ophob":10044,"Ġcubicles":10045,"Ġremarked":10046,"ĠExcel":10047,"Ġvegetable":10048,"Ġcheerful":10049,"Ġcommunicate":10050,"Ġreflection":10051,"Ġauthorities":10052,"ĠSlayer":10053,"Ġmemories":10054,"Ġinsect":10055,"Ġpurchased":10056,"Ġwelcome":10057,"Ġtenderly":10058,"Ġdissertation":10059,"Ġswallow":10060,"Ġcriminal":10061,"Ġsiren":10062,"Ġsirens":10063,"Ġfantasy":10064,"Ġwreck":10065,"Ġaquarium":10066,"Ġbridges":10067,"Ġdeposit":10068,"Ġamplifier":10069,"Ġwerewolf":10070,"Ġenvelopes":10071,"ĠDiane":10072,"Ġalphabet":10073,"08":10074,"13":10075,"17":10076,"Americ":10077,"Ellie":10078,"Izzy":10079,"Uh":10080,"bal":10081,"eches":10082,"length":10083,"rint":10084,"sery":10085,"wife":10086,"xpected":10087,"Ġing":10088,"Ġawe":10089,"Ġastr":10090,"inery":10091,"Ġmol":10092,"Ġferry":10093,"Ġdice":10094,"omer":10095,"onge":10096,"Ġweed":10097,"Ġhealing":10098,"otty":10099,"idated":10100,"idents":10101,"ĠTob":10102,"ĠTenn":10103,"Ġna":10104,"Ġner":10105,"Ġris":10106,"Ġrim":10107,"Ġrises":10108,"Ġreward":10109,"ayed":10110,"iments":10111,"ĠST":10112,"ĠSn":10113,"Ġkar":10114,"ghter":10115,"ĠMat":10116,"Ġseek":10117,"Ġroot":10118,"cepting":10119,"ĠBa":10120,"ĠBull":10121,"ĠBiology":10122,"ĠCI":10123,"ighed":10124,"Ġtee":10125,"Ġusher":10126,"ĠDep":10127,"Ġhousemates":10128,"olves":10129,"ĠAndre":10130,"osition":10131,"Ġflushed":10132,"ĠJung":10133,"ĠJune":10134,"Ġven":10135,"Ġvice":10136,"Ġvirgin":10137,"inea":10138,"ĠFr":10139,"Ġchal":10140,"ĠLion":10141,"venge":10142,"Ġunits":10143,"thon":10144,"Ġtrave":10145,"ĠKenneth":10146,"Ġchess":10147,"Ġgrumpy":10148,"Ġglowing":10149,"bbins":10150,"Ġskip":10151,"Ġbegun":10152,"Ġrecre":10153,"Ġrecon":10154,"Ġrelations":10155,"Ġlaughter":10156,"Ġmarsh":10157,"Ġparks":10158,"Ġminor":10159,"headed":10160,"Ġcharming":10161,"Ġrocket":10162,"Ġreporter":10163,"Ġemptied":10164,"Ġrainy":10165,"Ġprior":10166,"ĠSammy":10167,"Ġcandies":10168,"Ġbands":10169,"Ġmedia":10170,"ĠClub":10171,"ĠWhatever":10172,"Ġreceipt":10173,"Ġthreatens":10174,"Ġbanks":10175,"Ġprotecting":10176,"Ġskirts":10177,"ĠHoly":10178,"Ġsolution":10179,"Ġwhispers":10180,"Ġsoul":10181,"Ġgangster":10182,"Ġmiserable":10183,"Ġadjacent":10184,"Ġpraying":10185,"Ġacquaintances":10186,"hetic":10187,"Ġpursu":10188,"Ġfocused":10189,"Ġdemonstration":10190,"Ġbumpy":10191,"Ġsighs":10192,"Ġgiggle":10193,"ĠReynold":10194,"Ġboobs":10195,"Ġdinosaurs":10196,"Ġmurdered":10197,"Ġmuffins":10198,"Ġwatersl":10199,"Ġoverflowing":10200,"ĠKari":10201,"Ġtherapy":10202,"works":10203,"Ġtriangle":10204,"Ġwrinkled":10205,"ĠBecky":10206,"Ġadvertisement":10207,"Ġtraditional":10208,"iveness":10209,"Ġprecise":10210,"Ġchampagne":10211,"Ġlava":10212,"Ġfreedom":10213,"ĠNicole":10214,"Ġcongregation":10215,"Ġadopted":10216,"Ġconductor":10217,"ĠEddie":10218,"ĠThanksgiving":10219,"Ġfurnishings":10220,"500":10221,"Mother":10222,"Wow":10223,"cup":10224,"free":10225,"nut":10226,"Ġ+":10227,"Ġet":10228,"ĠId":10229,"Ġbon":10230,"Ġcasket":10231,"Ġdull":10232,"Ġhint":10233,"utral":10234,"ĠTake":10235,"Ġridge":10236,"Ġramps":10237,"ĠSy":10238,"ĠSky":10239,"ĠAN":10240,"Ġforces":10241,"urdy":10242,"urgy":10243,"ĠHospital":10244,"arters":10245,"iful":10246,"Ġsob":10247,"Ġrods":10248,"Ġjerk":10249,"Ġclad":10250,"cap":10251,"ĠBer":10252,"ĠBat":10253,"ĠBrand":10254,"Ġpeel":10255,"igner":10256,"ĠDu":10257,"Ġguinea":10258,"izer":10259,"ĠNapper":10260,"isty":10261,"ĠFolk":10262,"Ġchant":10263,"ĠLight":10264,"Ġnoon":10265,"ĠRE":10266,"ĠPa":10267,"ĠPsych":10268,"uming":10269,"ĠGrace":10270,"Ġunst":10271,"irect":10272,"Ġapplying":10273,"Ġwallpaper":10274,"Ġcontrolling":10275,"Ġcheat":10276,"Ġtrunks":10277,"Ġemer":10278,"Ġkills":10279,"Ġadvisor":10280,"Ġcounters":10281,"Ġdrapes":10282,"ĠUK":10283,"Ġpasture":10284,"shine":10285,"Ġesc":10286,"Ġobnox":10287,"ĠJoel":10288,"phy":10289,"Ġpresumably":10290,"ĠBrook":10291,"ĠMarie":10292,"Ġsandals":10293,"Ġinspect":10294,"Ġdiapers":10295,"uffle":10296,"ĠArnold":10297,"Ġsilence":10298,"Ġexploring":10299,"Ġeyeb":10300,"Ġcrawls":10301,"Ġnursery":10302,"Ġcondo":10303,"Ġconduct":10304,"Ġconditions":10305,"Ġpotential":10306,"Ġurg":10307,"zzle":10308,"ĠHighway":10309,"Ġbananas":10310,"Ġidentical":10311,"Ġsensitive":10312,"Ġtourists":10313,"Ġhostage":10314,"ĠCharlotte":10315,"Ġscraping":10316,"Ġremaining":10317,"Ġcentury":10318,"Ġpounding":10319,"ĠSusie":10320,"Ġtypically":10321,"Ġtemple":10322,"ĠHarris":10323,"Ġbutterfly":10324,"Ġannounces":10325,"Ġcritical":10326,"Ġintensely":10327,"Ġcompanions":10328,"Ġparticipating":10329,"Ġenclosure":10330,"Ġdocuments":10331,"Ġcommunication":10332,"onnected":10333,"Ġmarketing":10334,"Ġslimy":10335,"Ġterminal":10336,"Ġpreferred":10337,"Ġaccomplish":10338,"ĠJonathan":10339,"ĠEmery":10340,"Ġcriminals":10341,"Ġmushrooms":10342,"ĠOffice":10343,"ĠDisneyland":10344,"Ġnipples":10345,"Ġstockings":10346,"Ġverbally":10347,"Ġtilted":10348,"Ġanalyst":10349,"Ġdangling":10350,"Ġcollapse":10351,"Ġfinancial":10352,"Ġperfume":10353,"Ġcuriosity":10354,"Ġcertific":10355,"ĠVCR":10356,"oriented":10357,"Ġsyrup":10358,"quoise":10359,"02":10360,"?]":10361,"Ab":10362,"Boy":10363,"DS":10364,"LL":10365,"Pe":10366,"Your":10367,"bus":10368,"bike":10369,"bows":10370,"cases":10371,"dressed":10372,"fun":10373,"first":10374,"mitted":10375,"ov":10376,"pet":10377,"pist":10378,"saw":10379,"wen":10380,"Ġbaw":10381,"Ġwakes":10382,"had":10383,"erness":10384,"Ġfaith":10385,"Ġdip":10386,"Ġling":10387,"Ġpike":10388,"oning":10389,"ani":10390,"Ġnative":10391,"Ġstim":10392,"Ġstable":10393,"Ġstained":10394,"Ġroo":10395,"Ġrejected":10396,"ala":10397,"alo":10398,"entially":10399,"adget":10400,"ĠMuch":10401,"ĠMittens":10402,"Ġrobbed":10403,"Ġlend":10404,"Ġclar":10405,"Ġtapped":10406,"Ġcaravan":10407,"mble":10408,"Ġbolt":10409,"Ġcancell":10410,"Ġconsequ":10411,"oli":10412,"Ġspun":10413,"Ġspite":10414,"Ġblades":10415,"Ġflav":10416,"Ġvast":10417,"Ġvicious":10418,"ĠFat":10419,"Ġchases":10420,"ĠLap":10421,"ouses":10422,"Ġbrushing":10423,"Ġquote":10424,"rupting":10425,"Ġhandles":10426,"ĠGa":10427,"Ġunpl":10428,"Ġboyhood":10429,"Ġneedles":10430,"Ġmothers":10431,"ĠKelly":10432,"Ġshaky":10433,"ilyn":10434,"Ġhighly":10435,"Ġcontract":10436,"Ġcheeks":10437,"Ġdrama":10438,"Ġglimp":10439,"Ġtrump":10440,"Ġskis":10441,"Ġpassport":10442,"Ġmustache":10443,"mail":10444,"ublic":10445,"Ġdraft":10446,"Ġfunnel":10447,"Ġinstall":10448,"Ġinstance":10449,"Ġinstantly":10450,"manuel":10451,"Ġbookcase":10452,"onda":10453,"obs":10454,"Ġexchang":10455,"Ġnuclear":10456,"ĠĠĠ":10457,"azz":10458,"Ġsignals":10459,"Ġpays":10460,"ĠBeach":10461,"Ġrepul":10462,"Ġreports":10463,"uddles":10464,"Ġcrosses":10465,"Ġsimult":10466,"Ġcopper":10467,"Ġpaved":10468,"Ġinclude":10469,"ĠSpader":10470,"Ġdiag":10471,"Ġexamined":10472,"Ġboarding":10473,"Ġsilently":10474,"umbled":10475,"eese":10476,"Ġsorrow":10477,"ĠCole":10478,"Ġfilth":10479,"Ġclassrooms":10480,"Ġburner":10481,"Ġcondom":10482,"hyllis":10483,"Ġgenuine":10484,"Ġ198":10485,"Ġharmon":10486,"Ġfearful":10487,"Ġpopping":10488,"Ġpubl":10489,"Ġdamn":10490,"Ġpromin":10491,"Ġdesigned":10492,"Ġwildly":10493,"Ġspreading":10494,"Ġlimo":10495,"Ġlimit":10496,"ĠEmmanuel":10497,"Ġattempts":10498,"Ġtoothp":10499,"Ġlux":10500,"ĠMostly":10501,"Ġtrays":10502,"Ġdisappearing":10503,"Ġexercises":10504,"Ġshrugged":10505,"Ġturquoise":10506,"Ġdrowning":10507,"ĠWalking":10508,"Ġmechanism":10509,"Ġchemical":10510,"Ġstrokes":10511,"ĠMcDonalds":10512,"Ġdemonstrate":10513,"burg":10514,"ĠPeterson":10515,"conom":10516,"Ġwrestle":10517,"Ġobstacle":10518,"standing":10519,"Ġpassionately":10520,"ĠAngry":10521,"Ġsuburban":10522,"Ġmystery":10523,"ĠMaggie":10524,"ĠRaquel":10525,"Ġaxe":10526,"ĠJuly":10527,"Ġoblig":10528,"Ġpermanent":10529,"ĠSonja":10530,"ĠJoyce":10531,"Ġapprehensive":10532,"Ġsinister":10533,"ĠCastle":10534,"Ġburglar":10535,"Ġcircumst":10536,"ĠTaylor":10537,"Ġisolated":10538,"Ġglimpse":10539,"Con":10540,"aver":10541,"ement":10542,"fight":10543,"probably":10544,"sided":10545,"inate":10546,"inny":10547,"ĠIre":10548,"Ġtheory":10549,"Ġoxy":10550,"Ġbis":10551,"Ġfier":10552,"Ġlent":10553,"Ġgadget":10554,"Ġpacing":10555,"oral":10556,"Ġhym":10557,"Ġhedge":10558,"Ġthirty":10559,"idan":10560,"Ġnatives":10561,"Ġnaturally":10562,"Ġbegged":10563,"Ġsturdy":10564,"Ġwithdra":10565,"verted":10566,"add":10567,"ĠSix":10568,"ĠSunny":10569,"Ġlibr":10570,"ril":10571,"riet":10572,"ĠWy":10573,"ĠWent":10574,"ouldn":10575,"ĠMSN":10576,"Ġfrying":10577,"inded":10578,"rap":10579,"Ġclaw":10580,"ĠCra":10581,"ĠCross":10582,"ĠCounse":10583,"Ġ(\"":10584,"Ġovercome":10585,"Ġworm":10586,"Ġworms":10587,"Ġcanal":10588,"Ġtiming":10589,"Ġtalent":10590,"Ġvet":10591,"Ġvir":10592,"Ġvine":10593,"Ġvase":10594,"ĠOly":10595,"ĠFris":10596,"ĠLes":10597,"ĠRaul":10598,"ability":10599,"ĠPy":10600,"Ġteller":10601,"never":10602,"Ġpose":10603,"Ġpoked":10604,"ags":10605,"Ġhandc":10606,"Ġunh":10607,"Ġunpack":10608,"Ġslick":10609,"Ġaccepting":10610,"oday":10611,"Ġshant":10612,"getic":10613,"Ġ27":10614,"ĠStrange":10615,"Ġgrapes":10616,"ĠAnastasia":10617,"Ġtrop":10618,"Ġskim":10619,"Ġskipped":10620,"Ġperim":10621,"Ġrestless":10622,"Ġsnapped":10623,"Ġreserv":10624,"Ġboxer":10625,"making":10626,"Ġincom":10627,"Ġtrips":10628,"Ġinteract":10629,"gnes":10630,"Ġhorns":10631,"Ġhanger":10632,"unting":10633,"Ġ55":10634,"Ġextent":10635,"chant":10636,"Ġcoloring":10637,"ĠMarilyn":10638,"Ġmachinery":10639,"Ġpengu":10640,"Ġarts":10641,"Ġexpand":10642,"Ġexpert":10643,"Ġzipp":10644,"Ġinsane":10645,"Ġuncertain":10646,"Ġdepth":10647,"ringe":10648,"Ġspeakers":10649,"Ġbandage":10650,"Ġengines":10651,"Ġsticker":10652,"ĠRobbins":10653,"Ġhumans":10654,"Ġallowing":10655,"Ġmagical":10656,"Ġlifts":10657,"Ġgroin":10658,"Ġlitter":10659,"Ġsplash":10660,"Ġguarding":10661,"Ġstretching":10662,"Ġunders":10663,"Ġinterviewing":10664,"Ġmidst":10665,"young":10666,"Ġtourist":10667,"Ġcourtroom":10668,"Ġflowerbed":10669,"Ġabsent":10670,"Ġprocession":10671,"Ġindicated":10672,"Ġobserver":10673,"Ġcentre":10674,"ĠChevy":10675,"Ġchoices":10676,"Ġdemanding":10677,"Ġpursued":10678,"Ġreligion":10679,"Ġexperiencing":10680,"Ġvertically":10681,"Ġreflected":10682,"Ġfifteen":10683,"Ġobstacles":10684,"Ġpolitely":10685,"ĠKatrina":10686,"Ġnecklaces":10687,"Ġacknowled":10688,"Ġpassionate":10689,"ĠThank":10690,"Ġplugged":10691,"Ġsuffering":10692,"Ġerrands":10693,"Ġbarefooted":10694,"Ġvomit":10695,"Ġcoughing":10696,"Ġmasks":10697,"ĠBuster":10698,"Ġimprov":10699,"Ġbridesmaids":10700,"ĠPolice":10701,"Ġenthusiastic":10702,"Ġrobbers":10703,"Ġpudgy":10704,"stein":10705,"ĠIrish":10706,"ĠGeneral":10707,"Ġhitchh":10708,"Ġinsulted":10709,"ĠImmediately":10710,"Ġindependent":10711,"Ġvolcano":10712,"ĠCarmen":10713,"ĠNichol":10714,"Ġarthritis":10715,"Ġseminar":10716,"Ġpsychiatrist":10717,"Ġorchestra":10718,"ĠTennant":10719,"Ġoxygen":10720,"IT":10721,"bu":10722,"card":10723,"ember":10724,"oly":10725,"two":10726,"vest":10727,"wl":10728,"Ġ....":10729,"hea":10730,"rep":10731,"Ġbould":10732,"Ġbrill":10733,"Ġwavy":10734,"itate":10735,"Ġfolks":10736,"Ġdome":10737,"Ġly":10738,"Ġgeese":10739,"Ġpir":10740,"Ġhaunted":10741,"estern":10742,"ĠTurn":10743,"Ġbean":10744,"Ġstitches":10745,"ico":10746,"ooping":10747,"Ġseal":10748,"rik":10749,"Ġups":10750,"urry":10751,"Ġkite":10752,"Ġwhipped":10753,"opard":10754,"ĠMountain":10755,"geon":10756,"ravel":10757,"Ġloop":10758,"Ġammo":10759,"ilbert":10760,"Ġdread":10761,"Ġpeas":10762,"ĠCed":10763,"ĠCart":10764,"ĠCare":10765,"ĠCuddles":10766,"Ġtearing":10767,"ĠDer":10768,"ĠDark":10769,"Ġboil":10770,"ulations":10771,"aste":10772,"Ġsparse":10773,"osis":10774,"Ġsmashing":10775,"ĠLady":10776,"ĠPE":10777,"ĠPhyllis":10778,"Ġarc":10779,"ĠGee":10780,"Ġunion":10781,"ellow":10782,"Ġslapped":10783,"Ġdislike":10784,"Ġclassical":10785,"Ġhovering":10786,"Ġphrase":10787,"ĠKids":10788,"Ġnewly":10789,"Ġglanced":10790,"Ġskit":10791,"Ġhairy":10792,"perhaps":10793,"Ġcattle":10794,"ĠChicken":10795,"Ġincons":10796,"ĠUs":10797,"Ġcavern":10798,"Ġshortcut":10799,"Ġsingers":10800,"brother":10801,"Ġconfir":10802,"Ġlists":10803,"Ġlistens":10804,"Ġhangers":10805,"Ġcourses":10806,"Ġmisses":10807,"ĠOnes":10808,"Ġscreens":10809,"Ġpleading":10810,"Ġpacks":10811,"ramid":10812,"Ġrafter":10813,"Ġrugs":10814,"Ġsuggestion":10815,"ĠArt":10816,"Ġshutting":10817,"Ġhatch":10818,"ĠZates":10819,"Ġdealer":10820,"Ġseparately":10821,"Ġrails":10822,"Ġposters":10823,"ounced":10824,"Ġ195":10825,"Ġtorture":10826,"Ġapologizing":10827,"Ġhesitates":10828,"Ġadmiring":10829,"ĠDwarf":10830,"Ġconstant":10831,"Ġidentification":10832,"Ġsmells":10833,"Ġlectures":10834,"Ġextreme":10835,"Ġtastes":10836,"ĠDanny":10837,"Ġerror":10838,"Ġunfinished":10839,"Ġinterrupts":10840,"Ġdrugstore":10841,"Ġfreshman":10842,"Ġmelting":10843,"Ġdebated":10844,"Ġcelebrating":10845,"Ġdupl":10846,"Ġcomfortably":10847,"Ġfund":10848,"Ġunexpected":10849,"Ġinfant":10850,"Ġpedest":10851,"Ġbiology":10852,"Ġfooling":10853,"Ġautomobile":10854,"Ġbulbs":10855,"ĠConf":10856,"Ġmechanic":10857,"Ġescalators":10858,"ĠCommun":10859,"Ġsympathy":10860,"Ġmermaid":10861,"ĠTeacher":10862,"comed":10863,"Ġrelatively":10864,"Ġcompartments":10865,"Ġauthority":10866,"ĠClaus":10867,"Ġgallery":10868,"Ġsleeve":10869,"ĠMickey":10870,"Ġcockro":10871,"Ġreveal":10872,"ĠEarl":10873,"Ġfrogs":10874,"Ġscooter":10875,"Ġchuckle":10876,"Ġrebu":10877,"ĠSherry":10878,"Ġpeanuts":10879,"rofess":10880,"Ġpineapp":10881,"Ġwhirlpool":10882,"Ġconvenience":10883,"ĠLaure":10884,"Ġhumorous":10885,"Ġidiot":10886,"********************************":10887,"Ġbikini":10888,"Ġfrosting":10889,"driver":10890,"Ġrearranging":10891,"Ġcylind":10892,"ĠRodney":10893,"Ġgorilla":10894,"jection":10895,"Ġavoiding":10896,"Ġtrampoline":10897,"Ġparachute":10898,"ĠHollander":10899,"Ġscholarship":10900,"Ġsheriff":10901,"Ġodor":10902,"Ġdisinteg":10903,"ĠAlaska":10904,"Ġsimultaneously":10905,"Ġcircumstances":10906,"99":10907,"Bill":10908,"Fire":10909,"OM":10910,"OS":10911,"Paul":10912,"Please":10913,"RA":10914,"bre":10915,"bod":10916,"cr":10917,"did":10918,"dust":10919,"ders":10920,"ias":10921,"lid":10922,"lined":10923,"person":10924,"take":10925,"za":10926,"Ġtut":10927,"heast":10928,"Ġwives":10929,"ĠIN":10930,"Ġbage":10931,"Ġbark":10932,"Ġmales":10933,"Ġtoll":10934,"Ġded":10935,"oured":10936,"Ġlump":10937,"isions":10938,"Ġpim":10939,"Ġpra":10940,"Ġpoodle":10941,"Ġinsp":10942,"oner":10943,"orant":10944,"otted":10945,"ĠTri":10946,"ĠTrying":10947,"Ġnav":10948,"lem":10949,"Ġbegging":10950,"ication":10951,"sel":10952,"Ġseeds":10953,"ĠSoph":10954,"ĠAgnes":10955,"Ġupd":10956,"Ġupward":10957,"ĠWind":10958,"Ġsaus":10959,"children":10960,"Ġknit":10961,"Ġintric":10962,"ĠBes":10963,"ĠCre":10964,"ĠCass":10965,"Ġ(!)":10966,"ĠDJ":10967,"Ġboiling":10968,"Ġoverhang":10969,"Ġconso":10970,"Ġflap":10971,"ĠNina":10972,"Ġvault":10973,"ĠOri":10974,"ĠLar":10975,"Ġcoinc":10976,"Ġloan":10977,"Ġloading":10978,"ĠRoman":10979,"nered":10980,"ffman":10981,"Ġprem":10982,"ounded":10983,"atherine":10984,"ĠGal":10985,"Ġdisk":10986,"Ġdism":10987,"hanie":10988,"Ġappar":10989,"Ġ28":10990,"Ġcheering":10991,"Ġsurre":10992,"Ġgrape":10993,"ĠAngel":10994,"Ġcords":10995,"ogue":10996,"Ġarmed":10997,"Ġboxing":10998,"Ġcareer":10999,"Ġsurprisingly":11000,"Ġstudies":11001,"Ġtruly":11002,"rics":11003,"Ġembarrassment":11004,"Ġtwist":11005,"Ġsubtle":11006,"Ġfreezing":11007,"ĠSpenny":11008,"Ġformation":11009,"Ġdancer":11010,"club":11011,"guard":11012,"ĠArrested":11013,"Ġexcitedly":11014,"Ġfreaky":11015,"Ġcontinuing":11016,"Ġflowered":11017,"ĠStephanie":11018,"Ġwarmth":11019,"Ġinstructed":11020,"Ġnotebooks":11021,"Ġbrightly":11022,"Ġdorms":11023,"Ġbatting":11024,"Ġhumming":11025,"Ġfolders":11026,"Ġharbor":11027,"Ġapologizes":11028,"Ġhesitantly":11029,"ĠBlair":11030,"Ġbury":11031,"ĠRein":11032,"ĠReco":11033,"ĠReilly":11034,"Ġamazement":11035,"reston":11036,"Ġsuperior":11037,"Ġportal":11038,"Ġantiques":11039,"Ġimagining":11040,"Ġrental":11041,"Ġadvances":11042,"Ġpours":11043,"Ġadjusting":11044,"Ġdisturbing":11045,"Ġoccasions":11046,"Ġmelt":11047,"Ġdebate":11048,"ĠMarty":11049,"Ġbends":11050,"Ġjudges":11051,"Ġlatest":11052,"Ġpedals":11053,"Ġstrawberry":11054,"ĠConnie":11055,"ĠPlay":11056,"Ġpursue":11057,"Ġrotting":11058,"Ġmattresses":11059,"Ġresistance":11060,"ĠColin":11061,"ĠColor":11062,"Ġalcoholic":11063,"Ġselection":11064,"Ġsteamer":11065,"Ġsloppy":11066,"Ġhamster":11067,"Ġgestures":11068,"Ġpumpkin":11069,"ĠBreak":11070,"Ġsignificance":11071,"ĠAngie":11072,"Ġalternate":11073,"Ġexecut":11074,"Ġconvenient":11075,"Ġtherapist":11076,"Ġskeleton":11077,"Ġsample":11078,"ĠHunter":11079,"Ġdisapproving":11080,"organized":11081,"Ġfenced":11082,"Ġbookshelves":11083,"Ġpictured":11084,"ĠAhmed":11085,"Ġapplication":11086,"Ġrescued":11087,"Ġtasks":11088,"walks":11089,"Ġkarate":11090,"Ġchalk":11091,"ĠLionel":11092,"Ġobnoxious":11093,"Ġconsole":11094,"\";":11095,"Give":11096,"OU":11097,"PR":11098,"cling":11099,"daughter":11100,"fting":11101,"ford":11102,"got":11103,"hr":11104,"hour":11105,"kers":11106,"mel":11107,"tail":11108,"Ġ*":11109,"Ġtile":11110,"Ġast":11111,"Ġachie":11112,"hey":11113,"ĠITI":11114,"Ġoak":11115,"Ġoption":11116,"Ġtoler":11117,"itz":11118,"eron":11119,"Ġfries":11120,"Ġdamp":11121,"Ġdict":11122,"Ġgy":11123,"Ġgee":11124,"Ġgoose":11125,"Ġgrief":11126,"Ġgained":11127,"Ġpork":11128,"arb":11129,"orous":11130,"Ġhass":11131,"Ġheel":11132,"othes":11133,"ĠTu":11134,"ĠTown":11135,"atus":11136,"Ġnick":11137,"Ġnons":11138,"acc":11139,"Ġrib":11140,"Ġego":11141,"ooped":11142,"steps":11143,"ĠAM":11144,"ĠAT":11145,"Ġuphol":11146,"Ġforks":11147,"ĠHas":11148,"opy":11149,"ĠMade":11150,"Ġyrs":11151,"Ġsheer":11152,"Ġabortion":11153,"Ġsoaked":11154,"rael":11155,"rodu":11156,"ctic":11157,"ctive":11158,"Ġclue":11159,"Ġclaws":11160,"Ġaloud":11161,"Ġtab":11162,"Ġfem":11163,"Ġdownward":11164,"ĠCory":11165,"ĠCoke":11166,"ĠCera":11167,"ĠClo":11168,"Ġcarrot":11169,"Ġsucks":11170,"Ġoverl":11171,"Ġoverlooking":11172,"Ġspar":11173,"Ġspies":11174,"ĠNever":11175,"ĠNavy":11176,"Ġvig":11177,"ĠOcean":11178,"ĠFo":11179,"ĠFind":11180,"Ġnostal":11181,"Ġbuggy":11182,"ĠRem":11183,"Ġchina":11184,"ĠPreston":11185,"umping":11186,"Ġpreacher":11187,"Ġscores":11188,"Ġbedside":11189,"ĠGerald":11190,"Ġunl":11191,"odore":11192,"Ġwobbly":11193,"Ġenvious":11194,"Ġattor":11195,"ĠKn":11196,"ĠKle":11197,"ookie":11198,"Ġshave":11199,"Ġ26":11200,"Ġsurvey":11201,"Ġskipping":11202,"Ġpercent":11203,"friends":11204,"weed":11205,"Ġreset":11206,"Ġparap":11207,"ĠChildren":11208,"uba":11209,"Ġincest":11210,"Ġinvitation":11211,"Ġdiner":11212,"Ġbarking":11213,"aware":11214,"Ġcrap":11215,"Ġcraz":11216,"Ġpayment":11217,"Ġrecollection":11218,"aneous":11219,"Ġfills":11220,"Ġmotions":11221,"Ġartists":11222,"Ġcampground":11223,"Ġinspe":11224,"Ġsuggesting":11225,"ustrophob":11226,"Ġfairy":11227,"Ġsunset":11228,"Ġboardwalk":11229,"Ġpanicky":11230,"Ġconversations":11231,"Ġoppon":11232,"Ġstriking":11233,"Ġcommenting":11234,"Ġstickers":11235,"doll":11236,"Ġbats":11237,"Ġfolds":11238,"Ġtransition":11239,"Ġprofessors":11240,"Ġburger":11241,"ĠRebe":11242,"Ġmistakes":11243,"Ġprotective":11244,"letter":11245,"Ġsends":11246,"Ġportage":11247,"Ġresponds":11248,"Ġwilderness":11249,"Ġamongst":11250,"Ġdivide":11251,"ĠPatty":11252,"ivalent":11253,"Ġunfair":11254,"Ġcombined":11255,"ĠIsrael":11256,"Ġthrone":11257,"Ġcruel":11258,"Ġpoorly":11259,"ducing":11260,"Ġpuzzles":11261,"Ġshyly":11262,"Ġdodge":11263,"ĠJanuary":11264,"Ġpunching":11265,"Ġvividly":11266,"Ġcheerle":11267,"Ġdemonstrating":11268,"Ġcommunicating":11269,"Ġinitially":11270,"Ġclaustrophob":11271,"Ġwelcomed":11272,"Ġslippers":11273,"Ġimplied":11274,"someone":11275,"Ġdelivering":11276,"Ġtacky":11277,"ĠKatie":11278,"Ġrequested":11279,"ĠGirls":11280,"prints":11281,"ĠDowney":11282,"Ġgrinning":11283,"ĠBrenda":11284,"Ġtransformed":11285,"Ġflex":11286,"Ġwiping":11287,"ĠTHE":11288,"ĠUpon":11289,"Ġdownload":11290,"Ġblurry":11291,"Ġswirling":11292,"Ġnarrator":11293,"Ġtidal":11294,"Ġpreparation":11295,"Ġcautious":11296,"Ġobservatory":11297,"Ġdingy":11298,"ĠHotel":11299,"Ġaccurate":11300,"Ġconspicuous":11301,"Ġsculpture":11302,"Ġhysterical":11303,"Ġadministr":11304,"Merri":11305,"ĠLibrary":11306,"Ġcontempl":11307,"Lucy":11308,"Ġacademic":11309,"Ġcertificate":11310,"ĠLapson":11311,"Ġshanty":11312,"Ġtropical":11313,"Ġperimeter":11314,"ĠReinhold":11315,"95":11316,"AM":11317,"Db":11318,"Later":11319,"Note":11320,"Small":11321,"nail":11322,"nett":11323,"overs":11324,"rating":11325,"tw":11326,"then":11327,"uu":11328,"vol":11329,"Ġtiles":11330,"Ġsigning":11331,"inge":11332,"Ġmixt":11333,"itors":11334,"Ġfet":11335,"Ġfrench":11336,"Ġwasting":11337,"Ġlazy":11338,"Ġgran":11339,"Ġpoop":11340,"onnie":11341,"armed":11342,"etic":11343,"Ġhey":11344,"Ġthus":11345,"ĠTha":11346,"Ġnyl":11347,"ĠTheodore":11348,"Ġsto":11349,"Ġstrict":11350,"Ġrevenge":11351,"Ġerect":11352,"Ġeconom":11353,"amel":11354,"Ġsegment":11355,"stood":11356,"ĠSad":11357,"ĠSep":11358,"riving":11359,"ĠWall":11360,"rous":11361,"ĠMik":11362,"ĠMuseum":11363,"outhed":11364,"ĠHell":11365,"Ġfrown":11366,"Ġshoo":11367,"Ġneutral":11368,"ĠBanks":11369,"Ġpeer":11370,"ĠCu":11371,"ĠCall":11372,"ĠCars":11373,"Ġcombed":11374,"igo":11375,"Ġcarb":11376,"Ġhousing":11377,"ĠDuck":11378,"quarters":11379,"ulting":11380,"olo":11381,"Ġspelling":11382,"Ġmaps":11383,"Ġvs":11384,"Ġvines":11385,"ĠOp":11386,"ĠOkay":11387,"Ġseeming":11388,"ĠFore":11389,"ĠLatin":11390,"ĠPac":11391,"ĠPacey":11392,"Ġpartial":11393,"ffy":11394,"agen":11395,"Ġcoup":11396,"ileen":11397,"ĠGret":11398,"Ġuncovered":11399,"Ġgoodness":11400,"Ġswitches":11401,"Ġfinishes":11402,"Ġdifferences":11403,"ĠKings":11404,"Ġimmediate":11405,"Ġhighlight":11406,"Ġfoundation":11407,"ĠStart":11408,"bbled":11409,"bbling":11410,"pses":11411,"psons":11412,"Ġpermit":11413,"Ġpassword":11414,"Ġrecru":11415,"Ġrecipe":11416,"Ġrelate":11417,"Ġreserved":11418,"Ġcray":11419,"Ġcares":11420,"Ġcountries":11421,"Ġteaches":11422,"Ġinvent":11423,"Ġchances":11424,"Ġbarbed":11425,"ĠJoan":11426,"Ġ500":11427,"tember":11428,"ĠUnfortunately":11429,"Ġconsult":11430,"ĠSpring":11431,"Ġuncles":11432,"Ġcamper":11433,"ĠArthur":11434,"ĠArnett":11435,"Ġspotlight":11436,"Ġnarrowly":11437,"ĠPauline":11438,"Ġimportance":11439,"Ġinformal":11440,"Ġsoftware":11441,"vising":11442,"Ġgrows":11443,"Ġcontains":11444,"Ġsmoked":11445,"ĠSuz":11446,"Ġsneaks":11447,"ĠAmericans":11448,"Ġequal":11449,"Ġsplashing":11450,"Ġdisappointment":11451,"Ġ___________":11452,"iki":11453,"Ġsensed":11454,"Ġgangsters":11455,"Ġviolence":11456,"Ġacquainted":11457,"Ġinjury":11458,"black":11459,"blets":11460,"Ġconstructed":11461,"ĠMerri":11462,"Ġstatus":11463,"Ġspills":11464,"Ġspilling":11465,"Ġbells":11466,"Ġsqueezing":11467,"Ġironing":11468,"Ġcelebrities":11469,"ĠJanet":11470,"Ġsweaters":11471,"Ġdemanded":11472,"ĠCarlos":11473,"ĠMoab":11474,"Ġarranging":11475,"IDS":11476,"Ġassociation":11477,"ARR":11478,"Ġprimitive":11479,"ĠHollywood":11480,"Ġwigg":11481,"Ġservant":11482,"Ġtechnical":11483,"Ġdetailed":11484,"Ġseduce":11485,"Ġsewer":11486,"Ġqueue":11487,"Ġcycle":11488,"Ġcategories":11489,"Ġoctop":11490,"Ġprecarious":11491,"Ġdramatic":11492,"Ġmisunderstood":11493,"Ġneglected":11494,"ĠIMDb":11495,"ĠWhitman":11496,"Ġdestruction":11497,"ĠNazi":11498,"Ġrefreshments":11499,"American":11500,"Ġcancelled":11501,"Ġfilthy":11502,"Ġprominent":11503,"ĠPython":11504,"Ġrafters":11505,"ĠSeptember":11506,"\"-":11507,"AC":11508,"II":11509,"OC":11510,"Sp":11511,"Trying":11512,"True":11513,"aire":11514,"big":11515,"bars":11516,"cope":11517,"dress":11518,"lad":11519,"name":11520,"oam":11521,"pse":11522,"ridge":11523,"racting":11524,"sister":11525,"uries":11526,"va":11527,"vo":11528,"vory":11529,"vette":11530,"wall":11531,"xter":11532,"Ġicing":11533,"Ġtend":11534,"Ġaston":11535,"Ġmac":11536,"Ġtoaster":11537,"Ġwad":11538,"erox":11539,"Ġgoo":11540,"Ġgaps":11541,"oncer":11542,"Ġhire":11543,"Ġhaw":11544,"Ġhast":11545,"Ġweighed":11546,"Ġheal":11547,"acity":11548,"acco":11549,"Ġstates":11550,"icia":11551,"Ġrage":11552,"Ġrew":11553,"Ġreno":11554,"Ġeagle":11555,"imer":11556,"amm":11557,"Ġseam":11558,"style":11559,"adill":11560,"ĠSat":11561,"ĠShan":11562,"ĠAround":11563,"ĠAss":11564,"ĠAIDS":11565,"rigg":11566,"Ġbutcher":11567,"Ġanch":11568,"ura":11569,"asha":11570,"raham":11571,"ĠBird":11572,"ĠBald":11573,"Ġfeast":11574,"Ġmanaging":11575,"andra":11576,"cker":11577,"ĠDes":11578,"ĠDiana":11579,"Ġbond":11580,"Ġoveralls":11581,"Ġcancel":11582,"quit":11583,"ulous":11584,"Ġexisted":11585,"Ġconcept":11586,"Ġflashes":11587,"Ġmagg":11588,"Ġveter":11589,"ĠOt":11590,"ĠLas":11591,"ĠLima":11592,"Ġcoax":11593,"ĠRep":11594,"ĠRik":11595,"udging":11596,"Ġchunk":11597,"Ġchoke":11598,"ĠPam":11599,"ĠPerry":11600,"rug":11601,"Ġrights":11602,"Ġunident":11603,"Ġsidewalks":11604,"Ġswear":11605,"Ġswift":11606,"Ġfloats":11607,"bey":11608,"Ġfoil":11609,"Ġundercover":11610,"Ġwinds":11611,"Ġheadlights":11612,"ĠKasper":11613,"Ġcontrolled":11614,"Ġpersonally":11615,"Ġ32":11616,"Ġparish":11617,"Ġparlor":11618,"inker":11619,"Ġplank":11620,"Ġcrut":11621,"Ġcramped":11622,"harm":11623,"Ġpolicy":11624,"shot":11625,"Ġinterrupting":11626,"Ġsquished":11627,"Ġtrainer":11628,"Ġconfess":11629,"Ġbarbe":11630,"occup":11631,"Ġnoticeable":11632,"Ġmuscle":11633,"Ġtrout":11634,"aza":11635,"azed":11636,"Ġslows":11637,"Ġscreened":11638,"Ġstrung":11639,"Ġterrain":11640,"Ġindex":11641,"Ġmatched":11642,"Ġmatters":11643,"ĠMarita":11644,"Ġtwirl":11645,"Ġsubt":11646,"Three":11647,"....\"":11648,"Ġanimated":11649,"Ġpauses":11650,"ĠSpike":11651,"Ġruff":11652,"Ġfurnace":11653,"Ġhorseback":11654,"Ġbowel":11655,"Ġladders":11656,"Ġradi":11657,"Ġopposed":11658,"ergart":11659,"cription":11660,"Ġinformed":11661,"Ġpracticed":11662,"Ġsalon":11663,"Ġfilms":11664,"Ġfitting":11665,"ĠRoss":11666,"ificent":11667,"Ġmotorbike":11668,"Ġharp":11669,"Ġpubic":11670,"Ġrepeats":11671,"Ġliturgy":11672,"Ġtrails":11673,"Ġunusually":11674,"Ġblend":11675,"Ġtucked":11676,"ĠStein":11677,"Ġpsychic":11678,"Ġstretches":11679,"Ġsuspic":11680,"Ġprints":11681,"Ġceremon":11682,"Ġaccompany":11683,"Ġlimous":11684,"Ġviolently":11685,"cuits":11686,"Ġscrewdriver":11687,"ĠJulian":11688,"Ġcube":11689,"Ġpunches":11690,"ĠJefferson":11691,"Ġbehaving":11692,"ĠBarbie":11693,"Ġremoving":11694,"Ġconditioner":11695,"Ġrepresents":11696,"Ġcubes":11697,"Ġdemands":11698,"Ġfailing":11699,"ĠMolly":11700,"orescent":11701,"Ġconsiderable":11702,"Ġwounded":11703,"Ġassociate":11704,"Ġcroche":11705,"Ġbalding":11706,"Ġvacuuming":11707,"celain":11708,"Ġpalace":11709,"Ġprovided":11710,"Ġfifty":11711,"ĠEuropean":11712,"Ġchooses":11713,"Ġdescending":11714,"Ġtackle":11715,"Ġscrambled":11716,"Ġessay":11717,"ĠMonty":11718,"Ġcrocodiles":11719,"Ġtransportation":11720,"Ġdynam":11721,"ĠLiza":11722,"Ġnipple":11723,"ĠWhenever":11724,"Ġstressed":11725,"Ġpreparations":11726,"Ġgoofy":11727,"ĠRoyal":11728,"ĠEuclid":11729,"ĠFirefly":11730,"Ġeducation":11731,"Ġmeasuring":11732,"Ġprotruding":11733,"Ġhippie":11734,"Ġnickel":11735,"Ġbreeze":11736,"Ġfeminine":11737,"Ġhinges":11738,"Ġindignant":11739,"Samantha":11740,"Ġbracelet":11741,"Ġtravelling":11742,"ĠReynolds":11743,"Ġbiscuits":11744,"ĠCounseling":11745,"Ġlyrics":11746,"ĠRecollection":11747,"29":11748,"Cl":11749,"Dawson":11750,"OP":11751,"Tom":11752,"dom":11753,"die":11754,"ef":11755,"grand":11756,"norm":11757,"part":11758,"sl":11759,"tr":11760,"tta":11761,"Ġtents":11762,"Ġtrench":11763,"Ġsank":11764,"ĠIvory":11765,"Ġmart":11766,"Ġdart":11767,"Ġdiver":11768,"Ġdense":11769,"Ġdiction":11770,"Ġgutter":11771,"Ġply":11772,"Ġpies":11773,"Ġpans":11774,"onies":11775,"Ġhal":11776,"utes":11777,"ido":11778,"atured":11779,"Ġstyl":11780,"Ġray":11781,"Ġreck":11782,"Ġseas":11783,"stop":11784,"stream":11785,"Ġatom":11786,"ĠSk":11787,"ĠAcc":11788,"ĠAlley":11789,"ĠAidan":11790,"Ġupwards":11791,"Ġanal":11792,"ĠHit":11793,"Ġdove":11794,"ĠWanda":11795,"Ġ\"...":11796,"ĠWeird":11797,"Ġloos":11798,"ĠItaly":11799,"illion":11800,"Ġknelt":11801,"Ġintently":11802,"ĠBR":11803,"ĠBaby":11804,"ĠCy":11805,"ĠCorn":11806,"Ġcarrier":11807,"ieval":11808,"quate":11809,"ĠEn":11810,"ĠErik":11811,"osie":11812,"Ġblo":11813,"Ġflung":11814,"ptic":11815,"istor":11816,"ĠLily":11817,"Ġcob":11818,"Ġlob":11819,"ĠRest":11820,"ĠPu":11821,"ĠPers":11822,"Ġpartying":11823,"Ġleftover":11824,"Ġkindergart":11825,"ĠGram":11826,"Ġunbut":11827,"Ġslant":11828,"Ġslower":11829,"Ġdisoriented":11830,"Ġlottery":11831,"Ġlongtime":11832,"Ġwonders":11833,"Ġswords":11834,"Ġstrewn":11835,"ĠKara":11836,"Ġelbows":11837,"Ġnightclub":11838,"Ġcontempt":11839,"Ġpointy":11840,"Ġcheaper":11841,"Ġgravity":11842,"psy":11843,"enex":11844,"Ġcompar":11845,"Ġrecy":11846,"Ġrecur":11847,"ĠVolks":11848,"Ġmeetings":11849,"Ġimpressive":11850,"Ġdraped":11851,"Ġretail":11852,"ĠUpt":11853,"Ġsurprising":11854,"Ġsurprises":11855,"Ġcape":11856,"Ġfireworks":11857,"Ġdistress":11858,"Ġexcess":11859,"Ġclimbs":11860,"ordan":11861,"Ġtreating":11862,"Ġhops":11863,"Ġsignature":11864,"Ġcharity":11865,"ĠBilly":11866,"Ġpackets":11867,"Ġdiscrim":11868,"Ġdesktop":11869,"lands":11870,"Ġminds":11871,"Ġexpose":11872,"Ġyellowish":11873,"Ġescapes":11874,"Ġraises":11875,"Ġfreeze":11876,"Ġmouths":11877,"Ġveil":11878,"Ġcountryside":11879,"Ġporcelain":11880,"Ġdealt":11881,"Ġsells":11882,"ĠDexter":11883,"Ġstripped":11884,"Ġwraps":11885,"Ġviews":11886,"Ġseparating":11887,"Ġcondoms":11888,"Ġperformed":11889,"ĠSimpsons":11890,"ĠOhio":11891,"Ġmistaken":11892,"Ġspeeds":11893,"Ġcigar":11894,"ĠHollow":11895,"Ġclubs":11896,"Ġcombat":11897,"Ġadvanced":11898,"Ġstabbing":11899,"ĠAbraham":11900,"Ġassignments":11901,"Ġcornfield":11902,"ĠMerchant":11903,"ĠJuliet":11904,"Ġfaculty":11905,"Ġflashback":11906,"Ġpoisoned":11907,"Ġgraduating":11908,"Ġencouraged":11909,"egas":11910,"Ġsmoothly":11911,"Ġurinated":11912,"Ġtanks":11913,"Ġannouncing":11914,"Ġreceptionist":11915,"Ġromance":11916,"ĠQueer":11917,"Ġaccounting":11918,"Ġspoiled":11919,"Ġgears":11920,"ĠMonica":11921,"ĠAustralian":11922,"handed":11923,"Ġprovide":11924,"Ġfortune":11925,"Ġimpatiently":11926,"Ġreassuring":11927,"ĠMorgan":11928,"Ġestab":11929,"Ġrevealed":11930,"Ġbuffalo":11931,"Ġchucked":11932,"Ġnuns":11933,"Ġswallowed":11934,"skirt":11935,"Ġbanged":11936,"rofoam":11937,"Ġmysterious":11938,"Ġhonestly":11939,"Ġsucceeded":11940,"Ġapplaud":11941,"Ġdisguised":11942,"Ġsevere":11943,"ĠNano":11944,"Ġsteward":11945,"Ġairline":11946,"Ġbrochure":11947,"Ġbudget":11948,"Ġsurvivors":11949,"Ġfierce":11950,"Ġpineapple":11951,"Ġribs":11952,"Ġattorney":11953,"Smallville":11954,"Ġmixture":11955,"Ġlimousine":11956,"ĠVolksw":11957,")<":11958,"01":11959,"21":11960,"Bonnie":11961,"Ex":11962,"LE":11963,"Lost":11964,"Mart":11965,"Mrs":11966,"bling":11967,"bacco":11968,"country":11969,"eous":11970,"fering":11971,"iable":11972,"mary":11973,"minded":11974,"oir":11975,"pity":11976,"su":11977,"tight":11978,"umber":11979,"war":11980,"ye":11981,"Ġtin":11982,"Ġturb":11983,"Ġapt":11984,"Ġwhar":11985,"inet":11986,"Ġomin":11987,"Ġmour":11988,"Ġmashed":11989,"Ġtobacco":11990,"hab":11991,"hard":11992,"Ġcater":11993,"Ġfitted":11994,"Ġdrying":11995,"Ġdomin":11996,"Ġlam":11997,"Ġlave":11998,"Ġlush":11999,"Ġlakes":12000,"Ġlids":12001,"Ġgir":12002,"Ġgambling":12003,"Ġpend":12004,"ener":12005,"ĠToy":12006,"ativity":12007,"Ġbeep":12008,"Ġbeast":12009,"Ġbefriend":12010,"ications":12011,"Ġrating":12012,"Ġrav":12013,"Ġrural":12014,"Ġec":12015,"also":12016,"ĠSU":12017,"ĠSV":12018,"ĠSeth":12019,"ĠSnow":12020,"rified":12021,"Ġanus":12022,"opran":12023,"Ġsake":12024,"ĠMort":12025,"Ġsock":12026,"Ġsoaking":12027,"Ġsolo":12028,"Ġorang":12029,"geant":12030,"Ġshred":12031,"rapped":12032,"Ġpla":12033,"Ġclips":12034,"Ġaloof":12035,"ĠBow":12036,"ĠBur":12037,"ĠBart":12038,"ĠBerg":12039,"Ġtags":12040,"Ġpeed":12041,"Ġpeak":12042,"Ġpeeling":12043,"Ġmanages":12044,"igail":12045,"ĠDee":12046,"Ġoverly":12047,"Ġhousekeeper":12048,"Ġdeceased":12049,"Ġflan":12050,"Ġflown":12051,"ĠNO":12052,"ĠNARR":12053,"ĠJordan":12054,"Ġvoted":12055,"ĠOli":12056,"ĠLan":12057,"Ġbuys":12058,"ĠMya":12059,"hedral":12060,"Ġsawdust":12061,"peare":12062,"agging":12063,"Ġbrace":12064,"Ġpreced":12065,"Ġquilt":12066,"Ġscree":12067,"ĠGail":12068,"Ġunre":12069,"Ġunatt":12070,"Ġunmar":12071,"ademy":12072,"Ġprincess":12073,"Ġ1000":12074,"Ġheadquarters":12075,"Ġshaken":12076,"Ġgreets":12077,"Ġgreasy":12078,"Ġranger":12079,"Ġgrind":12080,"Ġdesigner":12081,"Ġtrusted":12082,"Ġtricked":12083,"Ġspeeches":12084,"kespeare":12085,"Ġpassive":12086,"Ġrecess":12087,"Ġapron":12088,"Ġemails":12089,"ĠVegas":12090,"Ġcrate":12091,"Ġcrum":12092,"Ġelection":12093,"Ġstead":12094,"Ġmeter":12095,"cery":12096,"avil":12097,"Ġaccusing":12098,"Ġpasta":12099,"imba":12100,"Ġinterfere":12101,"Ġcleaners":12102,"Ġobli":12103,"Ġpatrol":12104,"Ġcontinually":12105,"ĠAlmost":12106,"Ġslowing":12107,"Ġpurses":12108,"Ġfootage":12109,"Ġassault":12110,"Ġdischar":12111,"Ġindirect":12112,"Ġsweating":12113,"Ġcopied":12114,"Ġartistic":12115,"ramer":12116,"Ġrained":12117,"Ġraincoat":12118,"Ġzip":12119,"Ġraising":12120,"Ġsuggestions":12121,"Ġodds":12122,"Ġdolly":12123,"Ġvanilla":12124,"Ġsunshine":12125,"ĠSeems":12126,"Ġawareness":12127,"Ġmonkeys":12128,"Ġtravels":12129,"Ġmedieval":12130,"Ġcalf":12131,"Ġlowered":12132,"Ġnervously":12133,"Ġbalancing":12134,"Ġcarton":12135,"ĠLyle":12136,"Ġprograms":12137,"ĠWillow":12138,"Ġlabeled":12139,"Ġprojector":12140,"ĠReal":12141,"Ġplatoon":12142,"Ġpeeing":12143,"Ġdecorating":12144,"Ġcells":12145,"Ġsharks":12146,"Ġpsychologist":12147,"Ġplatforms":12148,"Ġerotic":12149,"Ġhosting":12150,"Ġadvance":12151,"Ġbumping":12152,"ĠAbigail":12153,"Ġroughly":12154,"Ġdimens":12155,"ĠWithout":12156,"Ġrifles":12157,"ĠRussians":12158,"ĠAmelia":12159,"Ġgowns":12160,"ĠJanice":12161,"Ġaiming":12162,"ettes":12163,"Ġtossing":12164,"ĠPeru":12165,"ĠLouie":12166,"ĠHanson":12167,"Ġdevices":12168,"Ġpuppets":12169,"Ġscripts":12170,"Ġdevelopment":12171,"Ġprinciple":12172,"Ġchannels":12173,"Ġexplodes":12174,"Ġflirted":12175,"regular":12176,"Ġgallon":12177,"Ġfortunately":12178,"Ġcomedian":12179,"Ġgymnastic":12180,"Ġintellect":12181,"Ġhamburgers":12182,"Ġsheepish":12183,"ĠAcademy":12184,"Ġdispens":12185,"Ġaccomplished":12186,"Ġoverhear":12187,"Ġfluid":12188,"Ġbanging":12189,"Ġalternative":12190,"Ġhorizontally":12191,"Ġheavier":12192,"Ġcushions":12193,"Ġempathy":12194,"Ġsamples":12195,"Ġgraphic":12196,"Ġdisguise":12197,"Ġcautiously":12198,"ĠTrek":12199,"ĠWayne":12200,"Ġfixture":12201,"ĠMurphy":12202,"Ġdismissed":12203,"Ġsouthern":12204,"Ġsituations":12205,"Ġbenefit":12206,"Ġresigned":12207,"Ġefficient":12208,"Ġassertive":12209,"Ġdiagonally":12210,"Ġsubmerged":12211,"Ġtuxed":12212,"Ġwaterslide":12213,"ĠBatman":12214,"Ġeyebrows":12215,"ĠFatima":12216,"Ġintricate":12217,"ĠBesides":12218,"Ġapparatus":12219,"ĠColorado":12220,"ĠKleenex":12221,"Ġcrutches":12222,"Ġkindergarten":12223,"ĠUptown":12224,"ĠVolkswagen":12225,")</":12226,"35":12227,"Barb":12228,"Gee":12229,"Her":12230,"Michael":12231,"PC":12232,"Super":12233,"TA":12234,"TH":12235,"Wor":12236,"Was":12237,"dark":12238,"fold":12239,"gard":12240,"hift":12241,"little":12242,"lph":12243,"mad":12244,"moon":12245,"slee":12246,"small":12247,"ucer":12248,"vation":12249,"xx":12250,"hearted":12251,"Ġmos":12252,"Ġmoust":12253,"Ġtopp":12254,"Ġwanders":12255,"hane":12256,"iter":12257,"Ġcure":12258,"Ġfiddle":12259,"Ġfiction":12260,"Ġdimes":12261,"Ġlung":12262,"Ġlaps":12263,"Ġgut":12264,"Ġgrou":12265,"Ġpure":12266,"Ġpaws":12267,"ario":12268,"orial":12269,"Ġhind":12270,"uten":12271,"another":12272,"eting":12273,"ĠTinker":12274,"atis":12275,"Ġnoodles":12276,"Ġstages":12277,"Ġstrolling":12278,"Ġrally":12279,"Ġrein":12280,"Ġsealed":12281,"ĠSF":12282,"Ġuppity":12283,"urable":12284,"ĠHave":12285,"ĠHug":12286,"Ġdolph":12287,"ĠWin":12288,"Ġascend":12289,"Ġsailed":12290,"asingly":12291,"Ġyoga":12292,"Ġarena":12293,"Ġabused":12294,"Ġsocket":12295,"Ġroar":12296,"Ġneon":12297,"raph":12298,"ros":12299,"elena":12300,"Ġleash":12301,"Ġleaps":12302,"Ġleague":12303,"Ġknight":12304,"Ġknick":12305,"unning":12306,"cember":12307,"Ġintr":12308,"ilia":12309,"care":12310,"Ġalter":12311,"Ġalma":12312,"usely":12313,"ĠBlo":12314,"ĠBroud":12315,"Ġtavern":12316,"ĠCont":12317,"ĠCase":12318,"ĠCamp":12319,"ĠCount":12320,"ĠCountry":12321,"ĠCircle":12322,"Ġcompelled":12323,"Ġteased":12324,"Ġsumm":12325,"ĠDC":12326,"Ġcanoes":12327,"ĠEs":12328,"ĠEileen":12329,"Ġdonut":12330,"Ġtalented":12331,"Ġflirty":12332,"ĠJosie":12333,"Ġvic":12334,"Ġvirt":12335,"female":12336,"ĠFortun":12337,"ĠLenn":12338,"ĠLuther":12339,"ĠRooks":12340,"Ġchute":12341,"ĠPitt":12342,"plom":12343,"vena":12344,"Ġdrip":12345,"ĠGro":12346,"aternal":12347,"Ġlotion":12348,"Ġdecisions":12349,"Ġsmallest":12350,"Ġproduced":12351,"Ġenlar":12352,"Ġunderpants":12353,"Ġholl":12354,"Ġhuh":12355,"Ġattent":12356,"Ġtrape":12357,"ĠKyl":12358,"ĠKramer":12359,"Ġbitter":12360,"liked":12361,"Ġtram":12362,"Ġskys":12363,"Ġsnide":12364,"Ġsnotty":12365,"Ġresidence":12366,"Ġcrad":12367,"ĠUF":12368,"Ġminim":12369,"Ġaccents":12370,"inson":12371,"onde":12372,"Ġdistrict":12373,"Ġsergeant":12374,"Ġexcuses":12375,"Ġtowns":12376,"ucks":12377,"phones":12378,"!\",":12379,"ĠPeggy":12380,"spond":12381,"Ġassures":12382,"Ġdiscount":12383,"ĠDarcy":12384,"ĠMari":12385,"Ġsympt":12386,"Ġsubstitute":12387,"ĠFranco":12388,"ĠHeroes":12389,"ĠUnion":12390,"Ġproposed":12391,"Ġdiplom":12392,"ĠDoes":12393,"ĠNevena":12394,"Ġmakeshift":12395,"Ġpossessions":12396,"Ġfreaking":12397,"Ġprofusely":12398,"Ġtelep":12399,"Ġcalmed":12400,"ĠKeith":12401,"ĠDev":12402,"ĠDecember":12403,"ĠPaula":12404,"Ġrailings":12405,"Ġgrowth":12406,"Ġdescribes":12407,"Ġcliffs":12408,"Ġplatter":12409,"Ġhunters":12410,"Ġcharacteristics":12411,"Ġphotography":12412,"Ġsmelly":12413,"Ġhighest":12414,"Ġguarded":12415,"Ġstretcher":12416,"Ġstrangest":12417,"Ġnewsletter":12418,"Ġfarmhouse":12419,"Ġinterviewed":12420,"ĠPhys":12421,"Ġaddresses":12422,"Ġacquired":12423,"Ġabsence":12424,"Ġdisturbance":12425,"Ġmillions":12426,"ĠFluffy":12427,"Ġhonored":12428,"Ġpersistent":12429,"shirts":12430,"Ġrapids":12431,"Ġstructures":12432,"Ġcurrents":12433,"Ġcurrently":12434,"Ġurinating":12435,"ĠBetween":12436,"ĠChester":12437,"Ġversa":12438,"Ġslamming":12439,"ĠComm":12440,"Ġpursuit":12441,"Ġpuppet":12442,"Ġincidentally":12443,"seeing":12444,"Ġgiggled":12445,"Ġappreciated":12446,"kerchief":12447,"Ġpouch":12448,"Ġremodeling":12449,"Ġtechnology":12450,"Ġvolunteered":12451,"Ġmagnificent":12452,"ĠJoseph":12453,"Ġclutch":12454,"Ġstares":12455,"ĠThurman":12456,"ĠWhoever":12457,"Ġcommanded":12458,"Ġsailors":12459,"Ġjammed":12460,"Ġchapter":12461,"ĠInter":12462,"Ġlandlady":12463,"Ġelectronics":12464,"Ġdownloaded":12465,"Ġblurred":12466,"ĠTraining":12467,"Ġstingy":12468,"Ġdelayed":12469,"Ġanticipation":12470,"ĠGraham":12471,"Ġstrands":12472,"Ġlaboratory":12473,"Ġcorrespond":12474,"Ġbookshelf":12475,"Ġscolded":12476,"Ġseverely":12477,"Ġrecommend":12478,"Ġsquirted":12479,"Ġpyramid":12480,"Ġgraceful":12481,"ĠApril":12482,"Ġhandwriting":12483,"Ġgrenade":12484,"Ġhistorical":12485,"Ġsixth":12486,"Ġprospect":12487,"Ġhandicapped":12488,"Ġastron":12489,"ĠToby":12490,"ĠDepartment":12491,"ĠPsychology":12492,"ĠGavin":12493,"Ġlibrarian":12494,"ĠOlymp":12495,"ĠFrisbee":12496,"Ġfemales":12497,"Ġclaustrophobic":12498,"ĠBaldwin":12499,"Ġdictionary":12500,"ĠAlleycat":12501,"Ġlavender":12502,"avilion":12503,"Ġskyscra":12504,"Dw":12505,"Dora":12506,"Ge":12507,"Had":12508,"Mr":12509,"Rob":12510,"aud":12511,"cies":12512,"fying":12513,"ga":12514,"kind":12515,"mom":12516,"mouth":12517,"mended":12518,"note":12519,"oven":12520,"pir":12521,"say":12522,"squ":12523,"show":12524,"uy":12525,"yn":12526,"zan":12527,"zens":12528,"Ġiv":12529,"Ġtame":12530,"Ġwired":12531,"inarily":12532,"Ġswo":12533,"Ġsacks":12534,"Ġbinder":12535,"Ġmama":12536,"haw":12537,"itled":12538,"Ġcos":12539,"Ġcue":12540,"Ġdairy":12541,"Ġlink":12542,"Ġlicking":12543,"Ġgn":12544,"Ġgaze":12545,"Ġprow":12546,"Ġpert":12547,"Ġpaw":12548,"Ġpunk":12549,"enced":12550,"Ġhudd":12551,"Ġhamm":12552,"Ġweaving":12553,"Ġheated":12554,"ĠTam":12555,"ĠTal":12556,"ĠTop":12557,"ĠTell":12558,"atching":12559,"leg":12560,"Ġbeck":12561,"aco":12562,"Ġstated":12563,"ldg":12564,"Ġrump":12565,"Ġraging":12566,"Ġreel":12567,"Ġecho":12568,"Ġsevered":12569,"enties":12570,"adel":12571,"ĠSimba":12572,"ĠAbby":12573,"urk":12574,"Ġoutrage":12575,"ĠHol":12576,"ĠWalk":12577,"asion":12578,"ascal":12579,"ĠMack":12580,"ĠMah":12581,"Ġabroad":12582,"Ġsoak":12583,"Ġoral":12584,"Ġframed":12585,"Ġfruits":12586,"roe":12587,"roken":12588,"pposed":12589,"Ġknot":12590,"Ġcler":12591,"Ġclam":12592,"Ġclicked":12593,"ĠBas":12594,"ĠBush":12595,"Ġtablets":12596,"Ġfever":12597,"ĠCher":12598,"ĠCos":12599,"mbling":12600,"ĠDS":12601,"ĠDen":12602,"Ġoverall":12603,"Ġoverpass":12604,"Ġcannon":12605,"Ġcanopy":12606,"quaint":12607,"Ġspi":12608,"Ġspont":12609,"Ġspear":12610,"Ġspiff":12611,"Ġwhereas":12612,"Ġremake":12613,"izard":12614,"Ġmoaning":12615,"Ġtimet":12616,"Ġflavor":12617,"ĠJasper":12618,"ĠFil":12619,"ĠFarm":12620,"Ġchaos":12621,"ĠLeah":12622,"Ġremembers":12623,"ĠRome":12624,"ĠRuth":12625,"ĠPen":12626,"ĠPoint":12627,"Ġbraces":12628,"Ġquant":12629,"Ġquitting":12630,"Ġscales":12631,"Ġhandgun":12632,"ĠGill":12633,"Ġdecent":12634,"Ġopenings":12635,"thod":12636,"Ġswell":12637,"Ġlargest":12638,"Ġheadache":12639,"Ġgrid":12640,"Ġsupporting":12641,"vieve":12642,"Ġprett":12643,"Ġsleeps":12644,"Ġsnaps":12645,"Ġ300":12646,"Ġparrot":12647,"Ġhalluc":12648,"ĠVI":12649,"ĠVi":12650,"Ġmeets":12651,"Ġads":12652,"Ġador":12653,"Ġangled":12654,"Ġredec":12655,"--,":12656,"Ġaccus":12657,"ugust":12658,"Ġbarren":12659,"phia":12660,"Ġpatrons":12661,"ĠAlvin":12662,"Ġrefuge":12663,"Ġterrit":12664,"Ġrowboat":12665,"Ġextend":12666,"Ġrecognizing":12667,"Ġrecognizes":12668,"Ġregain":12669,"Ġbrownish":12670,"Ġexpans":12671,"Ġexposing":12672,"Ġcabins":12673,"Ġunconcer":12674,"Ġappearing":12675,"Ġaddressed":12676,"Ġcamps":12677,"ĠArts":12678,"Ġpanicking":12679,"ĠFranklin":12680,"Ġexperiments":12681,"urbed":12682,"Ġstrikes":12683,"ĠCoast":12684,"Ġflats":12685,"Ġignition":12686,"Ġskinned":12687,"ĠAnnette":12688,"Ġemployer":12689,"Ġdefending":12690,"Ġcryst":12691,"Ġowl":12692,"......":12693,"Ġpeeked":12694,"Ġhunted":12695,"Ġsharply":12696,"ĠShop":12697,"Ġcarpeting":12698,"ĠAdams":12699,"Ġspreadshe":12700,"Ġcapacity":12701,"ĠWilma":12702,"Ġpurposes":12703,"ĠIsa":12704,"Ġabsor":12705,"Ġdigital":12706,"Ġresembling":12707,"Ġdimension":12708,"Ġoccasional":12709,"ĠPoppers":12710,"plexed":12711,"isticated":12712,"Ġpunishment":12713,"Ġcontestants":12714,"Ġexercising":12715,"Ġbasis":12716,"Ġplainly":12717,"Ġchoking":12718,"ĠJayne":12719,"ĠSuperman":12720,"ĠLouis":12721,"Isn":12722,"Ġnapkin":12723,"Ġelephants":12724,"Ġfragile":12725,"Ġfragments":12726,"ĠMonroe":12727,"ĠNegroes":12728,"ĠHelp":12729,"Ġliner":12730,"Ġrevealing":12731,"Ġcrouch":12732,"Going":12733,"ĠPhilip":12734,"ĠPhiladel":12735,"Ġscruffy":12736,"Ġcapsule":12737,"Ġaccordion":12738,"ĠMontana":12739,"ĠArabs":12740,"ĠEliza":12741,"Ġoverflow":12742,"Ġcoworkers":12743,"Ġmobile":12744,"Ġcrafts":12745,"Ġnonchalant":12746,"Ġscientific":12747,"Ġpronounce":12748,"Ġstranded":12749,"Ġrobbery":12750,"Ġferoc":12751,"Ġsoothe":12752,"Ġunpacking":12753,"Ġclinging":12754,"Ġcolleague":12755,"Ġvending":12756,"ĠLuke":12757,"ĠLoren":12758,"ĠDrive":12759,"Ġrecommended":12760,"Ġcontrast":12761,"Ġdefecate":12762,"Ġcherry":12763,"Ġaspects":12764,"Ġchewed":12765,"Ġthoroughly":12766,"Ġbolts":12767,"ĠGenevieve":12768,"Ġchimney":12769,"Ġphilosophy":12770,"Ġlandscaping":12771,"icardo":12772,"Ġlollies":12773,"Ġlounging":12774,"Ġrubbish":12775,"Ġconveyor":12776,"ĠSquare":12777,"Ġingred":12778,"Ġescort":12779,"About":12780,"Ġrooft":12781,"Ġdiagram":12782,"Ġpublished":12783,"Ġboulders":12784,"Ġoctopus":12785,"Ġplywood":12786,"Ġominous":12787,"ĠLennon":12788,"Dwight":12789,"Ġspiffy":12790,"Ġterritory":12791,"ĠPhiladelphia":12792,"\")":12793,"Bob":12794,"Dar":12795,"Derek":12796,"God":12797,"IC":12798,"Setting":12799,"Sorry":12800,"Work":12801,"Walking":12802,"aign":12803,"bast":12804,"barrow":12805,"basket":12806,"cor":12807,"cca":12808,"cont":12809,"fr":12810,"fig":12811,"las":12812,"long":12813,"life":12814,"mers":12815,"mite":12816,"nna":12817,"pill":12818,"vals":12819,"zart":12820,"zona":12821,"Ġ/":12822,"Ġtel":12823,"Ġtumb":12824,"Ġwrigg":12825,"inat":12826,"Ġsip":12827,"ndown":12828,"Ġoat":12829,"inging":12830,"Ġbatt":12831,"Ġming":12832,"Ġmim":12833,"Ġmound":12834,"Ġmesh":12835,"Ġtomb":12836,"itable":12837,"Ġcities":12838,"eros":12839,"Ġfuse":12840,"Ġfian":12841,"Ġfaking":12842,"Ġfisher":12843,"Ġfoul":12844,"Ġdarts":12845,"Ġpha":12846,"Ġpity":12847,"Ġpuffy":12848,"Ġpige":12849,"Ġhus":12850,"Ġweeping":12851,"owers":12852,"Ġoncoming":12853,"idate":12854,"Ġstacking":12855,"ician":12856,"Ġridden":12857,"Ġreject":12858,"Ġult":12859,"iro":12860,"ĠSun":12861,"ĠSort":12862,"ĠAustin":12863,"Ġouts":12864,"ĠHU":12865,"Ġaspha":12866,"oped":12867,"ophane":12868,"chy":12869,"ĠMisty":12870,"Ġrobber":12871,"Ġshines":12872,"raged":12873,"Ġjug":12874,"Ġdiddling":12875,"Ġclipp":12876,"Ġclues":12877,"caster":12878,"ĠBall":12879,"ĠBurn":12880,"ĠBrent":12881,"ĠBern":12882,"Ġfeared":12883,"ĠDew":12884,"ĠDog":12885,"ĠDrew":12886,"ĠDept":12887,"ĠDDS":12888,"Ġoverd":12889,"Ġdreamer":12890,"ĠEnd":12891,"olved":12892,"Ġguiding":12893,"Ġspins":12894,"Ġspons":12895,"Ġvoc":12896,"ĠFer":12897,"ĠFried":12898,"ĠFamily":12899,"Ġchained":12900,"ĠLen":12901,"ĠLau":12902,"Ġbuckets":12903,"ĠRR":12904,"ĠRV":12905,"ĠRain":12906,"ĠRene":12907,"ilda":12908,"ĠPut":12909,"ĠPass":12910,"ĠPort":12911,"ummer":12912,"Ġleftovers":12913,"aph":12914,"apidated":12915,"Ġscope":12916,"Ġhandkerchief":12917,"ĠGard":12918,"Ġslapping":12919,"Ġdisks":12920,"Ġwatering":12921,"athon":12922,"Ġendless":12923,"Ġswerve":12924,"Ġpride":12925,"coon":12926,"Ġstreaks":12927,"Ġattacks":12928,"ĠKit":12929,"ĠKore":12930,"Ġshabby":12931,"Ġshawl":12932,"Ġgreens":12933,"Ġglances":12934,"Ġglitter":12935,"Ġcleare":12936,"Ġtroops":12937,"Ġyearbook":12938,"Ġhairs":12939,"Ġcompass":12940,"Ġcompare":12941,"Ġcornered":12942,"rise":12943,"Ġbathrobe":12944,"Ġbelts":12945,"Ġhardwood":12946,"Ġarmor":12947,"Ġentitled":12948,"ĠYeah":12949,"aughty":12950,"Ġcram":12951,"itchell":12952,"Ġstepmother":12953,"Ġaircraft":12954,"Ġpolish":12955,"Ġpaste":12956,"Ġpastel":12957,"ivan":12958,"Ġfiremen":12959,"Ġdistribut":12960,"Ġvisits":12961,"Ġnumb":12962,"Ġquicker":12963,"Ġwarming":12964,"Ġsounding":12965,"Ġcharm":12966,"ĠWhich":12967,"Ġfootprints":12968,"Ġannoys":12969,"uced":12970,"uccess":12971,"Ġhotels":12972,"Ġbelieving":12973,"Ġconcerns":12974,"Ġdisconnected":12975,"Ġrowdy":12976,"Ġindifferent":12977,"Ġmature":12978,"Ġ68":12979,"iversary":12980,"Ġfacts":12981,"Ġspecies":12982,"Ġhurric":12983,"orky":12984,"Ġpropped":12985,"Ġpropriet":12986,"Ġzo":12987,"Ġinsisting":12988,"Ġinvolve":12989,"Ġconsist":12990,"Ġruins":12991,"Ġformula":12992,"uffin":12993,"Ġboarded":12994,"Ġpresenting":12995,"ĠMegan":12996,"Ġstaircases":12997,"Ġpractical":12998,"Ġmentioning":12999,"Ġcarts":13000,"Ġhopefully":13001,"Ġbulls":13002,"Ġadmired":13003,"Ġdifficulties":13004,"Ġpianos":13005,"ĠBarrie":13006,"Ġcharacteristic":13007,"Ġpaintball":13008,"Ġcellophane":13009,"Ġlawns":13010,"ĠJeep":13011,"oleum":13012,"Ġcouncil":13013,"Ġ_________":13014,"Ġclocks":13015,"Ġresponding":13016,"Ġbothers":13017,"Ġhandlebars":13018,"Ġstrang":13019,"Ġmanagement":13020,"Ġeru":13021,"meal":13022,"ĠPhill":13023,"Ġrenting":13024,"ossibly":13025,"ĠMills":13026,"Ġsneakers":13027,"Ġjealousy":13028,"Ġbehave":13029,"Ġrehearse":13030,"ĠLakeland":13031,"Ġdevast":13032,"Ġconsiderably":13033,"ĠShakespeare":13034,"Ġwounds":13035,"Ġsquirrels":13036,"Ġexpressing":13037,"Ġchallenged":13038,"ĠPresently":13039,"Ġselect":13040,"Ġtitles":13041,"ĠPrince":13042,"ĠPrincess":13043,"Ġconfrontation":13044,"Ġservants":13045,"Ġlinoleum":13046,"AND":13047,"ĠGuy":13048,"Ġdescended":13049,"ĠBoys":13050,"Ġpassageway":13051,"Ġscrub":13052,"Ġdesserts":13053,"Ġwhispering":13054,"ĠNaver":13055,"Ġplugs":13056,"Ġfantastic":13057,"Ġswimsuit":13058,"Ġintentionally":13059,"Ġintelligence":13060,"Ġalbums":13061,"ĠGlenn":13062,"Ġswampy":13063,"Ġintentions":13064,"Ġtriangular":13065,"Ġ_______________":13066,"ĠHugh":13067,"Ġstumble":13068,"ĠBraille":13069,"Ġrearranged":13070,"Ġsketchy":13071,"Ġrhino":13072,"Ġculture":13073,"ĠTarzan":13074,"Ġobscure":13075,"Ġhoneymoon":13076,"Ġcontraption":13077,"Uncle":13078,"ĠFreud":13079,"ĠLeonard":13080,"Blue":13081,"Ġsatisfaction":13082,"Ġdilapidated":13083,"Ġbruised":13084,"Ġdistinguish":13085,"Ġbetrayed":13086,"Ġsophisticated":13087,"Ġincorrect":13088,"ĠCentral":13089,"Ġrecreation":13090,"Ġprecisely":13091,"Ġunstable":13092,"People":13093,"function":13094,"ĠWyatt":13095,"Ġzipper":13096,"Ġbrilliant":13097,"Ġconfirmed":13098,"rofessor":13099,"Ġnavig":13100,"Ġachieve":13101,"Ġnonsense":13102,"Ġopponent":13103,"adillac":13104,"oprano":13105,"Working":13106,"sleeved":13107,"Ġmosquit":13108,"ĠFortunately":13109,"ĠUFO":13110,"Ġsymptoms":13111,"Ġtimetable":13112,"bastian":13113,"Ġoatmeal":13114,"ĠDDSI":13115,"?,\"":13116,"Again":13117,"Big":13118,"Dav":13119,"GE":13120,"Grand":13121,"Ly":13122,"Man":13123,"NA":13124,"OD":13125,"OL":13126,"TER":13127,"aults":13128,"fi":13129,"face":13130,"hou":13131,"jack":13132,"kah":13133,"list":13134,"mes":13135,"net":13136,"po":13137,"rant":13138,"uished":13139,"vial":13140,"Ãķ":13141,"Ġic":13142,"Ġtact":13143,"Ġwins":13144,"Ġwestern":13145,"Ġshat":13146,"reed":13147,"Ġobey":13148,"Ġmint":13149,"Ġmates":13150,"Ġmittens":13151,"Ġton":13152,"Ġwanna":13153,"itations":13154,"ero":13155,"ede":13156,"Ġfidd":13157,"Ġfainted":13158,"ounder":13159,"Ġpamp":13160,"Ġpuck":13161,"Ġpaternal":13162,"Ġpavilion":13163,"utation":13164,"anked":13165,"eted":13166,"Ġonion":13167,"oty":13168,"othea":13169,"ĠTon":13170,"ĠTrou":13171,"ĠTry":13172,"ĠTara":13173,"ĠTrue":13174,"leen":13175,"usse":13176,"Ġstung":13177,"Ġstamped":13178,"Ġrul":13179,"Ġratt":13180,"Ġrins":13181,"Ġrasp":13182,"Ġrehab":13183,"sec":13184,"stract":13185,"adoes":13186,"ĠSitting":13187,"ĠSears":13188,"ĠAugust":13189,"Ġforb":13190,"ĠWW":13191,"ĠWoman":13192,"ĠMust":13193,"ĠMast":13194,"Ġabd":13195,"Ġshone":13196,"rail":13197,"rob":13198,"illian":13199,"Ġplaster":13200,"Ġlever":13201,"ctob":13202,"unate":13203,"Ġclapping":13204,"Ġintact":13205,"ili":13206,"ĠBad":13207,"ĠBate":13208,"endy":13209,"ĠCurt":13210,"Ġcomple":13211,"Ġteases":13212,"ĠDana":13213,"Ġbold":13214,"Ġovercoat":13215,"Ġdefect":13216,"quis":13217,"ulum":13218,"Ġdonkey":13219,"Ġspaced":13220,"Ġremorse":13221,"ĠNils":13222,"Ġvases":13223,"ĠOre":13224,"essing":13225,"ĠFish":13226,"ĠFido":13227,"ĠLA":13228,"ĠLand":13229,"Ġsites":13230,"eston":13231,"estyle":13232,"Ġcoy":13233,"Ġcozy":13234,"Ġrealistic":13235,"ĠRee":13236,"ĠRonald":13237,"ĠRimmer":13238,"abby":13239,"ĠPan":13240,"ĠPost":13241,"Ġpoly":13242,"Ġbrun":13243,"Ġpreoccup":13244,"Ġquizz":13245,"Ġhandled":13246,"ĠGame":13247,"Ġunaware":13248,"Ġslush":13249,"Ġslats":13250,"Ġdisrupt":13251,"aunt":13252,"odge":13253,"Ġener":13254,"Ġprince":13255,"Ġprinter":13256,"aryn":13257,"ĠKirk":13258,"Ġhighschool":13259,"Ġjogging":13260,"Ġjockey":13261,"Ġlightweight":13262,"ĠStone":13263,"Ġgravy":13264,"ĠInn":13265,"Ġbreed":13266,"ensed":13267,"Ġlasted":13268,"ogen":13269,"Ġmarbles":13270,"Ġplanks":13271,"Ġadoles":13272,"Ġnevertheless":13273,"Ġmeters":13274,"Ġretain":13275,"Ġinvasion":13276,"anky":13277,"Ġinterpre":13278,"Ġinterfering":13279,"Ġconfirm":13280,"Ġexcused":13281,"Ġbargain":13282,"Ġbarrels":13283,"Ġgreenish":13284,"Ġfours":13285,"Ġcrabs":13286,"Ġpatiently":13287,"ĠAlways":13288,"ĠAlicia":13289,"Ġcharges":13290,"aurants":13291,"Ġelevated":13292,"Ġwheelbarrow":13293,"ccas":13294,"ĠBrun":13295,"ĠBridge":13296,"Ġforgive":13297,"ĠMarl":13298,"Ġcrossword":13299,"Ġrecognition":13300,"Ġtwisting":13301,"Ġcopying":13302,"Ġsubs":13303,"Ġsubconscious":13304,"Ġprops":13305,"Ġconsists":13306,"ervice":13307,"Ġapproval":13308,"Ġenjoyment":13309,"ĠForce":13310,"Ġvarn":13311,"Ġdealers":13312,"Ġpushy":13313,"Ġgasp":13314,"Ġviewing":13315,"Ġburns":13316,"astern":13317,"Ġirregular":13318,"Ġintroducing":13319,"Ġbanjo":13320,"Ġprivile":13321,"Ġgardens":13322,"Ġextraord":13323,"Ġaccepts":13324,"Ġacceptable":13325,"Ġantagon":13326,"flies":13327,"Ġeffective":13328,"ottom":13329,"ĠWilson":13330,"related":13331,"ĠNatasha":13332,"Ġsurvival":13333,"ĠMermaid":13334,"Ġlumber":13335,"Ġcubby":13336,"Ġcelebrity":13337,"ĠGrease":13338,"Ġbunches":13339,"Ġfuel":13340,"Ġdishwas":13341,"Ġmedication":13342,"Ġbending":13343,"Ġunsuccess":13344,"Ġtricky":13345,"ĠHarvey":13346,"Ġverge":13347,"Ġdental":13348,"Ġlanguages":13349,"ĠMozart":13350,"ĠDelon":13351,"Ġrubs":13352,"Ġpaddling":13353,"ĠReserve":13354,"Because":13355,"Ġselected":13356,"ĠSwed":13357,"ĠMoran":13358,"Ġholidays":13359,"Ġcrumbs":13360,"Ġeldest":13361,"Ġfluorescent":13362,"ĠJoshua":13363,"Ġclaimed":13364,"Ġduties":13365,"ĠArizona":13366,"Ġresidents":13367,"Ġnearer":13368,"Ġdrummer":13369,"Ġhypnot":13370,"Ġbustling":13371,"Ġembraced":13372,"Ġboombox":13373,"Ġscientist":13374,"Ġknobs":13375,"Ġdawned":13376,"Ġferret":13377,"Ġsoothing":13378,"ĠJacob":13379,"Ġmildly":13380,"Ġprecariously":13381,"ĠEuchar":13382,"ĠRhonda":13383,"Ġdungeon":13384,"Ġsacri":13385,"Ġhairdo":13386,"Ġhairdress":13387,"Ġvulner":13388,"Ġpenetrate":13389,"ĠMarcia":13390,"Ġarchitect":13391,"Ġfigurines":13392,"ĠStanley":13393,"ĠOlson":13394,"Ġangels":13395,"ĠChapman":13396,"Ġrepulsed":13397,"Ġreservation":13398,"Ġacknowledged":13399,"ĠSophia":13400,"ĠLarge":13401,"Ġcoincidence":13402,"ĠHasani":13403,"Ġinspection":13404,"ĠShannon":13405,"ĠHitler":13406,"Ġstewardess":13407,"Ġwharf":13408,"Ġcaterpill":13409,"ĠBergman":13410,"Ġflannel":13411,"Ġintellectual":13412,"Ġdispenser":13413,"ĠTinkerbell":13414,"Ġvicinity":13415,"George":13416,"Ġperturbed":13417,"quaintance":13418,"Ġunconcerned":13419,"Ġingredients":13420,"Ġfianc":13421,"David":13422,"ctober":13423,"ĠBateman":13424,"Ġdishwasher":13425,").\"":13426,"26":13427,"Buffy":13428,"DI":13429,"Driving":13430,"Ginny":13431,"IVE":13432,"Jake":13433,"Ok":13434,"Rem":13435,"Take":13436,"Wendy":13437,"bul":13438,"bound":13439,"bread":13440,"broken":13441,"cam":13442,"dney":13443,"ez":13444,"hire":13445,"ih":13446,"know":13447,"lady":13448,"lance":13449,"nik":13450,"ras":13451,"ser":13452,"tons":13453,"taking":13454,"tray":13455,"vard":13456,"vable":13457,"Ġtuck":13458,"Ġauction":13459,"Ġsan":13460,"Ġsunk":13461,"Ġther":13462,"Ġbathe":13463,"Ġwade":13464,"itiz":13465,"Ġfri":13466,"Ġfate":13467,"Ġfade":13468,"Ġfurt":13469,"Ġfading":13470,"Ġfucking":13471,"Ġdom":13472,"Ġlur":13473,"Ġlisting":13474,"Ġpall":13475,"Ġpane":13476,"Ġpitched":13477,"Ġpatted":13478,"arl":13479,"orig":13480,"ĠTor":13481,"ĠTow":13482,"atu":13483,"legged":13484,"acha":13485,"ĠThea":13486,"Ġstem":13487,"Ġrash":13488,"Ġraced":13489,"Ġrefere":13490,"Ġreins":13491,"Ġrecept":13492,"Ġreimb":13493,"Ġrewind":13494,"kered":13495,"Ġeel":13496,"ooh":13497,"oos":13498,"irs":13499,"adies":13500,"ĠSa":13501,"ĠSing":13502,"Ġgoss":13503,"riel":13504,"riers":13505,"Ġuptown":13506,"Ġforcing":13507,"Ġkit":13508,"Ġoutskirt":13509,"ĠHor":13510,"opoly":13511,"ĠMath":13512,"ĠMob":13513,"ĠMitch":13514,"ĠMaster":13515,"ioned":13516,"Ġabstract":13517,"Ġsoil":13518,"raw":13519,"Ġjazz":13520,"Ġwheat":13521,"Ġplun":13522,"ĠBee":13523,"Ġtapping":13524,"Ġfender":13525,"ĠCC":13526,"ĠCPR":13527,"ĠCadillac":13528,"Ġgotta":13529,"ĠDustin":13530,"Ġhousehold":13531,"Ġdejected":13532,"aston":13533,"ĠEagle":13534,"ola":13535,"oln":13536,"Ġsped":13537,"Ġsponge":13538,"izers":13539,"Ġblob":13540,"Ġbloke":13541,"Ġmoist":13542,"Ġflick":13543,"Ġflaming":13544,"Ġvand":13545,"ĠOs":13546,"ĠOdd":13547,"ĠOctober":13548,"ĠFur":13549,"ĠFood":13550,"ĠFive":13551,"ĠFillion":13552,"Ġchamber":13553,"ĠRicardo":13554,"Ġchores":13555,"ĠPear":13556,"ĠProbably":13557,"ousing":13558,"Ġkeen":13559,"Ġparted":13560,"agan":13561,"Ġbrushes":13562,"rubs":13563,"Ġsche":13564,"Ġscored":13565,"Ġkindly":13566,"Ġhandling":13567,"ĠThink":13568,"Ġunravel":13569,"Ġslave":13570,"Ġslither":13571,"Ġdisliked":13572,"Ġopenly":13573,"Ġprostit":13574,"rance":13575,"Ġens":13576,"Ġswarm":13577,"actica":13578,"Ġsorted":13579,"Ġafterward":13580,"ĠKie":13581,"ĠKath":13582,"ĠKaryn":13583,"Ġchef":13584,"lia":13585,"ĠStand":13586,"Ġgrain":13587,"Ġshoving":13588,"ĠAtt":13589,"Ġcomparing":13590,"Ġperplexed":13591,"enson":13592,"Ġrestaurants":13593,"Ġmarathon":13594,"ĠChop":13595,"Ġadam":13596,"Ġadapt":13597,"Ġawning":13598,"Ġredo":13599,"Ġcrunch":13600,"Ġcrusty":13601,"attlest":13602,"Ġinstalled":13603,"ĠUte":13604,"----":13605,"Ġaccum":13606,"Ġinterven":13607,"Ġinteraction":13608,"upon":13609,"Ġanniversary":13610,"Ġupsetting":13611,"Ġfastened":13612,"Ġsermon":13613,"Ġexcl":13614,"Ġbarber":13615,"ĠJoanne":13616,"Ġwarns":13617,"Ġpatron":13618,"Ġtroubles":13619,"Ġprescription":13620,"Ġeditor":13621,"heads":13622,"ĠAlain":13623,"ovember":13624,"Ġfooting":13625,"Ġboyfriends":13626,"spons":13627,"Ġcurling":13628,"Ġreputation":13629,"Ġstray":13630,"Ġstrate":13631,"Ġarrival":13632,"Ġdiscoura":13633,"ĠBridget":13634,"retched":13635,"ĠMarlene":13636,"Ġtwenties":13637,"Ġartwork":13638,"Ġexpressed":13639,"Ġrainbow":13640,"Ġcampaign":13641,"Ġrais":13642,"Ġpleasurable":13643,"Ġconserv":13644,"Ġrundown":13645,"Ġgrandchildren":13646,"cluding":13647,"Ġshuts":13648,"Ġbusinesses":13649,"orns":13650,"Ġsettings":13651,"Ġsilhou":13652,"ĠDeath":13653,"angeline":13654,"Ġdoubles":13655,"ĠDorothea":13656,"ographic":13657,"Ġwheelchairs":13658,"Ġcartoons":13659,"Ġgrowling":13660,"Ġperformer":13661,"Ġtorso":13662,"Ġsneaked":13663,"ĠCarla":13664,"Ġphysiology":13665,"Ġburgers":13666,"ĠDrum":13667,"Ġpetted":13668,"Ġcircuit":13669,"help":13670,"Ġbuttocks":13671,"Ġsweetly":13672,"Ġfingernail":13673,"Ġopposing":13674,"Ġpsychological":13675,"Ġlecturer":13676,"Ġmarkers":13677,"Ġstormy":13678,"Ġsenses":13679,"except":13680,"Ġmurky":13681,"ĠDonna":13682,"Ġengineer":13683,"ĠDavis":13684,"Ġproducer":13685,"incoln":13686,"Ġresemble":13687,"Ġcontacts":13688,"Ġperiods":13689,"Ġobserved":13690,"Ġsupported":13691,"Ġcompeting":13692,"Ġrollerbl":13693,"Ġdistraction":13694,"Ġfreshly":13695,"Ġpunished":13696,"Ġcuddled":13697,"Ġheights":13698,"Ġparticipant":13699,"ĠCompany":13700,"ĠExcept":13701,"Ġstroking":13702,"Ġfocusing":13703,"Ġfuriously":13704,"Ġspoons":13705,"ĠNicki":13706,"ĠValentine":13707,"Ġpistols":13708,"Ġcheerfully":13709,"Ġwastebasket":13710,"ĠShawn":13711,"ĠColumb":13712,"Ġglobe":13713,"ĠMonopoly":13714,"ĠClaude":13715,"Ġfabrics":13716,"Ġtrimmed":13717,"ĠRosemary":13718,"Ġcrumble":13719,"Ġdisposal":13720,"Ġpajama":13721,"Ġturtles":13722,"Ġofficials":13723,"ĠMinister":13724,"Ġliterature":13725,"Ġessentially":13726,"ĠMadonna":13727,"ĠMadden":13728,"Ġchuckled":13729,"ĠTwilight":13730,"Ġstools":13731,"Ġincrease":13732,"Ġrevolution":13733,"ĠSherman":13734,"Ġgeography":13735,"between":13736,"Ġpersuaded":13737,"Ġthousand":13738,"Ġembracing":13739,"ĠMarianne":13740,"Arrested":13741,"Ġstirring":13742,"Ġobservation":13743,"wheel":13744,"wheeler":13745,"Ġcorrected":13746,"Ġpudding":13747,"Ġcategory":13748,"Ġcylinder":13749,"Ġrarely":13750,"ĠKentucky":13751,"ĠSawyer":13752,"ĠDrake":13753,"Ġcassette":13754,"Ġornaments":13755,"Ġcrisis":13756,"Ġarchitecture":13757,"Thank":13758,"Thanks":13759,"Ġinfluence":13760,"ĠObviously":13761,"Leave":13762,"ĠBailey":13763,"Ġconducting":13764,"Ġgenuinely":13765,"Ġhymn":13766,"ĠCraig":13767,"Ġvirus":13768,"ĠLeslie":13769,"Paulina":13770,"Ġexecutive":13771,"ĠATM":13772,"ĠMadelyn":13773,"dollar":13774,"ĠRebekah":13775,"ĠForest":13776,"ĠSuzanne":13777,"Ġmaggots":13778,"ĠOtis":13779,"Ġsuspicion":13780,"Ġlobster":13781,"Ġecst":13782,"Ġoranges":13783,"Ġsteadily":13784,"Ġmoustache":13785,"ĠGrocery":13786,"ĠKylie":13787,"Ġswollen":13788,"thodox":13789,"Ġcrystals":13790,"Ġteles":13791,"Ġasphalt":13792,"Ġhurricane":13793,"Ãķs":13794,"Ġabdomen":13795,"Ġbrunette":13796,"Ġvulnerable":13797,"Ġreimbur":13798,"Ġgossip":13799,"Ġoutskirts":13800,"attlestar":13801,"27":13802,"AY":13803,"Actually":13804,"Joe":13805,"Little":13806,"NS":13807,"Of":13808,"Pl":13809,"cuse":13810,"cool":13811,"dings":13812,"gent":13813,"glass":13814,"looks":13815,"mag":13816,"nuts":13817,"power":13818,"rome":13819,"rots":13820,"skin":13821,"tan":13822,"tled":13823,"uate":13824,"vi":13825,"vat":13826,"vous":13827,"Ġtumble":13828,"Ġwis":13829,"Ġwrought":13830,"Ġwiring":13831,"ndler":13832,"reamed":13833,"Ġostr":13834,"Ġbake":13835,"Ġbamb":13836,"Ġmu":13837,"itating":13838,"erting":13839,"Ġfans":13840,"Ġfulf":13841,"Ġfaders":13842,"Ġlbs":13843,"Ġloses":13844,"isha":13845,"Ġpp":13846,"Ġpharm":13847,"Ġine":13848,"Ġinher":13849,"Ġinfer":13850,"Ġinex":13851,"orp":13852,"Ġhilar":13853,"utch":13854,"anse":13855,"angs":13856,"Ġthirt":13857,"ĠTold":13858,"Ġnaughty":13859,"Ġbearing":13860,"Ġbeaded":13861,"Ġstout":13862,"Ġstakes":13863,"Ġmellow":13864,"Ġrewr":13865,"entation":13866,"stered":13867,"ĠSer":13868,"ĠSere":13869,"ĠSuther":13870,"ĠSelena":13871,"allic":13872,"Ġbutts":13873,"urd":13874,"Ġwhit":13875,"ĠHi":13876,"Ġdope":13877,"Ġdozens":13878,"oping":13879,"Ġherd":13880,"ĠMuri":13881,"ĠMitchell":13882,"ĠMuffin":13883,"Ġyanked":13884,"rose":13885,"iller":13886,"ustered":13887,"unken":13888,"Ġclum":13889,"Ġclump":13890,"cale":13891,"Ġalarmed":13892,"ĠBE":13893,"ĠBert":13894,"ĠBond":13895,"ĠBudd":13896,"ĠBldg":13897,"ĠTherefore":13898,"Ġpeop":13899,"Ġpeering":13900,"Ġpeaches":13901,"Ġpeeled":13902,"igan":13903,"Ġcaramel":13904,"ieces":13905,"Ġthinner":13906,"ĠDa":13907,"ĠDun":13908,"ĠDell":13909,"ĠDawn":13910,"quets":13911,"uls":13912,"Ġexotic":13913,"Ġdonate":13914,"izable":13915,"ĠNovember":13916,"Ġvain":13917,"Ġvial":13918,"ĠOlie":13919,"ĠFro":13920,"ĠFound":13921,"ĠField":13922,"ĠLister":13923,"ĠLoc":13924,"ĠLang":13925,"ĠLincoln":13926,"estic":13927,"ĠRel":13928,"ĠRigo":13929,"udged":13930,"Ġchicks":13931,"ĠPlease":13932,"ĠPascal":13933,"ĠProfessor":13934,"neck":13935,"ffit":13936,"Ġpod":13937,"agues":13938,"Ġbrat":13939,"Ġplacement":13940,"Ġdrifting":13941,"ruck":13942,"Ġscal":13943,"ĠGus":13944,"ĠGord":13945,"ĠGetting":13946,"Ġslicing":13947,"Ġdisorder":13948,"Ġwaterfront":13949,"Ġclassic":13950,"Ġstreams":13951,"akers":13952,"Ġattire":13953,"ĠKind":13954,"Ġwaiters":13955,"Ġshady":13956,"Ġcontr":13957,"Ġcontribut":13958,"?\"]":13959,"Ġgroo":13960,"Ġdrunken":13961,"Ġtricy":13962,"Ġcompound":13963,"Ġcatcher":13964,"Ġcathedral":13965,"Ġpassages":13966,"ĠChild":13967,"ĠVis":13968,"ĠVader":13969,"Ġmetallic":13970,"ĠUP":13971,"Ġcreativity":13972,"ounting":13973,"shire":13974,"Ġintermission":13975,"Ġdistorted":13976,"autiful":13977,"Ġserial":13978,"ahl":13979,"Ġembro":13980,"Ġhopeless":13981,"Ġedit":13982,"Ġlively":13983,"Ġfootsteps":13984,"ibilities":13985,"ĠBeeth":13986,"Ġrepairs":13987,"Ġassass":13988,"Ġrefusing":13989,"Ġconcerning":13990,"Ġcommander":13991,"Ġdraws":13992,"Ġsadd":13993,"Ġstationery":13994,"Ġmats":13995,"Ġtwists":13996,"Ġsubd":13997,"Ġexpanse":13998,"Ġrains":13999,"Ġpropel":14000,"Ġrounds":14001,"Ġforeman":14002,"Ġstraightening":14003,"Ġdives":14004,"Ġdelicate":14005,"Ġdepot":14006,"Ġdepending":14007,"Ġposing":14008,"Ġsunburn":14009,"Ġtickle":14010,"Ġpossessed":14011,"ĠSebastian":14012,"Ġreminding":14013,"Ġconnections":14014,"ĠDec":14015,"Ġlocations":14016,"ĠColl":14017,"Ġcartons":14018,"Ġbelonging":14019,"ĠClar":14020,"Ġdefl":14021,"Ġpotty":14022,"Ġsneers":14023,"Ġapology":14024,"Ġdescript":14025,"Ġgroan":14026,"Ġgroggy":14027,"ĠBlock":14028,"Ġpeeks":14029,"Ġobsessed":14030,"ĠScully":14031,"Ġoperated":14032,"Ġtextbook":14033,"Ġundo":14034,"Ġshouts":14035,"Ġkitties":14036,"Ġalleys":14037,"Ġcapital":14038,"Ġscraped":14039,"Ġadvised":14040,"Ġnorthwest":14041,"ĠCenterville":14042,"Ġfeedback":14043,"Ġscrewing":14044,"ĠFlags":14045,"Ġscenario":14046,"chev":14047,"Ġmodels":14048,"ĠErin":14049,"Ġpriests":14050,"force":14051,"Ġfacil":14052,"Ġrapid":14053,"Ġtoothbrush":14054,"Ġstringy":14055,"ĠJeffrey":14056,"Ġcomforted":14057,
[...]
