#version: 0.2 - Trained by `huggingface/tokenizers`
Ġ t
Ġ a
h e
Ġ w
i n
Ġ s
Ġ I
Ġt he
n d
r e
Ġ o
Ġa nd
in g
Ġ b
Ġ m
Ġt o
Ġw a
h a
i t
Ġ c
e r
e d
Ġ f
Ġ d
o u
Ġwa s
Ġ l
o m
i s
Ġ g
Ġ p
Ġ in
l l
o n
e n
a r
Ġo f
o r
Ġ h
Ġ ha
u t
a n
e t
e s
Ġw e
Ġ he
Ġ it
o w
Ġo n
o t
Ġt h
i d
Ġ T
a t
ha t
Ġ n
l e
Ġb e
u s
a c
ĠT he
Ġs t
l d
Ġt hat
Ġm y
i c
Ġm e
Ġ r
Ġ re
k e
a y
v e
g h
om e
Ġ e
o o
i m
Ġ u
it h
a m
Ġ is
Ġw ith
v er
' t
a l
he r
i r
s e
Ġwe re
Ġha d
Ġs e
en t
s t
Ġa t
a d
Ġ S
a ll
Ġl i
l y
Ġ A
Ġg o
r i
Ġb ut
Ġu p
Ġa n
Ġf or
u r
' s
Ġ k
Ġthe re
Ġo ut
Ġs ome
k ing
gh t
Ġw h
Ġ H
Ġd o
Ġ W
ou ld
Ġa s
o p
n t
Ġs a
Ġth is
Ġhe r
ac k
c h
r ou
a s
Ġ M
Ġse e
Ġg et
ou t
Ġ y
Ġli ke
Ġ "
Ġs he
k ed
Ġh im
i on
Ġa re
ar t
i f
ĠH e
Ġa b
Ġs o
Ġo r
h ing
t er
Ġf r
g e
in d
Ġr o
Ġs h
Ġthe y
Ġn e
ĠW e
Ġthe m
r a
Ġ j
id e
Ġn ot
on e
r o
Ġl oo
Ġw he
Ġon e
ĠI t
e l
Ġab out
i ll
ow n
ver y
r y
Ġp l
Ġl e
Ġa m
Ġb ack
us t
Ġsa id
all y
Ġha ve
p p
c t
o re
Ġk n
u n
Ġa ll
am e
i ght
c e
Ġd id
Ġc l
Ġin t
Ġs ay
i l
c a
Ġthe n
t her
Ġa l
Ġy ou
' m
a in
us e
Ġ B
om et
Ġt a
Ġgo ing
Ġf e
Ġd own
Ġfr om
Ġh is
ĠThe re
e nd
Ġro om
Ġd re
ot her
t ing
Ġp e
Ġm an
ĠS he
Ġo ther
Ġw ent
Ġ C
omet hing
rou nd
Ġc om
op le
i g
Ġint o
Ġ very
Ġc ar
Ġwa nt
Ġw ould
i e
Ġs omething
m b
Ġt e
Ġ (
Ġ us
Ġs u
ĠThe n
Ġh ou
er s
Ġpe ople
Ġc ould
a nd
Ġwa l
Ġg ot
Ġth in
re d
ca use
Ġj ust
Ġbe cause
Ġof f
e p
on g
c k
Ġ D
v ing
Ġb o
ac e
Ġo ver
ri end
Ġwh o
as s
Ġdre am
Ġw or
s s
or t
Ġhou se
ar d
w ay
. "
Ġth ing
Ġkn ow
Ġc an
oo d
Ġa round
Ġd e
Ġ if
at e
Ġw hat
Ġdid n
q u
u l
a st
Ġe x
Ġ E
Ġc on
Ġd on
ic e
o l
ĠThe y
ic h
Ġg u
ĠA nd
b le
Ġs p
Ġto o
Ġst art
o s
Ġb y
Ġwhe re
Ġre m
i z
Ġth ou
Ġt ry
Ġb l
Ġthin k
Ġm o
Ġt im
Ġt al
Ġf riend
Ġf l
ir l
Ġwh ich
Ġ N
Ġm a
k s
Ġ J
Ġw om
it t
w o
Ġ v
ur n
Ġc ame
Ġ O
Ġg irl
f e
es s
Ġwhe n
f t
mb er
Ġdo or
an t
Ġan y
oo l
Ġ -
a re
Ġsee m
p t
Ġtim e
in e
is t
Ġ F
Ġs m
Ġc ha
ic k
s ide
Ġ L
Ġn o
Ġs it
Ġb u
es t
Ġc o
Ġrem e
ac h
Ġt wo
Ġl o
Ġre al
Ġa g
it e
Ġ R
at ion
m ent
u re
l f
i ld
Ġh ow
a b
u d
Ġbe en
n g
Ġp ut
Ġc h
Ġ P
ou s
Ġfe el
itt le
Ġgu y
Ġ ke
Ġte ll
Ġp art
ĠM y
Ġwom an
n e
Ġreme mber
Ġl ittle
i ve
Ġre ally
u m
_ _
p l
Ġwa y
nd er
Ġha s
v en
f f
he d
Ġp o
Ġsa w
Ġle ft
p e
a g
Ġb r
Ġc ou
Ġo ld
Ġp re
rou gh
Ġ qu
a ve
Ġloo k
Ġpl ace
Ġo ur
Ġd ri
Ġth rough
ou nd
Ġpl ay
r u
Ġtry ing
i le
Ġto ld
at her
Ġan other
a ir
re e
a p
Ġn ow
Ġsay s
ch ool
u ll
Ġloo ked
Ġs c
he n
Ġk ind
x t
Ġstart ed
Ġb ed
Ġf ind
Ġthou ght
on t
Ġh ome
Ġt urn
a ge
s o
Ġthing s
Ġa r
Ġm ore
ri ed
Ġb ig
Ġta ke
Ġr ight
Ġa way
Ġo p
Ġha nd
Ġ G
v ed
Ġa f
Ġc all
ĠT h
at er
Ġu n
Ġs chool
Ġloo king
i re
Ġc ome
e ll
Ġsome one
Ġs l
Ġas ked
he s
i gh
Ġr un
Ġag ain
Ġwant ed
Ġd is
ir st
Ġreal iz
ad e
Ġtal king
Ġl ot
a u
se lf
ar k
Ġwa ter
Ġs ide
it y
Ġde c
i es
Ġl ong
Ġbe ing
ad y
Ġsm all
Ġop en
Ġsh ow
v es
Ġne xt
Ġthe ir
o se
he re
Ġa c
Ġal so
Ġp ro
at h
o d
in t
Ġhe l
u ch
f ore
Ġthe se
r an
Ġfr ont
Ġw o
u e
Ġha pp
e ar
Ġbo y
t h
Ġwal k
Ġst u
Ġon ly
at ed
ro om
ĠS ome
Ġf irst
Ġg ood
Ġhel p
Ġe very
Ġ en
e w
Ġe nd
Ġs w
Ġcl ass
ac t
Ġwa t
n ing
Ġfl o
is s
Ġsit ting
Ġout side
r ow
Ġs ort
Ġw ill
b e
Ġwal king
Ġ '
i p
Ġbe fore
Ġwas n
Ġf o
Ġst and
) .
ha n
Ġp r
Ġd if
Ġ 1
Ġu nder
Ġto w
Ġma ke
c o
Ġne ed
Ġst op
Ġdo ing
Ġbu ild
Ġa pp
fe re
ĠTh is
Ġget ting
Ġst re
Ġm other
t hing
Ġwor k
Ġa ct
Ġne ar
ĠM om
Ġcould n
p ed
Ġp ic
Ġm ay
Ġh o
' re
a k
Ġb ot
Ġm uch
ar y
t y
Ġbuild ing
Ġw ind
Ġh u
Ġaf ter
' d
Ġat t
Ġtoo k
Ġflo or
ĠB ut
Ġw r
Ġst ill
Ġl ar
or m
Ġwat ch
Ġhe ad
Ġm ade
Ġhe re
Ġp h
ĠO ne
Ġseem ed
is h
Ġf in
Ġdo es
Ġb us
ĠA s
Ġmy self
Ġthou gh
air s
Ġe ach
l es
Ġkn ew
Ġdif fere
n er
d d
Ġstu ff
Ġt ra
Ġ K
oo k
e red
ĠS o
u ally
Ġwa it
Ġe ven
at ing
Ġsh ould
Ġs ha
ĠW hen
g et
ro ss
Ġb et
i ly
Ġ im
Ġl et
ers on
Ġ 2
. .
Ġlar ge
Ġe l
Ġh igh
Ġdiffere nt
Ġwind ow
Ġwa ll
os ed
Ġj o
an ce
Ġle ave
ct ion
Ġf ound
Ġwh ile
i ous
Ġg re
Ġt han
Ġp ull
Ġn ight
Ġcom es
Ġcon t
g g
Ġne w
Ġbl ack
Ġstre et
Ġpo int
' ll
Ġyou ng
Ġc he
Ġp erson
Ġb it
o y
e re
Ġas k
Ġs ur
Ġwe ll
? "
ou gh
Ġto p
Ġr an
Ġcom ing
w here
Ġli ght
g er
rou p
Ġfriend s
Ġel se
r d
Ġke ep
l i
Ġd ay
Ġg roup
le ep
Ġg r
Ġtal k
Ġha ving
Ġke pt
ll ow
el t
a ke
Ġwal ked
Ġta ble
Ġhapp en
Ġd r
ĠS t
Ġg l
h ind
ĠN ow
Ġf am
Ġc le
Ġg ra
Ġd es
Ġsu pp
Ġbe hind
Ġdre ss
ou r
Ġf elt
ĠA n
Ġwh ite
ar ing
p le
Ġ- -
ĠI n
' ve
Ġb ab
Ġst ore
re n
Ġm en
Ġb re
Ġsh o
Ġs ame
Ġt r
ig n
is ter
Ġstand ing
Ġsu re
b b
ir d
Ġth ree
Ġrealiz ed
Ġst ay
o st
Ġfe w
p s
od y
Ġro ad
Ġwh y
__ __
Ġs k
en e
Ġthin king
Ġt ried
Ġin side
ĠA t
Ġs et
er t
en ce
Ġcall ed
Ġy ear
Ġho ld
i an
Ġch ild
Ġseem s
Ġsp e
ing s
or s
b ody
Ġd ark
get her
Ġha ir
p er
Ġ [
Ġal ong
k es
a se
ĠD ad
Ġany thing
Ġcom p
are nt
Ġsay ing
Ġc or
Ġc at
r is
Ġturn ed
Ġf ather
Ġp er
Ġp ass
id ed
Ġbab y
Ġto gether
f ul
Ġcl ot
Ġbe g
z ra
Ġother s
en s
Ġplay ing
Ġdri ving
Ġb ath
Ġwatch ing
re ss
Ġare a
Ġre c
Ġa p
Ġre st
w n
Ġn ame
Ġbe l
Ġmay be
v ie
ir t
Ġha rd
Ġre l
Ġpre t
f riend
Ġman y
Ġbr other
i ed
Ġs leep
Ġac ross
Ġs n
Ġl ast
Ġcl ose
Ġk id
w e
u al
a ble
Ġb ad
Ġl au
Ġre s
Ġsh op
ĠE zra
as on
Ġwor king
Ġdoes n
ver s
Ġp ap
ve l
ur t
y ing
o g
Ġhu ge
Ġ 3
Ġe m
Ġk ill
ver al
Ġg i
am p
, "
Ġs ister
i a
Ġm ar
i al
Ġloo ks
Ġy ell
Ġrealiz e
Ġdec ided
Ġar m
Ġfam ily
Ġ ent
Ġg ive
Ġg ave
Ġp ar
ĠC h
Ġsome where
Ġdri ve
Ġc ol
Ġf ace
Ġlo ve
in k
ard s
Ġfin ally
Ġwo ke
l ed
Ġmo ve
Ġha ll
Ġrun ning
g s
e m
Ġpl an
Ġsupp osed
i x
e ct
o ck
k en
Ġ V
Ġ Y
Ġf all
Ġse at
t ure
c le
Ġse x
Ġme et
Ġbot h
c ked
Ġm ust
h ow
Ġh it
Ġk iss
Ġ use
Ġa d
Ġa w
an c
Ġan g
Ġre d
Ġbo x
if e
au ght
m a
Ġoff ice
Ġwom en
Ġfo llow
n y
Ġse veral
u b
Ġpic ture
Ġc ut
et s
d y
art ment
Ġre ason
Ġc r
Ġus ed
Ġe le
d er
a il
Ġc are
Ġh ot
Ġst e
Ġcha ir
Ġm om
" .
Ġle a
Ġgirl s
Ġl ater
it c
Ġhe ar
Ġact ually
un ch
Ġin c
Ġfeel ing
Ġim p
Ġclot hes
Ġre ad
Ġcou nt
v in
Ġe y
d s
ĠSome one
Ġbath room
Ġne ver
pl ain
Ġm et
p ris
Ġta king
a pp
Ġl ady
Ġm ine
Ġwould n
Ġd ra
at t
Ġf un
Ġs at
Ġte ac
id d
at or
Ġst airs
Ġre t
Ġg one
Ġqu ite
Ġmo vie
0 0
Ġdec ide
Ġst ep
Ġin st
Ġ U
m ost
ĠL ater
Ġsur pris
Ġwe aring
Ġlot s
Ġli fe
ar s
Ġn ice
Ġc re
Ġin v
ion s
Ġpart y
c er
Ġp ie
Ġt ri
a v
ent s
Ġm in
Ġph one
m an
Ġwo nder
- -
ul ar
Ġw ood
m er
Ġac c
t en
li ke
we en
Ġd one
Ġj um
Ġcou ple
Ġa ir
is e
ha r
Ġst ud
Ġal most
Ġpap er
or y
n ed
Ġbot t
id ing
id ent
Ġyear s
Ġpret ty
Ġen ough
Ġwait ing
in ce
Ġc a
l ing
ou nt
it her
ic al
Ġbet ween
iz e
Ġhappen ed
Ġp ick
Ġg ame
Ġg round
en ly
Ġt ru
us h
in s
an k
ul t
Ġp ol
one y
Ġyou r
m y
Ġhe ard
Ġcha n
co nd
u g
Ġm ight
Ġp ast
ce pt
s et
Ġf ar
i v
Ġli ving
Ġw on
c hed
st airs
Ġma king
e ver
Ġb ook
Ġsw im
Ġp ain
Ġse cond
ll e
Ġf ire
Ġgo es
Ġbl ue
as h
ran ge
f orm
im b
on s
o nd
Ġf ig
p ing
s h
Ġin ter
u p
Ġf ull
Ġ $
Ġo wn
Ġl ay
Ġfe et
Ġsu dd
Ġbet ter
Ġsh ort
Ġs qu
Ġu nt
Ġneed ed
Ġhapp y
ry ing
Ġb ag
Ġd ist
Ġhand s
g n
Ġtra in
Ġf ood
Ġcle an
Ġ es
Ġang ry
a red
Ġre ady
Ġteac her
Ġm oney
a ut
Ġ 4
Ġd ire
re w
ct or
Ġan n
idd le
i red
Ġs ing
Ġevery one
Ġt y
Ġbe c
Ġup set
Ġstop ped
Ġwant s
Ġv is
Ġf ast
Ġwho le
ent ion
Ġs er
Ġd in
Ġo b
Ġunt il
itc hen
pp ed
b r
Ġcha ng
Ġlau gh
o b
Ġgl ass
Ġk itchen
' .
Ġcon f
ow er
it ing
Ġnot ic
Ġap artment
Ġh or
way s
Ġwith out
Ġchild ren
Ġex c
Ġe ar
Ġtell ing
d ay
Ġcl imb
f ter
Ġse en
Ġtow n
Ġr ather
Ġbe aut
Ġn u
Ġe v
Ġl ist
m ate
Ġb ar
Ġbed room
Ġg un
o c
Ġbo at
Ġw ife
Ġh ill
Ġmo st
Ġl ate
Ġkid s
Ġsurpris ed
it ion
u ck
Ġha ng
t o
re ady
Ġm iddle
a w
Ġdo g
e e
Ġal ready
Ġme an
Ġgre en
e y
ĠJ o
Ġs ince
ac es
ra id
m ing
u nt
Ġf our
Ġtru ck
a h
Ġe at
Ġe ither
Ġcl os
Ġha lf
ĠC har
Ġend ed
T he
Ġget s
Ġde ad
Ġret urn
Ġl and
Ġf ly
Ġe mb
Ġab le
Ġb all
Ġdream t
it ed
Ġaf raid
s on
t ed
p h
ur ch
Ġl ine
an g
Ġqu est
b and
i ver
Ġro ll
i ble
c es
at es
Ġqu ick
Ġwa r
Ġc ra
ter s
Ġguy s
Ġp at
e ad
or d
Ġnot ice
Ġm us
Ġt re
ĠT hat
Ġgu ess
Ġm ess
Ġsome how
Ġt rou
Ġ 5
Ġjo b
Ġcor ner
s w
Ġh op
Ġwe ird
ere st
Ġbeaut if
Ġh urt
Ġs ound
y s
Ġp ool
ĠA fter
Ġevery thing
Ġ Ġ
us band
Ġit s
ot h
Ġcou r
Ġpre s
Ġpull ed
j ect
ant s
pe ct
Ġnotic ed
a z
Ġmin ut
Ġm iss
Ġst range
! "
Ġcont in
Ġint erest
i ke
Ġth ose
Ġy et
b o
Ġ ed
ot s
b y
Ġmo ving
he ad
oo ks
ĠA l
ĠO n
Ġs ign
Ġp arent
Ġs ca
Ġph ot
Ġcha r
Ġbeautif ul
Ġpol ice
i o
us ed
Ġey es
W e
Ġan sw
Ġsl ow
out h
am es
Ġli ve
Ġmo ved
Ġwr ong
Ġst ra
Ġas ks
Ġex plain
ab ly
b all
Ġp ur
Ġtim es
Ġl ying
o ve
ou ght
t e
ri ght
it al
ĠA ll
il es
Ġh usband
a ur
id es
Ġdress ed
Ġfe ll
Ġdream ed
ĠW h
ie ld
ĠP e
ve red
r act
Ġc row
Ġro ck
Ġsc re
f ort
in es
Ġbeg an
m ed
Ġfo ot
Ġta ken
Ġann oy
Ġhad n
Ġcomp ut
Ġp ay
c i
r s
Ġtow ard
Ġpic ked
ar r
Ġtell s
Ġbre ak
[ "
os p
Ġb ro
Ġagain st
Ġbo dy
ic ally
en se
Ġboy friend
is hed
Ġal one
i b
ore d
un k
Ġparent s
u c
Ġdoor s
Ġchan ge
ac hed
s p
Ġopen ed
Ġis n
al s
ĠB e
r ic
Ġhot el
Ġth row
as k
I t
ro ve
Ġfig ure
Ġtrou ble
Ġroom s
Ġbel ie
d ing
ĠY ou
ĠH ow
Ġsu ch
Ġc ur
Ġwor ried
Ġt all
Ġf ight
ĠH is
Ġre p
) ,
in ed
Ġb ase
Ġst r
Ġas s
Ġli ked
ĠB ill
Ġgre at
Ġp le
Ġle ad
r ist
t he
Ġsc ene
Ġcle ar
Ġal ways
Ġre f
Ġele v
ug ene
Ġwhe el
Ġon to
T here
? ?
Ġto il
Ġt ree
Ġquick ly
Ġre co
Ġcrow d
Ġcon cer
Ġar ri
. )
Ġdr op
et c
Ġa ud
Ġpie ce
e ly
i ence
Ġold er
Ġp ack
n ie
igh b
ĠT V
Ġstep s
Ġcomput er
w ard
Ġnot hing
Ġsudd enly
arent ly
us s
Ġsome body
c c
Ġsh ot
Ġlea ving
ud d
lle ge
Ġhold ing
ate ly
Ġcom pl
M y
Ġsh irt
Ġsca red
Ġch urch
Ġne ighb
osp ital
Ġdis c
Ġr ide
ĠE ugene
iz ed
an e
Ġc e
Ġmus ic
Ġt er
ĠE very
Ġm or
Ġd aught
un g
il ing
Ġdes k
Ġsn ow
b ably
Ġunder st
arr ass
Ġso on
Ġl ou
Ġany way
O h
Ġcom m
Ġon es
Ġboy s
Ġbott om
ol og
Ġemb arrass
Ġe ating
ra nd
Ġdra w
ĠPe ople
Ġnu mber
Ġs ad
Ġinst ead
Ġr ow
ĠB r
Ġd ad
." ]
Ġex t
ble m
l a
z y
Â ł
Ġcar s
u red
Ġmar ried
Ġst ation
Ġh ospital
ert ain
Ġty pe
Ġpro blem
re t
Ġb ooks
Ġlo st
Ġin d
ĠM ary
Ġp ark
ent ly
Ġas king
ĠC al
Ġshow ed
Ġtow ards
c ha
Ġfor g
am ed
in ally
l and
Ġex cept
itt en
Ġmeet ing
et er
Ġtoil et
Ġbelie ve
Ġm at
Ġup stairs
Y ou
Ġf ill
Ġlist en
n ess
Ġcol or
Ġm ind
Ġc ity
ĠD ar
Ġelev ator
Ġpart ic
a ked
ĠM ar
o ice
Ġc ross
Ġsho ot
Ġreco gn
Ġm ach
Ġ 6
Ġs y
Ġo k
ount ain
if t
Ġre g
Ġpro bably
Ġt w
Ġannoy ed
Ġsw e
Ġm ot
Ġf ield
Ġcat ch
Ġmor ning
Ġ etc
Ġsp ace
Ġbeg in
Ġplan e
Ġs im
Ġp en
Ġon ce
in y
Ġem pt
n a
Ġstart s
Ġc op
Ġd rove
Ġl a
Ġswim ming
Ġg ar
Ġwere n
Ġsu b
Ġche ck
i vers
Ġrec all
Ġbe ach
w h
Ġdis app
Ġb unch
ent er
Ġf act
ed ding
th ough
Ġdaught er
Ġa head
Ġf ix
T h
Ġd ance
ĠF ran
c hes
ĠH er
Ġc aught
on y
Ġsa nd
Ġtal ked
Ġunderst and
Ġ ide
Ġchang ed
Ġforg ot
Ġbr own
ĠU n
.. .
Ġd ied
e ared
Ġb est
oo f
Ġbu y
Ġput ting
Ġspe c
Ġed ge
an s
Ġs ong
ĠM att
ur ing
ag es
Ġar t
bb ed
Ġconcer ned
in a
rou ght
Ġgot ten
Ġh ur
Ġle ast
Ġsu it
ast ic
Ġex p
Ġ1 0
ou se
r am
Ġarm s
ĠF inally
Ġlo ck
n ce
Ġr ain
Ġtri p
fe ct
fort able
s es
om b
i er
at ure
Ġle gs
aur ant
Ġcompl et
Ġyell ow
Ġp us
or k
o ke
Ġsee ing
Ġwindow s
Ġembarrass ed
o ld
Ġt est
Ġsleep ing
i ent
Ġpr op
Ġempt y
Ġy ard
Ġde ep
Ġes ca
Ġ z
Ġc amp
Ġan im
Ġr a
Ġb rought
Ġkill ed
Ġe as
Ġor der
Ġatt ract
t on
an a
Ġst age
Ġgirl friend
Ġc ir
id ge
h n
at ive
Ġy es
he w
Ġus ing
im e
Ġcl osed
Ġminut es
Ġse c
Ġp a
Ġrest aurant
i et
ĠN o
Ġhang ing
ack s
Ġlight s
l ves
Ġpar king
st er
Ġli ved
Ġ 8
Ġr ound
Ġpicture s
ĠCal vin
Ġhe ld
ull y
Âł Âł
Ġple as
Ġ ice
Ġr iver
ĠCh rist
Th is
op e
ation s
Ġin s
ivers ity
Ġf ree
Ġor g
Ġta kes
Ġw in
in ess
Ġm outh
Ġc ab
Ġinc l
Ġide a
Ġf ore
Ġ ve
Ġc ertain
Ġex act
e k
Ġst ru
i um
Ġto uch
Ġma le
Ġdire ction
Ġm ain
Ġcar d
ud e
Ġinv ol
Ġs on
ment s
mb ers
Ġdream s
er ing
Ġsho es
Ġcount er
Ġm ountain
an ger
Ġwor ds
Ġcon s
ac ing
w hat
a king
Ġa ge
ha ps
ĠS p
l ess
nd ered
Ġwor ked
v ious
Ġsu gg
Ġh ide
Ġr u
oo king
im es
c ed
Ġgra b
Ġneighb or
Ġr iding
Ġco vered
Ġwall s
Ġdin ner
Ġstra ight
N o
Ġho le
bo ard
Ġd i
Ġv oice
ag ed
Ġun c
it ch
Ġwhe ther
Ġst ory
en ed
Ġfor m
Ġco ver
Ġco llege
Ġtre es
Ġpartic ular
Ġf urn
Ġco ld
er y
if f
Ġcour se
b les
p ort
Ġp ri
et h
Ġc rying
mb ered
Ġd el
ĠS am
Ġf ing
ĠJ ere
Ġmach ine
o on
Ġpl astic
ĠJo hn
Ġd ep
ust r
Ġbr ing
Ġwa ke
Ġhelp ing
ĠD o
Ġsugg est
Ġd anc
Ġo dd
Ġshow er
Ġapp arently
Ġhor se
Ġth ru
er v
f ic
it s
Ġp ath
Ġgra bbed
is on
al k
Ġte am
Ġapp ear
Ġatt ention
Ġd anger
Ġdri ver
Ġgi ving
Ġex am
Ġgra nd
c l
an y
f ully
Ġwh om
Ġreme mbered
Ġ 9
Ġl unch
ĠN e
Ġgr ass
Ġf ish
ot e
Ġcou ch
Ġsqu are
i pp
ir th
u ff
Ġp os
is hing
ac ters
m p
Ġf at
Ġf air
Ġpass ed
Ġt ran
Ġdo ll
g u
ĠG rand
Ġvis it
c y
Ġany one
re at
Ġma kes
on a
Ġexact ly
Ġt ired
Ġv an
Ġpre p
Ġcount ry
Ġev ent
ĠMatt hew
Ġa dd
Ġle vel
Ġdisc uss
Ġc am
er a
ay be
ĠR am
Ġlea ves
Ġp or
Ġe ver
omet imes
Ġbec ame
o int
Ġm ad
Ġo cc
ress ed
g ed
Ġapp ro
ar row
____ ____
Ġab ove
Ġs un
Ġquest ion
Ġgar age
Ġse ction
ip s
Ġbo ard
a ul
Ġnear by
Ġdo ctor
Ġt ick
Ġgi ven
Ġf ive
Ġp ants
ĠA r
Ġpo ss
Ġwo ndered
Ġres p
Ġs ize
Ġp an
Ġv ide
Ġcha s
Ġb irth
Ġsh ut
Ġse ated
ĠS e
Ġag re
n el
Ġth rew
ĠFran k
Ġpres ent
Ġc ous
ĠA unt
Ġincl ud
W hat
Ġturn s
Ġjum ped
Ġ 7
Ġl ake
Ġal though
Ġle an
Ġta bles
Ġag o
Ġjum p
Ġwr iting
Ġsp ot
Ġmom ent
Ġfly ing
Ġl ed
Ġn orm
Ġme ant
Ġcon vers
Ġyoung er
j oy
g round
Ġex per
i ar
Ġb are
Ġf ence
Ġexc ited
en n
ro l
e el
Ġn amed
Ġn aked
Ġclass mate
Ġrem ind
ct ed
Ġwr ite
Ġha t
Ġn arrow
Ġinterest ed
r ing
Ġf re
is ed
Ġbl ood
Ġbus iness
Ġcontin u
Ġf ur
Ġbl ock
Ġaw are
Ġb ow
Ġr oof
end ed
ma le
r or
Ġs ent
Ġas leep
Ġpl aces
Ġday s
Ġread ing
l o
Ġstr ong
Ġdown stairs
Ġcom plain
Ġlaugh ing
Ġfun ny
Ġstud ents
Ġansw er
Ġinvol ved
Ġstay ing
* *
ĠT wo
Ġmet al
ĠJ ust
Ġdif fic
Ġle g
Ġfin ished
Ġear ly
il t
Ġco st
Ġpar ked
Ġpie ces
av y
Ġp ower
Ġle ar
Ġen joy
Ġper haps
Ġb ought
ĠF or
Ġl ad
Ġre ach
og ra
ĠJere my
Ġc and
Ġt iny
Ġwa king
it ure
Ġcon c
B L
Ġb ra
Ġfe llow
Ġspe ak
w alk
Ġpro g
s it
Ġm on
Ġwal ks
Ġsing ing
ask et
et ting
Ġr ad
Ġslow ly
ce an
il ed
ĠS omething
ĠAn other
Ġfurn iture
Ġhim self
Ġco ll
Ġapp eared
udd enly
Ġlou d
Ġbro ken
Ġc ase
ĠM e
Ġfl ow
ri e
m as
er ry
Ġbl ank
Ġok ay
ic y
Ġtra vel
Ġst ood
ĠS uddenly
Ġ Z
Ġc enter
Ġwe ar
Ġke y
Ġbr idge
Ġp ill
Ġesca pe
ĠM r
end ing
Ġacc ident
Ġcon ne
Ġv ar
ĠSt ep
Ġwar m
Ġs ick
Ġb and
or n
Ġset ting
Ġconvers ation
Ġw edding
Ġo pp
Ġha ven
Ġbase ment
Ġex pect
d e
Ġne ck
Ġf ine
Ġde al
ĠEvery one
Ġs il
ct ure
ĠWh ile
Ġm ed
ar m
Ġcomplet ely
Ġex pl
Ġchair s
Ġse ll
Ġdr ink
Ġvide o
Ġb ird
Ġsa fe
Ġpro f
Ġstu ck
li er
Ġey e
u mb
ll y
Ġta pe
Ġwr itten
Ġspec ial
it or
ac king
Ġte le
Ġl ess
il iar
ĠC ity
Ġc al
er g
ĠK e
ĠE ll
Ġshow ing
cha ir
Ġth ird
il ar
Ġbox es
Ġcab in
ur b
Ġseat s
p ar
Ġo cean
ĠD e
Ġquest ions
e es
Ġs ense
ar ch
Ġbl ond
ĠP aul
c ess
n ot
s y
Ġst ri
Ġwood en
ĠJ ack
Ġcontin ue
c ri
ĠDar ren
Ġc urt
Ġcom ment
Ġun iversity
Ġwat ched
Ġ2 0
Ġfollow ed
Ġimp ort
Ġs or
Ġin form
Ġst air
Ġch ick
Ġplay ed
Ġlo c
Ġsk y
u ation
Ġfriend ly
Ġl ow
Ġoff ic
Ġdist ance
Ġpor ch
Ġlong er
Ġen g
Ġpr ot
Ġgl ad
Ġter ri
Ġsl ight
Ġlay ing
Ġp ush
um p
Ġpr act
Ġgr ad
br ary
Ġw et
an ge
Ġst ick
Ġste ep
Ġp ink
Ġorg an
in ing
ac ed
ic le
Ġhu g
Ġfill ed
Ġw ra
Ġhall way
p es
Ġhe ll
Ġinclud ing
Ġcurt ain
y m
z e
Ġd ou
Ġso ft
pl oy
l ic
ĠC o
ĠD or
Ġwonder ing
ogra ph
Ġs al
Ġinst ru
Ġwheel chair
Ġgi ves
ĠStep hen
Ġcar p
ie w
Ġnot e
Ġfl at
Ġcra w
Ġaud ience
Ġb asket
Ġside walk
h ood
Ġm ention
Ġfe male
Ġevery body
Ġprop er
Ġt un
Ġp u
Ġbel ow
Ġsec ret
m on
Ġb right
Ġlo cked
Ġf il
Ġg as
Ġv iew
Ġf it
at he
d u
Ġhe avy
Ġn erv
Ġse par
ĠR o
Ġpre ss
Ġfall ing
Ġcra zy
v is
Ġhou rs
Ġcont rol
Ġnerv ous
ic ha
Ġgr ade
Ġsudd en
med i
Ġimport ant
ic ks
Ġcar rying
Ġconf used
Ġr ail
Ġdin ing
d o
Ġco at
3 0
Ġ ign
Ġb al
bb y
Ġsk in
Ġd ie
Ġg ather
le w
ri es
Ġclass room
ĠAn n
Ġsex ual
v ice
Ġs ix
Ġbuilding s
Ġem ploy
Ġcous in
Ġd et
ir ty
Ġcut e
Ġfr ustr
ap s
gg ed
Ġscre am
?? ?
re s
Ġc art
Ġpap ers
W ell
Ġsome what
Ġwor ld
ap er
Ġbel ong
anc y
Ġfl ight
ĠC l
Ġrecogn ize
Ġd orm
Ġp air
ĠAnd rew
ĠF eel
oo se
Ġli brary
ck et
Ġbus y
i ves
ic s
ĠW hat
Ġj e
ĠL y
Ġsim ilar
Ġdanc ing
ĠB ob
ĠE ng
Ġag ree
Ġqu iet
Ġshow s
ĠChrist mas
Ġc ool
Ġth ick
ĠM el
Ġde f
Ġclos er
ĠM rs
Ġcall ing
Ġ1 2
Ġrel ation
g hed
Ġb urn
Ġp ile
Ġn ur
Ġse es
Ġwhat ever
w ards
Ġ ???
Ġa ut
Ġs ometimes
Ġcar ry
Ġpoint ed
Ġprog ram
ĠW ill
Ġb es
Ġm ix
Ġstart ing
Ġpus hed
? )
Ġb at
ĠN ana
Ġco nd
Ġfollow ing
Ġbott le
sh ip
Ġear lier
ĠEll ie
Ġh um
id er
Ġre ached
se lves
ci ally
Ġnorm al
Ġg row
Ġcont ain
mer ic
ca se
Ġhou ses
Ġwor d
pl ace
ast er
Ġfeel s
Ġrad io
ĠKe vin
l er
in king
Ġall ow
ff ic
Ġlau ghed
ĠChar la
Ġarri ved
Ġcam era
Ġor ange
Ġbec ome
Ġb ill
ĠM aybe
Ġsm o
ĠTh ought
Ġm ir
ke y
if ic
Ġdis co
Ġopen ing
Ġpos ition
l ooking
ag er
ĠI f
medi ately
r ay
Ġb en
Ġc ook
Ġh ung
le y
as hed
pl ay
Ġstay ed
Ġmot or
h y
i pped
on es
Ġsit s
Ġsha pe
Ġdanger ous
a x
Ġl ab
Ġg en
ĠS u
Ġcol ored
Ġclimb ed
Ġce iling
re ad
Ġc up
ĠS etting
Ġfo ld
oc ol
ĠHow ard
p a
Ġpo st
Ġper form
ĠThought s
f fe
Ġw ide
ĠS im
Ġso ld
Ġma g
Ġz omb
i en
u ri
Ġhop e
u es
ou n
ne y
Ġevery where
Ġ1 9
ĠChar acters
Ġha r
Ġli ft
Ġhou r
ĠF ather
Ġunc om
ĠFeel ings
o cked
Ġc ry
Ġf acing
Ġd ru
Ġp ot
ver t
ĠĠ ĠĠ
Ġs us
Ġd irt
ĠWe ll
ĠO K
Ġto r
Ġr id
Ġb icy
Ġv ag
Ġanim als
g ing
er al
Ġd ate
ĠS chool
Ġnear ly
Ġhur ry
I n
Ġs ne
or row
Ġch ocol
pe cially
Ġkiss ed
Ġvar ious
ĠC ar
Ġno ise
l ine
n s
Ġtran s
Ġa v
Ġd uring
Ġrock s
l s
Ġo w
Ġm ater
ow s
Ġor d
ĠSome how
Ġtr ack
Ġprof ess
Ġm il
at ur
Ġre ce
el s
Ġcar ds
Ġv ac
Ġpro ject
Ġmiss ed
ĠThe se
Ġjo in
Ġent er
Ġbu ll
Ġinform ation
Ġ ill
Ġs le
il ity
Ġap olog
Ġstud ent
Ġg ym
Ġr ing
ĠA meric
Ġattract ed
Ġr ace
Ġsm ile
Ġfe ar
Ġatt ack
Ġdes cri
Ġclos et
Ġb ank
Ġhe sit
Ġto u
Ġn ames
au gh
Ġmat ter
ĠUn cle
Ġstru gg
Ġuncom fortable
l ight
Ġu r
Ġfeel ings
Ġneed s
Ġad m
Ġcrowd ed
v ent
w ork
ĠG in
Ġfam iliar
Ġshop ping
Ġphot o
Ġdiffic ult
Ġim mediately
Ġes pecially
e ah
Ġp op
Ġsur round
Ġlisten ing
. ,
Ġg ro
ĠB l
ant ly
ont h
Ġrec ord
Ġinc hes
Ġclean ing
Ġdire ct
c ious
i or
it ies
Ġph ys
Ġve h
Ġb ur
ĠB on
ĠR e
Ġfur ther
Ġslight ly
Ġh iding
Ġrel ie
Ġob ject
Ġminut e
Ġbirth day
l augh
Ġfor ward
m mer
Ġ ir
Ġc hat
um e
Ġyell ed
H ow
Ġp ub
Ġsh ip
ĠD r
.. ..
Ġscre en
g es
Ġsl ide
Ġche st
Ġforgot ten
Ġrelation ship
Ġam az
t s
Ġcir cle
f er
re am
Ġd irty
Ġrun s
Ġtri es
st r
Ġbo ss
b s
m ore
Ġt ight
Ġto t
Ġst ate
Ġe qu
Ġcl iff
" ,
Ġm onth
Ġwe ek
Ġkeep s
Ġp et
ĠO h
Ġpart s
Ġbig ger
Ġcre am
Ġhop ing
l ish
vie w
b ook
c king
r op
Ġgo ld
ĠB en
Ġst or
ic t
Ġre se
st em
Ġcontinu ed
b ed
ĠI nd
Ġp ian
Ġre pe
ĠM other
ist s
Ġm ud
fere nce
Ġfin ish
Ġpull ing
gg ing
ffe e
Ġchocol ate
Ġcom fortable
Ġknow s
Ġhappen ing
Ġl it
Ġsc ary
ĠAn y
Ġsy stem
ĠGrand ma
Ġroom mate
Ġkn ife
Ġal ive
ĠB ar
Ġbed s
f ast
Ġcl ou
Ġbre ast
Ġele ct
z z
ac ter
ly n
ort h
Ġpre gn
Ġjo ke
Ġnew sp
Ġmost ly
Ġmiss ing
Ġcir c
Ġme mbers
Ġher self
ill y
ant ha
Ġ &
Ġb ike
Ġm ist
us ing
Ġpl ate
Ġco ffee
re st
Ġit em
Ġtra il
ĠAl so
Ġfrustr ated
he l
Ġh ol
Ġbut t
Ġpl at
. ]
Ġa is
Ġare n
art h
Ġpe e
Ġwor ks
Ġcomm un
Ġagre ed
Ġob s
ĠT om
Ġfor th
Ġal arm
Ġte eth
ĠN ew
Ġshould er
Ġw ire
Ġs ink
ad ed
ĠM c
Ġar gu
Ġsw ing
Ġtun nel
a ks
Ġte en
Ġhu nt
Ġlet ter
Ġcol ors
Ġmention ed
Ġc ake
Ġj ack
Ġdis play
ic es
ĠD w
Ġtra ffic
Ġswe et
Ġsor ry
es e
Ġli ves
Ġpass en
Ġvis iting
Ġbreak fast
Ġfing er
g ly
en ing
Ġse arch
Ġsit uation
Ġun us
Ġmir ror
Ġbicy cle
m ates
y le
re nt
Ġl ower
Ġeven ing
Ġpoint s
Ġchar acter
sy ch
Ġcall s
Ġcomp any
Ġdrive way
ĠDor a
i ally
Ġwant ing
Ġflow ers
Ġa wo
Ġpain t
Ġs ides
Ġdo gs
Ġatt ached
ren ch
Ġwa ves
ic king
Ġsmall er
ak es
Ġphot os
Ġpregn ant
ĠH igh
Ġint ro
Ġcon st
Ġdec or
Ġent ran
Ġdrop ped
Ġhe art
ĠW ally
ĠN ot
Ġput s
Ġpat ient
Ġbro ke
icha el
Ġb le
Ġloo se
Ġca pt
Ġdou ble
Ġc ell
ust ed
Ġspe ed
Ġshoot ing
re m
all ey
Ġsh ift
Ġma il
Ġpr ison
Ġchas ing
Ġchick en
Ġben ch
Ġpian o
1 9
et y
as ed
Ġdream ing
ĠRam ona
art er
Ġde ath
Ġke ys
Ġreg ular
Ġbare ly
Ġbes ide
m s
Ġway s
ĠSam antha
o es
Ġsu per
Ġow ner
r om
re et
Ġth reat
Ġsha r
Ġawo ke
ĠS and
Ġbu ilt
od e
Ġwait ed
Ġlad der
Ġ <
ĠS h
Ġbag s
Ġ Q
om es
al th
Ġpo cket
rie f
Ġbe at
ib ly
Ġopp os
b ut
Ġg ift
ĠE ve
ru pt
Ġpleas ed
ĠEng lish
uri ous
Ġf lew
or ge
Ġsp l
ail s
Ġfig ured
ic ked
Ġch oose
Ġfind ing
Ġen c
Ġstreet s
Ġinterest ing
Ġb an
Ġsp ir
Ġlo ved
k y
in ting
Ġshe et
Ġv i
Ġshould n
ĠAn nie
Ġwood s
Ġdisapp oint
Ġpri v
Ġprot ect
ĠF irst
ĠAny way
ĠO ther
ud y
Ġclass es
Ġyell ing
i pe
ĠR ob
Ġkind s
r id
Ġt u
Ġg ard
Ġis land
h ouse
Ġ ____
ĠE l
Ġno se
Ġunder w
Ġglass es
Ġunus ual
] .
o e
in ation
Ġe gg
Ġthink s
ere k
Ġhappen s
Ġcare ful
Ġla wn
l et
Ġc ast
Ġd am
Ġbe er
Ġman aged
Ġus ually
Ġknow ing
Ġhow ever
ĠSt e
Ġsn ake
Ġreturn ed
olog y
Ġfair ly
Ġblond e
Ġentran ce
S ome
re ct
Ġwe ight
Ġr us
as hing
ĠM ichael
Ġ1 5
ens ive
ress ion
Ġair port
wh ich
a le
ĠT o
Ġse a
Ġany more
Ġeas y
vious ly
ĠS c
Ġstand s
ĠSt reet
Ġext ra
Ġ X
Ġto day
ĠJ e
Ġlar ger
Ġclimb ing
Ġ ident
Ġto m
ck s
Ġphot ograph
Ġveh icle
o id
o le
Ġc ig
Ġse m
Ġarri ve
Ġpa id
v ies
Ġd ry
Ġshe lf
Ġbl ow
Ġop er
Ġhelp ed
Ġap art
ĠC D
ĠG e
Ġact ing
Ġfall s
iv id
ĠDw ight
f fect
m it
Ġf right
Ġf ishing
Ġl ines
Ġp age
im son
Ġsm ell
Ġpull s
Ġ3 0
! ".
m other
it a
Ġh id
Ġh ig
Ġst all
Ġli e
Ġfor get
Ġgu ard
Ġsm oke
ĠHow ever
Ġpen is
Ġpic king
Ġhor ri
Ġbegin ning
ĠNe xt
Ġt en
Ġh ors
at s
ĠH all
Ġturn ing
Ġkiss ing
r it
Ġre ar
Ġsa ve
Ġsm iles
Ġpur se
l or
Ġgr ay
Ġcal m
Ġm all
Ġu gly
Ġbo oth
Ġdr inking
Ġocc ur
Ġais le
Ġc as
Ġp sych
Ġmo vies
Ġthrow ing
Ġrow s
Ġrelie ved
n o
Ġf ancy
or ing
Ġsu mmer
are t
Ġcou n
Ġcre ature
Ġmean s
in al
re y
er man
Ġg ay
Ġwe e
Ġse nd
Ġlead ing
Ġevent ually
Ġmater ial
Ġoppos ite
n own
ĠO ur
Ġhand ed
Ġfing ers
Ġtick et
Ġpassen ger
Ġhors es
ter n
Ġle cture
ĠE d
ĠE ach
Ġdis hes
Ġpain ting
Ġfight ing
u it
Ġb rief
Ġd ow
ac hing
Ġan x
ĠD erek
Ġlo se
Ġwr ote
Ġsho cked
Ġsing le
Ġla id
Ġanim al
Ġsuggest ed
Ġfil m
Ġnur se
Ġgro cer
Y es
n ic
Ġ ________
Ġst om
Ġse lf
Ġno body
Ġdr unk
Ġchan ce
ĠBr imson
Ġblank et
Ġbasket ball
ĠInd ian
f ied
p id
ain t
ĠG od
Ġpr om
Ġext rem
Ġnewsp aper
i k
ut e
Ġat e
nt own
Ġpl ant
Ġcl ock
Ġun cle
Ġhigh way
Ġsk irt
Ġsurpris e
av or
ĠAmeric an
Ġt ub
Ġbut ton
Ġcon ference
Ġend s
Ġent ire
Ġimp ressed
Ġcand y
Ġzomb ies
Ġp ort
Ġre pl
ion al
Ġwor ry
Ġac cept
Ġser ious
ĠGin ny
Ġa ff
ch ing
Ġnot es
Ġta st
Ġte xt
Ġcon vin
Ġlet ters
Ġtr acks
ult s
Ġdraw ing
ÂłÂł ÂłÂł
Ġparticular ly
Ġdisappoint ed
g on
Ġm ark
am s
Ġan t
iz ing
Ġent ered
Ġinv ited
Ġneighbor hood
Ġlear n
Ġaccident ally
t ime
Ġwa ve
Ġstu pid
Ġnu mbers
Ġmess age
Ġresp ond
Ġa unt
ac y
Ġgard en
Ġdow ntown
M om
f l
Ġb other
Ġwas h
Ġplat form
o ot
ar ry
ĠM s
pp y
Ġgu est
** **
Ġs ight
Ġe ffect
ĠJ im
Ġhand le
Ġflo ating
Ġstop s
Ġdes ign
Ġfore st
Ġdirection s
Ġdep artment
ĠW est
Ġstre t
Ġbow l
itor ium
ĠBon nie
Ġhig her
Ġh omet
Ġbe ar
ĠA pp
il ty
ven ue
Ġopen s
Ġcare fully
Ġappear s
Ġcarp et
Ġtou ched
Ġhomet own
n n
n ight
Ġst ran
pp ing
Ġdis g
bb ing
Ġaud itorium
Ġw ild
Ġo ri
Ġc ow
ic ious
Ġe p
Ġam ong
Ġkn ocked
Ġgu ilty
Ġhead ed
Ġnew s
by e
Ġrecogn ized
9 7
Ġste al
Ġli kes
Ġsur f
Ġchar ge
Ġtot ally
Ġitem s
Ġcoun se
Ġo h
Ġf aces
en cy
Ġout do
Ġsh ore
ro ll
Ġmo ves
Ġtal ks
Ġchang es
Ġtw ice
Ġallow ed
Ġjack et
ot t
Ġst orm
Ġman age
Ġd est
Ġd uck
ĠH o
ĠD an
ne ath
Ġjo king
oc king
y l
Ġs ens
ar a
Ġu nd
Ġfar m
Ġsh out
Ġbl ind
Ġim age
Ġinter view
Ġ5 0
Ġexper ience
19 97
g y
m en
ort s
Ġper fect
Ġamaz ed
ĠEve lyn
T hat
i ved
ou ra
Ġk itt
ro ad
ill e
Ġman ager
Ġclear ly
Ġgather ing
Ġmil k
Ġs illy
Ġd iv
Ġso l
Ġev il
Ġeas ily
Ġpub lic
e x
Ġm id
ind a
Ġsus p
w ell
Ġ er
Ġw ish
Ġout f
Ġfoot ball
Ġmag az
m e
Ġg ames
oo ked
Ġfor ce
Ġkn own
iss a
Ġpr int
Ġbre ad
Ġbad ly
Ġste pped
Ġconc ert
Ġvag ue
Ġunder neath
Ġbab ies
Ġtravel ing
Ġstom ach
y ou
Ġto ur
Ġc ere
Ġr ope
ĠF rench
ĠP at
Ġho st
Ġsha re
Ġser vice
Ġrain ing
e ch
Ġg ently
Ġkn ock
Ġus ual
Ġsp end
ĠJ ane
Ġcat s
Ġrel ated
Ġteac hing
Ġansw ered
Ġthe ater
Ġcl ub
ĠJo e
Ġbase ball
Ġtele ph
Ġequ ip
r on
Ġit self
ĠR edding
Ġlau nd
Ġwra pped
Ġproper ly
Ġequip ment
5 0
Ġp acking
Ġro b
ĠP h
Ġrel ax
Ġextrem ely
c ial
j am
Ġg ate
as m
iz z
Ġact iv
Ġim ag
Ġgun s
enn is
Ġbreast s
e en
Ġm ur
ĠG erman
Ġcour t
Ġbal c
ĠA d
ĠM ike
ĠO ak
Ġgre et
em pt
Ġhit ting
Ġair pl
Ġser ies
ĠBe fore
Ġscream ing
Ġep is
r at
Ġn one
ĠE ven
Ġpic nic
Ġgroup s
Ġterri ble
D on
is es
Ġp ad
Ġme m
Ġup on
Ġk itten
Ġwh is
Ġsp read
Ġcor rect
00 0
Ġmountain s
Ġchas ed
Ġl ap
om ing
ĠA venue
ĠCh urch
iv al
Ġcoll ect
ĠApp arently
u ght
Ġall ey
ĠE li
Ġhard ly
ĠGe orge
m iss
Ġe arth
Ġun f
Ġstrugg le
Ġre nt
im ent
Ġv ol
ell ing
vel op
Ġacc om
ash ion
Ġchang ing
ĠRam os
n ge
Ġc ap
en g
if orm
ĠB ig
Ġcom b
ĠD on
Ġcan not
qu e
Ġball s
Ġlead er
wh o
Ġc ust
Ġc ash
Ġkn ees
ĠChar l
1 0
Ġl im
at ives
Ġoff er
Ġplay er
ps on
ĠV alley
Ġaw ake
Ġprep aring
Ġadd ress
Ġposs ible
Ġlaund ry
i us
o ss
u ct
ing ly
Ġwa nder
ĠW il
Ġsp oke
Ġun iform
Ġtick ets
Ġcig aret
Ġb ite
Ġst one
Ġre ct
Ġwho se
Ġsp ray
ree k
Ġpain ted
Ġpur ple
ona ld
v al
Ġs ou
Ġst yle
Ġshe lves
ist ed
Ġsc ra
Ġtow el
ĠAs ian
Ġce ment
Ġeng ine
p ha
ĠB u
ĠD av
Ġma p
Ġsw itch
Ġsister s
Ġlou nge
Ġagre es
Ġbalc ony
Ġg ang
Ġof ten
ĠL e
Ġpart ner
Ġem ot
Ġad v
Ġsound s
Ġexplain ed
Ġvi ol
Ġto y
Ġrem ain
Ġbu m
Ġfollow s
Ġproblem s
Ġcamp us
Ġattract ive
Ġpleas ant
ĠDo ctor
ĠCo llege
c ar
s he
Ġst ab
ĠA b
Ġfl ower
Ġsha d
anc es
Ġfix ed
Ġpus hing
e c
n ow
us ion
Ġher s
Ġoff ered
ĠN ate
Ġreal ity
Ġac qu
app y
Ġmonth s
Ġteleph one
a ff
p ly
s ing
Ġf ut
an ish
Ġlo ving
ire s
Ġpro du
Ġ1 1
Ġshould ers
Ġland ed
Ġpur p
Ġposs ibly
Ġremind s
Ġremind ed
Ġtor n
Ġav oid
Ġhol es
Ġori g
a ld
b er
Ġm ass
Ġp in
Ġn orth
ac hes
ce ed
ĠJ ames
Ġsm iling
Ġche cked
Ġgi ant
Ġsound ed
ipp ing
c u
ĠI s
Ġm is
Ġc ave
Ġhe alth
Ġanx ious
ad ing
ĠM ill
Ġthem selves
Ġfl ood
Ġinter rupt
Ġconne cted
re l
Ġin j
ar ily
ĠM ark
Ġback wards
ĠE m
Ġbu ying
__ _
Ġmin i
Ġstud y
ĠSp anish
Ġdisco vered
Ġme at
Ġpl ants
ĠC enter
Ġpart ially
Ġour s
Ġkeep ing
idd en
Ġsell ing
Ġpract ice
Ġsepar ate
A t
x ic
z en
Ġd ying
Ġp our
Ġr amp
c ing
h ip
Ġany body
ction s
Ġbeg ins
Ġtru e
Ġcop s
Ġsand w
Ġdiscuss ing
Ġsil ver
Ġsne ak
b l
f eter
t hat
Ġr ich
Ġfor mer
Ġab s
Ġsl ip
Ġplan ning
Ġ4 0
Ġbar n
Ġhum an
feter ia
i ents
r ace
Ġb omb
Ġl aw
Ġth r
ĠHe ather
Ġne at
Ġsm iled
Ġatt end
Ġcre ep
Ġled ge
Ġcurtain s
ĠMc D
b oy
n al
v re
in c
Ġr ough
ri an
Ġfe ed
ĠN at
Ġpre vious
ĠTh om
Ġad j
ĠPaul ina
Ġprofess or
Ġ .
Ġd ig
is ion
ic les
Ġsu cc
itt ed
Ġdis ab
Ġen em
Ġhead s
Ġspe aking
Ġaw ak
Ġdist urb
Ġfast er
Ġroll ing
Ġdisapp eared
Ġrese mb
Ġcust om
Ġrect ang
z zy
Ġm ent
Ġc ru
Ġn on
Ġpro cess
Ġperson al
Ġroll ed
Ġass ign
Ġexp ensive
atur al
h ost
is ing
ĠL uc
Ġpo or
Ġdri ves
Ġsc rew
Ġcont act
Ġpass ing
Ġca use
i od
Ġm ill
Ġr out
ĠF l
Ġdress es
Ġlove ly
Ġwonder ful
Ġind ic
Ġstor ies
Ġconst ru
eng th
Ġwa ist
Ġback ground
Ġour selves
Ġsha ke
a ult
g o
Ġh i
Ġhe aring
id s
Ġte ach
Ġcor n
Ġlean ing
n oon
s ion
it ive
Ġr ush
Ġli qu
ĠH ill
ant ic
ure s
Ġgood bye
Ġatt ic
Ġsha ped
Ġsur v
Ġcr ack
app ed
Ġtouch ing
Ġsurround ed
mit ri
Ġt ent
en ny
ac her
ĠM er
ĠB y
Ġsl iding
ines e
Ġoffic er
H e
g ers
at ors
Ġst at
Ġcar ried
Ġsc en
Ġper iod
Ġclot hing
Ġshort s
Ġlaugh s
Ġlock er
ĠSte ve
Ġsucc ess
f ather
y ear
pl es
Ġkiss es
Ġcons cious
Ġobs er
c he
d uc
i ers
k nown
Ġre qu
Ġdoor way
ĠDad dy
Ġmotor cy
Ġfright ened
Ġgrocer y
Ġairpl ane
W hy
l aw
Ġd ust
Ġh on
ĠJ ul
Ġafter noon
Ġegg s
Ġoutf it
ĠDav id
Ġg ig
et te
ĠT im
Ġmo d
Ġstre am
Ġkill ing
Ġmean ing
Ġcomplain ed
Ġemploy ees
Ġpurp ose
c al
Ġp ers
Ġth ro
oo p
ri ll
Ġde er
ĠE r
Ġatt empt
Ġsupp ort
bb er
Ġcomp et
Ġimp ression
sh irt
Ġroll er
Ġchar acters
Ġexplain ing
Ġdru g
w ing
nd y
Ġb orrow
Ġwa rd
ĠS m
Ġde m
Ġsp ill
ĠF red
Ġbr ick
Ġdire ctor
Ġdi am
Ġdescri be
Ġtu be
Ġepis ode
nd ay
er c
Ġst ar
ĠS ue
ri age
if ied
ĠD mitri
Ġ1 8
Ġdraw er
Ġcraw l
Ġign ore
ĠLy nn
u ce
al ous
and om
Ġsc hed
Ġhold s
Ġclot h
Ġsex ually
Ġca feteria
Ġpri est
Ġdirect ly
Ġshar p
Ġenem y
g irl
in ks
le br
Ġr andom
ĠH appy
Ġpl aced
Ġex it
ĠO ut
ation al
ĠCh inese
Ġpack ed
Ġresp ons
vis ion
ĠĠĠĠ ĠĠĠĠ
Ġspir it
er n
Ġp il
ul ty
ĠE ric
Ġsho e
Ġsim ply
ĠDo vre
Ġhorri ble
f or
h ile
Ġf ac
Ġl ined
Ġsa le
Ġjo ined
Ġpret end
Ġjum ping
Ġbott les
Ġdist ract
Ġland s
Ġpay ing
Ġvac ation
in ite
Ġm ath
Ġg host
ut s
Ġj ew
Ġv al
Ġass ist
Ġsub ject
ĠUn iversity
ĠSe veral
Ġhell o
Ġje alous
ĠSu nday
c il
Ġd im
Ġp ow
Ġr ap
ĠW ith
Ġsa f
Ġne g
ca pe
ian s
Ġbec omes
Ġstru cture
Ġmist ake
c han
Ġto oth
ir m
as es
Ġj u
Ġfall en
Ġcur rent
Ġrail road
ĠSim pson
Ġclou ds
Ġtom orrow
j ah
Ġbe ll
Ġme al
Ġj our
Ġlo bby
ab b
Ġbrother s
Ġcre w
Ġocc as
Ġmix ed
Ġcontain er
s ha
Ġc ent
Ġl u
Ġp ig
Ġfl ash
ĠP op
Ġunder ground
Ġact ual
Ġfloor s
Ġrec ently
Ġteacher s
Ġra ised
Ġdru gs
Ġpriv ate
Ġmotorcy cle
ut ion
ĠM ost
if y
ĠJ ake
Ġsqu ee
Ġob viously
Ġneighb ors
ĠMe xic
Ġir on
H ey
a ven
Ġc u
Ġst icks
al y
ĠP ark
Ġplay s
Ġdes ert
ple x
Ġwin ter
Ġemploy ee
2 0
d ia
Ġt ied
Ġt ennis
Ġf avor
Ġr if
ĠS ee
ist ic
ĠR iver
Ġtr ay
cept ion
Ġcard board
uff y
Ġsurf ace
ĠEli jah
o h
Ġp ages
ver n
Ġup per
ĠL ots
Ġpo ison
Ġbre ath
Ġfre sh
Ġblock s
Ġgrad u
Ġpu zz
Ġgrow ing
ĠSand ra
1 1
r im
Ġp un
Ġp ound
or der
Ġme l
Ġcor rid
ĠBe v
Ġstr ing
Ġdiscuss ion
o x
Ġme mber
am ps
ĠW or
Ġwor th
Ġde b
Ġde ck
ĠO r
Ġcont est
Ġansw ers
Ġref ri
Ġce lebr
Ġdisapp ear
Ġexpect ed
Ġhung ry
Ġc age
er k
as ing
Ġfr ame
Ġal ien
ĠC an
Ġlo ves
Ġsha llow
Ġstore s
Ġcr ash
Ġinter se
ĠDar ius
rop ri
Ġhunt ing
ĠJe ff
' ,
c ul
u le
y er
y ard
Ġd u
ou nce
Ġshe ets
ter day
Ġne cess
ca st
Ġapp re
Ġdes per
Ġsk i
att ered
Ġcook ies
Ġperform ance
Ġsle pt
i am
Ġf ake
Ġl uck
Ġbe ha
ic ing
Ġwith in
Ġsome place
Ġex erc
ĠG re
Ġbit s
?" .
Ġsupp ose
Ġsex y
Ġcop y
Ġdoll ars
Ġbird s
Ġenc oura
Ġfut ure
Ġrefri ger
Ġwa gon
it ting
Ġg ent
Ġcom fort
iz es
Ġqu art
Ġsecond s
Ġfull y
ĠWh ite
Ġcommun ity
miss ion
Ġthro at
L et
Ġs outh
Ġo il
Ġb as
Ġm iles
us es
ir ing
ĠN orm
Ġapp oint
erg y
athe red
D o
c ent
c ra
h ol
nd red
ou g
Ġh idden
ĠM art
Ġsh y
Ġsh ru
ĠB J
ĠB rian
ĠC arter
Ġpr ay
ĠSt u
Ġrep ort
Ġlean ed
A S
Ġt ur
Ġp iles
en a
ĠT ony
Ġst ack
ion ally
Ġam ount
Ġbr ings
Ġcost ume
Ġsal es
ĠLy dia
Ġdisco ver
b ack
k ward
m in
Ġt ie
Ġd ue
Ġl ength
Ġr ack
ĠC a
Ġar range
Ġun known
Ġche ese
Ġres pect
Ġmon ster
Ġord ered
Ġrece ived
L ook
Ġw ore
Ġb un
Ġf u
Ġd eter
on na
id ence
ac hel
Ġst aff
Ġre le
Ġre act
Ġli ps
Ġpo inting
Ġdis h
Ġlad ies
Ġmed ic
Ġsaf ety
ĠStu art
e g
i ens
s ed
it es
Ġh y
Ġbe nd
Ġpl ain
end er
Ġmar ry
Ġcut ting
ĠGrand pa
Ġapolog ize
w ood
it ar
Ġc udd
os ing
um n
Ġche ek
Ġspe ech
Ġaw kward
Ġdet ails
Ġintro du
B ut
D ad
S he
o ff
Ġu ne
ch ie
ĠJ erry
Ġpo nd
Ġclass mates
Ġaw hile
Ġclos ing
sp an
the y
Ġtele vision
Ġattack ed
ĠWest port
Ġgent le
N ow
it ude
ĠA le
Ġdo d
ĠW ar
Ġbo d
ĠR uss
ous ly
Ġun s
ĠIn st
Ġrel atives
Ġarm y
Ġsupposed ly
aw son
Ġmot ion
ĠBar b
Ġmagaz ine
Ġconstru ction
a it
Ġt ill
Ġwas hing
Ġsp ent
Ġlet ting
gg y
Ġmat ch
Ġsmo oth
Ġgen eral
Ġur in
Ġobject s
ĠLuc y
p y
t own
om an
Ġin f
ic a
ĠS us
Ġal co
Ġany where
ran k
Ġty p
Ġpack age
Ġsuit case
Ġenjoy ing
Ġelect ric
Ġcreep y
Ġon line
ĠA m
as y
Ġj ud
Ġal iens
ĠB et
Ġta il
ol en
Ġrem o
Ġv amp
Ġhu ndred
Ġstuff ed
Ġdr own
Ġown ed
Ġsign s
Ġsepar ated
Ġbelong ed
Ġkitt ens
Ġsusp icious
m o
is a
ll en
rou d
el ed
ap an
Ġtra pped
Ġ2 5
Ġtr ick
ĠOn ly
Ġprep ared
Ġdiffic ulty
Ġdef inite
Ġargu ment
ĠRob ert
t ub
Ġb ored
Ġf ile
an ie
at ic
Ġte m
Ġde mon
Ġplan ned
Ġwheel s
Ġcomplet e
Ġgrab s
Ġcomplain ing
Ġphys ical
h or
Ġt ank
in ary
Ġd ating
Ġg athered
Ġh ose
Ġwe ak
ent ed
ĠH ar
ĠD oug
Ġche cking
Ġtr unk
Ġt an
it ions
Ġc ooking
Ġl at
Ġl ane
Ġp ed
en ces
Ġn et
Ġbut ter
Ġk ick
ĠC he
ĠE vent
Ġmo der
ĠJ apan
Ġen ergy
Ġgre y
Ġmess y
Ġstair way
Ġunderw ear
ĠThom as
Ġrectang ular
ĠEvent ually
0 5
c her
v y
Ġto ys
ĠThe ir
Ġst olen
Ġe ight
Ġdo ck
Ġback yard
Ġclose ly
ĠV ery
ĠY ork
Ġann oun
Ġsong s
Ġappro ach
Ġsmo king
duc ed
Ġpil ot
ropri ate
h h
Ġ #
re te
Ġg own
Ġre he
ur ity
ĠJ an
Ġcha se
Ġlo g
Ġsort s
Ġbath tub
Ġappro ached
b age
r ont
Ġa im
Ġb i
Ġf ool
ĠL ike
Ġch o
Ġbr ush
Ġroll s
Ġstra w
Ġoutdo ors
Ġinterse ction
i ge
v ille
he red
Ġd ial
is m
Ġp ipe
et t
Ġhe ight
us hed
Ġre ception
Ġe ff
ir ting
Ġan ger
Ġsp orts
ĠJ ay
Ġreal ised
ĠR achel
ĠP al
Ġdress ing
Ġtr ust
bo x
Ġpolice man
Ġswe at
Ġinstru ctor
Ġcond ition
Ġrif le
g ain
p m
z ed
Ġm ic
Ġto ss
Ġse ven
ent y
Ġfr o
Ġam b
Ġpo le
Ġrep res
Ġaut om
Ġguest s
Ġacqu aint
c ol
Ġb ul
Ġc urious
Ġp izz
ĠW al
Ġint im
ĠC ha
ĠC on
Ġhelp s
Ġbus hes
Ġche ap
ĠCh ris
Ġpat io
Ġlift ed
Ġpot at
Ġwee ks
Ġrefriger ator
n am
Ġst icking
Ġgo lf
op h
ĠM any
Ġso cks
ct s
Ġcan oe
Ġsp in
Ġrem ark
Ġsc ri
Ġthan k
Ġcor d
ens ion
Ġrel uct
Ġcr it
Ġfun eral
Ġclean ed
Ġconf usion
ĠWh y
Ġpower ful
Ġhar m
Ġjew el
Ġ vers
Ġm ult
Ġme chan
if er
Ġsl am
Ġwall et
Ġbre aking
Ġdraw ers
Ġcross ed
Ġgrand mother
Ġje ans
ĠSu per
ĠInst ead
Ġb ent
Ġc ub
ĠA ud
Ġare as
Ġfr uit
Ġint ense
pt ion
Ġco ins
Ġch ips
Ġpr ice
Ġ1 4
Ġfin al
Ġpar ade
Ġref used
Ġpen cil
Ġtran sp
Ġstair case
Ġsold iers
i ving
Ġp unch
Ġr om
ol s
ĠP l
Ġcomp an
Ġpret ending
Ġdra wn
Ġes cal
Ġland ing
Ġpartic ip
Ġhur ried
Ġblank ets
Ġconvin ce
Ġdeter m
a f
Ġ ver
re a
Ġm att
ha ired
Ġc ine
er ie
Ġwe ap
Ġr ate
Ġy eah
Ġsp aces
um ed
ĠG o
Ġfam ous
Ġdes ks
Ġres ults
Ġca fe
ĠMar issa
Ġexper iment
Ġconc rete
Ġpill ow
Ġcarp ark
Ġmud dy
Ġbod ies
g ar
i que
on ed
or ter
Ġr ings
al ing
ĠS ometimes
as hes
ort un
Ġrem ar
Ġch ose
ĠP er
Ġhu gged
Ġtr ash
ang u
Ġeas ier
Ġyes terday
Ġtrail er
Ġdam age
Ġsou p
ĠEr nie
Ġdem and
Ġappoint ment
Ġmoder n
Ġb unk
ic ed
Ġis s
ĠS ince
Ġro de
Ġle ather
Ġta x
Ġgu itar
ĠL ou
ive ly
Ġca used
Ġreturn ing
ĠEvery thing
Ġsec urity
Ġsus pect
Ġunderw ater
Ġm ast
Ġf ail
am a
Ġsa ved
Ġsp ots
ĠL ake
ĠTh ree
Ġmar riage
enn ifer
ĠMel anie
Ġsem i
I s
Ġc ents
ut h
Ġhis t
ĠC om
ĠJ udy
Ġcha in
Ġact ion
Ġaw ful
Ġang le
ons cious
Ġscre amed
Ġswe ater
pha nt
he t
Ġw ine
Ġc ried
Ġh ook
Ġst ove
Ġre v
ĠH an
Ġcom plex
Ġde g
Ġde v
ĠR ay
Ġplay ers
led ge
Ġacc ess
ĠBr ad
Ġcolor ful
Ġorg asm
Ġign ored
ĠCar l
m ar
o f
he lle
Ġthe at
Ġr abb
ct ually
Ġte ch
ĠE x
Ġsc rat
ath y
Ġche m
Ġshop s
Ġem erg
Ġang ri
Ġty pes
Ġpur s
Ġannoy ing
Ġsy mp
Ġfix ing
Ġru bber
Ġcabin et
Ġpu pp
Ġrepe ated
jam in
ĠPop pa
Ġd ent
Ġl angu
an ch
Ġr ot
ĠH ank
ĠM o
Ġte mp
ul es
Ġma j
Ġv o
Ġen cl
Ġstud ying
The y
Ġhop ed
Ġbat ter
Ġbrief ly
Ġliqu id
ĠAud rey
Ġcine ma
c les
g an
p ack
r al
Ġb oun
Ġn ap
ly ing
ĠH ome
ĠD el
ĠF rom
um es
Ġsk ill
Ġper mission
Ġpret ended
Ġcr ashed
Ġsy mb
Ġvag ina
ĠQ ue
Ġquart ers
u nder
Ġs ar
ed s
Ġd ude
is ting
Ġst ro
Ġso ap
fe ction
Ġch oice
Ġhelp ful
Ġfo c
Ġpic ks
Ġgr own
Ġbre athe
Ġfore ign
Ġtast e
Ġactiv ity
Ġwander ing
girl friend
I f
d en
h ib
w are
y ond
Ġf ashion
es ting
Ġbe lly
Ġbe yond
ad ium
Ġshe ll
ore s
ce ll
ĠB o
Ġman ner
Ġbo ots
Ġwor se
ĠJ ennifer
Ġun lo
ell y
Ġpro ceed
Ġtow er
.. ."
Ġrel ig
itc hed
Ġacc ount
Ġfree way
Ġve get
Ġbal ance
ĠNorm an
c ut
f oot
Ġf urious
ow ing
at hing
st ers
ad s
Ġshe d
Ġkn ee
Ġsp o
ĠN ick
ĠR udy
Ġflo at
ert on
ĠV al
Ġshirt s
Ġgar bage
Ġcertain ly
Ġcover ing
ĠRo ver
Ġstor age
Ġrese arch
Ġaff air
ĠMcD onald
Ġdiam eter
Ġfro zen
m ony
p an
Ġg onna
Ġwe ather
Ġr ub
al ed
ad es
ĠS il
Ġnot ion
Ġpe w
ĠC or
Ġfl irting
Ġco ach
Ġpart ly
Ġ1 00
Ġbel t
Ġpres ident
Ġref er
Ġind ivid
ĠJack son
Ġcere mony
Ġmatt ress
0 6
S omething
g un
k ay
t here
Ġt ip
Ġg ear
ar re
or ds
le e
Ġso f
Ġv ivid
Ġar ran
Ġdec ides
Ġsw am
Ġhu gging
Ġatt itude
Ġplan s
Ġhit s
Ġtrain ing
ĠOn ce
ĠBe cause
Ġcons ider
Ġnorm ally
Ġexper ien
Ġpill s
Ġtrans fer
ĠBen jamin
ĠSc ott
ÂłÂłÂłÂł ÂłÂł
**** ****
Ġdisg usted
Ġorig inal
Ġpizz a
Ġjewel ry
1 5
E R
y an
Ġb ars
Ġd umb
Ġha te
ĠT erry
ĠM iss
Ġsh ots
ce nd
Ġgu ide
ess ion
ĠP art
Ġwat ches
Ġkill er
Ġad ult
Ġcast le
Ġoccur red
Ġimag ine
Ġcigaret te
W h
Y eah
s omething
t le
Ġt ar
ge l
Ġte asing
ĠN iles
Ġbot hered
Ġpat ients
aur a
Ġreg ister
Ġcamp ing
atur day
Ġchat ting
Ġspl it
Ġcreature s
Ġthr own
Ġrout e
Ġmod el
Ġscri pt
c ue
m m
Ġm er
Ġf irm
is k
Ġp iled
Ġin ch
Ġj unk
un ion
ĠB oth
ĠR ed
Ġhas n
Ġhill s
Ġple ase
Ġconne ct
Ġexpect ing
Ġfold ed
Ġsandw ich
Ġdisab led
Ġrehe ars
Ġangri ly
E zra
a wn
w ise
Ġp roud
Ġpl ates
ĠC am
Ġco vers
Ġdec ision
Ġcr ush
Ġsat is
lle ction
Ġesca ped
Ġlear ning
cra ft
Ġeff ort
n ers
Ġp ist
ĠT y
Ġact ed
Ġche er
ĠCh uck
Ġste el
Ġlead s
Ġphys ically
Ġinj ured
Ġdefinite ly
h op
h ill
Ġf i
Ġwas te
Ġn or
ic op
ke nd
ĠS ha
ĠS aturday
ust y
ul ate
ty pe
Ġbre aks
Ġres ist
Ġad vert
Ġele phant
Ġmot el
Ġdel i
Ġsuggest s
Ġdoll ar
Ġconne ction
Ġburn ing
Ġzomb ie
Ġble ed
Ġassist ant
Ġdemon str
Ġmaj or
I D
W here
in o
Ġb oring
it ary
Ġf ault
Ġdo cu
ĠW here
Ġsh if
ust ing
ĠB ry
ĠC ol
Ġcom ments
ĠD awson
ĠAnd y
Ġsit e
Ġbu mp
ĠR un
ag ing
Ġqu it
so ci
Ġinc ident
Ġcommun ic
Ġsearch ing
Ġintro duced
Ġcompet ition
Ġju ice
" ]
c an
c ome
Ġw est
ĠWe ndy
ct ors
Ġte a
Ġ( ?)
Ġcon v
pt op
Ġsc ience
Ġhel icop
Ġ1 6
Ġ1 7
Ġres ort
Ġcre ated
Ġeat en
Ġthrow s
Ġrep air
Ġmach ines
Ġla ptop
Ġsecret ary
Ġvac u
ĠOther s
Ġwee kend
Ġmem ory
b ly
z er
Ġt ig
Ġw ound
Ġs igh
Ġin it
on ne
ut ter
an es
ĠT e
Ġe ars
all ed
Ġas soci
use um
ĠC AS
Ġte ars
Ġag g
Ġdri ven
Ġ1 3
Ġsha ring
Ġim m
ia h
app ing
att le
Ġsqu ir
Ġbeaut y
Ġreturn s
Ġtre at
Ġcous ins
Ġlear ned
ĠDe an
Ġgrad uation
Ġcraw ling
Ġbull ets
Ġphotograph s
inc ip
ĠJapan ese
c om
g in
Ġm ouse
Ġc ro
Ġc ong
Ġd ive
ĠM ed
Ġsh ook
Ġbo ards
Ġhouse mate
Ġde velop
os aur
Ġbl ocked
Ġv ill
ĠL inda
um s
Ġqu arter
Ġthought s
Ġact or
ary l
Ġrel ative
Ġjum ps
cl ock
Ġbill s
Ġapolog ized
Ġhesit ate
Ġsched ule
sha ped
Ġnecess ary
Ġemerg ency
A L
Ġf t
Ġl ic
Ġbe ard
se e
ad o
Ġro d
ro y
os en
ĠL aura
ĠR yan
Ġrealiz ing
han ge
Ġpr incip
Ġgl o
Ġcomment ed
Ġskin ny
ĠQ u
Ġrus hed
Ġgig g
Ġmast urb
n es
o ver
t op
Ġm ask
Ġf iles
Ġli p
Ġfor ced
Ġsh iny
Ġman sion
Ġex ha
ĠJ ason
Ġno is
ĠR et
Ġatt ending
ious ly
Ġgre w
ib ility
Ġfill ing
Ġbring ing
Ġstri p
Ġrepe at
Ġsol id
ĠCharl ie
Ġcorrid or
ĠWor ld
Ġappre ci
b ell
Ġn atural
Ġst aring
am ing
st it
ĠA ctually
and er
Ġoff ers
ĠD aryl
Ġbr anch
Ġim ages
Ġrest room
Ġcre ate
Ġinv est
Ġchan nel
Ġcross ing
Ġappear ance
Ġloud ly
Ġopp ortun
Ġswing ing
Ġble acher
Ġrepl ied
Ġmark et
Ġstran ger
Ġfavor ite
A n
D ream
k er
Ġb ald
Ġto ng
Ġto night
Ġn ic
ay s
ĠM an
Ġcl a
ĠR ey
ian a
Ġhor iz
Ġfigure s
Ġexpl os
Ġbutt ons
Ġvague ly
ĠWil m
ĠOut side
Ġdistract ed
Ġtyp ical
b ur
Ġ vert
Ġw ished
Ġb ene
Ġf art
Ġhe aps
Ġshe l
Ġfr ag
Ġback ed
Ġcl erk
ain ed
ĠC le
Ġsp ring
Ġsc ar
Ġfind s
Ġar row
ĠIn side
Ġpick up
lle y
Ġref le
Ġconcer n
Ġspec ific
Ġexp ress
Ġpu ppy
Ġargu ing
Ġrus hing
Ġvacu um
ĠWilm erton
A R
c el
Ġt ask
in ct
Ġto ast
Ġf ab
Ġe ast
ĠA f
ĠM on
Ġcon vert
Ġsp r
Ġfl ames
ĠJ er
ĠF ace
Ġcha llen
ĠL arry
ab out
Ġwill ing
Ġran g
Ġcomp artment
Ġcur b
Ġra ft
Ġra ise
Ġprep are
Ġappro aching
Ġexpl od
Ġexerc ise
Ġsar cast
L ast
r ick
ha ppy
Ġp itch
am iliar
Ġse qu
ĠH ouse
il s
Ġag es
Ġch op
ĠP et
Ġqu al
ĠG ran
Ġdiffere nce
Ġsk ate
Ġexc hange
Ġboat s
ib er
Ġaut hor
Ġprofess ional
Ġtou gh
Ġmedic ine
col ored
Ġlangu age
g ro
t ered
Ġb oo
Ġb lew
er ve
ut ely
Ġth umb
ĠT ed
Ġn ude
Ġst ock
Ġr ude
Ġan k
Ġas ide
Ġne ither
Ġcl ient
and y
Ġsp ider
ĠO f
Ġdis e
ip es
Ġstop ping
Ġwork ers
ĠK ing
anc hes
Ġele ment
Ġdra g
Ġinv is
Ġfire place
Ġdin osaur
Ġgrass y
Ġbra kes
Ġbat hing
rest ed
oss ible
ĠSus an
Ġtheat re
Ġindivid ual
Ġsof a
c on
f rom
z ing
Ġst adium
Ġr it
am b
se mb
Ġup side
Ġro le
ĠC la
ĠE st
ol f
Ġgu ards
os h
are n
ĠL isa
Ġwr it
Ġbre athing
Ġchild hood
wh ile
Ġcontinu es
Ġproper ty
icha rd
Ġgift s
Ġpad d
Ġabs ol
Ġremo ved
A re
k in
Ġw ings
Ġc red
is her
Ġp al
Ġhe at
Ġre aching
ĠS l
ur ope
Ġso cial
Ġkn eel
Ġfl irt
ĠR es
ĠP res
Ġsl id
gg age
Ġdes ire
Ġhall s
Ġinc red
Ġocc up
Ġsection s
Ġpresent ation
Ġbra ke
Ġloc ated
ĠEng land
Ġquiet ly
Ġburn ed
Ġord inary
Ġteen age
Ġenc ount
Ġperfect ly
Ġstab bed
Ġscen es
Ġlu ggage
Ġalco hol
B e
Ġd en
Ġl osing
Ġp it
Ġe re
Ġse le
ĠS w
Ġro be
Ġcar n
ie f
Ġex hib
Ġbl ouse
Ġmo on
Ġch osen
Ġsl im
th is
Ġsha king
Ġset s
Ġres cue
Ġste ering
Ġconf ident
Ġpres ence
rist an
Ġpack ages
Ġgrand father
Ġpract icing
Ġdou b
vis or
Ġclou d
Ġcounse lor
Ġacquaint ance
p ting
r ation
s chool
Ġw rest
ha m
Ġf an
Ġp ou
Ġha ted
Ġst ars
ic ul
st ore
ad er
ĠS ant
ĠM ass
ĠHe re
ĠD is
Ġstart led
ĠP eter
Ġbr anches
Ġnow here
Ġaf fection
Ġbus h
Ġpass es
ĠY ear
Ġpres ents
ung le
Ġra pe
ĠNe gro
Ġinstru ctions
athe t
Ġcup board
ĠAd am
ĠFace book
re g
it ory
Ġc ot
es ter
ow een
Ġr ides
ĠA ustr
ur y
ĠM ore
Ġso d
Ġj ail
el ing
qu et
Ġsp ell
ap ers
Ġpr im
Ġmake up
Ġmove ment
Ġyour self
Ġpain ful
Ġnotic ing
Ġpat tern
Ġgrand ma
Ġpress ure
Ġmil itary
Ġhesit ant
ĠHo lly
Ġmem or
ĠAustr al
l t
Ġ i
Ġw ig
Ġo val
Ġwa ved
Ġf ired
st al
ĠS ally
ĠA gain
Ġk ing
Ġfe ature
Ġcan s
ĠR on
Ġjo kes
Ġdress er
Ġplan et
Ġplan es
Ġste am
Ġ6 0
ĠAr m
Ġloc ation
Ġflight s
ict or
ĠHall oween
Ġconvin ced
ĠMill er
ĠBet ty
Ġconvert ible
m iah
Ġ x
re house
Ġwa rehouse
ha nd
Ġg all
Ġin n
Ġh ood
ĠT ristan
ac he
Ġre union
ĠH arry
Ġab and
ro g
ĠR ichard
Ġpro v
ger y
Ġroad s
Ġimp ossible
Ġed ges
la im
Ġart icle
fect ed
Ġwin ner
Ġchick ens
Ġloc al
ĠCar ol
Ġsle e
Some one
Ġunf amiliar
Ġvol unt
Ġshad ow
Ġrespons ible
Ġescal ator
Ġnois y
Ġfab ric
b ert
n ity
Ġ ...
Ġt it
Ġin se
ic ated
al es
ir gin
Ġfor t
Ġk icked
ĠHe l
Ġkn ocking
ck ets
ĠD ay
ĠN ancy
ĠF ar
ĠP r
ag ers
Ġun able
Ġimp at
Ġacc ent
Ġdist ant
Ġhalf way
ĠCal if
Ġswe ep
ĠZ elling
Ġnote book
Ġgen er
Ġcirc ular
Ġwire s
Ġoutdo or
Ġresemb led
! '.
b ble
p ers
t es
Ġs en
Ġb orn
Ġd um
Ġse ason
Ġli es
ill a
Ġus es
Ġrem ove
Ġco ast
Ġsl ides
Ġstre ng
Ġsn akes
Ġstud io
Ġconf ront
Ġemb race
Ġpur cha
Ġass umed
Ġsim ple
iet y
Ġhat s
ĠMel inda
Ġjour ney
Ġhelicop ter
Ġtig er
Ġopportun ity
Ġinvis ible
a i
Ġto ne
er ick
Ġf if
Ġd itch
Ġwe l
Ġwe ars
ĠS outh
ĠM ic
un ks
Ġcom ed
ĠE v
ĠE urope
ist ry
Ġco ck
ĠR os
Ġch oo
Ġpre vent
Ġsc attered
ĠG r
Ġun it
Ġsl ipp
Ġ2 4
Ġsur gery
ĠAn na
Ġyell s
Ġca using
Ġser v
Ġser ving
Ġconf using
ĠJere miah
Ġbes ides
Ġmag ic
Ġbull et
rid ay
Ġident ify
Ġdest roy
Ġinterrupt ed
I N
c cer
ĠT er
Ġr i
Ġr ules
ĠS ar
Ġli on
ur ance
Ġle ans
Ġfl ip
Ġma id
Ġun happy
Ġsl op
Ġ2 2
itc hes
Ġexc use
ĠEvery body
Ġhur ting
Ġoffic es
Ġgym n
ĠGin o
Ġrecord ing
Ġmur d
Ġcu ps
Ġtemp or
Ġbleed ing
Ġbleacher s
O T
f all
w ith
in ated
es cape
Ġre place
ve y
as ure
ĠM ay
Ġsh it
Ġsh own
pp er
omet ime
Ġsu ck
Ġrem od
ĠJ ens
Ġsl ipped
ĠSome body
Ġ2 00
Ġdr inks
bb a
Ġbaby sit
Ġrest ing
ator y
Ġsuit s
Ġpan ic
Ġfellow s
Ġkey board
orn ia
Ġcart oon
Ġdorm itory
work er
Ġpour ing
ĠTy ler
Ġexha usted
C ome
g ie
s ized
Ġt ender
Ġwas hed
Ġl in
or ate
Ġha m
ĠT iny
Ġre ass
ind y
Ġint ell
Ġpe ace
Ġwho ever
ĠE aster
iz arre
ant ically
ĠP o
Ġcou ples
Ġapp ropriate
Ġtra p
Ġkid n
Ġinter n
Ġob vious
Ġsign al
Ġcur ly
Ġtall er
Ġshot gun
Ġfore ver
Ġcand les
Ġsil ent
Ġpress ed
ĠAb out
Ġmini ature
Ġintrodu ce
Ġdod gy
Ġrelig ious
ĠSil as
Ġpist ol
ĠAf ric
Ġere ction
h old
m aybe
Ġw it
Ġw itch
is hes
Ġbe e
Ġr ac
ep t
Ġpr inting
Ġdra in
Ġann ounce
Ġter m
Ġcost umes
Ġeng aged
Ġwra p
Ġcapt ain
Ġsteal ing
Ġassign ment
Ġhist ory
Ġtech n
Ġtong ue
Ġvolunt e
ĠCalif ornia
f ly
f ashion
l ass
m osp
Ġm uff
ed ro
ĠM or
Ġde vice
ĠF riday
Ġsm ashed
ab el
ag ue
Ġact ress
ĠSo on
Ġim pl
Ġsign ed
Ġmed ical
Ġcraw led
Ġcapt ured
ĠJim my
Ġcigaret tes
Ġhealth y
Ġcustom ers
ĠSm ith
Ġsquee ze
Ġcompan ion
Ġcarn ival
Ġstreng th
mosp here
1 2
I S
b ow
g ue
u ous
Ġ est
Ġw ha
Ġha mb
Ġre ve
Ġat mosphere
Ġgo vern
as ant
Ġback s
Ġal t
Ġpe ek
ie ce
Ġwor n
ĠR ight
Ġplay ground
Ġhead ing
Ġjo y
Ġgra vel
Ġem ail
Ġser ved
Ġdrop s
Ġstru ck
Ġexam ple
Ġ9 11
Ġterri bly
Ġrail ing
Ġav ail
str ong
Ġthreat ening
Ġtom at
ĠBu bba
ĠFred erick
Ġshif ted
Ġdise ase
ĠEst her
Ġhamb ur
? ).
A N
Ġb izarre
Ġse wing
ĠM ain
Ġso ccer
Ġsh orter
ĠE ar
ol ic
Ġma gn
ĠR oc
Ġremember ing
Ġend ing
Ġtr im
____ _
ident ly
Ġsing er
Ġty ping
Ġbedroom s
ĠAl though
Ġarri ves
Ġcatch ing
Ġcand le
Ġstair well
ĠBon ita
Ġir rit
Ġhol id
Ġdecor ated
Ġprison er
Ġsuccess ful
Ġvamp ire
ĠQue en
Ġarran ged
fashion ed
A T
i el
s ome
Ġg est
es b
ĠM ond
un e
Ġcon side
Ġbu g
Ġbu dd
ĠP ar
Ġold est
Ġthrough out
ĠK aren
Ġsn uck
Ġhor ror
Ġev ents
bo at
Ġins ist
Ġfre qu
Ġmon key
Ġblow ing
Ġdiv or
ĠRun escape
ĠJer ome
Ġabsol utely
Ġconside red
? '
] ,
m are
ing er
Ġm aster
Ġc reek
Ġl one
om en
Ġp iss
an ing
Ġshe ep
Ġthem e
el ess
el ia
Ġma ze
Ġbu ff
Ġpre fer
ĠG u
ell e
Ġapp le
our se
Ġad ults
Ġpol it
Ġlay s
Ġbec oming
ĠJo ey
Ġexp osed
Ġdel iver
Ġlevel s
Ġspeak er
Ġsal ad
Ġdet ect
Ġstrugg ling
Ġpsych ology
Ġawak ened
ĠĠĠĠĠĠĠĠ ĠĠĠĠĠĠĠĠ
Ġencoura ge
Ġencl osed
ĠVal erie
ĠBry an
Ġrit ual
Ġinn oc
Ġt ire
Ġb in
Ġc rou
Ġf aded
Ġl ack
Ġp ier
Ġth rill
ac ious
ic ide
ĠA c
ĠA ve
Ġas semb
ĠD uring
Ġside ways
Ġlet s
Ġdes cend
Ġsupp er
ress ive
Ġent ers
Ġent ertain
Ġob st
Ġball oon
Ġcomput ers
Ġtoil ets
Ġconc ent
Ġpill ows
Ġsafe ly
Ġdet ail
Ġcirc les
Ġurin ate
Ġamb ul
Ġrabb it
Ġprincip al
? '.
Ġm ut
et ch
Ġr acing
im p
st ick
ĠS har
Ġfor k
ra h
Ġpl ot
il ies
Ġman ual
Ġsu ite
Ġover head
Ġsp ending
iz ation
ĠN ative
ĠN orth
ĠJ ose
Ġsm art
Ġno ises
Ġbu ried
ĠR ose
ab les
Ġcol our
ĠU S
Ġpol ite
Ġdrop ping
etc her
Ġdaught ers
Ġcomm on
ĠZ ena
ĠCl ass
ĠWill iam
Ġord ers
Ġdecor ations
Ġstall s
Ġjoking ly
Ġprint ed
Ġcru mb
Ġsurv ive
Ġbeha v
Ġinvest ig
ĠSant a
ĠSar ah
4 0
G o
H ere
l ies
Ġt ack
re ly
om y
Ġp udd
on se
Ġh omes
ĠT r
ĠH aven
Ġro se
Ġcl ut
ĠB oy
Ġta ught
Ġbr ide
ĠG ary
Ġdis p
Ġsha pes
Ġsho ck
Ġmar ked
Ġground s
Ġhands ome
Ġvis ible
Ġser ve
Ġtruck s
Ġcour ty
Ġfield s
Ġpa jam
Ġform al
Ġdoll s
Ġresp onse
Ġrid icul
Ġthreat ened
Ġaccept ed
Ġaccom pl
Ġlaw yer
Ġpow der
ĠMexic o
Ġremar ks
Ġunlo cked
ĠArm strong
O kay
a id
g est
Ġt urt
Ġo ven
Ġm useum
ha ll
ow ed
ot ic
Ġst ones
Ġdo ctors
as c
Ġy ards
Ġj un
Ġj ungle
Ġam use
Ġsu gar
ĠJ ew
Ġlo ad
Ġpo ster
Ġsc ore
Ġsc ram
Ġsl ope
int s
Ġtow els
Ġhu gs
dd ed
ĠK at
Ġwait er
Ġlight ing
Ġpass age
Ġent ering
anc ed
Ġdist inct
Ġunderst ood
Ġoffic ial
Ġorgan ized
Ġtot al
Ġstret ched
ĠFl etcher
Ġobser ving
Ġrequ est
ĠRiver town
Ġbas ically
ĠJay son
Ġchem istry
ĠRet reat
c ream
g r
j ust
r ate
r ical
om s
Ġst are
Ġe ld
Ġfr og
Ġal right
ĠB ack
ast y
ĠL or
Ġlo ft
Ġch u
um ps
Ġar ch
Ġhapp ily
Ġen vel
ĠK im
ĠSt ill
Ġset t
Ġexc laim
Ġrock y
Ġreg ret
less ly
Ġpos itive
Ġneck l
Ġprot est
Ġserious ly
Ġduck s
ĠPh il
Ġneg ative
Ġdesper ately
ĠAle x
Ġvers ion
Ġrom antic
ĠPer haps
Ġdocu ment
Ġsod a
Ġenvel ope
C an
D id
W hen
b erry
f ield
l ings
Ġp ump
Ġp ipes
Ġst ole
ĠA ut
as p
ĠM in
Ġover he
Ġknow ledge
Ġsp y
ĠJ ill
Ġsc ru
ĠG irl
act ion
Ġwait ress
ink y
ĠV ictor
Ġinter c
Ġpa le
Ġsold ier
Ġshift s
Ġshout ing
Ġdisturb ed
Ġjud ge
Ġsymp athet
Ġpupp ies
ĠMed ia
Ġvill age
Ġfart her
O K
b ag
j ac
l ock
t a
w r
Ġw ipe
Ġs ed
Ġf ountain
Ġh ired
id ers
Ġre aches
ri er
ack er
ry l
il a
ess ert
ant age
ĠL et
um my
ater nity
Ġwater s
ĠSt ar
Ġhard er
Ġreason s
Ġinv ite
ĠAl an
Ġaud io
ĠDar ryl
Ġru ined
Ġform s
Ġsun ny
Ġlit er
Ġstret ch
roll ing
Ġcorrect ly
Ġtax i
Ġcourty ard
l in
p r
t han
Ġs ib
Ġin fl
ar n
Ġn ail
Ġn ature
am us
ad a
ĠS ca
Ġgo al
Ġsa uce
Ġor n
Ġj ar
ĠD own
Ġfl u
ĠJ ared
ĠJ osh
Ġdri ed
ĠTh ur
Ġdis s
Ġen orm
Ġgr in
Ġcount ing
Ġsqu e
Ġapartment s
Ġexc iting
Ġlate ly
Ġjob s
bo ards
ĠWh o
Ġcur led
Ġref use
Ġtw in
Ġbur st
Ġgold en
ict ion
Ġworks hop
ĠNot hing
Ġprison ers
Ġstran gers
Ġmagaz ines
Ġcomb ination
Ġfu zzy
Ġproceed ed
Ġcla im
Ġavail able
Ġamuse ment
A ll
O n
n atural
Ġ =
Ġ ess
Ġm op
Ġm ush
Ġc ries
Ġd ut
Ġd essert
at io
us hing
ic hes
Ġint ended
ĠB re
Ġsu icide
os es
Ġwalk way
Ġact ors
Ġcat ches
Ġrec order
Ġent ry
Ġret reat
Ġsign ific
Ġcomm and
Ġind o
Ġdeep er
Ġstraight en
Ġterri fied
Ġcontain ers
Ġdest ination
Ġshout ed
Ġwhis per
ĠBarb ara
Ġencount er
Ġinterc ourse
L Y
N ot
c key
d own
m ark
Ġ ,
Ġb attle
Ġd ies
Ġl id
Ġl esb
ot ch
Ġn un
Ġr ipped
oo per
ĠS A
ĠM ad
Ġfr antically
ind er
Ġsh ining
Ġpl enty
Ġfe ather
Ġroom mates
Ġdre w
Ġgu ilt
Ġfl ag
Ġwhen ever
Ġsc oot
Ġfam ilies
em s
ĠY et
Ġwar n
Ġmess ed
az e
Ġinclud ed
Ġben ches
ashing ton
Ġment al
ĠGre en
Ġdeterm ined
Ġwit ness
Ġgovern ment
4 5
C h
F irst
J ust
b oth
c od
i qu
o ons
s a
x ual
Ġs izes
Ġc aps
Ġp ant
ar on
es h
Ġr ise
Ġthere fore
Ġsa il
ĠM id
el ine
ĠB urt
Ġcom mer
Ġcar ing
ĠJ on
ĠJ en
ĠJ ones
Ġco ke
Ġpre viously
Ġar gue
Ġlight er
Ġtr uth
bb les
Ġsk ating
Ġfour th
Ġmess ing
Ġrep ly
Ġreg ard
Ġunderstand ing
Ġart ist
Ġz oo
Ġdel ight
Ġtrans form
Ġcas es
Ġcas ual
Ġaff ord
Ġrelax ed
Ġmur der
Ġtorn ado
ĠMexic an
Ġpuzz le
Ġpotat oes
Ġdent ist
Wh o
Ġlic ense
Ġshel ter
Ġcred it
Ġaband oned
Ġbehav ior
F or
S o
S ee
m et
Ġa ck
re ll
re es
Ġg ri
Ġh om
Ġe jac
ĠW ashington
Ġfr aternity
Ġle ap
ĠC indy
Ġde fe
ul ed
ĠAnd erson
ant ed
Ġch uck
Ġwater fall
Ġsw all
Ġneed le
Ġdes p
Ġspe aks
anc ing
Ġacc ord
aw s
Ġansw ering
uc id
ric t
Ġdi ary
Ġspot ted
Ġcoll ar
Ġless on
Ġcal cul
Ġcabin ets
ĠMer le
Ġoccas ionally
Ġvo ices
ĠAustral ia
Ġambul ance
ĠShar on
Ġack now
A nd
F ather
b ing
s k
t i
u ed
Ġt ires
Ġs ang
re al
Ġb ay
Ġb ass
Ġb acking
Ġf le
ĠT w
Ġn asty
Ġbe ars
Ġst ool
Ġr at
Ġr ising
st and
ĠA nt
ĠH a
ĠM ont
Ġfr idge
ĠD ick
ĠE mer
Ġlo ss
ĠP edro
pl ess
Ġdri ll
Ġtheir s
Ġatt ended
Ġsha red
Ġpass ion
Ġad vice
Ġinc re
Ġexc ite
unk nown
Ġadd ed
ĠMe an
ĠAmeric a
Ġpriv acy
Ġ____ __
Ġoper ation
Ġoper ating
ĠEd ward
ĠEm ma
Ġspill ed
Ġtur key
ĠCam den
stit ute
ĠRey na
Ġexplos ion
Ġelement ary
ĠRoc helle
Ġorn ate
Ġcommer cial
T hen
a ves
c onscious
Ġ _
Ġw ip
Ġs ession
Ġs ometime
Ġm ood
Ġf ed
Ġf al
ar se
ĠT ree
Ġre b
al ph
Ġli f
ĠA ng
ĠA my
ĠM ars
ĠM abel
ra in
Ġj am
ain ted
Ġsp acious
Ġwhere ver
Ġno dded
ag on
Ġgr ate
Ġsho ots
Ġmus ical
ci ent
Ġcompl icated
Ġdep ressed
Ġdanc ed
ĠSe amus
Ġenjoy ed
ĠSim on
Ġadm ire
Ġrob ot
Ġsandw iches
Ġluck y
Ġrev ol
Ġdeg ree
Ġconv ention
ĠMond ay
Ġpiss ed
ĠSca red
. '
F rank
c oming
l ar
m end
Ġb ang
Ġb ased
ha ng
Ġin ner
Ġth read
ĠT han
ver age
ĠS ch
ĠA ri
ĠA ra
op s
Ġback pack
Ġal tern
ain e
ig ger
Ġex ec
Ġbl own
ĠN a
Ġlo aded
Ġsc an
Ġafter wards
Ġsho vel
Ġres id
ma id
Ġshort ly
Ġev idently
Ġclos est
Ġtre ated
oth y
Ġfell atio
Ġter ms
Ġlisten ed
Ġtw ins
Ġfact ory
ĠSp ace
Ġsquare s
ĠJack ie
Ġpract ically
Ġveh icles
Ġ____ _
ĠEl iz
Ġgrocer ies
Ġ________ ________
Ġflood ed
Ġadj ust
Ġhundred s
Ġsymb ol
Ġvert ical
ĠMean while
a e
i os
i ently
m all
r ings
u nd
Ġto ns
it ated
Ġth igh
ac ting
Ġst iff
ld o
Ġr az
ĠS her
Ġgo d
Ġso re
Ġpe an
ĠC ath
Ġbl ade
Ġcha p
Ġbu gs
Ġop in
Ġact ions
ĠK en
Ġel ab
Ġjo ked
Ġtop s
arent s
Ġres ult
ĠY es
Ġcr im
Ġinst it
Ġlay er
Ġru bbing
Ġprog ress
Ġexpl an
Ġcoat s
ĠSim s
Ġrece ive
Ġrelie f
Ġstate ment
Ġhorri fied
Ġbooth s
Ġtast ed
ĠPat rick
Ġuns ure
Ġweap on
Ġexhib it
Ġenorm ous
1 6
A s
e u
l ers
n ies
p re
ĠI nt
Ġl ame
an ne
id a
Ġu mb
ĠA rea
Ġpl u
Ġsu ff
Ġover w
Ġover fl
ĠE arth
Ġsp it
ĠF ishing
ĠR ock
Ġpo ckets
Ġun less
Ġsw itched
co vered
ak er
Ġbus es
Ġgra ve
Ġgra bbing
ple asant
Ġent h
Ġste pping
Ġfun ction
Ġret ard
Ġret rie
-- -
Ġvis ited
Ġtrou s
Ġmiss ion
Ġcur ve
Ġsub st
Ġsub urb
Ġfree zer
Ġfore head
Ġdiscuss ed
Ġmed ium
ĠBl ood
Ġcow ork
Ġdig ging
ĠCa pt
ĠWar craft
ĠBrad ley
Ġskill s
Ġsquir rel
Ġpou red
Ġirrit ated
2 5
M e
O R
O ne
h let
Ġw ing
Ġw id
Ġs ire
Ġb rand
Ġf ant
Ġl ace
om in
or ting
Ġse w
ro f
ĠB ible
Ġsp ag
ĠL ove
Ġbu cket
ĠR alph
ild ren
ĠG ood
Ġwr ist
Ġ2 3
Ġthan ked
Ġnight mare
Ġalong side
Ġrec ords
Ġswim s
Ġmess ages
Ġbelie ved
Ġspec if
Ġtest s
ĠNo body
Ġpan el
Ġpan icked
Ġmon itor
Ġcoll aps
Ġbelong s
Ġmater nal
Ġsurround ing
rop h
Ġrepl aced
Ġer rand
Ġaccom pan
Ġadv antage
Ġment ally
Ġmill ion
Ġstat ue
Ġrele ased
Ġreact ion
Ġcho ir
Ġreluct antly
Ġmult ip
Ġhurried ly
Ġiss ue
het ti
Ġcro cod
Ġglo ves
Ġlone ly
Ġsib lings
Ġumb rell
Ġspag hetti
M aybe
i xt
n old
y ss
Ġb ound
Ġb room
Ġm ice
Ġwa ving
Ġc akes
Ġd ump
Ġl ucid
Ġg e
id ly
ĠT H
Ġre dd
oo ps
Ġwh ist
as per
ĠM od
Ġint ention
ĠB eth
ep s
ĠN one
Ġv alley
Ġsm ash
ĠL ittle
ĠL ee
ud ing
um er
au c
ĠSome where
Ġfin ishing
Ġsha de
Ġ2 1
Ġlight ly
ĠU p
Ġev idence
Ġland l
Ġexplain s
uc king
Ġarri ving
Ġter ror
ĠBr other
Ġpus hes
Ġpa use
Ġins urance
Ġelect ron
Ġvi br
Ġcere al
Ġpound s
Ġdesper ate
ĠRuss ian
Ġrepres ent
Ġspin ning
Ġfoc us
cell ent
Ġhoriz ont
Ġexplod ed
Ġcot ton
Ġfeature s
Ġtit le
Ġimpat ient
Ġintell ig
Ġholid ay
ĠAut umn
6 0
H i
n ah
Ġto e
er ly
Ġl as
Ġp ine
Ġhe av
Ġbe ating
Ġmy ster
ver ing
ver se
al og
ĠH al
ĠH il
Ġcl own
Ġdown lo
end s
ĠC reek
Ġwor st
Ġgu m
Ġsp ark
Ġmo b
ick y
ĠL ong
Ġch in
Ġhand ful
ĠG old
Ġun w
ĠK ar
ĠK ate
Ġsha mp
Ġsleep y
Ġpar all
Ġcol umn
Ġcra ft
ci ety
ĠYou ng
Ġelev ators
ĠBr it
Ġart icles
Ġdel iber
Ġbare foot
ĠMel issa
Ġcollect ing
Ġviol ent
Ġhon est
Ġski ing
Ġintim ate
Ġtransp ort
Ġfi ance
ĠRes ort
Ġridicul ous
Ġshamp oo
M ary
S t
T wo
c orn
l ie
Ġf av
Ġg ross
Ġhe els
at ically
ay ton
Ġe ase
ĠS an
Ġan gel
Ġout er
Ġwh irl
ĠH aw
ĠM ac
ter y
Ġro ses
Ġne are
Ġj elly
Ġpl ug
un ately
ca kes
and a
and s
Ġcon ven
Ġrem ote
Ġbl ur
ĠJ enny
pt ed
ĠL ook
Ġqu een
ave y
Ġun pleasant
ear s
Ġsw irl
Ġsw ord
Ġdifferent ly
Ġdr um
Ġsupp lies
Ġhall ways
Ġnice ly
Ġclean er
Ġ4 5
ĠChar les
Ġsca re
Ġcur ved
Ġext ended
cha l
Ġdi ving
Ġbra in
ograph y
Ġfold ing
Ġur ine
Ġbur nt
Ġtight ly
Ġpainting s
Ġkitt y
Ġemot ional
Ġspirit ual
Ġgradu ate
Ġri bb
1 00
W ait
b et
c at
c ceed
d ra
i at
p arents
r ot
Ġw re
Ġto uc
Ġha mmer
Ġst ere
Ġr ug
st ory
Ġj et
Ġal b
Ġsu cceed
ol es
Ġsp ort
Ġsp oon
Ġv om
Ġv ent
Ġch ip
Ġcou gh
Ġhome work
Ġdis ag
Ġapp la
Ġstreet car
Ġvis ion
te en
ĠFran c
Ġsand y
Ġgirlfriend s
Ġexpl ode
ĠBar ry
Ġcell ar
Ġgreet ed
Ġcustom er
Ġnon chal
Ġassign ed
Ġcorn ers
Ġpow ers
Ġsatis fied
Ġexcite ment
Ġelab orate
Ġredd ish
Ġtouc hes
A m
b it
r ors
Ġthe ra
Ġc ri
Ġc ush
Ġd y
Ġl anes
Ġg ap
or ity
ĠT ime
ic ip
al king
st on
ĠM ag
Ġlike ly
ra ge
el er
il ities
Ġta p
Ġsu cked
ul a
ess ed
ĠF lor
ĠL a
Ġco de
Ġqu iz
ell o
Ġsl ips
Ġrealiz es
int on
Ġfo nd
Ġday light
Ġem p
Ġmove ments
Ġdra gging
Ġcre ating
Ġown ers
Ġwar ned
oke mon
Ġpleas ure
cl oth
ogra p
Ġeng age
Ġorgan izing
Ġpop corn
Ġsuper visor
Ġcounse l
Ġdiv ided
Ġactiv ities
Ġdisab ility
Ġpers u
Ġreluct ant
Ġcrit ic
Ġthrill ed
Ġpajam as
Ġjun ior
Ġtrous ers
O N
d on
v as
in ch
Ġs our
Ġwa ndered
om ed
Ġin k
ar ian
ĠT ra
ac le
Ġta g
Ġta pes
Ġman eu
ĠD ream
ul ated
Ġbl ocking
ĠL ask
Ġqu e
Ġwork er
Ġnight s
Ġclot hed
ĠV irgin
Ġad vent
Ġhurt s
Ġembarrass ing
Ġquestion ing
Ġblood y
lo e
Ġflow ing
Ġstri ps
Ġmix er
Ġhum or
Ġsne aking
How ard
Ġdisg usting
Ġcounse ling
ĠGerman y
ĠMill ie
Ġfeed ing
Ġghost s
Ġjour nal
Ġdesert ed
Ġgradu ated
Ġcudd le
Ġbul b
Ġweap ons
Ġrefer ring
Ġsarcast ic
Ġsequ ence
ĠHel en
ĠSA ID
ĠReyna ldo
Ġoverw hel
E D
h usband
i ation
v ale
x im
Ġ id
ĠI zzy
Ġm as
Ġf ences
is c
ll ing
ĠT iana
Ġst ing
am ent
st age
Ġat hlet
ĠS al
ĠS ol
art ed
Ġro cking
Ġint ri
Ġde ar
Ġex cellent
ĠE ast
ĠJ am
Ġbu bble
Ġco in
Ġco aster
Ġco llection
ĠR a
ru e
ĠG l
od d
Ġsw amp
Ġapp li
Ġtra ins
ĠK ay
Ġcont ent
ris on
Ġbar rel
Ġpat ch
ject ed
pect ive
Ġins isted
Ġpri ze
Ġcook ie
Ġill ness
Ġadm in
Ġamaz ing
Ġteen agers
Ġshar k
alth y
Ġsmell ed
Ġbum ped
ber ries
Ġattend ant
Ġconscious ness
Ġdust y
Ġflash light
Ġmic roph
Ġpotat o
Ġqual ity
Ġsen ior
Ġchoo sing
ĠJens en
Ġhambur ger
Ġsympathet ic
Ġmush room
Ġspecif ically
ĠHaw ai
ĠLask o
b or
v an
Ġs ke
Ġs ung
ĠI D
re en
ha med
en ess
Ġn umer
Ġbe ads
Ġe ager
al ie
Ġas hamed
as ium
ĠC R
Ġte ar
ol k
Ġfl ies
ĠJ ess
ĠO ld
ĠO ff
Ġbu nd
Ġco al
ĠP okemon
Ġpo et
Ġplay ful
Ġdec iding
Ġflo ated
Ġyoung est
Ġper p
we ight
ond on
Ġwar ning
ci ence
ĠBe at
olog ical
Ġind ust
Ġlock s
Ġappro aches
Ġ7 0
Ġstrong er
Ġcost s
Ġtravel ed
Ġstri ke
Ġnewsp apers
Ġearth qu
Ġrent ed
ĠMcD yss
Ġmill ing
Ġlands cape
Ġmasturb ating
Ġspr ink
Ġoccup ied
Ġdoub t
Ġgymn asium
Ġalt ar
ĠClass mate
Ġsett led
mark et
Ġexplan ation
Ġparall el
ĠFlor ida
C al
d ed
u el
Ġs ack
Ġc y
Ġc ate
ed nes
Ġd ug
Ġl amp
Ġl ining
or ies
ot ed
ĠT igger
Ġn arr
us i
Ġr ag
im a
her ty
op es
Ġsa fer
Ġj er
un n
ce ased
Ġcl ip
Ġint ent
ĠB us
ĠB ru
ĠC eline
Ġcar ved
ul ation
ist ration
ĠL iz
um in
Ġpro ve
Ġneed ing
Ġlet t
Ġsn ap
Ġmar ble
Ġcut s
Ġdra gon
Ġtri al
ang led
ĠAfter wards
Ġide as
Ġwin ning
Ġdi aper
Ġdel ay
Ġcapt ure
Ġuniform s
Ġawak en
ĠJul ie
Ġhy p
Ġvamp ires
******** ********
ĠDis ney
Ġdestroy ed
ĠCath olic
ednes day
! !
G et
a way
i ams
s day
w or
Ġa x
in ter
it ation
ot a
ot ion
Ġn ipp
Ġn ails
Ġr acks
am ped
ir on
ĠH acker
ĠM ir
Ġab ility
Ġall ig
ĠD V
ĠE than
ĠAnd rea
Ġsp iders
Ġbl ast
Ġbl ah
ĠF ord
ĠR ol
Ġsl ot
oy d
Ġlea f
Ġimp ro
Ġtri ang
uck y
ĠBr own
Ġcop ies
Ġexp ression
ĠChrist ian
Ġexam ine
umb le
Ġmix ing
Ġcry stal
ĠEl aine
ĠJe an
Ġentire ly
Ġant icip
Ġsens ation
Ġorig inally
ĠHill ary
aly zed
ĠDoug herty
Ġbi kes
ĠHan nah
ĠGran ma
Ġfrequ ently
Ġlesb ian
ĠMid vale
2 2
O W
b ooks
e ed
j o
k a
m ade
Ġa qu
Ġs ch
Ġs ons
Ġo ught
Ġb ik
Ġb order
Ġto ols
Ġf uck
Ġl un
ad ition
Ġup right
Ġdo zen
ĠW he
ĠM ax
Ġkn ives
un ny
and ro
Ġthou s
Ġmo ld
Ġfl ame
ĠJ es
ĠF ox
ĠP A
Ġdri vers
ĠG ra
Ġatt acking
gg er
Ġsk ates
ĠCh loe
Ġele g
Ġimp ress
Ġwood ed
iv il
Ġfire s
Ġpat ter
Ġass ume
Ġcomm itt
Ġtw enty
Ġgrand pa
Ġ9 0
ĠNe il
Ġadd ition
Ġfre aked
Ġstri ped
Ġsoft ly
Ġdef end
Ġ??? .
Ġperform ing
Ġ________ ____
Ġindic ating
Ġcrack ed
Ġpuzz led
Ġdu cked
Ġarrange ments
Ġtar get
AL LY
Ġwrit er
Ġdelight ed
Ġnumer ous
O ur
W ith
d ge
i j
i est
k i
p ret
r ated
u ish
he ll
Ġs am
Ġb ust
Ġf aint
Ġd ated
Ġp airs
Ġwe b
ĠT hing
Ġst ared
Ġst ocking
ĠH u
Ġfr ost
Ġfr antic
ro bably
Ġdown hill
ck les
ĠD onald
Ġcan e
ĠE ither
ĠL ast
Ġlo ver
Ġag ency
ab y
Ġpart ition
pe red
Ġbr ides
Ġdri ft
ose xual
Ġen v
Ġwr ink
Ġgra ph
ĠV W
Ġemb r
ĠBe ck
Ġsnow y
ĠMar ian
Ġrecall ed
wh y
ĠFran ce
ump y
Ġinstru ment
ues day
ĠSh ort
Ġmaterial s
Ġviol in
Ġmass ive
Ġshru g
Ġstack ed
Ġtem per
ĠPal mer
Ġsuspect ed
Ġshell s
Ġadvert ise
Ġtreat ment
Ġbene ath
Ġchallen ge
Ġank le
Ġfal se
Ġopin ion
Ġlett uce
ĠDV D
0 7
E N
d ling
i ology
j andro
m un
r ack
s c
v ated
Ġ vel
Ġt id
Ġm ate
Ġc ooked
er ved
is er
Ġp ens
Ġin app
ll ed
ĠT ere
ĠT ech
Ġn ine
ac on
ent ial
ĠA aron
ur al
ĠH unt
ĠW ednesday
Ġsa ving
Ġle ak
ĠB ell
Ġman ip
ĠD ave
ol ks
ĠR isk
ĠP ol
Ġpo ke
Ġpo king
Ġbr id
Ġbr icks
Ġar rested
ĠTh ough
Ġsl ipping
Ġstu mb
Ġstre ss
ĠAs h
Ġtop ic
Ġcle aring
Ġ3 5
Ġmar ch
Ġcr ashing
Ġcare ss
Ġste ady
Ġacc used
Ġfar mer
Ġpolice men
ĠPe avey
Ġbro ad
Ġmat ches
Ġcheck s
Ġlock ers
Ġattract ion
Ġunc onscious
Ġprep ar
ĠAr chie
Ġcomplain s
ĠZ e
Ġoffic ers
ĠWill ie
Ġgen ital
Ġproject s
Ġbother ing
yl an
Ġmid get
Ġliqu or
Ġval u
Ġpun ched
Ġbun ny
Ġiss ues
Ġrepeated ly
Ġbatter ies
Ġrehears al
ĠPres ident
Ġslipp ery
Ġassemb ly
Ġturt le
ĠLor i
ĠFranc is
Ġintri gu
A r
G ood
g ment
in ne
Ġf est
Ġf asc
Ġd a
Ġg oof
Ġh ooked
Ġth under
le nd
Ġme rely
Ġr ip
Ġr aces
all s
ĠW ood
out s
ĠB ost
Ġbo om
Ġsp are
ĠN ear
ĠJ ock
Ġv ict
ĠL ondon
Ġco ff
ild ing
Ġch ief
Ġpart ies
ive red
Ġsc ient
Ġdis gu
Ġhel pless
Ġtr adition
Ġstay s
ĠV ince
Ġaw ard
Ġste ak
Ġmet h
ten ance
Ġca ut
Ġmain tenance
Ġinvol ves
Ġsil k
Ġloc king
Ġorgan ization
Ġign oring
Ġje ep
Ġnur ses
Ġpop ular
Ġrus hes
Ġcas ually
Ġsend ing
Ġrob es
Ġstat ues
Ġdiam ond
Ġarrange ment
ĠAle jandro
Ġgrate ful
Ġenth usi
Ġsubst ance
Ġumbrell a
ĠHil ary
Ġfav our
Ġmicroph one
Cal vin
ĠBost on
E T
d ri
i ven
u ana
v et
Ġt esting
nd ers
Ġm ile
Ġp ace
Ġh ip
Ġha y
Ġst ir
Ġst amps
ke ep
Ġup hill
ur sion
Ġpl us
Ġpl ump
Ġkn ob
ĠB ra
ĠC ec
Ġte ens
ĠD ylan
ick en
ud ed
ag o
Ġpr on
Ġapp les
Ġthan ks
Ġstore d
ren ce
Ġdark ness
Ġrec ent
Ġres ent
Ġmar ks
Ġdist ra
Ġexc ursion
Ġstra nd
ask ets
Ġsnow ing
Ġteam s
Ġsent ence
ĠCl ark
ĠMel vin
ĠWill iams
Ġpost ed
Ġobs erv
Ġconst antly
Ġmail box
ĠRob in
Ġfright ening
ĠDan iel
Ġsens ual
asm ine
Ġremain ed
ĠEm ily
ĠNat han
Ġcorrid ors
Ġrele ase
Ġlat ter
Ġmic row
Ġver b
Ġfail ed
Ġfirm ly
Ġfrag ment
Ġarrow s
ĠFar rah
ĠThur sday
Ġgri p
Ġraz or
ĠBru ce
ĠRol and
Ġcommitt ee
S h
b orn
f act
l oyd
m ond
u ps
w he
Ġa verage
Ġo pt
Ġm ount
Ġto es
Ġto dd
Ġf ought
Ġf aced
Ġp ave
Ġin fected
ĠT uesday
Ġbe ans
ĠA re
ĠM a
Ġother wise
itt ens
Ġno d
Ġop era
ĠG reek
co at
Ġho ckey
Ġwind y
Ġbit es
ĠCh ic
Ġbook store
Ġsqu ish
Ġnotic es
ĠAll en
Ġcomm itted
Ġdisapp ro
ĠUn ited
omb s
Ġins ists
Ġteam mate
Ġwra pping
ĠDor othy
Ġbelong ings
Ġlab or
Ġrecord ed
Ġdirect ing
Ġais les
Ġtunnel s
Ġsuper market
Ġban quet
Ġrear ran
roll ed
Ġblind s
Ġspray ing
Ġpersonal ity
Ġrout ine
Ġveget ables
Ġpew s
ĠTe avor
ĠTer ri
ĠPo lly
Ġdut y
Ġmultip le
ĠMod ern
Ġdistra ught
! '
M att
X X
d es
g own
n ical
p it
t ain
u gg
v onne
w rit
z ard
Ġt il
Ġs inking
Ġwa x
Ġd ash
Ġd awn
or gan
Ġwe eds
Ġhe ck
ĠT ina
ic ular
Ġr ig
Ġr opes
ĠA ir
Ġan cient
ĠM ild
Ġy arn
Ġro bb
Ġcan cer
ĠJ u
ĠR oy
Ġpre c
Ġsc iss
Ġhand ing
ak y
Ġsha ll
Ġnight time
Ġcle ared
Ġdark er
Ġcor re
Ġang les
Ġown s
Ġconf lic
Ġear rings
Ġstr ings
Ġpen nies
Ġround ed
Ġru bbed
Ġquestion ed
Ġbow ls
Ġexpl ore
Ġgrad ually
Ġsecret ly
Ġbicy cles
Ġhesit ated
Ġanx iety
Ġport ion
Ġrespond ed
Ġscra p
Ġhon or
Ġborrow ed
Ġdisappear s
ĠMart in
Ġune asy
Ġautom atic
Ġmechan ical
Ġbatter y
Ġstro ke
Ġtransfer red
Ġlip stick
Ġkidn apped
Ġretrie ve
ĠVirgin ia
a ired
i ot
w ind
w ord
y es
Ġt ummy
Ġc able
Ġc ows
Ġc ott
Ġf er
Ġf en
Ġf uss
Ġd ough
Ġp red
Ġp ud
ac les
st e
ri al
ĠH en
art s
Ġab rupt
Ġso ot
Ġint end
ĠShe ila
ep end
ĠD ennis
Ġcan vas
os ure
Ġfl esh
ĠN elling
Ġcha mp
ĠL loyd
ĠR ich
Ġpo em
Ġplay fully
Ġun p
ĠK athy
Ġel bow
Ġnight gown
Ġres ol
Ġpar alyzed
em eter
ĠV iet
Ġbathroom s
sh ield
Ġlay ers
Ġext ension
Ġbooks he
Ġsub way
Ġdeep ly
Ġsec ure
Ġdel ivered
Ġsal t
Ġtun e
Ġscream s
Ġrepe ating
velop ment
Ġemot ion
Ġscen ery
Ġsched uled
Ġmel ted
ĠCan ada
ĠRuss ia
Ġmult i
ĠSuper natural
Dream t
Ġskate board
Ġintern et
lass es
Ġdetect ive
Ġeld erly
Ġliter ally
Ġinstit ution
iron ment
Ġsciss ors
E S
J o
b erg
h is
p ut
p oint
Ġt ension
in i
er m
Ġf ist
Ġd rank
Ġl av
Ġh ut
et e
Ġwe bs
Ġhe aven
id ering
at a
at ch
Ġbe am
Ġr hy
ri but
Ġan ts
Ġan aly
Ġher o
ĠIt s
Ġcl ing
Ġal ike
Ġcom ic
Ġcom for
ĠD id
Ġcan y
Ġex ist
ĠN or
Ġco lle
ĠR usty
ab eth
Ġch or
Ġsc old
Ġar rog
Ġsl iced
Ġpro ced
Ġpr ote
Ġact s
Ġsk etch
Ġcat alog
Ġcount ed
az y
Ġcomm it
Ġmain ly
Ġdep os
Ġpath s
ĠSe an
ĠDe velopment
Ġrece iver
Ġill eg
light s
Ġpassen gers
Ġsem ester
Ġtub es
Ġport able
Ġund ressed
Ġemot ionally
Ġhi king
Ġpray er
Ġspaces hip
Ġappreci ate
Ġmurd ere
Ġremod eled
Ġcrou ched
Ġchu bby
Ġneckl ace
ĠSpace man
Ġcollaps ed
Ġdeliber ately
Ġribb on
Ġcounsel ors
ĠBeat les
Ġenv ironment
Ġcoff in
Ġmicrow ave
Ġpave ment
ĠMild red
emeter y
a ving
l ines
r un
Ġt ips
Ġa rou
he st
re sh
er as
Ġd ing
Ġd ang
om on
Ġr h
Ġr ats
se at
Ġk icking
ĠM al
Ġso ciety
Ġro ots
ther n
ĠThere sa
end icular
Ġbo ot
Ġsp ook
Ġbl ows
Ġfl ush
ĠN oman
ĠN OT
ĠJ r
um ns
ag ger
Ġsl acks
Ġsl ices
Ġpro stitute
Ġwind shield
Ġsha ck
Ġperson s
ĠAn ita
Ġtr icks
Ġres ident
vel and
Ġcol umns
app er
Ġsat in
Ġball oons
Ġcour ts
Ġstra ps
Ġcur ls
Ġref uses
Ġsad ness
Ġsub mar
Ġve nd
Ġcons isted
ĠSp ain
Ġdel icious
Ġgrand parents
Ġpos itions
Ġfre ed
Ġmon sters
Ġstick y
Ġfil ming
Ġsurround ings
Ġdisplay s
Ġdisplay ed
Ġoccur s
Ġcow boy
Ġgreet ing
Ġpers pective
Ġignore s
Ġdeb ating
Ġsales man
Ġslam med
Ġaccess ible
Ġspo ken
Ġnic er
ĠCle veland
Ġdum ped
Ġcomed y
Ġtempor arily
Ġbabysit ting
Ġtomat o
Ġhom osexual
Ġretard ed
ĠSol omon
Ġperp endicular
Ġearthqu ake
Ġcate g
ij uana
Ġinapp ropriate
ĠTere nce
Ġvalu able
Ġfavour ite
Matt hew
1 8
a ith
c ular
f ish
g ood
i ated
j a
l ene
n on
Ġt ed
Ġa id
Ġc yl
Ġc emetery
Ġf are
Ġd are
ut ed
es ome
Ġst acks
Ġme ad
Ġr ice
Ġr are
Ġr um
Ġr ink
ĠH ot
ĠW ater
ĠM all
ĠM il
ĠM acy
ct ing
Ġover night
Ġbl ues
ĠF isher
ĠL u
ĠL ore
Ġag ent
ud ge
ag le
Ġsc ul
th rough
Ġfo x
Ġapp alled
Ġpic t
Ġwait s
ĠSt ate
Ġgl ove
Ġcle ver
Ġspe ct
ĠY ams
Ġcr ime
Ġcr ooked
att oo
Ġmin ister
Ġob l
The se
Ġmus cles
Ġsad ly
ĠMar g
Ġesca ping
Ġ8 0
Ġincl ine
Ġexam s
Ġcontain ing
Ġhar ass
Ġpop s
Ġelect rical
ĠSand ers
ĠSh ir
Ġ____ ___
Ġdam aged
Ġshad es
Ġloving ly
Ġprodu ct
Ġprodu cts
Ġbomb s
go ing
Ġbell ige
ĠCa fe
Ġannoun ced
Ġinit ial
Ġgest ure
ĠPar is
Ġinnoc ent
ĠAnt h
ĠAra b
ĠThing s
ĠTech nical
Ġbellige rent
b urn
d le
e v
f ire
g iving
h ome
h ole
o nder
p aper
s ort
w est
w ater
y eah
Ġw ishes
in cess
Ġs inks
Ġb aked
Ġc one
Ġc ivil
Ġf auc
ar f
Ġwe althy
ĠT re
ĠT ex
Ġn uts
Ġse ve
ĠS ub
ĠH ad
Ġle mon
Ġback ward
ĠD ion
ul ating
ĠN ic
ĠN ight
ĠJ ac
ĠL ife
od es
Ġfo am
Ġstand ard
fere nt
Ġwind ing
Ġph ones
ĠK enny
Ġsha ft
Ġjo ins
Ġche wing
Ġfriends hip
Ġper man
Ġsn ack
Ġmar ijuana
Ġmom ents
itc her
Ġhear s
ount ry
ank ment
sh ips
Ġdire cted
Ġhang s
to gether
Ġemb ankment
Ġtre mend
Ġpool s
Ġcons idering
Ġmeant ime
Ġbow ling
Ġsor ting
Ġmir rors
Ġfold er
Ġring ing
Ġclou dy
Ġcalm ly
ĠIndian s
Ġeffect s
Ġlim p
Ġscrew ed
Ġindic ate
iam i
Ġcudd ling
ĠPal in
Ġparticip ate
Ġdev il
Ġcong reg
Ġscar f
ĠPet e
Ġsweep ing
Ġfeather s
iqu es
Ġejac ulate
Ġcowork er
ĠCapt ain
ĠJes us
Ġpatter ns
Ġintrigu ed
Ġtodd ler
writ er
2 4
A l
C A
H el
a pt
b ra
g age
i pt
m od
o k
p ass
p any
s ive
in ating
Ġs ized
Ġo ct
Ġm al
Ġm ort
Ġm ild
Ġm umb
Ġc ul
Ġd er
om i
Ġp ins
ar ies
ĠT ar
le ase
us ic
us hes
Ġr ick
Ġre verse
Ġse ar
ĠS on
ĠS ure
ĠM iami
ĠHe ctor
Ġam pl
Ġback stage
Ġal umin
ĠC at
Ġte ase
ĠD ri
ort ed
ort ion
ol ine
Ġany how
ĠF riend
ĠL ooking
Ġbr ass
Ġpre car
Ġhome less
co ver
ish ment
ĠK end
Ġmen u
Ġmar ching
Ġad op
Ġey el
Ġcre ative
Ġinv ites
Ġacc ur
Ġpol es
Ġyour s
form ed
Ġbar rier
pect ed
Ġslow ed
ĠBe hind
Ġrep rim
Ġrep aired
Ġorg ans
Ġru in
Ġcam eras
Ġpor n
ĠAr my
Ġless ons
Ġsor ority
Ġinstru ments
Ġadm itted
ĠBl ack
Ġprotect ed
let on
ĠSte ven
Ġdisg ust
oura ge
ĠIs land
Ġrap idly
Ġgentle man
Ġelectric ity
Ġcub icle
Ġexperien ces
Ġgigg ling
Ġwrest ling
ĠMic helle
ĠNa omi
Ġchor us
ĠAnth ony
! )
d ream
g en
h igh
r ad
t urn
u h
u ary
w as
y al
Ġt ies
Ġt ense
Ġw olf
Ġs ings
ĠI r
er am
Ġf lee
Ġg room
am n
ĠA str
ĠW ay
op hy
ĠM ine
ĠM iddle
if ier
Ġso bbing
Ġsh r
Ġle ct
Ġback seat
Ġcl ients
Ġal ert
ĠB ook
Ġta ped
Ġpe ach
ĠC ombs
ĠD ead
ĠE le
ĠE uc
Ġcon sp
iz mo
ĠN an
Ġv ia
Ġseem ingly
ĠF ire
ĠL o
Ġbu ck
Ġcou ches
ĠG en
ell er
Ġsl ice
Ġhapp iness
Ġact ive
Ġsha ving
ĠSt ates
Ġtr act
Ġrec om
Ġsn acks
Ġent ries
Ġlea king
ĠU t
Ġconf ined
Ġstrange ly
Ġed uc
ric ia
Ġaud ition
Ġdraw ings
Ġexam ining
Ġpan cakes
Ġsent ences
do or
Ġfrustr ation
ĠRe ed
Ġobs c
Ġspir its
Ġident ity
Ġsusp ended
Ġvol ume
ĠCharl ene
ĠAb ner
Ġcrack ers
Ġobser ve
Ġfac ial
Ġnecess arily
ĠGre g
Ġrepres ented
Ġdeg rees
Ġassoci ated
Ġank les
Ġpadd le
Ġaffection ate
Ġslee ves
ĠAfric an
Ġpudd le
ĠMars hall
Ġresid ue
ĠEliz abeth
Ġaccompan ied
Ġneare st
Ġstere o
ĠJess ica
ĠShort ly
Ġvel vet
Ġcott age
Ġrhy th
Ġprote ction
Ġsubmar ine
Ġscul pt
Ġrick ety
A nn
b led
g le
n ces
Ġ ___
in se
Ġb askets
Ġc unn
Ġg orge
Ġp itcher
Ġh oney
Ġth or
Ġn ut
us k
ic ted
Ġme as
se a
st ra
st ate
st orm
Ġli king
Ġas hes
ĠM en
if ferent
el ve
ĠC andy
ig ning
Ġcar ries
ĠL ost
Ġno vel
Ġlo gs
Ġag itated
ĠR h
ab elle
um an
Ġqu ad
air y
Ġdec l
ear ing
Ġsw ung
Ġapp rove
ĠK ent
Ġcont ra
Ġnew born
Ġelse where
Ġday time
Ġtable cloth
Ġdr am
Ġtr ade
bb ie
Ġhit ch
-- .
unt ed
Ġbeautif ully
Ġphot ograp
ball s
iling us
Ġlou der
ĠChrist ine
Ġins ult
Ġdanc es
ilt s
Ġprot r
Ġgrad es
Ġpress ing
ific ation
Ġdescri bed
Ġteen ager
ĠSand y
Ġspir al
Ġself ish
Ġremain s
Ġshad ows
boy friend
ĠJul ia
Ġfac ility
Ġsubject s
Ġoccas ion
cul iar
Ġtransp arent
Ġscrat ch
ĠCor inne
Ġrefer red
Ġagg ressive
Ġcong rat
Ġpal m
Ġincred ible
Ġi P
Ġpolit ical
Ġmut ual
Ġclut tered
ĠJew ish
Ġaccord ing
Ġlandl ord
ĠBrit ish
Ġengage ment
Ġeleg ant
ĠHen ry
ĠMarg aret
ĠShir ley
Ġalumin um
ĠUt ah
Ġcunn ilingus
S e
a iting
u gs
Ġw ool
re ls
Ġb aking
Ġto ol
it ter
Ġd un
Ġg ru
Ġg au
ll ie
Ġha ired
an ks
Ġth irst
at omy
us ive
Ġst roll
Ġst ern
Ġre view
Ġre ference
ay ing
ir cle
Ġwere w
ĠA h
ĠW es
Ġas h
ĠM et
Ġam used
ĠB uffy
Ġpe culiar
ĠJ asmine
Ġlo af
ĠR od
ĠR andy
Ġch unks
ĠP ot
Ġhand bag
ĠG reat
Ġaf fect
Ġun lock
th rit
Ġen velop
Ġpr oof
ak ery
Ġph il
ĠSt ud
Ġkid ding
Ġcr ashes
Ġimp act
Ġimp lying
att ed
Ġjum per
Ġinter ior
Ġsqu at
Ġsqu irt
Ġed iting
Ġcur ves
Ġcomm otion
olog ist
Ġtype writer
Ġpen ny
Ġcheck out
ĠChrist ina
uff s
uff ed
Ġpan els
Ġcoll ap
ĠRo ad
ĠCl inton
Ġaut o
Ġcond u
ien na
atur ally
Ġdescri ption
Ġargu ed
Ġban ana
Ġprom ised
Ġdesign s
Ġcollect ed
Ġcash ier
Ġpin ned
Ġshru gs
Ġhy ster
Ġintrodu ces
Ġsweat shirt
Ġrot ten
Ġexperien ced
Ġinse cts
Ġpurcha se
Ġserv ices
Ġtempor ary
ĠAfric a
Ġannounce ment
Ġdivor ce
Ġdefe c
Ġacknow ledge
Ġhorizont al
Ġintellig ent
Ġoverwhel med
Ġallig ator
Ġvict im
Ġmeth od
Ġwebs ite
Ġtremend ous
8 0
H P
S ure
U n
g ible
k n
k ins
l est
n ch
p hew
s pe
z es
Ġw ishing
Ġs ac
ĠI m
nd a
Ġb one
Ġb itten
Ġb acon
Ġc her
Ġf iring
Ġg or
ll is
Ġh ipp
Ġha ird
ĠT odd
ic ate
Ġr isk
ay er
st one
st ru
ĠS aw
ĠW as
ĠW onder
op her
Ġne phew
Ġcl in
il ings
ca ke
ĠB ay
ĠB ud
Ġsu itc
Ġoff ended
ĠD ra
Ġde af
Ġcon ce
Ġfl op
ĠJ oy
itt y
Ġv ul
ĠF re
Ġno ds
ĠR ick
ĠR ita
pl ed
Ġar rest
Ġsl ap
iss ue
Ġapp lic
Ġsha ved
Ġran ch
Ġsupp ly
ĠAn ge
Ġsho ve
Ġsk ull
ĠY our
Ġread s
Ġdra gged
Ġstud ied
iv ity
Ġfood s
Ġty ped
Ġhor n
Ġclos es
Ġstra p
Ġce ilings
ĠMar ia
Ġins ert
Ġinvol ving
Ġfurn ished
Ġappro xim
ĠAr vonne
Ġfre ight
Ġfur ry
ĠCl ayton
Ġ19 50
Ġdescri bing
Ġdecor ative
Ġbrief case
Ġant ique
Ġcarpet ed
Ġhost ess
Ġscra pe
ĠLe on
Ġrespons ibility
Ġpoison ous
Ġappre hen
Ġbas ic
Ġinf o
Ġdrown ed
Ġdeterm ine
Ġimm ense
Ġsarcast ically
ĠCla ire
Ġkneel ing
Ġwha le
Ġdesp ite
Ġwid th
Ġcrocod ile
Ġheav ily
Ġalb um
ĠHawai i
ĠCR HP
Ġgenital s
Ġcany on
Ġsuitc ases
2 00
B l
E L
S c
b ad
j e
m ic
m pt
p en
p or
in n
Ġs in
Ġc ass
Ġc ooper
Ġg ain
Ġp y
Ġp ets
on ly
Ġhe ap
id get
Ġbe es
Ġbe ige
Ġme als
ent al
Ġfor med
ĠH ay
Ġas pect
Ġint ending
Ġal together
ĠC ast
ĠC ary
Ġcon cl
Ġfl im
Ġv est
ist ics
ĠF air
Ġbu zz
ĠP ad
Ġpo ker
ĠG et
ĠTh ose
Ġfin anc
Ġche w
Ġgl ue
Ġgl ance
bb ly
ĠV ienna
Ġca red
Ġfig uring
ob ile
Ġhill side
Ġeat s
Ġtre asure
fort unately
Ġass ure
Ġstation s
Ġind epend
Ġtw elve
ĠJohn son
ĠRo om
Ġaut ograph
Ġcontain ed
Ġtor t
Ġav o
Ġphys ics
ĠMc C
Ġjack ets
ĠSh ift
ale ck
Ġforget ting
Ġund ress
Ġbum per
Ġmass age
Ġmis under
Ġcru ise
Ġrandom ly
Ġcelebr ation
ĠAm ong
ĠWal ter
Ġscrat ched
Ġconnect ing
Ġfi xt
Ġagg ra
Ġdevelop ed
Ġnic ke
Ġincred ibly
Ġprim arily
ĠEar lier
Ġwip ed
Ġadvent ure
ĠJam ie
Ġadmin ist
Ġsung lasses
ĠCec elia
Jo hn
Ġmurdere r
Ġspook y
Ġmead ow
Ġthor ough
) ;
1 4
H ello
M er
M ar
S top
T o
b ird
f ront
o ard
s m
u its
x y
Ġ ut
Ġt ide
in is
ĠI I
Ġb ind
Ġc eram
Ġl ens
Ġg rill
Ġp etting
ut her
ot ing
Ġn iece
ac ent
Ġst ain
ke ys
al ian
ir ation
se qu
ĠS how
ch o
ĠM ur
if ying
Ġor nam
ust in
ĠB el
ĠC ome
Ġus eless
Ġbo l
ood le
ate o
Ġfl ipped
ĠN Y
ĠN ational
ĠO ver
ess ions
ĠL i
ĠL aw
Ġsc oop
ĠG ene
ĠG rove
ĠTh rough
Ġsl it
Ġsw ept
iss ion
be cause
ĠK rist
.. ...
Ġcont em
Ġche ated
Ġbit ch
Ġran ge
Ġdr ums
Ġgl are
Ġtr amp
Ġset up
Ġper f
Ġsn iff
Ġpar ach
ock s
Ġcr ushed
Ġste er
Ġimp rove
Ġinv iting
Ġtri gger
Ġca lend
Ġbag gage
ĠAl ice
ĠAl bert
Ġind eed
cha nd
Ġpen et
Ġcomplet ed
Ġexam ination
enn eth
Ġleg al
Ġnur sing
Ġpet rol
ĠInd ia
Ġcirc us
Ġthreat en
ĠEl vis
Ġoper ator
Ġoccur ring
ille gible
Ġepis odes
Ġwhis key
Ġwhis pered
Ġsurv ived
Ġsuccess fully
Ġsupport ive
Ġneg le
Ġsquee zed
Ġencoura ging
Ġalco ve
Ġtoss ed
Ġrabb its
Ġboun cing
ĠBo bby
Ġrehears ing
ĠRos alie
ĠĠĠĠĠĠĠĠĠĠĠĠĠĠĠĠ ĠĠĠĠĠĠĠĠĠĠĠĠĠĠĠĠ
Ġoverhe ard
Ġindo or
Ġpean ut
Ġelectron ic
Ġdisag ree
Ġnonchal antly
Ġtemper ature
ĠAsh ley
Ġda ily
Ġsquish y
ĠViet nam
Ġarrog ant
Ġproced ure
Ġarou sed
ĠTex as
Ġtract or
A fter
h ot
p ool
s ize
w in
Ã ©
Ġt attoo
Ġw ider
in ished
in als
Ġs way
ĠI M
Ġb ou
Ġb ree
Ġc ris
Ġc ult
Ġd ime
ou d
Ġl amps
Ġp oo
or ry
an itor
ot es
at han
Ġst amp
Ġme asure
ay e
im mer
al though
se y
Ġse ed
ĠS ister
Ġgo at
Ġfor ming
ill ing
Ġfe min
ĠC hel
Ġsu cking
ĠE dd
Ġfl ashing
Ġfl uffy
ĠJ ud
Ġv ote
Ġcha ins
um ably
ff le
ag ne
Ġdri pping
Ġaf fected
Ġsl ab
be e
Ġfo ggy
Ġapp e
Ġwr ites
Ġche ating
Ġgr ace
ĠAn atomy
ĠCh ina
Ġinst ant
Ġlay out
Ġball et
iver se
ĠWh it
Ġcur l
Ġpack et
ane ously
Ġdad dy
ret ty
ĠMar c
ĠMar io
Ġart ific
Ġdep t
ĠNe ither
Ġvide os
Ġpresent ed
Ġstrong ly
Ġorgan ize
Ġdef ense
Ġrelation ships
Ġur ge
Ġspeed ing
ĠEl ise
Ġident ified
Ġuncle ar
Ġaunt s
Ġvol can
Ġprodu ction
Ġadj o
Ġval ue
Ġautom atically
Ġsatis f
amb ling
Ġreass ure
Ġbudd y
Ġbudd ies
Ġdivor ced
Ġbuff et
Ġinvestig ate
Ġarch ite
ĠHa ley
Ġlif ting
ĠThan ks
keep er
Ġilleg al
Ġted dy
ĠAstr id
Ġgorge ous
Ġflim sy
Ġaggra vated
Ġartific ial
E ugene
U S
b es
l ook
Ġt ro
Ġt issue
in er
Ġb art
Ġb ait
Ġb akery
Ġto re
Ġc ages
Ġd il
ou st
Ġl ick
Ġhe m
at ter
am ily
her n
ir k
ĠS ur
ĠS cience
ĠA p
ĠM usic
ĠM ateo
Ġab oard
Ġj ig
Ġj aw
Ġpl acing
ĠB inky
ĠC ru
Ġoff ering
ĠD ian
ace y
Ġover weight
ul f
ĠE nt
iz zy
ĠF e
ĠL ind
Ġag ed
Ġbr u
ile y
Ġun like
Ġrun way
Ġdis ting
Ġdis miss
Ġhel met
Ġsw ings
Ġfo g
Ġbet ray
our t
Ġsho ved
____ __
Ġres cu
Ġmar oon
Ġuse ful
Ġaw fully
Ġaw esome
ned y
Ġfig ur
Ġinter pret
Ġvis ual
Ġguess ed
ĠJohn ny
era ld
Ġ7 5
ĠJust in
Ġpill ar
Ġvar iety
cri pt
Ġsoft ball
Ġlab el
Ġsle nder
ĠBl ue
Ġbur g
Ġcirc um
Ġdry er
no x
Ġoutf its
ĠPat ricia
Ġrob ots
Ġneat ly
Ġawak ening
Ġscrew s
Ġrequ ired
ĠSm all
Ġfool ish
Ġvo lley
An other
Ġhoriz on
Ġvolunte er
Ġmuff in
Ġtomat oes
Ġchap el
ĠKen nedy
Ġlas er
Ġcri b
Ġpersu ade
Ġathlet ic
Ġthous ands
ĠChic ago
Ġconflic t
Ġcomfor ting
Ġsear ched
ĠFriend s
Ġreprim and
ĠPot ter
ĠPad aleck
ĠChel sea
ĠPadaleck i
7 5
C H
R e
T I
T han
b el
d ad
l ets
n est
p ants
p iece
u ge
u ction
Ġ icy
Ġt as
Ġs out
Ġc uri
Ġf iling
Ġd ates
Ġd ots
Ġp ots
Ġh ing
an as
Ġn est
Ġn avy
Ġst y
ic uous
Ġse ating
ad ers
ĠA li
ĠA ckles
Ġout line
Ġro ast
Ġro yal
Ġj anitor
ro be
el son
Ġpl aid
Ġcl ay
Ġal ot
ĠC r
Ġcar riage
Ġsu m
ĠD ill
os al
os ity
Ġbl ame
ĠJ ody
Ġsit u
Ġbu bbles
Ġch im
Ġpart ners
ne w
Ġhand wr
Ġwo ken
Ġstu bb
Ġapp arent
ak en
Ġatt ach
ĠK yle
Ġgre n
Ġblack board
Ġgr im
ĠSt an
Ġgl ow
Ġdark room
Ġhair cut
Ġbad ge
cle ar
ma ids
Ġcr acks
ĠU nder
Ġdist ressed
Ġhill y
Ġclos ets
Ġcrow ds
Ġind ign
Ġtw isted
Ġvisit ors
Ġwarm ly
ĠDor is
Ġcontrol s
Ġrece iving
ĠBl ake
Ġweight s
ĠX mas
Ġprom ise
Ġmark er
ĠHo ll
Ġknock s
Ġimag ined
ĠBu ndy
Ġemot ions
Ġflood ing
Ġpig s
Ġhist or
Ġboun ced
Ġsymb ols
Ġmer chand
Ġnor thern
Ġbene f
IN G
Ġest ate
ĠAc ross
Ġconcent rate
Ġscram ble
Ġinfl u
Ġcush ion
Ġmaneu ver
Ġpoet ry
Ġsch ol
ĠMarian na
ĠFrancis co
Ġabrupt ly
Ġfauc et
Ġthirst y
Ġphil os
Ġceram ic
Ġstubb orn
? ),
C har
E very
L uc
R E
S am
e ks
he m
Ġs oph
Ġs ixt
Ġb er
Ġb ones
Ġwa ding
Ġc ran
Ġc ert
Ġwas her
Ġl ure
Ġl imb
Ġp m
Ġh ooks
Ġhe ater
at in
Ġbe ams
ac el
Ġst ew
Ġr ust
Ġre vers
im ate
ĠS pe
ĠS ara
Ġgo sh
ri or
ĠH am
Ġsa iling
pp ers
un ned
Ġcl o
il ight
ĠC arm
ĠC ourt
Ġfl ips
ĠN ich
ĠO b
Ġlo vers
ud es
Ġbr acel
Ġcou rage
Ġkind a
Ġbed sp
Ġar thrit
Ġbig gest
ĠG ar
ĠG rey
ĠG izmo
Ġhelp er
Ġsha kes
Ġjo int
Ġbit ing
?" ,
Ġlight ed
Ġsure ly
Ġhard ware
we et
Ġres ign
ĠV C
aught er
Ġele ments
Ġtri be
av an
Ġpaper work
Ġconf idence
Ġhop es
Ġlead ers
Ġmusic ians
Ġter race
ĠBr itt
Ġdad s
Ġreg istration
wh ite
Ġorder ing
cl ass
Ġtran ce
Ġbra ve
Ġdeal ing
Ġloc ate
Ġcup boards
Ġadm it
Ġequ ally
Ġelect ro
Ġban ister
oe be
ĠX XX
Ġsem in
Ġcas ino
Ġpsych iat
Ġplant ed
Ġdest ru
Ġmid night
ĠPh oebe
Ġairpl anes
Ġunf old
ĠWil bur
ĠBu ilding
Ġresemb les
Ġlands ca
Ġrap ed
Ġtem pted
Ġpencil s
Ġdeli very
Ġconfront ed
Ġfif th
Ġdistinct ly
gr own
ĠJen na
Ġregard ing
Ġthigh s
ĠHal f
Ġmount ed
Ġlect uring
Ġrhyth m
Ġphotograp her
ĠiP od
Ġapproxim ately
Ġcalend ar
Ġbart ender
Ġvolley ball
2 3
7 0
S N
a fter
g ic
g reen
i ate
i ant
r ons
u per
w hen
w right
Ġt angled
Ġa irl
Ġw ed
Ġw ise
Ġf ried
Ġf its
Ġd ata
Ġd izzy
Ġg inger
Ġp up
Ġp ony
ar ium
or ient
Ġh ike
Ġha ul
ow ell
ĠT ay
ic ard
Ġe ffic
Ġis ol
Ġli zard
Ġk icks
ĠH ard
ĠW ALLY
as ia
Ġsh ield
Ġsh ips
Ġj ars
Ġnot ed
ĠIt alian
Ġcl ick
Ġcl itor
Ġpe pper
ep ing
ĠN az
ĠO l
Ġlo ll
ag ged
Ġbr ushed
Ġun iverse
Ġsl anted
Ġac ade
Ġpro s
Ġfo yer
Ġho llow
Ġsha me
Ġjo ining
og a
amp ire
Ġaw ards
Ġinc or
Ġtri pped
Ġacc eler
Ġtrain ed
br ush
Ġpat ches
Ġchar t
Ġchar ged
the less
Ġref resh
Ġcompl iment
Ġlou ng
ret t
Ġmat ching
Ġtest ed
Ġz one
Ġpa ired
Ġwin ners
Ġru le
Ġru bb
Ġfurn ishing
ĠDo ver
Ġodd ly
Ġadd ing
Ġsun light
Ġposs ibility
ĠZ ack
de ceased
Ġtele port
Ġstri pes
ĠRo ger
Ġagree ment
Ġlab els
Ġpost s
oun se
Ġpop ped
Ġchat ted
Ġsem en
Ġrear range
Ġaccom mod
ĠThom pson
Ġment ions
Ġdim ly
Ġdeb ris
Ġune ven
Ġmotion ed
hh hh
Ġfashion ed
Ġtar p
Ġadvert ising
ĠGran ny
ĠEv ans
ĠGr ant
Ġentertain ment
Ġpudd les
Ġsignific ant
Ġindo ors
Ġpant ies
Ġcalcul ator
ĠEmer ald
Ġbund le
Ġindust rial
Ġresident ial
Ġtro lley
Ġbedsp read
Ġclitor is
9 0
? !"
V E
b ar
d og
e ven
i ac
i ors
l it
o om
r ina
u ine
w al
w oman
Ġt ipped
in ity
Ġb ounce
er able
Ġg ates
Ġp ul
Ġin qu
Ġh ides
Ġh ips
Ġha bit
Ġwe igh
ĠT oo
at ched
Ġn ational
Ġr aw
Ġli ons
Ġan ge
Ġy outh
Ġfr ames
ill ed
Ġkn itting
Ġal pha
ĠB ro
Ġfe e
Ġwor rying
ast asia
Ġcon vey
Ġsp a
ĠJ un
Ġdoor bell
ist ent
ĠL ance
pe lled
Ġsc am
Ġun ique
Ġschool s
Ġsl ed
Ġstu nt
Ġgood s
ip er
ĠAs k
Ġlight ning
ĠSt ore
ĠAn ne
Ġhold er
Ġper ched
Ġmar vel
em pting
ars hip
Ġmus cular
ĠAl ong
Ġbro ch
Ġass ert
Ġass ured
Ġneighb our
Ġsoon er
ĠMar gie
Ġsy ru
Ġhur rying
Ġmain tain
Ġstraight ened
Ġdi agon
Ġpill ars
Ġprof ile
ĠEll en
Ġterri fic
medi ate
Ġfrustr ating
Ġcool er
Ġhar sh
Ġchocol ates
Ġpee king
ĠTom my
Ġheart s
Ġbeat en
Ġoper ate
Ġ________ __
Ġhost ile
Ġprodu ce
bl ue
Ġrectang le
ĠWor ried
chie f
Ġped al
Ġaim ed
ĠCha p
ĠGo ing
utter ing
Ġmasturb ate
Ġchop ped
Ġgener ally
Ġpeace ful
Ġbee f
ĠVictor ian
Ġwhist le
Ġsour ce
Ġappli ed
ĠMir abelle
Ġfest ival
Ġfasc inated
Ġopt ions
Hel p
ĠKend all
Ġclin ic
Ġadjo ining
Ġmerchand ise
A h
H ave
L e
W ill
e xt
l an
u a
v ity
v ia
Ġs her
Ġs ill
Ġo d
Ġo we
Ġm ike
Ġm oose
Ġd iet
Ġd usk
ou l
Ġl acy
Ġin ha
or a
or se
Ġha zy
ot te
Ġst unned
Ġr usty
Ġr inse
ent ine
ĠS qu
Ġli ed
Ġfor um
Ġwh ip
ĠW omen
ĠM ason
ion e
Ġab use
Ġor che
ra se
Ġam using
Ġfe ces
Ġpe ar
ĠC H
ĠC ent
ood les
Ġde formed
qu o
qu el
Ġsp an
Ġsp at
Ġrem inis
Ġfl ashed
Ġfl ipping
ĠN elson
ĠF our
ĠF aye
ick er
ĠL T
ĠL ord
Ġbu d
Ġco ord
ĠP retty
ĠMy self
um ped
Ġhand ic
ĠG ab
Ġdis int
Ġshow ers
Ġac id
th ur
row s
Ġpr ices
Ġapp ly
Ġatt empting
Ġcont ents
Ġgr ins
Ġgr asp
ĠSt op
Ġset tle
ert ation
Ġcomp ared
Ġrest ed
Ġmar king
Ġmar rying
ĠV an
ĠV ampire
Ġcr otch
Ġca uses
br own
Ġlist ed
Ġball room
ĠAl ask
Ġsca le
Ġcur vy
Ġgreat ly
Ġsub mer
Ġunderstand s
ative ly
Ġpa used
Ġpleas antly
ĠChrist opher
Ġdanc ers
Ġdef ensive
Ġtor ch
Ġtrans l
Ġvac ant
Ġill ustr
Ġstrugg led
ĠRe ally
Ġtu x
Ġisland s
Ġrepl ies
Ġsol ve
me aning
Ġrelax ing
Ġpad s
Ġcap able
Ġspray ed
Ġbum ps
Ġindic ates
Ġsurv iv
Ġrequ ire
Ġgig antic
Ġattempt ed
Ġcent ral
Ġcelebr ate
ĠMart ha
Ġlat ch
cher s
Ġannoun cer
Ġstraw berries
oph ob
Ġcub icles
Ġremar ked
ĠEx cel
Ġveget able
Ġcheer ful
Ġcommunic ate
Ġrefle ction
Ġauthor ities
ĠSl ayer
Ġmemor ies
Ġinse ct
Ġpurcha sed
Ġwel come
Ġtender ly
Ġdiss ertation
Ġswall ow
Ġcrim inal
Ġsire n
Ġsire ns
Ġfant asy
Ġwre ck
Ġaqu arium
Ġbrid ges
Ġdepos it
Ġampl ifier
Ġwerew olf
Ġenvelop es
ĠDian e
Ġalpha bet
0 8
1 3
1 7
A meric
E llie
I zzy
U h
b al
e ches
l ength
r int
s ery
w ife
x pected
Ġ ing
Ġa we
Ġa str
in ery
Ġm ol
Ġf erry
Ġd ice
om er
on ge
Ġwe ed
Ġhe aling
ot ty
id ated
id ents
ĠT ob
ĠT enn
Ġn a
Ġn er
Ġr is
Ġr im
Ġr ises
Ġre ward
ay ed
im ents
ĠS T
ĠS n
Ġk ar
ght er
ĠM at
Ġsee k
Ġro ot
ce pting
ĠB a
ĠB ull
ĠB iology
ĠC I
ig hed
Ġte e
Ġus her
ĠD ep
Ġhouse mates
ol ves
ĠAnd re
os ition
Ġfl ushed
ĠJ ung
ĠJ une
Ġv en
Ġv ice
Ġv irgin
ine a
ĠF r
Ġcha l
ĠL ion
ven ge
Ġun its
th on
Ġtra ve
ĠK enneth
Ġche ss
Ġgr umpy
Ġgl owing
bb ins
Ġsk ip
Ġbeg un
Ġrec re
Ġrec on
Ġrel ations
Ġlau ghter
Ġmar sh
Ġpar ks
Ġmin or
head ed
Ġchar ming
Ġrock et
Ġrep orter
Ġempt ied
Ġrain y
Ġpri or
ĠSam my
Ġcand ies
Ġband s
Ġmed ia
ĠCl ub
ĠWhat ever
Ġrece ipt
Ġthreat ens
Ġban ks
Ġprotect ing
Ġskirt s
ĠHo ly
Ġsol ution
Ġwhis pers
Ġsou l
Ġgang ster
Ġmis erable
Ġadj acent
Ġpray ing
Ġacquaint ances
het ic
Ġpurs u
Ġfoc used
Ġdemonstr ation
Ġbump y
Ġsigh s
Ġgigg le
ĠRey nold
Ġboo bs
Ġdinosaur s
Ġmurd ered
Ġmuff ins
Ġwaters l
Ġoverfl owing
ĠKar i
Ġthera py
wor ks
Ġtriang le
Ġwrink led
ĠBeck y
Ġadvertise ment
Ġtradition al
iven ess
Ġprec ise
Ġchamp agne
Ġlav a
Ġfreed om
ĠNic ole
Ġcongreg ation
Ġadop ted
Ġcondu ctor
ĠEdd ie
ĠThanks giving
Ġfurnishing s
5 00
M other
W ow
c up
f ree
n ut
Ġ +
Ġ et
ĠI d
Ġb on
Ġc asket
Ġd ull
Ġh int
ut ral
ĠT ake
Ġr idge
Ġr amps
ĠS y
ĠS ky
ĠA N
Ġfor ces
ur dy
ur gy
ĠH ospital
art ers
if ul
Ġso b
Ġro ds
Ġj erk
Ġcl ad
ca p
ĠB er
ĠB at
ĠB rand
Ġpe el
ig ner
ĠD u
Ġgu inea
iz er
ĠN apper
ist y
ĠF olk
Ġcha nt
ĠL ight
Ġno on
ĠR E
ĠP a
ĠP sych
um ing
ĠG race
Ġun st
ire ct
Ġapp lying
Ġwall paper
Ġcont rolling
Ġche at
Ġtr unks
Ġem er
Ġkill s
Ġad visor
Ġcount ers
Ġdra pes
ĠU K
Ġpast ure
sh ine
Ġes c
Ġob nox
ĠJo el
ph y
Ġpres umably
ĠBr ook
ĠMar ie
Ġsand als
Ġins pect
Ġdi apers
uff le
ĠAr nold
Ġsil ence
Ġexpl oring
Ġeye b
Ġcraw ls
Ġnur sery
Ġcond o
Ġcond uct
Ġcond itions
Ġpot ential
Ġur g
zz le
ĠHigh way
Ġban anas
Ġident ical
Ġsens itive
Ġtour ists
Ġhost age
ĠCharl otte
Ġscra ping
Ġremain ing
Ġcent ury
Ġpound ing
ĠSus ie
Ġtyp ically
Ġtem ple
ĠHar ris
Ġbutter fly
Ġannoun ces
Ġcrit ical
Ġintense ly
Ġcompan ions
Ġparticip ating
Ġencl osure
Ġdocu ments
Ġcommunic ation
onne cted
Ġmarket ing
Ġslim y
Ġterm inal
Ġprefer red
Ġaccompl ish
ĠJon athan
ĠEmer y
Ġcrim inals
Ġmushroom s
ĠOff ice
ĠDisney land
Ġnipp les
Ġstocking s
Ġverb ally
Ġtil ted
Ġanaly st
Ġdang ling
Ġcollap se
Ġfinanc ial
Ġperf ume
Ġcuri osity
Ġcert ific
ĠVC R
orient ed
Ġsyru p
quo ise
0 2
? ]
A b
B oy
D S
L L
P e
Y our
b us
b ike
b ows
c ases
d ressed
f un
f irst
m itted
o v
p et
p ist
s aw
w en
Ġb aw
Ġwa kes
ha d
er ness
Ġf aith
Ġd ip
Ġl ing
Ġp ike
on ing
an i
Ġn ative
Ġst im
Ġst able
Ġst ained
Ġr oo
Ġre jected
al a
al o
ent ially
ad get
ĠM uch
ĠM ittens
Ġro bbed
Ġle nd
Ġcl ar
Ġta pped
Ġcar avan
mb le
Ġbo lt
Ġcan cell
Ġcon sequ
ol i
Ġsp un
Ġsp ite
Ġbl ades
Ġfl av
Ġv ast
Ġv icious
ĠF at
Ġcha ses
ĠL ap
ous es
Ġbr ushing
Ġqu ote
ru pting
Ġhand les
ĠG a
Ġun pl
Ġboy hood
Ġneed les
Ġmother s
ĠK elly
Ġsha ky
ily n
Ġhigh ly
Ġcont ract
Ġche eks
Ġdr ama
Ġgl imp
Ġtr ump
Ġsk is
Ġpass port
Ġmust ache
ma il
ub lic
Ġdra ft
Ġfun nel
Ġinst all
Ġinst ance
Ġinst antly
man uel
Ġbook case
ond a
ob s
Ġexc hang
Ġnu clear
ĠĠ Ġ
az z
Ġsign als
Ġpay s
ĠBe ach
Ġrep ul
Ġrep orts
udd les
Ġcross es
Ġsim ult
Ġcop per
Ġpa ved
Ġincl ude
ĠSp ader
Ġdi ag
Ġexam ined
Ġboard ing
Ġsil ently
umb led
ees e
Ġsor row
ĠCo le
Ġfil th
Ġclassroom s
Ġburn er
Ġcond om
hy llis
Ġgen uine
Ġ19 8
Ġhar mon
Ġfear ful
Ġpop ping
Ġpub l
Ġdam n
Ġprom in
Ġdesign ed
Ġwild ly
Ġspread ing
Ġlim o
Ġlim it
ĠEm manuel
Ġattempt s
Ġtooth p
Ġlu x
ĠMost ly
Ġtray s
Ġdisappear ing
Ġexerc ises
Ġshru gged
Ġtur quoise
Ġdrown ing
ĠWal king
Ġmechan ism
Ġchem ical
Ġstro kes
ĠMcDonald s
Ġdemonstr ate
bur g
ĠPet erson
con om
Ġwrest le
Ġobst acle
stand ing
Ġpassion ately
ĠAng ry
Ġsuburb an
Ġmyster y
ĠMag gie
ĠRa quel
Ġax e
ĠJu ly
Ġobl ig
Ġperman ent
ĠSon ja
ĠJoy ce
Ġapprehen sive
Ġsin ister
ĠCast le
Ġburg lar
Ġcircum st
ĠTay lor
Ġisol ated
Ġglimp se
C on
a ver
e ment
f ight
p robably
s ided
in ate
in ny
ĠI re
Ġthe ory
Ġo xy
Ġb is
Ġf ier
Ġl ent
Ġg adget
Ġp acing
or al
Ġh ym
Ġhe dge
Ġth irty
id an
Ġn atives
Ġn aturally
Ġbe gged
Ġst urdy
Ġwith dra
ver ted
ad d
ĠS ix
ĠS unny
Ġli br
ri l
ri et
ĠW y
ĠW ent
ould n
ĠM SN
Ġfr ying
ind ed
ra p
Ġcl aw
ĠC ra
ĠC ross
ĠC ounse
Ġ( "
Ġover come
Ġwor m
Ġwor ms
Ġcan al
Ġtim ing
Ġtal ent
Ġv et
Ġv ir
Ġv ine
Ġv ase
ĠO ly
ĠF ris
ĠL es
ĠR aul
ab ility
ĠP y
Ġtell er
ne ver
Ġpo se
Ġpo ked
ag s
Ġhand c
Ġun h
Ġun pack
Ġsl ick
Ġac cepting
od ay
Ġsha nt
get ic
Ġ2 7
ĠSt range
Ġgra pes
ĠAn astasia
Ġtr op
Ġsk im
Ġsk ipped
Ġper im
Ġrest less
Ġsn apped
Ġres erv
Ġbox er
ma king
Ġinc om
Ġtri ps
Ġinter act
gn es
Ġhor ns
Ġhang er
unt ing
Ġ5 5
Ġext ent
cha nt
Ġcolor ing
ĠMar ilyn
Ġmach inery
Ġpen gu
Ġart s
Ġexp and
Ġexp ert
Ġz ipp
Ġins ane
Ġunc ertain
Ġdep th
ring e
Ġspeak ers
Ġband age
Ġeng ines
Ġstick er
ĠRo bbins
Ġhum ans
Ġallow ing
Ġmag ical
Ġlift s
Ġgro in
Ġlit ter
Ġspl ash
Ġguard ing
Ġstret ching
Ġund ers
Ġinterview ing
Ġmid st
you ng
Ġtour ist
Ġcourt room
Ġflower bed
Ġabs ent
Ġprocess ion
Ġindic ated
Ġobser ver
Ġcent re
ĠChe vy
Ġcho ices
Ġdemand ing
Ġpurs ued
Ġrelig ion
Ġexperien cing
Ġvert ically
Ġrefle cted
Ġfif teen
Ġobst acles
Ġpolite ly
ĠKat rina
Ġneckl aces
Ġacknow led
Ġpassion ate
ĠThan k
Ġplu gged
Ġsuff ering
Ġerrand s
Ġbarefoot ed
Ġvom it
Ġcough ing
Ġmas ks
ĠBus ter
Ġimpro v
Ġbrides maids
ĠPol ice
Ġenthusi astic
Ġrobb ers
Ġpud gy
ste in
ĠIr ish
ĠGen eral
Ġhitch h
Ġinsult ed
ĠIm mediately
Ġindepend ent
Ġvolcan o
ĠCarm en
ĠNich ol
Ġarthrit is
Ġsemin ar
Ġpsychiat rist
Ġorche stra
ĠTenn ant
Ġoxy gen
I T
b u
c ard
e mber
o ly
t wo
v est
w l
Ġ ....
he a
re p
Ġb ould
Ġb rill
Ġwa vy
it ate
Ġf olks
Ġd ome
Ġl y
Ġg eese
Ġp ir
Ġha unted
es tern
ĠT urn
Ġbe an
Ġst itches
ic o
oo ping
Ġse al
ri k
Ġup s
ur ry
Ġk ite
Ġwh ipped
op ard
ĠM ountain
ge on
ra vel
Ġloo p
Ġam mo
il bert
Ġdre ad
Ġpe as
ĠC ed
ĠC art
ĠC are
ĠC uddles
Ġte aring
ĠD er
ĠD ark
Ġbo il
ul ations
ast e
Ġsp arse
os is
Ġsm ashing
ĠL ady
ĠP E
ĠP hyllis
Ġar c
ĠG ee
Ġun ion
ell ow
Ġsl apped
Ġdis like
Ġclass ical
Ġho vering
Ġph rase
ĠK ids
Ġnew ly
Ġgl anced
Ġsk it
Ġhair y
per haps
Ġcat tle
ĠCh icken
Ġinc ons
ĠU s
Ġca vern
Ġshort cut
Ġsing ers
br other
Ġconf ir
Ġlist s
Ġlist ens
Ġhang ers
Ġcour ses
Ġmiss es
ĠOn es
Ġscre ens
Ġple ading
Ġpack s
ram id
Ġra fter
Ġru gs
Ġsuggest ion
ĠAr t
Ġshut ting
Ġhat ch
ĠZ ates
Ġdeal er
Ġsepar ately
Ġrail s
Ġpost ers
oun ced
Ġ19 5
Ġtor ture
Ġapolog izing
Ġhesit ates
Ġadm iring
ĠDw arf
Ġconst ant
Ġident ification
Ġsmell s
Ġlecture s
Ġextrem e
Ġtast es
ĠDan ny
Ġer ror
Ġunf inished
Ġinterrupt s
Ġdrug store
Ġfresh man
Ġmel ting
Ġdeb ated
Ġcelebr ating
Ġdu pl
Ġcomfort ably
Ġfu nd
Ġune xpected
Ġinf ant
Ġped est
Ġbi ology
Ġfool ing
Ġautom obile
Ġbul bs
ĠCon f
Ġmechan ic
Ġescal ators
ĠCom mun
Ġsymp athy
Ġmer maid
ĠTe acher
com ed
Ġrelative ly
Ġcompartment s
Ġauthor ity
ĠCla us
Ġgall ery
Ġslee ve
ĠMic key
Ġcock ro
Ġreve al
ĠEar l
Ġfrog s
Ġscoot er
Ġchuck le
Ġreb u
ĠSher ry
Ġpean uts
rof ess
Ġpine app
Ġwhirl pool
Ġconven ience
ĠLa ure
Ġhumor ous
Ġid iot
**************** ****************
Ġbik ini
Ġfrost ing
dri ver
Ġrearran ging
Ġcyl ind
ĠRod ney
Ġgor illa
je ction
Ġavo iding
Ġtramp oline
Ġparach ute
ĠHoll ander
Ġschol arship
Ġsher iff
Ġod or
Ġdisint eg
ĠAlask a
Ġsimult aneously
Ġcircumst ances
9 9
B ill
F ire
O M
O S
P aul
P lease
R A
b re
b od
c r
d id
d ust
d ers
i as
l id
l ined
p erson
t ake
z a
Ġt ut
he ast
Ġw ives
ĠI N
Ġb age
Ġb ark
Ġm ales
Ġto ll
Ġd ed
ou red
Ġl ump
is ions
Ġp im
Ġp ra
Ġp oodle
Ġin sp
on er
or ant
ot ted
ĠT ri
ĠT rying
Ġn av
le m
Ġbe gging
ic ation
se l
Ġse eds
ĠS oph
ĠA gnes
Ġup d
Ġup ward
ĠW ind
Ġsa us
ch ildren
Ġkn it
Ġint ric
ĠB es
ĠC re
ĠC ass
Ġ( !)
ĠD J
Ġbo iling
Ġover hang
Ġcon so
Ġfl ap
ĠN ina
Ġv ault
ĠO ri
ĠL ar
Ġco inc
Ġlo an
Ġlo ading
ĠR oman
ne red
ff man
Ġpre m
ound ed
ather ine
ĠG al
Ġdis k
Ġdis m
han ie
Ġapp ar
Ġ2 8
Ġche ering
Ġsur re
Ġgra pe
ĠAn gel
Ġcor ds
og ue
Ġarm ed
Ġbox ing
Ġcare er
Ġsurpris ingly
Ġstud ies
Ġtru ly
ric s
Ġembarrass ment
Ġtw ist
Ġsub tle
Ġfree zing
ĠSp enny
Ġform ation
Ġdanc er
cl ub
gu ard
ĠAr rested
Ġexcited ly
Ġfre aky
Ġcontinu ing
Ġflow ered
ĠStep hanie
Ġwarm th
Ġinstru cted
Ġnote books
Ġbright ly
Ġdorm s
Ġbat ting
Ġhum ming
Ġfold ers
Ġhar bor
Ġapolog izes
Ġhesit antly
ĠBl air
Ġbur y
ĠRe in
ĠRe co
ĠRe illy
Ġamaz ement
rest on
Ġsuper ior
Ġport al
Ġant iques
Ġimag ining
Ġrent al
Ġadv ances
Ġpour s
Ġadj usting
Ġdisturb ing
Ġoccas ions
Ġmel t
Ġdeb ate
ĠMart y
Ġbend s
Ġjud ges
Ġlat est
Ġped als
Ġstraw berry
ĠCon nie
ĠPl ay
Ġpurs ue
Ġrot ting
Ġmattress es
Ġresist ance
ĠCol in
ĠCol or
Ġalcohol ic
Ġsele ction
Ġsteam er
Ġslop py
Ġham ster
Ġgest ures
Ġpump kin
ĠBre ak
Ġsignific ance
ĠAng ie
Ġaltern ate
Ġexec ut
Ġconven ient
Ġthera pist
Ġske leton
Ġsam ple
ĠHunt er
Ġdisappro ving
organ ized
Ġfen ced
Ġbookshe lves
Ġpict ured
ĠAh med
Ġapplic ation
Ġrescu ed
Ġtas ks
wal ks
Ġkar ate
Ġchal k
ĠLion el
Ġobnox ious
Ġconso le
" ;
G ive
O U
P R
c ling
d aughter
f ting
f ord
g ot
h r
h our
k ers
m el
t ail
Ġ *
Ġt ile
Ġa st
Ġa chie
he y
ĠI TI
Ġo ak
Ġo ption
Ġto ler
it z
er on
Ġf ries
Ġd amp
Ġd ict
Ġg y
Ġg ee
Ġg oose
Ġg rief
Ġg ained
Ġp ork
ar b
or ous
Ġha ss
Ġhe el
ot hes
ĠT u
ĠT own
at us
Ġn ick
Ġn ons
ac c
Ġr ib
Ġe go
oo ped
st eps
ĠA M
ĠA T
Ġup hol
Ġfor ks
ĠH as
op y
ĠM ade
Ġy rs
Ġshe er
Ġab ortion
Ġso aked
ra el
ro du
ct ic
ct ive
Ġcl ue
Ġcl aws
Ġal oud
Ġta b
Ġfe m
Ġdown ward
ĠC ory
ĠC oke
ĠC era
ĠC lo
Ġcar rot
Ġsu cks
Ġover l
Ġover looking
Ġsp ar
Ġsp ies
ĠN ever
ĠN avy
Ġv ig
ĠO cean
ĠF o
ĠF ind
Ġno stal
Ġbu ggy
ĠR em
Ġch ina
ĠP reston
um ping
Ġpre acher
Ġsc ores
Ġbed side
ĠG erald
Ġun l
od ore
Ġwo bbly
Ġen vious
Ġatt or
ĠK n
ĠK le
ook ie
Ġsha ve
Ġ2 6
Ġsur vey
Ġsk ipping
Ġper cent
friend s
we ed
Ġres et
Ġpar ap
ĠCh ildren
ub a
Ġinc est
Ġinv itation
Ġdin er
Ġbar king
aw are
Ġcra p
Ġcra z
Ġpay ment
Ġreco llection
ane ous
Ġfill s
Ġmot ions
Ġart ists
Ġcamp ground
Ġins pe
Ġsugg esting
ustr ophob
Ġfair y
Ġsun set
Ġboard walk
Ġpan icky
Ġconvers ations
Ġopp on
Ġstri king
Ġcomment ing
Ġstick ers
do ll
Ġbat s
Ġfold s
Ġtrans ition
Ġprofess ors
Ġbur ger
ĠRe be
Ġmist akes
Ġprotect ive
let ter
Ġsend s
Ġport age
Ġrespond s
Ġwild erness
Ġamong st
Ġdiv ide
ĠPat ty
ival ent
Ġunf air
Ġcomb ined
ĠIs rael
Ġthr one
Ġcru el
Ġpoor ly
duc ing
Ġpuzz les
Ġshy ly
Ġdod ge
ĠJan uary
Ġpunch ing
Ġvivid ly
Ġcheer le
Ġdemonstr ating
Ġcommunic ating
Ġinit ially
Ġcla ustrophob
Ġwel comed
Ġslipp ers
Ġimpl ied
some one
Ġdeliver ing
Ġtack y
ĠKat ie
Ġrequest ed
ĠGirl s
pr ints
ĠDown ey
Ġgrin ning
ĠBre nda
Ġtransform ed
Ġfle x
Ġwip ing
ĠTH E
ĠUp on
Ġdownlo ad
Ġblur ry
Ġswirl ing
Ġnarr ator
Ġtid al
Ġprepar ation
Ġcaut ious
Ġobserv atory
Ġding y
ĠHot el
Ġaccur ate
Ġconsp icuous
Ġsculpt ure
Ġhyster ical
Ġadminist r
Mer ri
ĠLi brary
Ġcontem pl
Luc y
Ġacade mic
Ġcertific ate
ĠLap son
Ġshant y
Ġtrop ical
Ġperim eter
ĠRein hold
9 5
A M
D b
L ater
N ote
S mall
n ail
n ett
o vers
r ating
t w
t hen
u u
v ol
Ġt iles
Ġs igning
ing e
Ġm ixt
it ors
Ġf et
Ġf rench
Ġwas ting
Ġl azy
Ġg ran
Ġp oop
on nie
ar med
et ic
Ġhe y
Ġth us
ĠT ha
Ġn yl
ĠThe odore
Ġst o
Ġst rict
Ġre venge
Ġe rect
Ġe conom
am el
Ġse gment
st ood
ĠS ad
ĠS ep
ri ving
ĠW all
rou s
ĠM ik
ĠM useum
out hed
ĠHe ll
Ġfr own
Ġsh oo
Ġne utral
ĠB anks
Ġpe er
ĠC u
ĠC all
ĠC ars
Ġcom bed
ig o
Ġcar b
Ġhou sing
ĠD uck
qu arters
ul ting
ol o
Ġsp elling
Ġma ps
Ġv s
Ġv ines
ĠO p
ĠO kay
Ġseem ing
ĠF ore
ĠL atin
ĠP ac
ĠP acey
Ġpart ial
ff y
ag en
Ġcou p
ile en
ĠG ret
Ġun covered
Ġgood ness
Ġsw itches
Ġfin ishes
Ġdiffere nces
ĠK ings
Ġim mediate
Ġhigh light
Ġfound ation
ĠSt art
bb led
bb ling
ps es
ps ons
Ġper mit
Ġpass word
Ġrec ru
Ġrec ipe
Ġrel ate
Ġres erved
Ġcr ay
Ġcare s
Ġcount ries
Ġteac hes
Ġinv ent
Ġchan ces
Ġbar bed
ĠJo an
Ġ5 00
te mber
ĠUn fortunately
Ġcons ult
ĠSp ring
Ġunc les
Ġcam per
ĠAr thur
ĠAr nett
Ġspot light
Ġnarrow ly
ĠPaul ine
Ġimport ance
Ġinform al
Ġsoft ware
vis ing
Ġgrow s
Ġcontain s
Ġsmo ked
ĠSu z
Ġsne aks
ĠAmeric ans
Ġequ al
Ġspl ashing
Ġdisappoint ment
Ġ________ ___
ik i
Ġsens ed
Ġgang sters
Ġviol ence
Ġacqu ainted
Ġinj ury
bl ack
bl ets
Ġconstru cted
ĠMer ri
Ġstat us
Ġspill s
Ġspill ing
Ġbell s
Ġsquee zing
Ġiron ing
Ġcelebr ities
ĠJan et
Ġsweat ers
Ġdemand ed
ĠCarl os
ĠMo ab
Ġarran ging
ID S
Ġassoci ation
AR R
Ġprim itive
ĠHolly wood
Ġwig g
Ġserv ant
Ġtechn ical
Ġdetail ed
Ġsed uce
Ġsew er
Ġque ue
Ġcy cle
Ġcateg ories
Ġoct op
Ġprecar ious
Ġdram atic
Ġmisunder stood
Ġnegle cted
ĠIM Db
ĠWhit man
Ġdestru ction
ĠNaz i
Ġrefresh ments
Americ an
Ġcancell ed
Ġfilth y
Ġpromin ent
ĠPy thon
Ġrafter s
ĠSep tember
" -
A C
I I
O C
S p
T rying
T rue
a ire
b ig
b ars
c ope
d ress
l ad
n ame
o am
p se
r idge
r acting
s ister
u ries
v a
v o
v ory
v ette
w all
x ter
Ġ icing
Ġt end
Ġa ston
Ġm ac
Ġto aster
Ġwa d
er ox
Ġg oo
Ġg aps
on cer
Ġh ire
Ġha w
Ġha st
Ġwe ighed
Ġhe al
ac ity
ac co
Ġst ates
ic ia
Ġr age
Ġre w
Ġre no
Ġe agle
im er
am m
Ġse am
st yle
ad ill
ĠS at
ĠS han
ĠA round
ĠA ss
ĠA IDS
ri gg
Ġbut cher
Ġan ch
ur a
as ha
ra ham
ĠB ird
ĠB ald
Ġfe ast
Ġman aging
and ra
ck er
ĠD es
ĠD iana
Ġbo nd
Ġover alls
Ġcan cel
qu it
ul ous
Ġex isted
Ġcon cept
Ġfl ashes
Ġma gg
Ġv eter
ĠO t
ĠL as
ĠL ima
Ġco ax
ĠR ep
ĠR ik
ud ging
Ġch unk
Ġch oke
ĠP am
ĠP erry
ru g
Ġright s
Ġun ident
Ġside walks
Ġsw ear
Ġsw ift
Ġflo ats
be y
Ġfo il
Ġunder cover
Ġwind s
Ġhead lights
ĠK asper
Ġcont rolled
Ġperson ally
Ġ3 2
Ġpar ish
Ġpar lor
ink er
Ġplan k
Ġcr ut
Ġcr amped
har m
Ġpol icy
sh ot
Ġinter rupting
Ġsqu ished
Ġtrain er
Ġconf ess
Ġbar be
oc cup
Ġnotice able
Ġmus cle
Ġtrou t
az a
az ed
Ġslow s
Ġscre ened
Ġstr ung
Ġter rain
Ġind ex
Ġmat ched
Ġmat ters
ĠMar ita
Ġtw irl
Ġsub t
Th ree
... ."
Ġanim ated
Ġpa uses
ĠSp ike
Ġru ff
Ġfurn ace
Ġhorse back
Ġbow el
Ġlad ders
Ġrad i
Ġopp osed
erg art
cri ption
Ġinform ed
Ġpract iced
Ġsal on
Ġfil ms
Ġfit ting
ĠRo ss
ific ent
Ġmotor bike
Ġhar p
Ġpub ic
Ġrepe ats
Ġlit urgy
Ġtrail s
Ġunus ually
Ġble nd
Ġtu cked
ĠSte in
Ġpsych ic
Ġstret ches
Ġsusp ic
Ġprint s
Ġcere mon
Ġaccom pany
Ġlim ous
Ġviol ently
cu its
Ġscrew driver
ĠJul ian
Ġcu be
Ġpun ches
ĠJeff erson
Ġbeha ving
ĠBarb ie
Ġremo ving
Ġcondition er
Ġrepres ents
Ġcub es
Ġdemand s
Ġfail ing
ĠMo lly
ores cent
Ġconsider able
Ġwound ed
Ġassoci ate
Ġcro che
Ġbald ing
Ġvacuum ing
cel ain
Ġpal ace
Ġprov ided
Ġfif ty
ĠEurope an
Ġchoo ses
Ġdescend ing
Ġtack le
Ġscram bled
Ġess ay
ĠMont y
Ġcrocod iles
Ġtransport ation
Ġdy nam
ĠLiz a
Ġnipp le
ĠWhe never
Ġstress ed
Ġprepar ations
Ġgoof y
ĠRoy al
ĠEuc lid
ĠFire fly
Ġeduc ation
Ġmeas uring
Ġprotr uding
Ġhipp ie
Ġnicke l
Ġbree ze
Ġfemin ine
Ġhing es
Ġindign ant
Sam antha
Ġbracel et
Ġtrave lling
ĠReynold s
Ġbis cuits
ĠCounse ling
Ġly rics
ĠReco llection
2 9
C l
D awson
O P
T om
d om
d ie
e f
g rand
n orm
p art
s l
t r
t ta
Ġt ents
Ġt rench
Ġs ank
ĠI vory
Ġm art
Ġd art
Ġd iver
Ġd ense
Ġd iction
Ġg utter
Ġp ly
Ġp ies
Ġp ans
on ies
Ġha l
ut es
id o
at ured
Ġst yl
Ġr ay
Ġre ck
Ġse as
st op
st ream
Ġat om
ĠS k
ĠA cc
ĠA lley
ĠA idan
Ġup wards
Ġan al
ĠH it
Ġdo ve
ĠW anda
Ġ" ...
ĠWe ird
Ġloo s
ĠIt aly
ill ion
Ġkn elt
Ġint ently
ĠB R
ĠB aby
ĠC y
ĠC orn
Ġcar rier
ie val
qu ate
ĠE n
ĠE rik
os ie
Ġbl o
Ġfl ung
pt ic
ist or
ĠL ily
Ġco b
Ġlo b
ĠR est
ĠP u
ĠP ers
Ġpart ying
Ġleft over
Ġkind ergart
ĠG ram
Ġun but
Ġsl ant
Ġsl ower
Ġdis oriented
Ġlot tery
Ġlong time
Ġwo nders
Ġsw ords
Ġstre wn
ĠK ara
Ġel bows
Ġnight club
Ġcont empt
Ġpoint y
Ġche aper
Ġgra vity
ps y
ene x
Ġcomp ar
Ġrec y
Ġrec ur
ĠV olks
Ġmeet ings
Ġimp ressive
Ġdra ped
Ġret ail
ĠU pt
Ġsurpris ing
Ġsurpris es
Ġca pe
Ġfire works
Ġdist ress
Ġexc ess
Ġclimb s
ord an
Ġtre ating
Ġhop s
Ġsign ature
Ġchar ity
ĠBill y
Ġpack ets
Ġdisc rim
Ġdesk top
land s
Ġmind s
Ġexp ose
Ġyellow ish
Ġesca pes
Ġra ises
Ġfree ze
Ġmouth s
Ġve il
Ġcountry side
Ġpor celain
Ġdeal t
Ġsell s
ĠDe xter
Ġstri pped
Ġwra ps
Ġview s
Ġsepar ating
Ġcond oms
Ġperform ed
ĠSim psons
ĠOh io
Ġmist aken
Ġspeed s
Ġcig ar
ĠHo llow
Ġclub s
Ġcomb at
Ġadv anced
Ġstab bing
ĠAb raham
Ġassign ments
Ġcorn field
ĠMer chant
ĠJul iet
Ġfac ulty
Ġflash back
Ġpoison ed
Ġgradu ating
Ġencoura ged
eg as
Ġsmooth ly
Ġurin ated
Ġtan ks
Ġannoun cing
Ġreception ist
Ġrom ance
ĠQue er
Ġaccount ing
Ġspo iled
Ġgear s
ĠMon ica
ĠAustral ian
hand ed
Ġprov ide
Ġfort une
Ġimpat iently
Ġreass uring
ĠMor gan
Ġest ab
Ġreve aled
Ġbuff alo
Ġchu cked
Ġnun s
Ġswall owed
sk irt
Ġbang ed
rof oam
Ġmyster ious
Ġhonest ly
Ġsucceed ed
Ġappla ud
Ġdisgu ised
Ġseve re
ĠNan o
Ġstew ard
Ġairl ine
Ġbroch ure
Ġbud get
Ġsurviv ors
Ġfier ce
Ġpineapp le
Ġrib s
Ġattor ney
Small ville
Ġmixt ure
Ġlimous ine
ĠVolks w
) <
0 1
2 1
B onnie
E x
L E
L ost
M art
M rs
b ling
b acco
c ountry
e ous
f ering
i able
m ary
m inded
o ir
p ity
s u
t ight
u mber
w ar
y e
Ġt in
Ġt urb
Ġa pt
Ġw har
in et
Ġo min
Ġm our
Ġm ashed
Ġto bacco
ha b
ha rd
Ġc ater
Ġf itted
Ġd rying
Ġd omin
Ġl am
Ġl ave
Ġl ush
Ġl akes
Ġl ids
Ġg ir
Ġg ambling
Ġp end
en er
ĠT oy
at ivity
Ġbe ep
Ġbe ast
Ġbe friend
ic ations
Ġr ating
Ġr av
Ġr ural
Ġe c
al so
ĠS U
ĠS V
ĠS eth
ĠS now
ri fied
Ġan us
op ran
Ġsa ke
ĠM ort
Ġso ck
Ġso aking
Ġso lo
Ġor ang
ge ant
Ġsh red
ra pped
Ġpl a
Ġcl ips
Ġal oof
ĠB ow
ĠB ur
ĠB art
ĠB erg
Ġta gs
Ġpe ed
Ġpe ak
Ġpe eling
Ġman ages
ig ail
ĠD ee
Ġover ly
Ġhouse keeper
Ġde ceased
Ġfl an
Ġfl own
ĠN O
ĠN ARR
ĠJ ordan
Ġv oted
ĠO li
ĠL an
Ġbu ys
ĠMy a
hed ral
Ġsaw dust
pe are
ag ging
Ġbr ace
Ġpre ced
Ġqu ilt
Ġsc ree
ĠG ail
Ġun re
Ġun att
Ġun mar
ade my
Ġpr incess
Ġ1 000
Ġhead quarters
Ġsha ken
Ġgre ets
Ġgre asy
Ġran ger
Ġgr ind
Ġdes igner
Ġtr usted
Ġtr icked
Ġspe eches
kes peare
Ġpass ive
Ġrec ess
Ġap ron
Ġem ails
ĠV egas
Ġcr ate
Ġcr um
Ġele ction
Ġste ad
Ġmet er
cer y
av il
Ġacc using
Ġpast a
imb a
Ġinter fere
Ġclean ers
Ġob li
Ġpat rol
Ġcontin ually
ĠAl most
Ġslow ing
Ġpur ses
Ġfoot age
Ġass ault
Ġdisc har
Ġind irect
Ġswe ating
Ġcop ied
Ġart istic
ram er
Ġrain ed
Ġrain coat
Ġz ip
Ġra ising
Ġsuggest ions
Ġodd s
Ġdoll y
Ġvan illa
Ġsun shine
ĠSe ems
Ġaware ness
Ġmon keys
Ġtravel s
Ġmed ieval
Ġcal f
Ġlow ered
Ġnervous ly
Ġbal ancing
Ġcart on
ĠLy le
Ġprogram s
ĠWill ow
Ġlab eled
Ġproject or
ĠRe al
Ġplat oon
Ġpee ing
Ġdecor ating
Ġcell s
Ġshar ks
Ġpsych ologist
Ġplatform s
Ġer otic
Ġhost ing
Ġadv ance
Ġbum ping
ĠAb igail
Ġrough ly
Ġdim ens
ĠWith out
Ġrif les
ĠRuss ians
ĠAm elia
Ġgown s
ĠJan ice
Ġaim ing
ett es
Ġtoss ing
ĠPer u
ĠLou ie
ĠHan son
Ġdev ices
Ġpupp ets
Ġscript s
Ġdevelop ment
Ġprincip le
Ġchannel s
Ġexplod es
Ġflirt ed
reg ular
Ġgall on
Ġfort unately
Ġcomed ian
Ġgymn astic
Ġintell ect
Ġhambur gers
Ġsheep ish
ĠAc ademy
Ġdisp ens
Ġaccompl ished
Ġoverhe ar
Ġflu id
Ġbang ing
Ġaltern ative
Ġhorizont ally
Ġheav ier
Ġcush ions
Ġemp athy
Ġsam ples
Ġgraph ic
Ġdisgu ise
Ġcaut iously
ĠTre k
ĠWay ne
Ġfixt ure
ĠMur phy
Ġdismiss ed
Ġsout hern
Ġsitu ations
Ġbenef it
Ġresign ed
Ġeffic ient
Ġassert ive
Ġdiagon ally
Ġsubmer ged
Ġtux ed
Ġwatersl ide
ĠBat man
Ġeyeb rows
ĠFat ima
Ġintric ate
ĠBes ides
Ġappar atus
ĠColor ado
ĠKle enex
Ġcrut ches
Ġkindergart en
ĠUpt own
ĠVolksw agen
)< /
3 5
B arb
G ee
H er
M ichael
P C
S uper
T A
T H
W or
W as
d ark
f old
g ard
h ift
l ittle
l ph
m ad
m oon
s lee
s mall
u cer
v ation
x x
he arted
Ġm os
Ġm oust
Ġto pp
Ġwa nders
ha ne
it er
Ġc ure
Ġf iddle
Ġf iction
Ġd imes
Ġl ung
Ġl aps
Ġg ut
Ġg rou
Ġp ure
Ġp aws
ar io
or ial
Ġh ind
ut en
an other
et ing
ĠT inker
at is
Ġn oodles
Ġst ages
Ġst rolling
Ġr ally
Ġre in
Ġse aled
ĠS F
Ġup pity
ur able
ĠH ave
ĠH ug
Ġdo lph
ĠW in
Ġas cend
Ġsa iled
as ingly
Ġy oga
Ġare na
Ġab used
Ġso cket
Ġro ar
Ġne on
ra ph
ro s
el ena
Ġle ash
Ġle aps
Ġle ague
Ġkn ight
Ġkn ick
un ning
ce mber
Ġint r
il ia
ca re
Ġal ter
Ġal ma
use ly
ĠB lo
ĠB roud
Ġta vern
ĠC ont
ĠC ase
ĠC amp
ĠC ount
ĠC ountry
ĠC ircle
Ġcom pelled
Ġte ased
Ġsu mm
ĠD C
Ġcan oes
ĠE s
ĠE ileen
Ġdon ut
Ġtal ented
Ġfl irty
ĠJ osie
Ġv ic
Ġv irt
fe male
ĠF ortun
ĠL enn
ĠL uther
ĠR ooks
Ġch ute
ĠP itt
pl om
ven a
Ġdri p
ĠG ro
ater nal
Ġlot ion
Ġdec isions
Ġsmall est
Ġpro duced
Ġen lar
Ġunder pants
Ġho ll
Ġhu h
Ġatt ent
Ġtra pe
ĠK yl
ĠK ramer
Ġbit ter
li ked
Ġtr am
Ġsk ys
Ġsn ide
Ġsn otty
Ġres idence
Ġcr ad
ĠU F
Ġmin im
Ġacc ents
ins on
ond e
Ġdist rict
Ġser geant
Ġexc uses
Ġtown s
uck s
ph ones
!" ,
ĠPe ggy
sp ond
Ġass ures
Ġdisc ount
ĠDar cy
ĠMar i
Ġsy mpt
Ġsub stitute
ĠFran co
ĠHer oes
ĠUn ion
Ġprop osed
Ġdi plom
ĠDo es
ĠNe vena
Ġmakes hift
Ġposs essions
Ġfre aking
Ġprof usely
Ġtele p
Ġcal med
ĠKe ith
ĠDe v
ĠDe cember
ĠPaul a
Ġrail ings
Ġgrow th
Ġdescri bes
Ġcliff s
Ġplat ter
Ġhunt ers
Ġcharacter istics
Ġphotograph y
Ġsmell y
Ġhig hest
Ġguard ed
Ġstret cher
Ġstran gest
Ġnews letter
Ġfarm house
Ġinterview ed
ĠPh ys
Ġaddress es
Ġacqu ired
Ġabs ence
Ġdisturb ance
Ġmill ions
ĠFl uffy
Ġhon ored
Ġpers istent
shirt s
Ġrap ids
Ġstructure s
Ġcurrent s
Ġcurrent ly
Ġurin ating
ĠBet ween
ĠChe ster
Ġvers a
Ġslam ming
ĠCom m
Ġpurs uit
Ġpupp et
Ġincident ally
see ing
Ġgigg led
Ġappreci ated
ker chief
Ġpou ch
Ġremod eling
Ġtechn ology
Ġvolunte ered
Ġmagn ificent
ĠJose ph
Ġclut ch
Ġstare s
ĠThur man
ĠWho ever
Ġcommand ed
Ġsail ors
Ġjam med
Ġchap ter
ĠInt er
Ġlandl ady
Ġelectron ics
Ġdownlo aded
Ġblur red
ĠTra ining
Ġsting y
Ġdelay ed
Ġanticip ation
ĠGra ham
Ġstrand s
Ġlabor atory
Ġcorre spond
Ġbookshe lf
Ġscold ed
Ġseve rely
Ġrecom mend
Ġsquirt ed
Ġpy ramid
Ġgrace ful
ĠAp ril
Ġhandwr iting
Ġgren ade
Ġhistor ical
Ġsixt h
Ġpros pect
Ġhandic apped
Ġastr on
ĠTob y
ĠDep artment
ĠPsych ology
ĠGa vin
Ġlibr arian
ĠOly mp
ĠFris bee
Ġfem ales
Ġclaustrophob ic
ĠBald win
Ġdiction ary
ĠAlley cat
Ġlave nder
avil ion
Ġskys cra
D w
D ora
G e
H ad
M r
R ob
a ud
c ies
f ying
g a
k ind
m om
m outh
m ended
n ote
o ven
p ir
s ay
s qu
s how
u y
y n
z an
z ens
Ġ iv
Ġt ame
Ġw ired
in arily
Ġs wo
Ġs acks
Ġb inder
Ġm ama
ha w
it led
Ġc os
Ġc ue
Ġd airy
Ġl ink
Ġl icking
Ġg n
Ġg aze
Ġp row
Ġp ert
Ġp aw
Ġp unk
en ced
Ġh udd
Ġha mm
Ġwe aving
Ġhe ated
ĠT am
ĠT al
ĠT op
ĠT ell
at ching
le g
Ġbe ck
ac o
Ġst ated
ld g
Ġr ump
Ġr aging
Ġre el
Ġe cho
Ġse vered
ent ies
ad el
ĠS imba
ĠA bby
ur k
Ġout rage
ĠH ol
ĠW alk
as ion
as cal
ĠM ack
ĠM ah
Ġab road
Ġso ak
Ġor al
Ġfr amed
Ġfr uits
ro e
ro ken
pp osed
Ġkn ot
Ġcl er
Ġcl am
Ġcl icked
ĠB as
ĠB ush
Ġta blets
Ġfe ver
ĠC her
ĠC os
mb ling
ĠD S
ĠD en
Ġover all
Ġover pass
Ġcan non
Ġcan opy
qu aint
Ġsp i
Ġsp ont
Ġsp ear
Ġsp iff
Ġwhere as
Ġrem ake
iz ard
Ġmo aning
Ġtim et
Ġfl avor
ĠJ asper
ĠF il
ĠF arm
Ġcha os
ĠL eah
Ġreme mbers
ĠR ome
ĠR uth
ĠP en
ĠP oint
Ġbr aces
Ġqu ant
Ġqu itting
Ġsc ales
Ġhand gun
ĠG ill
Ġdec ent
Ġopen ings
th od
Ġsw ell
Ġlar gest
Ġhead ache
Ġgr id
Ġsupp orting
vie ve
Ġpret t
Ġsleep s
Ġsn aps
Ġ3 00
Ġpar rot
Ġhall uc
ĠV I
ĠV i
Ġmeet s
Ġad s
Ġad or
Ġang led
Ġred ec
-- ,
Ġacc us
ug ust
Ġbar ren
ph ia
Ġpat rons
ĠAl vin
Ġref uge
Ġter rit
Ġrow boat
Ġext end
Ġrecogn izing
Ġrecogn izes
Ġreg ain
Ġbrown ish
Ġexp ans
Ġexp osing
Ġcab ins
Ġunc oncer
Ġappear ing
Ġadd ressed
Ġcam ps
ĠAr ts
Ġpan icking
ĠFrank lin
Ġexper iments
urb ed
Ġstri kes
ĠCo ast
Ġflat s
Ġign ition
Ġskin ned
ĠAnn ette
Ġemploy er
Ġdef ending
Ġcry st
Ġow l
.... ..
Ġpee ked
Ġhunt ed
Ġshar ply
ĠSh op
Ġcarpet ing
ĠAd ams
Ġspread she
Ġcap acity
ĠWil ma
Ġpurp oses
ĠIs a
Ġabs or
Ġdig ital
Ġresemb ling
Ġdim ension
Ġoccas ional
ĠPop pers
plex ed
istic ated
Ġpun ishment
Ġcontest ants
Ġexerc ising
Ġbas is
Ġplain ly
Ġcho king
ĠJay ne
ĠSuper man
ĠLou is
Is n
Ġnap kin
Ġelephant s
Ġfrag ile
Ġfrag ments
ĠMon roe
ĠNegro es
ĠHel p
Ġlin er
Ġreve aling
Ġcrou ch
Go ing
ĠPhil ip
ĠPhil adel
Ġscru ffy
Ġcaps ule
Ġaccord ion
ĠMont ana
ĠAra bs
ĠEliz a
Ġoverfl ow
Ġcowork ers
Ġmob ile
Ġcraft s
Ġnonchal ant
Ġscient ific
Ġpron ounce
Ġstrand ed
Ġrobb ery
Ġfer oc
Ġsoot he
Ġunp acking
Ġcling ing
Ġcolle ague
Ġvend ing
ĠLu ke
ĠLore n
ĠDri ve
Ġrecom mended
Ġcontra st
Ġdefec ate
Ġcher ry
Ġaspect s
Ġchew ed
Ġthorough ly
Ġbol ts
ĠGene vieve
Ġchim ney
Ġphilos ophy
Ġlandsca ping
icard o
Ġloll ies
Ġloung ing
Ġrubb ish
Ġconvey or
ĠSqu are
Ġing red
Ġesc ort
Ab out
Ġroo ft
Ġdiag ram
Ġpubl ished
Ġbould ers
Ġoctop us
Ġply wood
Ġomin ous
ĠLenn on
Dw ight
Ġspiff y
Ġterrit ory
ĠPhiladel phia
" )
B ob
D ar
D erek
G od
I C
S etting
S orry
W ork
W alking
a ign
b ast
b arrow
b asket
c or
c ca
c ont
f r
f ig
l as
l ong
l ife
m ers
m ite
n na
p ill
v als
z art
z ona
Ġ /
Ġt el
Ġt umb
Ġw rigg
in at
Ġs ip
nd own
Ġo at
ing ing
Ġb att
Ġm ing
Ġm im
Ġm ound
Ġm esh
Ġto mb
it able
Ġc ities
er os
Ġf use
Ġf ian
Ġf aking
Ġf isher
Ġf oul
Ġd arts
Ġp ha
Ġp ity
Ġp uffy
Ġp ige
Ġh us
Ġwe eping
ow ers
Ġon coming
id ate
Ġst acking
ic ian
Ġr idden
Ġre ject
Ġu lt
ir o
ĠS un
ĠS ort
ĠA ustin
Ġout s
ĠH U
Ġas pha
op ed
op hane
ch y
ĠM isty
Ġro bber
Ġsh ines
ra ged
Ġj ug
Ġdid dling
Ġcl ipp
Ġcl ues
ca ster
ĠB all
ĠB urn
ĠB rent
ĠB ern
Ġfe ared
ĠD ew
ĠD og
ĠD rew
ĠD ept
ĠD DS
Ġover d
Ġdream er
ĠE nd
ol ved
Ġgu iding
Ġsp ins
Ġsp ons
Ġv oc
ĠF er
ĠF ried
ĠF amily
Ġcha ined
ĠL en
ĠL au
Ġbu ckets
ĠR R
ĠR V
ĠR ain
ĠR ene
ild a
ĠP ut
ĠP ass
ĠP ort
um mer
Ġleft overs
ap h
ap idated
Ġsc ope
Ġhand kerchief
ĠG ard
Ġsl apping
Ġdis ks
Ġwater ing
ath on
Ġend less
Ġsw erve
Ġpr ide
co on
Ġstre aks
Ġatt acks
ĠK it
ĠK ore
Ġsha bby
Ġsha wl
Ġgre ens
Ġgl ances
Ġgl itter
Ġcle are
Ġtr oops
Ġyear book
Ġhair s
Ġcomp ass
Ġcomp are
Ġcor nered
ris e
Ġbath robe
Ġbel ts
Ġhard wood
Ġarm or
Ġent itled
ĠY eah
aught y
Ġcr am
itc hell
Ġstep mother
Ġair craft
Ġpol ish
Ġpast e
Ġpast el
iv an
Ġfire men
Ġdist ribut
Ġvis its
Ġnu mb
Ġquick er
Ġwar ming
Ġsound ing
Ġchar m
ĠWh ich
Ġfoot prints
Ġannoy s
uc ed
uc cess
Ġhotel s
Ġbelie ving
Ġconcer ns
Ġdisc onnected
Ġrow dy
Ġind ifferent
Ġmat ure
Ġ6 8
ivers ary
Ġfact s
Ġspec ies
Ġhur ric
ork y
Ġprop ped
Ġprop riet
Ġz o
Ġins isting
Ġinvol ve
Ġcons ist
Ġru ins
Ġform ula
uff in
Ġboard ed
Ġpresent ing
ĠMe gan
Ġstair cases
Ġpract ical
Ġmention ing
Ġcart s
Ġhope fully
Ġbull s
Ġadm ired
Ġdifficult ies
Ġpian os
ĠBar rie
Ġcharacter istic
Ġpaint ball
Ġcell ophane
Ġlawn s
ĠJe ep
ole um
Ġcoun cil
Ġ________ _
Ġclock s
Ġrespond ing
Ġbother s
Ġhandle bars
Ġstran g
Ġmanage ment
Ġer u
me al
ĠPh ill
Ġrent ing
oss ibly
ĠMill s
Ġsneak ers
Ġjealous y
Ġbeha ve
Ġrehe arse
ĠLake land
Ġdev ast
Ġconsider ably
ĠSha kespeare
Ġwound s
Ġsquir rels
Ġexpress ing
Ġchallen ged
ĠPres ently
Ġsele ct
Ġtit les
ĠPr ince
ĠPr incess
Ġconfront ation
Ġserv ants
Ġlin oleum
AN D
ĠGu y
Ġdescend ed
ĠBoy s
Ġpassage way
Ġscru b
Ġdessert s
Ġwhisper ing
ĠNa ver
Ġplu gs
Ġfant astic
Ġswims uit
Ġintention ally
Ġintellig ence
Ġalb ums
ĠGl enn
Ġswamp y
Ġintent ions
Ġtriang ular
Ġ____________ ___
ĠHu gh
Ġstumb le
ĠBra ille
Ġrearran ged
Ġsketch y
Ġrh ino
Ġcul ture
ĠTar zan
Ġobsc ure
Ġhoney moon
Ġcontra ption
Un cle
ĠFre ud
ĠLeon ard
Bl ue
Ġsatisf action
Ġdil apidated
Ġbru ised
Ġdisting uish
Ġbetray ed
Ġsoph isticated
Ġincor rect
ĠCent ral
Ġrecre ation
Ġprecise ly
Ġunst able
Pe ople
fun ction
ĠWy att
Ġzipp er
Ġbrill iant
Ġconfir med
rofess or
Ġnav ig
Ġachie ve
Ġnons ense
Ġoppon ent
adill ac
opran o
Wor king
slee ved
Ġmos quit
ĠFortun ately
ĠUF O
Ġsympt oms
Ġtimet able
bast ian
Ġoat meal
ĠDDS I
? ,"
A gain
B ig
D av
G E
G rand
L y
M an
N A
O D
O L
T ER
a ults
f i
f ace
h ou
j ack
k ah
l ist
m es
n et
p o
r ant
u ished
v ial
Ã ķ
Ġ ic
Ġt act
Ġw ins
Ġw estern
Ġs hat
re ed
Ġo bey
Ġm int
Ġm ates
Ġm ittens
Ġto n
Ġwa nna
it ations
er o
ed e
Ġf idd
Ġf ainted
ou nder
Ġp amp
Ġp uck
Ġp aternal
Ġp avilion
ut ation
an ked
et ed
Ġon ion
ot y
ot hea
ĠT on
ĠT rou
ĠT ry
ĠT ara
ĠT rue
le en
us se
Ġst ung
Ġst amped
Ġr ul
Ġr att
Ġr ins
Ġr asp
Ġre hab
se c
st ract
ad oes
ĠS itting
ĠS ears
ĠA ugust
Ġfor b
ĠW W
ĠW oman
ĠM ust
ĠM ast
Ġab d
Ġsh one
ra il
ro b
ill ian
Ġpl aster
Ġle ver
ct ob
un ate
Ġcl apping
Ġint act
il i
ĠB ad
ĠB ate
end y
ĠC urt
Ġcom ple
Ġte ases
ĠD ana
Ġbo ld
Ġover coat
Ġde fect
qu is
ul um
Ġdon key
Ġsp aced
Ġrem orse
ĠN ils
Ġv ases
ĠO re
ess ing
ĠF ish
ĠF ido
ĠL A
ĠL and
Ġsit es
est on
est yle
Ġco y
Ġco zy
Ġreal istic
ĠR ee
ĠR onald
ĠR immer
ab by
ĠP an
ĠP ost
Ġpo ly
Ġbr un
Ġpre occup
Ġqu izz
Ġhand led
ĠG ame
Ġun aware
Ġsl ush
Ġsl ats
Ġdis rupt
au nt
od ge
Ġen er
Ġpr ince
Ġpr inter
ary n
ĠK irk
Ġhigh school
Ġjo gging
Ġjo ckey
Ġlight weight
ĠSt one
Ġgra vy
ĠIn n
Ġbre ed
ens ed
Ġlast ed
og en
Ġmar bles
Ġplan ks
Ġad oles
Ġnever theless
Ġmet ers
Ġret ain
Ġinv asion
ank y
Ġinter pre
Ġinter fering
Ġconf irm
Ġexc used
Ġbar gain
Ġbar rels
Ġgreen ish
Ġfour s
Ġcra bs
Ġpat iently
ĠAl ways
ĠAl icia
Ġchar ges
aur ants
Ġelev ated
Ġwheel barrow
cc as
ĠBr un
ĠBr idge
Ġforg ive
ĠMar l
Ġcross word
Ġrecogn ition
Ġtw isting
Ġcop ying
Ġsub s
Ġsub conscious
Ġprop s
Ġcons ists
erv ice
Ġappro val
Ġenjoy ment
ĠFor ce
Ġvar n
Ġdeal ers
Ġpush y
Ġgas p
Ġview ing
Ġburn s
aster n
Ġir regular
Ġintro ducing
Ġban jo
Ġpriv ile
Ġgard ens
Ġextra ord
Ġaccept s
Ġaccept able
Ġant agon
fl ies
Ġeffect ive
ott om
ĠWil son
rel ated
ĠNat asha
Ġsurv ival
ĠMer maid
Ġlu mber
Ġcu bby
Ġcelebr ity
ĠGre ase
Ġbun ches
Ġfu el
Ġdish was
Ġmedic ation
Ġbend ing
Ġuns uccess
Ġtrick y
ĠHar vey
Ġver ge
Ġdent al
Ġlangu ages
ĠMo zart
ĠDel on
Ġrub s
Ġpadd ling
ĠRes erve
Be cause
Ġsele cted
ĠSw ed
ĠMor an
Ġholid ays
Ġcrumb s
Ġeld est
Ġflu orescent
ĠJosh ua
Ġclaim ed
Ġdut ies
ĠAri zona
Ġresid ents
Ġneare r
Ġdrum mer
Ġhyp not
Ġbust ling
Ġembr aced
Ġboom box
Ġscient ist
Ġknob s
Ġdawn ed
Ġfer ret
Ġsoot hing
ĠJac ob
Ġmild ly
Ġprecar iously
ĠEuc har
ĠRh onda
Ġdun geon
Ġsac ri
Ġhaird o
Ġhaird ress
Ġvul ner
Ġpenet rate
ĠMarc ia
Ġarchite ct
Ġfigur ines
ĠStan ley
ĠOl son
Ġange ls
ĠChap man
Ġrepul sed
Ġreserv ation
Ġacknowled ged
ĠSoph ia
ĠLar ge
Ġcoinc idence
ĠHas ani
Ġinspe ction
ĠShan non
ĠHit ler
Ġsteward ess
Ġwhar f
Ġcater pill
ĠBerg man
Ġflan nel
Ġintellect ual
Ġdispens er
ĠTinker bell
Ġvic inity
Ge orge
Ġpert urbed
quaint ance
Ġunconcer ned
Ġingred ients
Ġfian c
Dav id
ctob er
ĠBate man
Ġdishwas her
) ."
2 6
B uffy
D I
D riving
G inny
I VE
J ake
O k
R em
T ake
W endy
b ul
b ound
b read
b roken
c am
d ney
e z
h ire
i h
k now
l ady
l ance
n ik
r as
s er
t ons
t aking
t ray
v ard
v able
Ġt uck
Ġa uction
Ġs an
Ġs unk
Ġthe r
Ġb athe
Ġwa de
it iz
Ġf ri
Ġf ate
Ġf ade
Ġf urt
Ġf ading
Ġf ucking
Ġd om
Ġl ur
Ġl isting
Ġp all
Ġp ane
Ġp itched
Ġp atted
ar l
or ig
ĠT or
ĠT ow
at u
le gged
ac ha
ĠThe a
Ġst em
Ġr ash
Ġr aced
Ġre fere
Ġre ins
Ġre cept
Ġre imb
Ġre wind
ke red
Ġe el
oo h
oo s
ir s
ad ies
ĠS a
ĠS ing
Ġgo ss
ri el
ri ers
Ġup town
Ġfor cing
Ġk it
Ġout skirt
ĠH or
op oly
ĠM ath
ĠM ob
ĠM itch
ĠM aster
ion ed
Ġab stract
Ġso il
ra w
Ġj azz
Ġwhe at
Ġpl un
ĠB ee
Ġta pping
Ġfe nder
ĠC C
ĠC PR
ĠC adillac
Ġgot ta
ĠD ustin
Ġhouse hold
Ġde jected
ast on
ĠE agle
ol a
ol n
Ġsp ed
Ġsp onge
iz ers
Ġbl ob
Ġbl oke
Ġmo ist
Ġfl ick
Ġfl aming
Ġv and
ĠO s
ĠO dd
ĠO ctober
ĠF ur
ĠF ood
ĠF ive
ĠF illion
Ġcha mber
ĠR icardo
Ġch ores
ĠP ear
ĠP robably
ous ing
Ġke en
Ġpart ed
ag an
Ġbr ushes
ru bs
Ġsc he
Ġsc ored
Ġkind ly
Ġhand ling
ĠTh ink
Ġun ravel
Ġsl ave
Ġsl ither
Ġdis liked
Ġopen ly
Ġpro stit
ran ce
Ġen s
Ġsw arm
act ica
Ġsort ed
Ġafter ward
ĠK ie
ĠK ath
ĠK aryn
Ġche f
li a
ĠSt and
Ġgra in
Ġsho ving
ĠAt t
Ġcomp aring
Ġper plexed
ens on
Ġrest aurants
Ġmar athon
ĠCh op
Ġad am
Ġad apt
Ġaw ning
Ġred o
Ġcr unch
Ġcr usty
att lest
Ġinst alled
ĠU te
-- --
Ġacc um
Ġinter ven
Ġinter action
up on
Ġann iversary
Ġupset ting
Ġfast ened
Ġser mon
Ġexc l
Ġbar ber
ĠJo anne
Ġwar ns
Ġpat ron
Ġtrou bles
Ġpres cription
Ġed itor
head s
ĠAl ain
ove mber
Ġfoot ing
Ġboyfriend s
sp ons
Ġcur ling
Ġrep utation
Ġstr ay
Ġstr ate
Ġarri val
Ġdisc oura
ĠBr idget
ret ched
ĠMar lene
Ġtw enties
Ġart work
Ġexp ressed
Ġrain bow
Ġcamp aign
Ġra is
Ġpleas urable
Ġcons erv
Ġru ndown
Ġgrand children
cl uding
Ġshut s
Ġbusiness es
orn s
Ġsetting s
Ġsil hou
ĠDe ath
ange line
Ġdou bles
ĠDor othea
ograph ic
Ġwheelchair s
Ġcart oons
Ġgrow ling
Ġperform er
Ġtor so
Ġsne aked
ĠCar la
Ġphys iology
Ġbur gers
ĠDr um
Ġpet ted
Ġcirc uit
hel p
Ġbutt ocks
Ġsweet ly
Ġfinger nail
Ġoppos ing
Ġpsych ological
Ġlecture r
Ġmark ers
Ġstorm y
Ġsens es
ex cept
Ġmur ky
ĠDon na
Ġengine er
ĠDav is
Ġprodu cer
inc oln
Ġresemb le
Ġcontact s
Ġperiod s
Ġobser ved
Ġsupport ed
Ġcompet ing
Ġroller bl
Ġdistract ion
Ġfresh ly
Ġpun ished
Ġcudd led
Ġheight s
Ġparticip ant
ĠCom pany
ĠEx cept
Ġstro king
Ġfoc using
Ġfurious ly
Ġspo ons
ĠNick i
ĠVal entine
Ġpist ols
Ġcheer fully
Ġwaste basket
ĠSha wn
ĠCol umb
Ġglo be
ĠMon opoly
ĠCla ude
Ġfabric s
Ġtrim med
ĠRose mary
Ġcrumb le
Ġdisp osal
Ġpajam a
Ġturt les
Ġofficial s
ĠMin ister
Ġliter ature
Ġess entially
ĠMad onna
ĠMad den
Ġchuck led
ĠTw ilight
Ġstool s
Ġincre ase
Ġrevol ution
ĠSher man
Ġge ography
bet ween
Ġpersu aded
Ġthous and
Ġembr acing
ĠMarian ne
Ar rested
Ġstir ring
Ġobserv ation
whe el
whe eler
Ġcorre cted
Ġpud ding
Ġcateg ory
Ġcyl inder
Ġrare ly
ĠKent ucky
ĠSaw yer
ĠDra ke
Ġcass ette
Ġornam ents
Ġcris is
Ġarchite cture
Than k
Than ks
Ġinflu ence
ĠOb viously
Le ave
ĠBa iley
Ġconduct ing
Ġgenuine ly
Ġhym n
ĠCra ig
Ġvir us
ĠLes lie
Paul ina
Ġexecut ive
ĠAT M
ĠMade lyn
doll ar
ĠRebe kah
ĠFore st
ĠSuz anne
Ġmagg ots
ĠOt is
Ġsuspic ion
Ġlob ster
Ġec st
Ġorang es
Ġstead ily
Ġmoust ache
ĠGro cery
ĠKyl ie
Ġswo llen
thod ox
Ġcryst als
Ġtel es
Ġaspha lt
Ġhurric ane
Ãķ s
Ġabd omen
Ġbrun ette
Ġvulner able
Ġreimb ur
Ġgoss ip
Ġoutskirt s
attlest ar
2 7
A Y
A ctually
J oe
L ittle
N S
O f
P l
c use
c ool
d ings
g ent
g lass
l ooks
m ag
n uts
p ower
r ome
r ots
s kin
t an
t led
u ate
v i
v at
v ous
Ġt umble
Ġw is
Ġw rought
Ġw iring
nd ler
re amed
Ġo str
Ġb ake
Ġb amb
Ġm u
it ating
er ting
Ġf ans
Ġf ulf
Ġf aders
Ġl bs
Ġl oses
is ha
Ġp p
Ġp harm
Ġin e
Ġin her
Ġin fer
Ġin ex
or p
Ġh ilar
ut ch
an se
an gs
Ġth irt
ĠT old
Ġn aughty
Ġbe aring
Ġbe aded
Ġst out
Ġst akes
Ġme llow
Ġre wr
ent ation
st ered
ĠS er
ĠS ere
ĠS uther
ĠS elena
all ic
Ġbut ts
ur d
Ġwh it
ĠH i
Ġdo pe
Ġdo zens
op ing
Ġher d
ĠM uri
ĠM itchell
ĠM uffin
Ġy anked
ro se
ill er
ust ered
un ken
Ġcl um
Ġcl ump
ca le
Ġal armed
ĠB E
ĠB ert
ĠB ond
ĠB udd
ĠB ldg
ĠThere fore
Ġpe op
Ġpe ering
Ġpe aches
Ġpe eled
ig an
Ġcar amel
ie ces
Ġthin ner
ĠD a
ĠD un
ĠD ell
ĠD awn
qu ets
ul s
Ġex otic
Ġdon ate
iz able
ĠN ovember
Ġv ain
Ġv ial
ĠO lie
ĠF ro
ĠF ound
ĠF ield
ĠL ister
ĠL oc
ĠL ang
ĠL incoln
est ic
ĠR el
ĠR igo
ud ged
Ġch icks
ĠP lease
ĠP ascal
ĠP rofessor
ne ck
ff it
Ġpo d
ag ues
Ġbr at
Ġplace ment
Ġdri fting
ru ck
Ġsc al
ĠG us
ĠG ord
ĠG etting
Ġsl icing
Ġdis order
Ġwater front
Ġclass ic
Ġstre ams
ak ers
Ġatt ire
ĠK ind
Ġwait ers
Ġsha dy
Ġcont r
Ġcont ribut
?" ]
Ġgr oo
Ġdr unken
Ġtr icy
Ġcomp ound
Ġcat cher
Ġcat hedral
Ġpass ages
ĠCh ild
ĠV is
ĠV ader
Ġmet allic
ĠU P
Ġcre ativity
ount ing
sh ire
Ġinter mission
Ġdist orted
aut iful
Ġser ial
ah l
Ġemb ro
Ġhop eless
Ġed it
Ġlive ly
Ġfoot steps
ib ilities
ĠBe eth
Ġrep airs
Ġass ass
Ġref using
Ġconcer ning
Ġcomm ander
Ġdraw s
Ġsad d
Ġstation ery
Ġmat s
Ġtw ists
Ġsub d
Ġexp anse
Ġrain s
Ġprop el
Ġround s
Ġfore man
Ġstraight ening
Ġdi ves
Ġdel icate
Ġdep ot
Ġdep ending
Ġpos ing
Ġsun burn
Ġtick le
Ġposs essed
ĠSe bastian
Ġremind ing
Ġconne ctions
ĠDe c
Ġloc ations
ĠCo ll
Ġcart ons
Ġbelong ing
ĠCl ar
Ġdef l
Ġpot ty
Ġsne ers
Ġapolog y
Ġdescri pt
Ġgro an
Ġgro ggy
ĠBl ock
Ġpee ks
Ġobs essed
ĠSc ully
Ġoper ated
Ġtext book
Ġund o
Ġshout s
Ġkitt ies
Ġalley s
Ġcap ital
Ġscra ped
Ġadv ised
Ġnorth west
ĠCenter ville
Ġfeed back
Ġscrew ing
ĠFl ags
Ġscen ario
che v
Ġmod els
ĠEr in
Ġpriest s
for ce
Ġfac il
Ġrap id
Ġtooth brush
Ġstring y
ĠJeff rey
Ġcomfort ed
Ġpray ed
Ġune m
Ġdod ging
Ġsuspicious ly
ĠHar old
ĠHar rison
Ġeff orts
ĠCha ndler
Ġharm ful
Ġparticip ants
Ġver se
Ġscrat ching
Ġsymp ath
Ġrot ating
Ġboun ces
Ġnap kins
Ġveget arian
Ġindivid ually
Ġadvert ised
Ġhelicop ters
Ġagg ress
ĠDean na
nes ota
ĠRet urn
Ġexplos ions
Ġshel ving
Ġspr ings
Ġpadd ed
Ġflirt s
Ġencount ered
Be fore
Ġaffection ately
Ġprim ary
Ġmemor ial
ĠRon nie
Ġgall ons
Ġgener ous
Ġprevent ed
Ġreplace ment
ĠEaster n
Ġvolunte ers
Ġimpl ies
Ġinsist ent
Ġentertain ing
Ġinvestig ating
ĠTr acy
Ġsympathet ically
aron i
ĠHa ving
ĠAri ana
Ġsuff oc
Ġspark ling
Ġunw illing
Ġtransport ed
Ġvent ure
Ġcri pp
Ġappli ances
ĠHawai ian
Ġindust ry
Ġrag s
Ġrag ged
Ġaddition al
hell o
Ġembr aces
Ġbrid al
Ġbroad cast
Ġverb al
fact ory
Ġrig id
Ġrum m
ĠMil o
ĠLore tta
Ġharass ing
ĠSteven son
Ġtablecloth s
Ġash tray
Ġautograph s
ĠMcC art
Ġfixt ures
Ġstain s
Ġglare s
ĠĠĠĠĠĠĠĠĠĠĠĠĠĠĠĠĠĠĠĠĠĠĠĠĠĠĠĠĠĠĠĠ ĠĠĠĠĠĠĠĠĠĠĠĠĠĠĠĠĠĠĠĠĠĠĠĠĠĠĠĠĠĠĠĠ
Ġsway ing
ĠCru z
Ġber ries
Ġlimb s
Ġrust ic
Ġrevers ed
ĠBritt any
ĠBro ck
ĠJun ior
Ġreminis cent
ĠGab riel
Ġmarking s
Ġbaw led
Ġconsequ ences
Ġexchang ed
Ġtoothp aste
Ġlux urious
ĠIre land
Ġwithdra w
Ġunh urt
Ġflowerbed s
ĠNichol son
ĠUs ually
ĠCommun ity
Ġbage l
ĠGal actica
Ġspar ks
Ġflex ible
ĠOp rah
ĠKings ley
Ġmac aroni
Ġhal ter
Ġcob we
Ġunbut ton
Ġestab lish
ĠLan caster
Ġdimens ions
Ġgymnastic s
ĠCase y
Ġskyscra per
ĠCos by
Ġspreadshe et
Work er
ĠMast ers
ĠCurt is
Ġbamb oo
ĠSuther land
Ġclum sy
ĠBeeth oven
% .
0 9
1 000
4 00
5 5
? !
B A
B r
B ack
G rey
H uh
L ong
L ooking
U p
U PC
W ould
b a
b est
b umps
c ure
c ile
c ards
e at
f ers
f amily
g ins
m os
m itt
m aster
p han
p ared
t oo
t ails
t rack
u ously
w on
y our
z one
Ġt iring
Ġa er
Ġa venue
he ster
Ġw icked
Ġw icker
in ner
in nam
ĠI ng
ĠI ron
Ġthe ft
Ġo o
ing o
Ġb id
Ġb ins
Ġm outhed
Ġto nes
Ġwa g
ha ki
it an
Ġc ore
Ġc ured
Ġf umble
Ġd ot
Ġd oo
Ġwas ted
Ġl an
Ġl itt
Ġl icked
is ance
Ġg angs
Ġp ing
Ġp ione
Ġin ade
Ġin fection
Ġin ev
Ġh oo
an or
et rack
Ġon ions
ot nik
id i
ĠT imes
ĠT eller
at able
Ġn oo
Ġn erve
Ġbe et
Ġbe ad
Ġbe ers
ic an
Ġse wn
st ar
ĠS ir
ĠS ty
ĠS ometime
ĠS ookie
ly de
ĠA ren
ri x
Ġbut ler
Ġup tight
ur oy
Ġout ing
ĠW right
ĠM u
ĠM em
if iable
Ġso le
Ġfr ank
Ġro les
Ġpl um
Ġpl ush
Ġam mun
un s
Ġall erg
ĠB and
ĠB au
ĠB ear
ĠB ang
omet er
Ġta ping
Ġroom ing
ĠC ong
ĠC ooper
Ġcom ics
Ġsu ction
Ġsu ffic
ĠD i
ĠD oc
Ġover cast
Ġde od
ast ed
Ġex asper
Ġex quis
Ġsp out
Ġsp az
Ġsp itting
os er
Ġbl imp
Ġbl uish
Ġmo le
Ġfl our
Ġfl att
Ġv es
ĠO z
Ġdoor ways
ĠF ree
ĠL in
Ġlo aves
Ġch ords
ĠP L
ĠP ic
ĠP ower
ĠP ope
ĠP enn
ĠP rim
ĠP eps
Ġpart itions
pe ople
Ġqu otes
ĠG inger
Ġun in
Ġun ke
Ġsl umped
Ġrun ner
Ġdis ci
Ġwater mel
Ġshow ering
int end
Ġevery day
Ġsw earing
Ġapp et
Ġhead phones
Ġph r
Ġbus hy
ĠK ey
ĠK atherine
ĠK hr
ĠK otnik
ĠSo ciety
Ġsha rd
Ġel im
Ġpull ey
Ġtop ics
Ġran k
Ġgl ued
Ġgra ffit
our s
Ġcor al
ens es
ens ity
Ġsn ugg
Ġsn iper
Ġ3 1
Ġkill ers
Ġpar an
ix ed
ix on
ĠV ol
Ġcr ushing
Ġcare less
app arently
Ġdra gs
ĠU N
Ġinv aded
Ġinv ented
Ġwood work
ush chev
Ġpol ished
Ġpain s
imb er
ons in
sh it
Ġinter com
Ġ4 8
Ġser ver
Ġob tain
Ġconf ession
Ġhor ny
Ġnu isance
uck oo
ey e
ang le
Ġmus k
Ġhop ped
ĠAl shire
Ġstra pped
ĠAll ure
ĠAll ison
Ġfight s
Ġfight er
Ġrep orting
Ġass uming
ĠBill ings
Ġple ad
Ġreco vered
Ġreco vering
etc hes
cc oli
Ġmor p
Ġsnow ball
Ġext ends
ĠMar ge
Ġsy nt
Ġtw itch
na ire
Ġla unch
Ġprop osal
Ġorg y
Ġdel ete
Ġdep ression
Ġexam ples
cl othes
irth day
Ġvisit or
Ġquestion naire
Ġshut ters
ĠSe gel
Ġbow s
lo ad
Ġrad iation
Ġband ages
ĠPaul ette
Ġwra pper
Ġwra ppers
Ġbright er
ĠRo ll
res pect
Ġhum id
ray er
Ġperform ers
Ġtor rent
Ġsle ek
Ġsle azy
Ġadm ires
work ers
Ġboss es
Ġpet als
ĠBen ny
ĠBar ney
Ġpregn ancy
Ġletter ing
Ġentran ces
Ġcapt ive
Ġlawn m
Ġpage ant
Ġport ra
Ġtast ing
Ġant lers
Ġgarden er
ĠWest land
Ġstorm ed
Ġund ies
gy pt
Ġactiv ate
Ġsou ven
Ġscra ps
ĠAsian s
Ġswitch ing
Ġpin ched
Ġpil ots
Ġpretend s
Ġneg ot
Ġcent ered
Ġactual ity
ĠOr thodox
Ġreport ed
min ate
ĠCa feteria
Ġbun ks
Ġreact ed
Ġawkward ly
Ġtail s
Ġbutter flies
Ġdial ing
Ġdial ogue
Ġintim ating
Ġcord uroy
ĠPl ain
Ġsof as
Wh ich
Ġrepair ing
Ġtig ers
Ġbeard ed
ĠCle ar
Ġchallen ging
Ġsequ el
Ġchop ping
Ġstock y
Ġdrag ons
Ġwrit ings
Ġcred its
Ġden ied
Ġmemor ize
Ġprov oc
Ġsen iors
ĠEv angeline
Ġbullet in
ĠTer rence
Ġri ot
Ġslop ing
Ġkidn ap
Ġrac ist
ĠMor ris
AT IVE
ĠAc quaintance
Ġconcent ration
ĠAlex is
ĠMin nesota
Ġnail ed
Ġburst s
Ġess ays
Ġlesb ians
Ġflag s
Ġwitness es
Ch uck
Ġpant ry
Ġrevol ver
Ġexec uted
Ġscan ner
ĠInt ern
Ġterror ists
Ġdy ed
Ġque asy
isc onsin
Ġske pt
ota pe
Ġbik er
Ġmold y
Ġfrost ed
sc reen
Ġmanip ulate
ĠZe b
Ġpron ounced
Ġresent ful
ĠAir port
Ġscrap book
Ġfen cing
Ġexist ence
Ġfare well
Ġcivil ian
Ġstroll er
Ġconce al
Ġtort ured
Mar issa
ĠNY C
ĠKrist y
Ġslab s
ĠEnt ourage
Ġfigur ine
ĠSmall ville
Char la
ĠOb ama
ĠBritt a
Ġpup ils
ĠSy dney
ĠBrook land
Ġpengu in
ĠCart wright
Ġarc ade
ĠGee ks
Fire fly
ĠWind ows
ĠOri ental
Ġuphol stered
Ġvig or
ĠOcean side
Ġadministr ator
Ġeconom ics
norm al
ĠRest aurant
Ġcrum pled
Ġastron aut
Ġredec or
Ġcamps ite
Ġferoc ious
Ġrooft op
ĠLau rie
Ġpropriet or
Ġener getic
Ġadoles cent
Ġfianc Ã©
ĠPear l
Ġhilar ious
innam on
ĠSty rofoam
Ġammun ition
Ġdeod orant
Ġexquis ite
ĠPeps i
ĠKhr ushchev
Ġgraffit i
' )
. ).
0 3
3 00
A li
C o
D D
D r
D oes
E G
F C
J im
L ike
L ots
M CA
N O
N ate
N OT
N ext
P edro
Q u
T e
T oo
Y a
] ".
b an
b our
c ot
c ur
c omes
d rop
f ive
g ame
g ia
h i
h o
j ar
l im
l if
l ove
m ill
p as
p ossibly
r ong
s is
t ained
u ment
u be
y ellow
Ġ 0
Ġ utter
Ġt ul
Ġt amp
he less
in est
in ters
in cluding
ĠI S
nd el
Ġb usted
Ġm and
Ġm asc
Ġto urn
it ars
it ially
Ġc itiz
Ġc innamon
Ġd aw
Ġd well
Ġd agger
om ers
om fort
Ġg am
Ġg al
Ġg rie
Ġp ent
Ġp el
Ġh iring
ut ting
an n
et heless
Ġhe ating
ot hed
ĠT ot
ĠT urt
ĠT reat
Ġr ips
Ġr ider
Ġr ipe
Ġr ipping
Ġr ambling
Ġre fe
Ġre app
Ġre form
Ġre play
ay ne
im ming
al i
ir able
ent ric
st ed
st ri
st ill
ĠS oprano
Ġli ber
ĠA P
ĠA S
ĠA ma
Ġgo ate
Ġup coming
Ġan ten
Ġk haki
Ġout come
ĠH on
ĠW on
ĠW ild
Ġas pir
Ġsa ucer
ĠM Y
ĠM ather
ĠM UPC
ion a
ĠHe idi
Ġso iled
ter m
ge e
Ġro aring
Ġsh uff
Ġsh rim
Ġne ared
Ġj umbled
Ġloo ps
ill as
ill age
Ġpl umb
Ġle ery
Ġback room
un a
un ched
Ġcl ap
Ġcl icking
Ġcl apped
Ġcl umps
Ġint eg
ca ine
ĠB B
ĠB an
ĠB rett
Ġfe ars
Ġhis sing
Ġpe ep
Ġman hole
ĠC ould
ĠC athy
Ġcar rots
Ġte al
Ġsu e
Ġsu nd
Ġoff ense
ck o
ĠD em
Ġdream work
Ġex h
Ġex its
Ġex agger
ĠE gypt
ol is
Ġgu itars
Ġsp erm
Ġbl amed
Ġbl aze
Ġfl apping
ĠN ixon
ĠJ ungle
Ġsm ir
ĠL os
ĠL owell
ĠL adies
Ġbu gging
Ġco arse
ĠR d
ĠR ather
ĠR ouse
Ġch ore
Ġch ord
Ġch ron
ĠP re
ĠP ont
ĠP ink
ĠP ayton
ous y
ous in
pl et
Ġpo ems
ag na
ĠG all
ĠG oose
ĠG aston
Ġun b
Ġun ison
Ġschool mate
ell ed
ell ery
Ġrun g
Ġdis respect
Ġbeing s
here nt
int o
ran e
Ġclass y
act s
han na
Ġpr ick
co ck
co llege
Ġmay or
Ġstuff ing
Ġtra ps
ĠSo cial
Ġhigh ways
Ġjo g
Ġgre ater
Ġgre ase
gg ie
Ġgr am
Ġgr udging
Ġdr ool
ĠSt ation
ĠSt oner
Ġgl am
Ġ-- -
ĠIn c
ĠIn itially
Ġsk etches
ert o
Ġcomp osed
Ġper ce
ress ing
Ġap olo
og an
og ler
Ġ3 4
Ġem ission
ĠCh oir
Ġcol oured
ix ie
ĠV en
ĠV ance
ĠY vette
ĠY MCA
Ġkiss er
Ġcr own
Ġcr ust
Ġinc idents
Ġdra ining
Ġfun ky
Ġret ired
Ġcre ates
Ġtri pping
Ġmin ivan
Ġpol ka
Ġbook let
Ġfire man
Ġfire fight
Ġinter state
Ġglass ed
Ġear n
ey ed
Ġroll ers
Ġwar mer
ord ing
Ġtre k
Ġguess ing
Ġtrou pe
Ġhop ping
ys is
ike l
Ġcrow s
Ġrock ets
Ġbro ccoli
ĠBe cket
Ġrep et
Ġass isting
Ġple aded
Ġref und
Ġwheel ed
Ġmor al
Ġsad dle
Ġind ul
ĠMar ch
Ġsy ringe
Ġreg ist
ony a
Ġspec im
Ġwindows ill
Ġ8 5
Ġcab les
Ġincl ined
ĠSp ark
Ġru ining
Ġpri zes
Ġdep art
Ġ9 6
Ġ9 9
Ġfat ig
ĠAr k
ĠAr nie
Ġpan cake
Ġmoment arily
Ġhat es
Ġcontinu ously
Ġroof s
Ġsent iment
Ġenjoy able
Ġconc ession
Ġflow s
ĠZ omb
de al
ĠDe b
Ġlow est
ĠCo ach
Ġsal mon
Ġpress es
ĠLy nch
ĠWill is
Ġ19 4
Ġ19 9
Ġtrans action
Ġav al
Ġow ed
Ġadm iration
Ġhunt er
ĠNot ice
Ġsuper her
ĠSh oot
Ġspl itting
Ġpriv ately
ĠCD s
ĠEd ith
Ġant i
Ġsight s
Ġshore line
Ġdest ro
Ġund one
Ġinterview s
Ġdiv iding
Ġer ased
Ġmur m
Ġlim ping
Ġmis chie
Ġinj uries
Ġresemb lance
Ġcru c
Ġcontact ed
Ġrequ ires
Ġassist ance
Ġiron ic
cul ine
Ġdu et
ĠNorm a
Ġlog ical
Ġbi king
Ġdial ed
col m
Ġfail ure
Ġboun cy
pan ic
ĠQu in
Ġrit zy
ĠSl ick
Ġexhib ition
Ġdoub ts
ĠYear s
athet ic
Ġaband on
ĠCarol ina
Ġinse cure
Ġcock y
Ġlin ens
Ġtechn ique
Ġwha cked
Ġalt itude
Ġmagn et
ĠAlex ander
ĠMin ikel
Ġscru bbing
Ġsed uct
pr oof
Ġinfl atable
Ġgrin ned
Ġentry way
Ch rist
ĠTw ice
Ġexec ution
Ġscan ning
Ġshovel ing
pre pared
Ġsuff er
Ġvibr ating
Ġlas agna
ĠKar l
Ġswirl s
Ġstere oty
omed ay
Ġoverwhel ming
Ġjer ked
Ġlun ge
Ġlun gs
Ġbrides maid
Ġdrift ed
Ġfasc inating
ĠBra un
ĠJu an
Ġresol ve
Ġspect ators
Ġflee ing
ĠLo is
Ġdram atically
ĠAnge les
Ġinsert ed
Ġnicke ls
ĠLaw rence
Ġsniff ing
Ġdisagree ment
Ġbou quet
ĠJud ith
ĠCourt ney
Ġginger ly
Ġhaul ing
Ġmarsh mall
Ġemer ge
Ġtrump et
Ġunders ide
Ġunexpected ly
Ġsaus age
eron ica
Ġtab let
ĠClo oney
ĠNever theless
OC I
Ġaston ished
Ġatom ic
ĠGram my
Ġrav ine
Ġunmar ried
Ġtuxed o
mad ge
Ġintr ud
ĠComm union
ĠTal madge
Ġrump us
pposed ly
Ġcler ks
Ġador able
Ġzo omed
Ġcaterpill ar
Ġfurt hest
ĠKie fer
Ġadam ant
Ġostr ich
Ġpeop les
ĠBau er
Ġparan oid
Ġlawnm ower
ĠTurt le
Ġrefe ree
ĠPont iac
ĠBecket t
" ).
. -
2 8
3 9
5 6
B ag
D C
D F
E l
H ouse
H appy
I R
P at
Q ue
S P
T ell
W hile
b ob
b acks
b eth
c art
c co
e very
e ither
f at
f illed
h og
l ots
m or
m ma
n ne
o qu
o be
p in
p her
p ol
p ress
p res
s al
t t
t ies
u fact
v d
v age
Ġt we
Ġa rose
he imer
Ġw rench
in fe
in side
ĠI ce
re c
Ġo l
Ġb ast
Ġb ash
Ġb raid
Ġb ashed
Ġm ower
Ġm erry
Ġwa ry
ha ve
ha lf
it zer
Ġc av
Ġd ick
Ġd unk
Ġd ivers
Ġd ucking
Ġl ord
is ms
Ġg er
Ġg el
Ġg ul
Ġp he
Ġp uff
ar ound
Ġh inting
Ġh uts
Ġh ints
Ġha ught
Ġha uled
an ting
ĠT ris
ĠT alk
at re
Ġn apping
us cript
Ġst al
Ġst inky
Ġst ilts
Ġr ational
Ġr ays
Ġre bell
Ġe erie
ĠS en
ĠS out
ĠS ound
ly ss
ĠA B
ĠA C
ur ches
Ġthere after
ĠH oo
ĠH arm
Ġdo e
Ġdo cks
ĠW ow
ĠW DF
Ġas sh
ĠM E
ĠM ey
Ġ" $
Ġor phan
ter ing
Ġfr is
Ġsh ined
Ġnot ep
one ll
Ġpl op
Ġle ot
Ġkn itted
ĠB L
ĠB ran
ĠB ank
Ġta unting
Ġpe bbles
Ġman agers
Ġman ufact
Ġman uscript
ĠShe lly
ĠC ant
ĠC oming
Ġ( ?
Ġ( ?).
Ġoff end
ĠD all
ĠD ale
ĠD enny
ĠD airy
ĠD ilbert
Ġover s
Ġover grown
ort heast
Ġde an
Ġde als
Ġex ting
Ġex ped
Ġex tern
ĠE ver
Ġdon uts
Ġgu lly
ĠAnd ers
Ġsp ine
Ġsp here
Ġwhere upon
Ġbl unt
Ġfl abby
Ġfl ustered
ĠN ote
ĠO range
ist en
ĠL ab
ĠL em
ĠL ana
est e
Ġco caine
Ġlo d
Ġag ents
ĠR ival
ĠP f
ĠP ast
ĠP ub
pl aces
ff old
Ġpre v
Ġqu ar
Ġsc ur
Ġsc out
Ġsc ars
Ġright eous
ĠG ib
ĠG wen
ĠTh or
ĠTh uy
Ġun int
Ġun real
Ġun fortunately
Ġsl ur
Ġsl ugs
Ġdis bel
Ġopen er
Ġshow ered
Ġwo ven
Ġwalk ways
Ġtow ing
co x
co aster
Ġfin als
Ġtra um
ĠK ul
ĠK ogler
Ġjo ints
Ġblack s
Ġgr as
Ġgl iding
Ġstore y
Ġstore ys
Ġtr oop
Ġchild ish
Ġcor k
Ġcor pse
Ġrec ed
Ġap ric
Ġres ume
Ġres erve
vel ed
Ġ3 6
Ġ3 8
Ġ3 60
Ġplan ting
ĠV iv
ĠV ision
Ġcr ooks
Ġcr ude
Ġinc on
Ġinc ome
Ġcount y
Ġey ed
Ġdra ined
Ġtri ple
ident ally
form er
Ġinter nal
Ġinter rog
Ġinter tw
Ġsqu irting
Ġtown house
Ġev ade
Ġgun k
oc aly
uck ily
Ġdead ly
ph one
ph ony
Ġpat hetic
erest ing
Ġpres ently
az ing
Ġinterest s
Ġsca ffold
Ġchar red
Ġhusband s
ĠPe gg
Ġannoy ance
Ġbelie f
Ġdisc omfort
Ġsnow board
olog ram
Ġtw ilight
Ġempt ying
ĠHer m
ĠHer man
Ġart if
Ġsuit able
Ġexp ense
Ġra ffle
Ġround ing
Ġfree ly
Ġve in
Ġmain land
Ġcons ol
Ġdi pped
Ġteam mates
Ġgrand daughter
gu y
ĠGrand father
oint ed
Ġpan es
Ġvide otape
ĠSe c
ĠSe infe
joy ed
Ġnarrow er
Ġprog ressed
ĠMe g
Ġband aged
Ġband its
Ġneck s
Ġmed s
Ġprof it
ĠDe bbie
Ġeng ulf
Ġfil med
Ġgas oline
ĠRo x
Ġallow s
Ġsmo kes
Ġsmo ky
Ġpost card
Ġproject ed
Ġdirect ors
Ġir re
Ġchat s
Ġequ ivalent
Ġmist y
Ġdecor ation
Ġcell o
Ġsuper vising
Ġspl ashed
Ġban ner
let t
Ġsea weed
Ġcig ars
ĠGe or
Ġsmell ing
Ġpsych o
ĠEd uc
Ġaff airs
Ġforest s
Ġsol ved
ĠAd rian
Ġcomb ing
Ġlim ited
Ġlaw s
Ġthr ust
Ġattend ance
Ġcustom s
Ġconscious ly
ĠSm art
Ġdem ons
ĠEric a
Ġjew els
Ġjew ellery
Ġmel ody
Ġappoint ments
Ġbun s
Ġtail or
ĠDoug las
ĠChe v
ĠChe er
ett le
Ġbul ky
ĠWal t
Ġthank ful
Ġmechan ics
ĠLou ise
ĠCom ic
ĠHan ks
Ġaccess ories
Ġtech nic
Ġstro ked
ĠBo ard
ĠBo bbie
Ġveget ation
cut ed
Ġspo il
Ġmajor ity
Ġinit iated
onne ct
Ġlic ence
Ġglo omy
Ġboo st
Ġindividual s
Ġwrit ers
Ġdum my
Ġwel coming
Ġslop ed
Ġslop es
Ġrac quet
Ġtechn iques
ĠUS A
Ġoven s
ĠJew el
Ġwitness ed
Ġsail boat
Ġdefe at
Ġdesp air
sk im
Ġfle a
Ġsuburb s
Ġwhist ling
Ġrepresent ing
Ġrepresent ative
Ġspark ly
Ġribb ons
Ġwre cked
Ġvom iting
Ġdisag reed
Ġappla use
Ġcritic izing
Ġadvent ures
Ġdoubt ful
Ġjer ky
Ġallig ators
Ġwrink les
Ġgraph ics
Ġdiamond s
Ġresol ved
Ġvend ors
Ġspect ator
Ġobl ong
ĠSub way
Ġperman ently
Ġmumb les
Ġmumb led
Ġmumb ling
Ġeyel ashes
ĠEle anor
uman n
Se veral
ĠStud ents
Ġcher ries
Ġflop py
por ary
Ġcooper ate
Ġut ens
Ġbind ers
Ġreprimand ed
Ġroyal ty
Ġgren ades
Ġsoph om
Ġacceler ator
Ġteleport ed
dog s
Ġmol est
ĠCI IS
Ġpursu ing
Ġemer ged
ĠCed ar
Ġincons p
Ġcockro ach
Ġcylind rical
ĠCass andra
Ġfet al
Ġnyl on
ĠWall ace
Ġcray ons
Ġreno vated
Ġunident ified
Ġsubt ly
Ġradi ator
Ġbefriend ed
ĠSU V
ĠNARR OW
ĠOli via
Ġobli vious
Ġdischar ged
Ġtrape ze
Ġbitter ly
Ġtelep ath
Ġhamm ock
Ġfisher man
Ġpha se
Ġcleare r
Ġshat tered
Ġfidd ling
Ġrul er
Ġpreoccup ied
Ġconserv ative
ĠLoc ke
Ġscal p
ĠGord on
Ġunem ploy
Ġnoo b
Ġallerg ic
Ġunke mpt
Ġphr ases
Ġmorp hed
ĠPlain view
Ġskept ical
Ġtourn ament
Ġanten na
Ġshrim p
Ġplumb ing
ĠTris ha
ĠHarm ony
Ġexped ition
ĠGib son
ĠSeinfe ld
. (
. --
D arry
D amn
E P
F l
H S
I G
I M
K e
N ah
O ut
P o
T oday
U R
a vers
c ro
d is
d amn
e le
f ice
g ical
g old
g rim
h ors
i antly
m ith
m For
m inton
p ro
p ical
p rop
p orate
r ine
t ion
t aker
u k
v or
w arf
z ards
z illa
Ġ Â
Ġt v
Ġt ying
Ġt icking
he nd
he ld
he art
Ġw olves
Ġs omeday
nd as
re ally
re ated
Ġb ri
Ġm es
Ġm oth
Ġwa res
er oy
ed y
Ġf ib
Ġf ists
Ġd ar
Ġd ild
Ġd itched
Ġd une
Ġl l
Ġl umpy
Ġg ur
Ġp ail
ar i
ar lett
or ice
Ġh ologram
an ny
es y
Ġwe ave
Ġhe d
ow ered
ot er
Ġth ief
Ġth orns
ĠT urk
at ches
at ics
Ġn aming
le igh
ac car
ĠThe atre
Ġst itch
Ġmy st
Ġme nd
Ġr am
Ġr ivers
Ġe cc
oo o
Ġse iz
Ġse als
Ġse vent
st ation
st uffed
st retched
ad or
ĠS C
ĠS onya
ĠA A
ĠA ust
ĠA lf
ri a
ur ation
ur istic
Ġk ay
Ġwh ipping
ĠW ant
ĠW isconsin
ch ild
ĠM ry
ĠM ach
ĠM ount
ĠM ama
Ġy a
Ġab ack
Ġso fter
Ġso ggy
Ġor ch
Ġor deal
Ġsh ine
Ġsh uffle
ra ined
Ġj agged
ide o
el come
Ġle is
Ġkn uck
Ġint ends
Ġman ic
ĠC ost
ĠC any
ĠC lyde
ig pen
Ġcar ouse
Ġcar port
ĠD ance
ĠD ugg
Ġover joyed
Ġhouse boat
Ġcan t
Ġcan ned
Ġcan teen
qu es
ĠE EG
ĠE skim
Ġdon ation
ol t
ol as
Ġsp elt
Ġsp ades
Ġsp ears
Ġbl uff
Ġbl oss
Ġmo ss
Ġmo de
Ġmo cking
Ġfl ed
Ġfl uff
Ġfl attered
Ġfl oral
ant e
are s
ĠF R
ĠF el
ĠF ear
ĠF iona
Ġsm ashes
Ġcha ndel
ick et
ĠL ing
ĠL ew
ĠL ex
ĠL uckily
ĠL eroy
Ġbu re
Ġbu oy
Ġbu cks
ĠR ad
ĠR icky
ĠR usse
ment ary
ĠP ublic
ne ys
ne ighb
pl ete
nder ing
Ġbr as
Ġbr ook
Ġold en
Ġqu i
Ġqu oted
Ġplay wright
Ġsc ant
Ġsc aring
Ġsc urry
Ġsc orp
ĠG ot
ĠG roup
ĠG ob
ĠG ale
ĠG ilbert
ĠG TA
ĠTh igpen
Ġun z
Ġun har
Ġun prepared
Ġsl ou
Ġsl ug
hes ia
Ġdis organized
int ed
Ġwork men
Ġho ver
Ġbus ily
Ġstuff y
Ġtra ged
ĠK l
ĠK ra
ĠK iss
ĠK night
Ġeven ly
Ġpoint less
Ġperson nel
Ġtalk ative
ĠSt ew
ĠSt adium
Ġgl ide
Ġdes ired
Ġtr ace
Ġtr aded
Ġtr ading
Ġdark ish
Ġper mitted
Ġrec iting
Ġpret z
Ġsn oring
Ġsn apping
Ġbad minton
Ġres our
Ġarm chair
ĠCh inat
ĠV ent
ĠV ik
ĠV eronica
Ġaw aiting
anc he
Ġang uish
itc hard
Ġret ire
Ġstep father
Ġinv itations
Ġca f
Ġpol ar
iv ated
iv ision
Ġpain ts
Ġfire places
Ġ4 1
Ġ4 6
Ġfast en
Ġev al
Ġbar riers
oc on
Ġmean while
Ġsince re
Ġcra b
Ġmess es
Ġsign aling
Ġsca res
Ġcrow ding
sp o
Ġstr ad
Ġgreat est
Ġreco ver
ĠMary beth
Ġforg iveness
ĠDar lene
ĠMar ine
Ġswe ets
Ġsub mit
Ġbrown ies
ĠUn i
old er
Ġz e
Ġeas iest
ster y
Ġins ign
Ġcab bage
ĠSp rings
ĠSp onge
Ġunc ont
Ġunc aring
Ġform at
fic ial
Ġ9 5
Ġpos h
Ġresp iration
ĠSe cond
Ġinclud es
Ġled ges
Ġcomplain t
Ġrad ios
Ġcoll age
de f
Ġcal iber
ĠKe cker
ĠDe pp
Ġstri pe
Ġstri pping
Ġprot esting
Ġinstru ction
Ġcarp enter
Ġgas ping
Ġbal anced
Ġemploy ed
ĠFeel ing
ĠLy nne
Ġthick er
Ġcup cakes
Ġpot tery
Ġsne e
Ġill usion
Ġsle igh
Ġstrugg les
Ġur inal
ĠBl ind
ĠBl vd
Ġdirect ory
ĠRe g
Ġfurther more
Ġbirthday s
rop he
Ġstor ing
Ġcirc led
Ġcirc ling
Ġcommun ion
ĠNew man
Ġdecor ator
Some how
ĠSc arlett
Ġstall ed
Ġten ants
Ġoccur rence
Yes terday
Ġprom pt
Ġrepl acing
Ġwash cloth
ĠHo ffman
Ġdiv ision
Ġhost el
Ġlim its
Ġspray s
Ġadv ise
Ġfut uristic
ĠIs n
Ġinterrupt ion
ĠMark et
Ġmeat balls
Ġsilver ware
bl onde
Ġattend ants
Ġcreep ing
boy s
Ġenem ies
year s
law s
ĠJul ius
ĠEr nest
Ġroller coaster
Ġ18 00
iam ond
Do vre
ĠTony a
Ġbun ched
Ġreact ions
Ġtan ned
Ġaim lessly
Ġfool ed
Ġcho ked
ett i
Ġtrust ing
Ġsweat y
Ġtoss es
Ġintim ated
Ġcanoe ing
Ġcrit ique
Ġrom antically
ĠPl us
ĠGo vern
Ġexperiment ing
Ġexperiment al
ĠMo vie
Ġsymb olic
Ġunlo ad
ĠScott ish
ĠBry son
Ġdevelop ing
ĠQu ite
Ġrestroom s
Ġexplod ing
Ġthumb s
ĠTed dy
ĠSw iss
Ġwig gle
Ġx erox
ĠEv a
Ġlin en
ĠMain e
Ġpolit ics
Ġencourage ment
Ġinnoc ently
etch up
Ġcolour s
Ġcrumb led
ĠJew s
Ġsed an
Ġinfl ated
Ġsque aling
Ġsail or
Ġleap ing
Ġincre ased
Ġincre asingly
Ġreb el
Ġgod mother
Ġge omet
ĠGold en
ĠBrit ain
Ġdy e
ĠJam ison
Ġeager ly
Ġbund led
Ġsprink ler
Ġsprink lers
Ġnarr ative
Ġaqu a
Ġstumb led
ĠWood land
Ġfragment ed
Sh ut
Ġrig ged
Ġdough nuts
ĠDid n
Ġcommit ment
ĠMal colm
Ġharass ed
Ġinitial s
Ġmal function
Ġmort ars
ĠTar get
Ġporn ography
Ġeduc ational
Ġaudition ing
Ġcongrat ulated
Ġgau ze
Ġsquat ting
Ġconcl uded
Ġbol ted
ĠThrough out
Ġappe ase
Ġinterpret ation
Ġsitu ated
Ġhandwr itten
Ġclo ak
Ġelectro des
Ġloll ip
Ġpul pit
Ġalphabet ical
rint h
Ġris ky
ĠDu ane
Ġflav ors
young er
Ġimprov ise
ĠCed ric
ĠCare y
Ġcockro aches
******************************** ********************************
Ġcylind ers
Ġpim ples
Ġtoler ate
ĠTu van
Ġnick name
Ġoverl ooked
Ġnostal gic
Ġcarb on
ĠPac ino
ĠGret a
ĠSat an
Ġbarbe que
Ġceremon ies
ĠAcc ounting
ĠPers ia
Ġrecy cling
Ġenlar ged
Ġattent ive
Ġoutrage ous
Ġexpans ive
Ġabsor bed
Dar ren
Ġpige on
Ġhus ky
ĠFer ris
ĠRee ce
Ġhairdress er
Ġsche me
ĠKath leen
Ġdiscoura ged
Ġinfer ior
Ġtricy cle
Ġdefl ated
Ġcobwe bs
Ġinade quate
Ġdisci pl
ĠVol vo
Ġportra it
Ġtul ips
Ġgoate e
Ġaspir in
ĠGoose bumps
Ġgram mar
ĠSout hern
ĠHoo ver
ĠDall as
ĠHerm ione
Darry l
mFor um
ĠMry le
ĠDugg an
ĠRusse ll
Ġunhar med
ĠChinat own
ĠSponge bob
! !"
' ).
3 1
4 4
? !".
A ud
B S
B y
B en
C om
E M
E ve
E ven
M el
N ana
P art
R ider
S l
S w
S te
T alking
T NS
U T
U gly
W ALLY
b one
b ers
c ert
c ars
d ead
f ia
g ments
g ae
h ia
l oc
l ift
l ining
n ice
o ch
o ving
p age
r oof
r acks
t f
t alk
v ague
y ers
Ġt rough
Ġt ipping
Ġt attered
Ġa pe
Ġa jar
re ating
Ġo st
ing ton
Ġb ible
Ġb itty
Ġm ug
Ġm ime
Ġm iff
Ġm attered
ha ke
it am
it ness
it ative
it tery
Ġc ors
Ġf ren
Ġf udge
Ġd ign
Ġd ared
Ġd uff
Ġd azed
Ġd warf
Ġl umps
om ot
Ġp hen
Ġp uffs
Ġp umping
en act
ar ad
Ġh ick
ut ing
Ġhe nch
Ġth w
Ġth ong
Ġth rees
Ġth ugs
ĠT a
ĠT ower
ĠT RA
Ġn om
le ft
le pt
le vel
Ġst a
Ġst er
Ġst ump
Ġst oop
Ġst ems
ic ians
Ġre organ
ve re
im ated
im port
al t
al and
ir ly
se x
Ġse ams
st ep
Ġat op
ĠS yl
ĠS DI
ĠA y
ĠA dd
Ġgo als
Ġup stream
Ġan est
ur f
Ġk ettle
Ġk etchup
Ġwh im
Ġwh ites
ĠH ilts
ĠW ould
ĠW ars
ĠW izard
op ping
ĠM oon
ĠM af
ĠHe aven
ind s
Ġro bbing
Ġro aming
ra iser
Ġj ets
Ġj acks
el a
own er
Ġpl owed
Ġpl aza
Ġam put
un ct
Ġcl ipped
Ġint ensity
il ot
ain ting
ĠB C
ĠB ach
ĠB irthday
Ġta gged
Ġfe at
Ġroom y
Ġpe ll
Ġpe ck
Ġman ne
ĠC ap
ĠC han
ĠC elia
ĠC onell
ĠC ocon
ig s
Ġcar ving
Ġhou nd
Ġoff ensive
ĠD ol
ĠD arth
ĠD utch
ĠD iamond
Ġbo a
Ġbo ar
Ġbo iled
Ġover se
Ġwho les
Ġwor ship
Ġde cks
ul ates
ul ously
ast ically
ast ery
Ġex ter
Ġcon verted
ol ate
ol ored
Ġsp ong
Ġsp ool
Ġsp urt
os cope
Ġbl ouses
Ġfl abb
ĠN ed
ĠN TNS
itt les
Ġv oy
Ġv ictor
ĠO rd
ĠO wen
ft s
ĠF ast
ĠF elt
ĠF ang
ĠL ED
Ġbu dge
Ġco h
Ġco ated
ach t
Ġlo gged
ĠR ings
ĠR ousing
ab ird
ud der
Ġch illy
ĠP M
ĠP ro
ĠP app
ĠP icard
ĠP orky
ĠP rayer
ne cess
pl aced
pe e
ag raph
Ġbr on
Ġsc uba
ĠG lee
Ġun he
Ġun necess
Ġdis aster
Ġdis fig
Ġac rob
Ġpro jection
Ġgood night
Ġhelp ers
Ġen raged
Ġsw ap
Ġsw apped
Ġnear ing
Ġho ly
Ġho vered
Ġhead dress
dd ing
erson al
Ġ2 50
Ġjo lly
gg ly
Ġnew er
Ġday dream
Ġgr anted
Ġgl ancing
Ġgra ves
Ġmen stru
Ġtr ophy
Ġfew er
Ġroad way
____ ___
Ġsk ated
Ġspe cially
Ġcomp act
Ġcomp ens
Ġcat ast
Ġrel o
friend ly
Ġres ists
vel ess
Ġpar agraph
ect ed
Ġad vis
Ġred head
Ġcr ates
Ġread er
ds pe
ĠU l
Ġlife guard
Ġmin now
Ġca ves
Ġca ution
iv a
Ġbook lets
Ġswim mer
sh ift
Ġsqu id
Ġsqu ad
Ġbag gy
Ġear ring
Ġbar ked
ĠJo hanna
Ġtre ad
Ġhurt ful
Ġcour ting
ots ie
Ġsign aled
Ġstra in
sp ace
ĠBe ing
Ġcur lers
ĠHis panic
Ġrep rodu
Ġlou dspe
Ġbottom s
Ġext ensive
Ġrecogn izable
Ġreg ion
Ġcheck book
Th ose
ans as
Ġcomplet ing
Ġsec ured
Ġfore bod
Ġmountain ous
what ever
ĠSp aces
Ġhide out
Ġunc lad
Ġdel eted
cl ip
Ġlunch room
Ġgrass es
Ġfair ground
Ġadd icted
Ġcam ped
Ġcam arad
Ġtick ling
Ġmoment um
Ġenjoy s
Ġflow ed
ĠZ oe
Ġconne cts
Ġexpect ations
Ġsil ky
ĠEll iot
ĠDe ep
ym e
ĠCo lle
Ġheavy set
vis ions
Ġdet our
Ġdet ached
ĠCl iff
Ġaut hors
Ġposition ed
play ing
Ġdangerous ly
Ġpost p
Ġ19 6
Ġhar ness
Ġuncom fort
ĠCar rie
Ġtrans pl
Ġord inarily
Ġprofess ion
Ġadm itting
Ġmist ress
Ġtrail ers
Ġwire less
rent ice
Ġmail man
Ġspl its
ale b
ĠSc out
ĠSc outs
Ġident ifying
Ġtub s
Ġconvin cing
Ġwash room
Ġori entation
ĠDan nie
Ġbalc onies
Ġcust ody
ĠCharl ton
oss ip
ĠWil cox
Ġscra ggly
Ġflower y
Ġtorn adoes
Ġinj ust
Ġinj ure
Ġabs urd
ĠNat alie
Ġprocess ing
Ġscrew y
ĠHill side
Ġtent acles
che on
Ġmod est
Ġmeaning ful
Ġpurpose ly
Ġward robe
Ġrespons es
Ġrespons ive
Ġfac ilities
Ġneg atives
sha pe
Ġfresh men
Ġpound ed
Ġbeha ved
ĠWhite hall
hol es
Ġshru bs
min ute
Ġhy d
Ġhy per
Ġplain s
Ġcudd ly
Ġpond s
ĠWar rior
mo vie
Ġweak ly
Ġpilot ing
Ġcondition ing
ĠWal es
Ġvers ions
ĠPl ace
Ġver ify
Ġtax es
Ġscrat ches
ĠCor b
ĠPart y
Ġjunk y
Ġproud ly
Ġimm ature
Ġvill ain
Ġlic orice
Ġabsol ute
Ġflirt at
ĠSw enson
Ġspell ed
ĠCarol ine
Ġslee veless
ĠFar ber
ĠPr itchard
Ġdum ping
ĠGr ad
with out
ĠMay all
Ġremod el
Ġbabysit ter
Ġrac etrack
Ġmagn ifying
Ġpier ced
Ġobst ru
Ġinvestig ation
Ġscram bling
Ġrequest s
ĠVictor ia
Ġfountain s
ĠStar b
Ġdefe ated
Ġrevol ving
ĠAri el
Ġ________________ ________
Ġopin ions
Ġwid ow
Ġcollaps ing
Ġaccompan iment
Ġumbrell as
Ġdump ster
ĠTH IS
ĠMod el
Ġunw rapped
Ġfiance e
Ġvom ited
Ġappla uded
Ġmas culine
Ġadmin istration
Ġclip board
Ġimpro ved
Ġanticip ating
Ġlun cheon
ĠMax well
Ġadvertise ments
Ġtid y
Ġstumb ling
ĠZe ffman
ĠZe aland
Ġgoof ing
Ġenthusi asm
Ġrh inest
Ġcowboy s
ev il
ĠTre vor
Ġlemon ade
high way
Ġshr unk
Ġdecl ared
Ġdun es
ĠWes tern
Ġhyster ically
ĠBud dy
Sc ene
Ġgain ing
Ġconcl usion
ĠGet to
ĠII I
Ġornam ent
Ġcontem porary
ĠSur pris
Ġjig saw
ĠCru ise
bel ie
Ġsout heast
Ġsty les
Ġunfold ed
Ġwed dings
ĠHard y
Ġaccommod ate
Ġpear ls
Ġna use
Ġbon net
Ġling erie
Ġclar ify
Ġhandc uffs
Ġhandc uffed
Ġskim py
Ġpengu ins
Ġboil er
Ġsparse ly
Ġdupl icate
ĠLaure n
ĠPlay boy
ĠRem ember
Ġcheerle ader
Ġcontempl ating
ĠMik o
Ġfrown s
ĠMerri lee
Ġhaw k
Ġrew ound
ĠRep ublic
Ġmart ial
istor ic
Ġcompar ison
Ġpend ulum
ĠSV H
Ġshred ded
Her oes
Super natural
ĠCount y
Ġcrad le
ĠJoseph ine
ĠBas ically
ĠFil mForum
Ġprett ier
ĠHU GE
Ġcram med
ĠPhill ip
Ġdevast ated
ĠTon i
ĠEuchar istic
Rem ember
Ġexcl usive
Ġpatron izing
Ġreimbur se
skin ned
Ġine ffect
ĠSere na
Ġinev itable
Ġvigor ously
Ġgrie ving
Ġdisrespect ful
Ġgrudging ly
Ġmischie vous
Ġassh ole
Ġnotep ad
Ġdisbel ief
ĠSmart Rider
ĠCheer ios
Ġecc entric
ĠLing erman
Ġtraged y
ĠStew art
ĠVik ram
ĠTRA IN
Ġmanne qu
Ġforebod ing
Ġcamarad erie
1 50
A ren
A unt
B I
B et
B aby
C ar
C all
D e
E C
E r
E nt
F ine
F iles
G reat
H a
I LL
J ul
L a
M M
N ew
O oh
P M
P ut
R iding
R ex
R ON
T urn
U N
V ery
c ass
c amp
c led
c ircle
d r
f le
f ol
f uck
f inger
h off
h uh
h istoric
i king
k m
k ens
m ies
m ons
o llow
p ot
p itched
r ust
r ite
r ones
r alled
t ruck
u gged
u zz
v ivid
w orth
w omen
y rinth
z ene
Ġ ?
Ġ eth
Ġt ing
Ġt iled
Ġt ipt
Ġw itches
in u
in ci
in ations
Ġs essions
ĠI mp
nd em
Ġb out
Ġb ooked
Ġm ul
Ġm ph
Ġto xic
Ġto pless
Ġwa nd
ha st
ha il
it ute
Ġc ooks
er ves
Ġf iled
Ġf etch
Ġf olk
Ġd aze
Ġl icks
is ies
Ġg em
ar oo
Ġh oops
Ġha lves
ut ions
es ar
Ġhe aled
Ġon look
ĠT ried
ĠT ran
ĠT oday
Ġn urt
Ġn ortheast
us ter
us ions
Ġst ake
Ġst ink
Ġst oned
Ġst umps
ic it
ic ity
Ġme re
Ġr ipp
Ġr ival
Ġre un
Ġre li
Ġre acting
Ġe astern
im ig
am y
am ish
am inated
ver field
al most
ent h
st rous
ĠS H
ĠS ay
ĠS ale
ĠS ervice
ĠA ck
ĠA bo
ĠA LL
ĠA lyss
ri ages
Ġfor ty
Ġout stretched
ĠH old
ĠH ope
ĠH amps
ĠH mm
ĠH eston
nt hia
ĠM B
ĠM ould
ĠM end
ĠM ud
ĠM ock
Ġy acht
Ġab ilities
Ġab usive
Ġso ber
Ġfr at
Ġfr aud
ge red
Ġro s
Ġro ars
Ġsh ush
Ġsh iver
Ġsh ipping
Ġsh udder
ĠWe l
ide red
ro ft
el este
Ġpl ow
un ked
ight s
Ġcl ums
il ted
Ġal gae
ĠB i
ĠB or
ĠB est
ĠB ab
ĠB anc
ĠB road
ĠB ette
ĠB ox
ĠB accar
Ġta unt
Ġta ndem
Ġman g
ĠC ir
ĠC ur
ĠC ub
Ġhou sed
ĠD ome
ĠD am
ĠD ab
ĠD ak
ĠD omin
ĠD RE
ĠD ahl
Ġover t
ate ur
Ġwhat so
qu er
ol ics
Ġsp rou
Ġsp its
Ġmo an
Ġfl ing
Ġfl ipp
Ġma ple
Ġma iling
Ġma xim
ĠJ ak
ĠJ em
Ġv oting
Ġv itam
ĠO ccas
fe eling
Ġdoor kn
are ll
ist ically
ĠF all
ĠF arre
ĠF OR
ĠF aith
Ġcha per
Ġcha otic
ĠL O
ĠL ie
ĠL ear
ĠL ooks
ĠL ipp
ĠL ooked
Ġbu lly
Ġco bb
Ġco aches
Ġlo lly
Ġlo go
ĠR A
ĠR ena
ment ioned
ud son
Ġch ipped
Ġch urches
ĠP ay
ĠP att
ĠP ier
Ġpo kes
Ġpo ised
Ġqu arre
ru it
ile mma
Ġsc oring
Ġsc roll
Ġsc atter
Ġsc ooping
Ġhand y
ĠG ru
ĠG ree
ĠTh rones
Ġsl aves
Ġrun gs
Ġrun ners
Ġdis arr
ady s
Ġpro ved
od ie
Ġhapp ier
th ree
Ġstu cco
Ġsw elling
act ually
Ġflo ck
Ġflo ss
thing s
Ġho bby
Ġhu b
Ġfin ances
ĠK o
ĠK er
ĠK ee
ĠK now
Ġ2 9
Ġel oqu
gg le
ĠSt uff
ĠSt rong
Ġgl ider
Ġdes erve
Ġdes erved
Ġstore room
Ġtr ink
Ġtr acing
Ġroad side
____ .
Ġsk id
Ġcomp ly
Ġper m
Ġper ception
Ġrec ip
Ġrec lin
Ġrec lining
Ġrest ored
Ġsn atched
Ġres ented
og ical
Ġmar ched
Ġent ourage
ĠV ic
Ġmust y
Ġad obe
Ġbox car
Ġreason able
Ġste als
Ġmom my
Ġlea pt
Ġread just
Ġcount s
Ġcre s
Ġacc use
Ġair y
Ġpast ed
Ġpain ter
Ġinter acting
Ġinter vals
Ġsqu ashed
Ġdist racting
Ġes p
Ġ4 2
Ġann ual
br idge
Ġglass ware
Ġconf ig
Ġbar racks
Ġwar rior
Ġ5 1
Ġweird est
Ġpres chool
az ine
Ġsca nd
uc son
Ġbelie ves
Ġstr add
Ġref urb
Ġpack aged
ward ly
uss y
Ġter min
ĠEvery where
cha rd
land ers
Ġcross road
Ġ10 5
iet ies
Ġround about
Ġins ens
Ġins ides
Ġins pected
Ġins ulting
Ġmountain side
Ġcons isting
Ġdi aries
Ġform ations
ĠDo ll
ĠDo lly
Ġpath way
Ġlunch time
Ġfat ter
Ġdiscuss ions
Ġsun b
ĠAr lie
Ġpan ther
ĠSe em
Ġpresent ations
What ever
rol et
lo at
Ġleg it
Ġbra gging
Ġmon k
ĠZ im
ĠZ ach
ĠDe f
cri bed
Ġinform s
Ġloc omot
Ġgrad ers
Ġsteep ly
Ġpink y
Ġsal ty
Ġinstru ctors
Ġcarp ets
Ġfil ter
ĠRo lling
Ġgather s
Ġagree ing
Ġhum il
Ġmotor ized
Ġlab yrinth
Ġpost cards
Ġperform ances
Ġhope ful
Ġ19 30
Ġdru gged
Ġsne er
Ġill um
Ġhesit ation
Ġhesit ating
Ġadm ission
Ġbur ying
Ġir ony
Ġtight s
Ġtight er
ĠAny how
ĠNew ton
Ġawo ken
Ġloose ly
Ġdeath s
rom at
Ġprotect or
ĠRob yn
Ġcast ing
ĠX ander
Ġcig s
Ġstall ing
Ġten ant
ĠGod zilla
Ġprom pted
Ġdepartment s
Ġsurf ing
Ġund ec
Ġmid way
Ġer ase
Ġer rors
Ġtour s
izz a
Ġactiv ated
Ġimag ination
Ġimag inary
rat ic
Ġspread s
ĠLe g
ĠLe if
ĠLe ft
Ġadv ancing
Ġpin ch
Ġadj usted
Ġrectang les
Ġpersonal ities
ĠLuc ille
Ġindic ation
Ġcrack er
Ġstat ic
Ġmotorcy cles
Ġstream ing
Ġcompet ent
ĠFred dy
Ġcloth s
Ġval ve
Ġsaf est
chan ge
Ġflash y
aven port
Ġpun ish
Ġworth less
Ġworth while
Ġdesper ation
ĠWhite house
Ġpray ers
Ġtur keys
Ġamount s
Ġrack et
Ġbun nies
itar ian
off s
off ice
Ġgentle men
Ġjud ged
Ġjud gment
mo ving
Ġnet work
ĠJan itor
Ġamb ush
Ġamb ivalent
col or
Ġintim idated
ĠCon n
Ġharm ony
Ġcompan ies
Ġrev ived
ER E
Ġmodel ing
Ġmer ge
ĠWhere ver
Ġshif ting
ĠBry ce
ĠTe a
Ġexha ust
Ġappreci ative
Ġtong ues
Ġscar ves
AR D
ĠMon ique
Ġprepare s
Ġqual ities
Ġqual ify
Ġsocial izing
ĠPres ley
Ġden y
Ġfan gs
ĠMore na
Ġsod ium
Ġmemor ized
Ġhood ed
Ġpurcha ses
Ġwel comes
Ġcock pit
Ġham sters
Ġrac coon
ĠMor rison
Ġtrim ming
Ġritual s
Ġpier cing
Ġconcent rated
ĠTr ading
Ġexclaim ed
Ġdocument ary
Did n
Ġwaitress es
ĠStar la
Ġsque aled
Ġess ential
Ġmop ed
Ġmop ping
Ġsignific antly
Ch ildren
Ġregard less
Ġchuck les
Ġincre asing
Ġlif estyle
Ġthread s
Ġ________________ _
ĠRock y
OR T
Ġsew ed
ĠLove ly
Ġhandful s
ĠYoung man
Ġwhirl ing
Ġchip m
Ġemp hat
Ġathlet e
ĠGl en
ĠGl adys
bor ne
Ġjer sey
Ġhyp n
wor king
Ġmold ing
Ġmanip ulating
Ġstress ful
Ġcaress ing
ĠWood s
Ġresent ment
Ġdash board
Ġcolle agues
Ġvend or
Ġshr inking
ĠEle ct
Ġdecl ined
Ġgau ge
kn acks
spe ed
ĠWonder land
Ġbuzz ing
Mer le
ĠBel ow
ĠKrist en
ĠEnt er
ĠFe b
ĠFe et
ĠLind say
Ġbru ise
Ġdisting uished
Ġbenef its
Ġcran berry
Ġbrave ly
ĠHalf way
lit er
Ġneighbour s
Ġharsh ly
Ġner ves
Ġven ue
ĠId ol
Ġurg ent
pet ent
Ġunpl ug
Ġlux ury
Ġchemical s
ĠIre ne
Ġunpack ed
ĠNichol as
Ġpir ate
Ġpir ates
Ġbean bag
ĠConf usion
Ġdisinteg rate
Ġinsp ired
lem n
Ġsaus ages
Ġloan ed
Ġsurre nder
Ġhass le
Ġcoup on
Ġveter an
Ġcroche ted
Ġreck lessly
Ġloos ened
ĠPu erto
Ġmour ning
Ġscree ching
Ġsheepish ly
uten ant
Ġdolph in
ĠLuther an
Ġiv y
Ġhudd led
Ġspons or
Ġincorrect ly
ĠTrou t
ĠGrease pit
Ġsan ct
Ġdom estic
Ġlur king
ĠOs car
Ġstrate gy
Ġrais ins
Ġsilhou ette
Ġteles cope
Ġpharm acy
Ġthirt ies
Ġembro idered
ĠMcCart ney
Ġestablish ment
Ġfrank ly
Ġwatermel on
Ġshard s
NOT E
Ġshuff ling
Ġexh ilar
Ġapolo getic
ĠZomb ies
ĠShoot er
Ġol ive
Ġleot ard
Ġexting u
ĠKul ik
Ġapric ots
Ġincon ven
ĠChev rolet
Ġll ama
Ġhed ges
ĠMach ine
ĠLew is
spo ken
Ġuncont roll
Ġmiff ed
Ġduff el
Ġcatast rophe
Ġloudspe aker
ĠColle en
Ġuncomfort ably
Ġinjust ice
ĠCorb ett
Ġineffect ive
imig lia
ĠAbo ve
ĠAlyss a
ĠHamps hire
ĠBanc roft
ĠBaccar in
ĠDab ney
ĠDRE AM
ĠDahl heimer
Ġwhatso ever
ĠFarre ll
" --
" ...
' '
, '
0 4
3 2
3 8
4 9
6 00
7 4
7 9
? !'.
A pp
D reamed
H is
H um
M s
N ever
P rison
R un
T ony
U E
V ER
W ee
b ank
c ine
c ross
c har
c ount
c asm
d ain
d ifferent
f ull
f aced
g l
g re
g ay
g all
g ray
h ma
h ouses
i i
i ag
i ago
k ot
l ac
l ap
m int
m ake
m phony
n osed
o inting
o kay
p ound
s ch
t or
t rain
w ur
w ill
w ild
w alking
x ie
Ġ __
Ġa in
Ġa ce
he nt
Ġw ow
Ġw ont
Ġw ier
Ġs id
Ġs iding
ĠI ll
ĠI an
Ġthe sis
re r
Ġo y
Ġb ail
Ġm owing
Ġm umble
Ġto en
Ġto ad
Ġto kens
Ġwa ff
Ġwa ken
Ġwa ded
Ġwa ffle
ha i
ha nt
ha ving
it udes
Ġc act
Ġc rank
ed ded
Ġf ug
Ġf erv
Ġf ades
Ġf awn
Ġf aults
Ġd ashing
Ġd avenport
ou fl
Ġwas hes
Ġl ather
Ġl ime
Ġl aming
Ġl amb
om p
is one
Ġg a
Ġg uts
Ġp out
Ġp ry
Ġp als
Ġin put
en cies
ar ran
or ters
Ġha irst
an o
Ġhe ed
Ġth ri
id ance
ĠT able
ĠT ib
Ġn ite
Ġn ook
Ġn oses
Ġbe hold
Ġbe aver
ac ular
Ġst ag
Ġst alk
ld om
Ġr ab
Ġre pt
Ġe h
im py
ir y
Ġse ash
st le
st ead
st icks
ĠS S
ĠS ide
Ġli lac
Ġgo dd
ri g
ri ans
Ġout lines
Ġout run
Ġout going
Ġwh ore
Ġwh ining
Ġwh izz
ĠH E
ĠH im
ĠH ur
ĠH uman
ĠH udson
Ġdo cile
ĠW ait
ĠW aiting
ĠW idget
as ian
ĠM is
ĠM oo
ĠM ead
ĠM erton
out e
out ube
Ġy ank
Ġy ucky
Ġshe ath
ĠHe y
Ġso cially
Ġso lemn
Ġor chard
Ġfr ail
Ġfr inge
ge nd
ĠWe ber
ra gment
Ġj aws
Ġj ello
ro ck
Ġpl ung
Ġle opard
ct ured
un ci
Ġdid d
Ġcl as
Ġcl one
Ġcl icks
Ġcl ones
Ġcl asp
il k
Ġal ign
Ġal mond
ĠB ody
ĠB ey
ĠB right
ĠB attlestar
Ġfe aring
Ġfe atured
Ġpe es
ĠC ool
ĠC ook
ĠC auc
ĠC aleb
ĠC eleste
ig l
Ġcar go
Ġte ap
ĠD P
ĠD et
ĠD ays
ĠD amn
ĠD ifferent
Ġbo ating
Ġover stuffed
Ġwor ries
." )
." ,
Ġwhat not
ul ing
ul ent
ul ars
Ġex ceed
ĠE R
ĠE p
ĠE vie
ĠE SP
Ġcon j
Ġdon t
ol ite
Ġgu ides
Ġsp ur
Ġsp ying
Ġsp ike
Ġbl ot
Ġbl ister
Ġbl inking
Ġbl aming
Ġtal ents
Ġfl icked
Ġfl uttering
ĠN E
ĠN in
ĠN intend
ĠJ C
ĠJ ol
wo ke
Ġv ents
Ġv oid
ĠO pen
fe red
ant ial
Ġany ways
ist ory
ĠF le
ĠF un
ĠF ort
ĠF ull
ĠF ug
ĠF oss
ĠF alls
ick ers
ĠL ens
ĠL illy
ĠL enny
ĠL awson
ĠL iving
ĠL illian
Ġno zzle
Ġbu bbling
Ġlo dge
ĠR om
ĠR ud
ĠR ound
ĠR og
ĠR ush
ĠR idge
ud dy
Ġch ill
Ġch lor
ĠP i
ĠP ick
ĠP rep
Ġke g
ĠMy ers
ne ll
pl ets
Ġpo ll
Ġsaw ed
ag ain
Ġbr im
Ġbr ist
Ġpre view
Ġpre aching
Ġpre fers
ap artment
Ġsc r
Ġhome made
Ġar bit
Ġschool house
ell a
Ġsl ut
Ġsl ack
Ġsl ough
Ġsl edding
Ġdis se
Ġdis dain
au ce
Ġwater y
Ġside lines
Ġside burn
Ġdec line
Ġdec aying
Ġpro ctor
od ka
Ġwalk ie
ew ing
Ġsw ore
Ġsw irly
be ing
be at
Ġstand ards
Ġpr ime
Ġpr iced
Ġwork man
Ġatt aching
ĠK ally
ĠK urt
ĠK erry
ĠK imber
get ting
Ġ2 000
Ġel ated
Ġwall ets
gg les
Ġsur m
Ġsur gical
Ġday care
Ġgl obs
Ġmen acing
Ġbre at
Ġsho ves
Ġsk idd
Ġsk unk
Ġdark ened
Ġcomp osition
Ġrec ite
Ġrec ital
Ġrec essed
Ġhard est
Ġrel ating
Ġsn atch
Ġres isting
og ne
Ġ3 9
," .
ĠCh ow
ĠCh ip
ĠCh ief
Ġcol ogne
em ned
ĠV erm
ĠV illage
ĠY outube
ture s
Ġad e
Ġbox ers
ets y
Ġlea ks
pris e
Ġdra per
idd leton
Ġret race
ĠU gly
most ly
ars gard
Ġcre pt
Ġcre ation
Ġinv ention
ise um
Ġpick les
ug get
Ġpain fully
form ing
Ġob tained
Ġnu mbered
ah n
Ġclos eness
Ġemb edded
Ġcra ppy
ord ers
Ġtre ats
Ġ5 3
Ġmiss ile
Ġed ging
Ġchar ging
We ird
Ġrep ro
Ġref res
Ġref ridge
Ġdisc ard
Ġmor ph
Ġsnow balls
Ġcomm ission
ĠBr on
ĠBr ady
Ġind ec
Ġsy mphony
Ġreg al
Ġcatch y
Ġfix es
Ġide al
Ġspec ified
Ġexp ired
Ġexp enses
Ġprop eller
Ġra id
Ġins ulation
Ġmouth ful
Ġfore arm
mbers ome
Ġcons umed
ĠSp ice
Ġneighbor ing
Ġform ally
Ġpri ority
ĠNe al
ipp y
Ġvan ity
Ġcam el
Ġcam oufl
ĠRam on
Ġtick led
Ġ7 2
Ġconvers ing
Ġfre ak
Ġfre ckles
Ġcontinu ous
Ġlaughing ly
Ġleg ally
Ġbra ins
Ġmon astery
Ġmon strous
Ġrad ical
ĠZ acha
Ġexpect s
Ġsil very
Ġprof ound
ĠDe vin
Ġpract ices
Ġsteep er
Ġcurtain ed
Ġsal ads
Ġtun a
Ġtun ing
Ġview point
do ors
Ġign orant
Ġemploy ment
ĠCl air
ĠMel odie
Ġdef ended
Ġcond emned
Ġgrow l
Ġmir acle
Ġdisco very
Ġmotor boat
ax y
Ġlab s
ĠSu pposedly
Ġpost ure
Ġ19 60
Ġpot entially
Ġrid ic
Ġprofess ionally
Ġattack ers
Ġgro ans
Ġdirect s
.... ....
Ġstate ments
Ġpet ty
Ġgold fish
Ġsystem s
Ġbutt ered
Ġconst rict
Ġdecor ate
Ġsuper v
ĠSh ould
Ġbeat s
ĠOther wise
ĠX erox
ĠJe b
Ġsem ic
Ġhorri bly
Ġgray ish
Ġ________ _____
ik ki
Ġclock wise
Ġport fol
Ġaccept ance
Ġaff irm
Ġsight seeing
Ġori ental
Ġinterview er
Ġforce ful
Ġmur al
ĠGerman s
ĠBig wood
Ġcomb ine
Ġaddress ing
Ġshad ed
Ġhealth ier
Ġsneak y
bl ock
Ġbomb ed
Ġstat istics
Ġpers ists
Ġborrow ing
ĠOut er
Ġrap ing
chan ce
Ġcu mbersome
Ġgradu ates
ĠBev ner
Ġcomfort s
Ġquart et
cent ered
ĠBrian na
Ġtur d
Ġlength wise
Ġrespect s
Ġrespect ed
Ġfu cked
achel or
Ġrele ases
Ġrele asing
Ġmedic ines
Ġintrodu ction
Ġdod ged
ĠWar ren
ĠAm west
Ġtem pt
ĠHar lan
ĠHar vard
Ġbi ography
Ġdial s
Ġsweat pants
Ġmic ro
Ġpizz as
ĠCha se
ĠSuper highway
Ġcomplex ion
mar ks
ĠDel att
Ġsar casm
Ġunlo ading
Ġproceed s
..." .
Ġrub ble
Ġtransfer ring
Ġrehears als
Ġsatis factory
ĠCol iseum
Ġvill agers
Ġnois ily
bur gh
Ġrefle ct
Ġqual ified
Ġkneel s
Ġoccup ants
Ġden ial
Ġsele ctions
Ġsele cting
ĠSw itzer
ĠSant iago
Ġspell s
Ġwig s
Ġking dom
Ġhood l
Ġcock tail
ĠRos ie
Ġprevent ing
Ġsuck er
Ġlin ked
Ġreass ured
Ġintern ship
Ġdrain age
Ġactress es
Ġimpl ications
Ġgovern or
Ġpolit icians
Ġinnoc ence
Ġassemb led
Ġconcent rating
ĠNorth town
Ġcolour ful
Ġcrumb les
Ġcrumb ling
Ġaccompl ishment
Ġarch way
Ġexclaim ing
Ġprotest ed
Ġsque amish
Ġclaim s
ĠMad ison
Ġpant y
ĠBurt on
Ġtransform s
met ic
Ġhom er
Ġwaterfall s
Ġswall owing
Ġneedle point
pre cha
Ġgrave lly
Ġretrie ved
Ġfant as
Ġlucid ity
Ġge ology
Ġintention al
Ġ21 7
ĠBrother s
Ġclown s
Ġdownlo ading
ĠGold water
Ġjet ty
Ġappla uding
ĠMag azine
Ġfond le
ograp hed
Ġmaneu vering
Ġperp et
Ġearthqu akes
Ġcy cl
Ġanticip ated
Ġlun ches
Ġ____________ __
Ġbust le
Ġfaint ly
ĠNear by
ĠAre ndas
ĠMa ude
Ġdisappro val
Ġprec ip
Ġfuss ing
ĠNor ris
Ġdepos ited
ĠNic olas
ĠNight mare
Ġder by
ĠRh ode
Ġcollap ses
Ġdefec ating
Ġmethod s
Ġnephew s
ĠAnge la
Sc rubs
Ġcass er
Ġavo ided
Ġbind ing
Ġnegle ct
hot el
Ġtattoo s
Ġcris p
ĠJud ah
Ġsum mit
Ġattach ment
Ġgrim aces
Ġhistor ic
Ġphilos oph
Every one
Ġcran e
ĠSpe ars
Ġbracel ets
ĠGar land
Ġelectro cuted
Ġginger bread
Ġpup il
hhhh h
Ġange red
Ġdiagon al
ĠChap el
Ġcoord in
Ġillustr ations
Ġrequire ments
Ġwreck age
ĠBer nie
Ġchant ing
ĠRE M
ĠBrook lyn
Ġinspect ing
Ġurg ency
Ġexchang ing
Ġhym ns
Ġhitchh iking
Ġpeas ants
Ġpedest rian
ĠConf used
Ġdisinteg rated
Ġpim ple
ĠTri xie
Ġast hma
Ġgy psy
Ġpercent age
Ġparap sych
uu u
Ġgran ite
Ġnyl ons
Ġcray on
Ġinvent ory
Ġgoo ey
Ġhast ily
Ġanch or
Ġanch ored
ĠBird s
ef inite
ĠSk arsgard
Ġdiscrim ination
Ġpreced ed
Ġtopp led
Ġlung es
ĠHug o
Ġvirt ual
ĠPhys ics
ĠTam ara
Ġspont aneous
ĠVI P
ĠVi ol
Ġaccus ations
Ġvoc al
ĠFried a
ĠRene e
Ġcompass ion
Ġeru pt
Blue bird
Grand ma
Ġrasp berry
Ġforb idden
Ġdefect ive
ĠOre gon
ĠMarl on
Ġextraord inary
Ġunsuccess ful
ĠSwed ish
Ġsoothing ly
ĠTow ards
ĠBee k
Ġvand als
ĠOdd ly
Ġprostit utes
Ġaccum ulated
ĠDrum mond
ĠColumb ia
Ġmu zzle
Ġrewr ite
ĠBudd ha
ĠFro st
Ġaggress ively
Ġbeet le
Ġsuffic iently
bour ne
Ġutter ly
Ġdaw dling
ĠTot ts
Ġsund ae
Ġregist ered
ĠSpark y
Ġaval anche
Ġsuperher o
Ġbast ard
ĠSen ator
Ġextern al
Ġquar rel
Ġutens ils
Ġtelepath ically
ĠÂ £
Ġdild o
Ġseiz ure
Ġleis ure
ĠCany on
Ġcarouse l
Ġscorp ion
ĠVent imiglia
Eve lyn
import ant
ĠCocon ut
uzz i
ĠAck erman
Ġros ary
ĠDak ota
Ġmaxim um
ĠJak ob
ĠOccas ionally
ĠLipp ert
Ġrecip ro
Ġundec ided
Ġuncontroll ably
gall on
kot ay
wur st
Ġwier d
ĠTib et
Ġseash ore
ĠCauc asian
ĠNintend o
ĠRog ers
Ġarbit r
ĠKimber li
ĠVerm ont
ĠZacha ry
ĠSwitzer land
! ,"
) )
) :
, .
B o
C S
C ould
D uring
D ex
E li
H arry
H unting
L ife
M ay
N e
N ice
O OD
R S
R IS
T w
U K
U gh
W ent
] '
a a
a ved
b elt
b aby
c all
c rew
e h
e ction
f y
f ood
f are
f ounded
g ra
h lets
i ating
k g
l en
l ast
l ake
l van
m ont
m ell
m ets
m aker
n atured
o en
p ri
p ur
p ensive
p owered
r r
s en
s ame
t able
v ited
w ait
y ay
y ote
z co
Ġ icky
Ġt um
Ġt aco
he um
Ġw ipes
Ġw tf
Ġs omb
Ġs omers
ĠI T
ĠI V
ĠI ra
Ġo ily
Ġo li
Ġo vation
ing ham
Ġb ashing
Ġb apt
Ġm ache
Ġm ucking
Ġwa gging
ha l
it ator
Ġc uffs
Ġc uckoo
er ving
ed ge
Ġf ont
Ġf ert
Ġf iber
Ġf oli
Ġd and
Ġd ual
Ġd ub
Ġd ips
Ġd ashed
Ġd uffle
Ġd otted
Ġd ilemma
Ġl est
Ġl anky
Ġg ender
Ġp ong
Ġp ran
Ġp oof
Ġp itches
Ġp hall
Ġin co
Ġin ject
Ġin hib
ll o
ll um
ll man
ar ming
or i
or ist
Ġh unk
Ġh oop
Ġha il
ut y
et a
et ts
ĠT O
ĠT en
ĠT an
ĠT ram
ĠT ucson
Ġn etting
Ġn ugget
Ġbe verage
Ġbe avers
us ible
ac ation
ac ock
Ġst ocked
ld er
ic he
ic ament
ic olored
Ġr usted
Ġr amb
Ġre jection
ke l
Ġe aves
Ġe clip
oo sh
oo ster
im ilar
am ma
se en
se ls
Ġse gments
Ġse ldom
st ones
ĠS hat
ĠS ame
ĠS leep
ĠS lo
ĠS aint
ĠS ummer
Ġli b
ĠA w
ĠA ge
ĠA mber
ri ors
Ġan alog
Ġk er
Ġk ang
ĠH A
ĠH ou
ĠH art
ĠH aring
ĠH ung
ĠH ans
ĠH ale
ĠW E
ĠW ard
ĠW ade
ĠW ise
op ter
Ġsa x
Ġsa ss
Ġsa uc
ack ed
ĠM G
ĠM I
ĠM M
ĠM P
ĠM T
ĠM ich
ĠM ouse
ĠM ads
ĠM iddleton
Ġsee king
Ġy awn
if ix
ĠHe nd
Ġso ci
Ġfr y
Ġj ury
ill o
Ġpl ague
Ġle v
Ġle precha
Ġam ateur
Ġback up
ight ing
Ġcl ipping
il ou
il and
il ton
Ġal tered
ĠB ase
ĠB attle
ĠB ottom
Ġpe gs
Ġpe yote
Ġpe acock
Ġman tle
ĠC as
ĠC row
ĠC ze
ĠC ouldn
ĠC ousin
ig ible
mb led
Ġsu ited
Ġsu llen
Ġgot h
Ġjust ified
ong ous
ĠD ig
ĠD ire
ort ions
ort isone
Ġhouse wife
Ġde e
ul k
Ġex isting
ĠE th
ĠE rie
Ġdon ations
Ġsp ind
Ġsp ank
Ġstart ling
os ers
os ite
os itions
Ġbl urt
Ġbl oom
Ġmo ck
Ġfl icking
Ġfl unked
ĠN ad
ĠN ice
ĠN aturally
ĠJ av
urn ey
pt on
ist a
ĠF aire
Ġcha u
Ġcha st
ĠL ed
ĠL im
est one
Ġco als
Ġco ding
Ġco con
ĠR and
ĠR oute
ĠR ooster
ab led
ab bed
ab ilities
ud ent
ng hai
Ġch iff
Ġch ucking
ĠP C
ĠP R
ĠP it
ĠP ipp
pl in
pl us
pl ane
ag u
Ġbr ut
ap hor
Ġsc ent
Ġsc run
Ġbed time
Ġar ched
Ġar ches
ĠG unn
Ġun m
Ġun fort
Ġun ivers
Ġun cover
Ġun organized
Ġschool mates
Ġsl os
Ġsl ots
Ġsl ime
Ġrun ny
Ġrealiz ation
Ġpro duc
room mate
Ġsw ive
Ġsw erved
act ive
iss y
ip ed
ip her
Ġfo ss
co gn
Ġstop light
Ġapp rentice
ak ened
Ġwr ists
orm s
Ġhead board
ĠK ir
ĠK iki
ĠK won
ĠK FC
Ġsha cks
Ġim per
Ġim min
Ġel astic
Ġnew est
Ġsur ly
Ġsur real
ĠSt arted
Ġcle ars
Ġgra pp
Ġgra ham
Ġdes olate
Ġdress ers
Ġbre wing
Ġsho cking
ost er
Ġcomp rom
Ġcor pses
Ġper se
Ġper ch
Ġbath s
Ġrel ent
Ġsleep over
Ġsn ot
Ġsn oo
we iser
og urt
Ġplan ets
ĠY uck
Ġsex ist
Ġred s
Ġreason ed
Ġreason ably
Ġcr ops
Ġele ven
ail ed
Ġlea ked
Ġhear se
Ġclothes line
Ġdra pe
Ġstep lad
ĠU nt
ĠU rs
ĠU llman
Ġtri vial
Ġtri plets
av age
Ġair borne
Ġpaper back
Ġpast or
Ġswim mers
Ġblue berries
Ġinter ns
up id
Ġsqu ig
Ġsqu irm
Ġ4 4
Ġvis ibly
Ġob ese
Ġev ac
Ġbar ric
uck er
Ġhang ar
Ġgreen house
ah oo
ĠChar vat
Ġdead line
Ġpres ume
Ġmiss iles
Ġed ited
ĠAl ison
ĠAll ah
ĠPe aks
Ġclear ance
Ġshirt less
Ġmusic ian
Ġter se
Ġcomm ons
olog ue
Ġext ending
Ġext ras
Ġind efinite
land o
Ġmat hem
ĠMar ilou
Ġshoot er
Ġ6 5
Ġsy ll
ift ies
Ġtw igs
Ġgar ment
Ġdisapp ointing
Ġfact or
ĠFran ken
Ġsand ed
... '.
Ġprop ortion
Ġz ero
Ġanim ation
Ġorder ly
ton es
Ġsec l
Ġcounter fe
ĠSp ock
ĠSp ider
Ġhide ous
ĠSam uel
Ġdep end
Ġ9 2
ĠNe ed
Ġvan ished
Ġadd ict
Ġsun ken
ĠAunt ie
Ġjump ers
Ġbusiness man
lo aded
Ġcand idate
Ġmon ument
Ġcoll ab
Ġvar ied
Ġvar iation
Ġspecial ty
erg asted
ĠDe bra
Ġeng aging
Ġgrad ing
Ġsal ary
Ġgas ps
Ġview ed
ĠRo bbie
Ġhum ongous
Ġgen ius
ues e
Ġ19 20
Ġ19 40
Ġ19 70
Ġhar med
ĠCar ly
Ġow es
Ġbull do
Ġsmile y
Ġrecord ings
ĠRe agan
Ġobject ed
Ġscreen ing
Ġchest s
Ġboss y
ĠDw an
Ġble ached
Ġdeath ly
Ġregular ly
Ġpocket book
ĠEve rett
Ġspl attered
Ġban gs
Ġgard ening
Ġdam aging
Ġstom ping
ik er
Ġtext ure
Ġstran gle
Ġstomach s
ĠJane way
Ġlaund romat
ĠAd min
rat ors
ĠLe o
Ġfut on
Ġfut ile
cu le
Ġmis cell
Ġformer ly
Ġbomb ing
Ġlaw yers
Ġnon etheless
ĠLuc ia
Ġtent atively
che t
che ck
Ġpers ist
Ġpil grim
Ġshoe box
Ġju gs
abb ing
Ġmel on
ĠOr lando
Ġcontest ant
ropri ately
Ġdu plex
Ġrefriger ators
ĠMart i
Ġsales girl
Ġsales lady
Ġdiscover ing
Ġcheese cake
Ġrespect ful
ĠAle c
ĠInst itute
ĠBet a
Ġlat ched
hh h
ĠJan ine
Ġlog ic
ĠCha d
ĠCon ne
Ġspin ach
Ġmult icolored
ĠPl an
Ġparticip ated
gar ita
Ġbunk er
Ġtax is
Ġsuspect s
Ġrev ive
ĠRay mond
pan z
ĠCor pses
ĠCam eron
ĠSha w
ĠSha nghai
Ġdemonstr ated
Ġconv ict
Ġ17 00
Ġimm ers
AL E
ĠQu inn
bur st
Ġrefle cting
Ġexpress way
AR T
Ġtoast ed
Ġchallen ges
Ġpitch ing
Ġboo ze
Ġthumb t
Ġoccup ant
Ġden im
Ġdoub ted
Ġshadow y
Ġsweep s
Ġgener ic
Ġsen ile
Ġcomed ians
Ġmagic ian
Ġintern ational
Ġshotgun s
Ġminiature s
Ġannounce ments
Ġvolunte ering
Ġjoy fully
Ġmagn etic
Ġfrequ ent
Ġambul ances
ĠUS B
Ġtack ed
gr ad
ĠLor ren
Ġregret ting
Ġregret ted
lock s
wr itten
Ġstretch y
Ġdiss olved
Ġsque al
Ġclaim ing
On ly
ĠBre nd
Ġdies el
Who a
Ġleap ed
Ġ______ .
ĠSch war
Ġoverfl owed
Ġmonitor ing
Ġvibr ator
ĠGold berg
Ġease l
Ġspiritual ity
ĠTime zone
Ġcritic ized
Ġmaneu vers
Ġsting ing
Ġsting ray
Ġdear ly
Ġsprink les
Ġhyp oc
ĠMir anda
Ġblast ing
Ġanticip ate
Ġmold ed
Ġimpress ions
Ġdrift s
ĠWood y
Ġvict ory
Ġscient ists
keep ing
Ġapples auce
Ġmailbox es
Ġwax ed
Ġpred ict
Ġpred icament
Ġresol ution
Ġscold ing
Ġcatalog ue
ĠMil k
ĠJac uzzi
Ġmort ar
Ġcul p
ĠDri ving
Ġaccur ately
Ġporn ographic
turn ed
ĠEle mentary
Ġconsp ir
Ġobsc ured
Ġcongrat ulating
Ġgru nt
Ġgru ff
Ġstern ly
ĠMet ro
ĠBud weiser
Ġvul gar
ĠFre aks
Ġcooper ative
ĠFair chance
Ġtort illa
Ġundress ing
Ġstain less
Ġsniff ed
Ġgrace fully
Ġsatisf y
Ġunlike ly
Re ally
Ġchim panz
Ġgrim ace
Ġinflu enced
Every body
Ġclo gged
Ġdestru ctive
Ġloung es
Ġrubb ery
Ġweigh ing
Ġstunt s
Ġbroch ures
Ġpear l
ĠGab e
Ġillustr ation
ĠSn oop
ĠCI A
ĠFr ustr
Ġrecon stru
Ġpursu er
Ġet hn
Ġhint ed
ĠAN D
ĠPa ige
Ġunpl ugged
Ġreserv ations
Ġincom petent
Ġhitchh ike
bu ilding
rep air
Ġups ets
Ġpedest rians
Ġtut or
Ġbage ls
Ġded icated
Ġpra ise
Ġupd ated
Ġuphol stery
ĠFo llow
Ġunl ocking
Ġadministr ative
ĠTha i
ĠTha iland
ĠHell o
ĠCu zco
ĠPac ific
Ġcoup ons
Ġwigg ling
Ġunident ifiable
Ġcroche t
Ġdynam ite
Ġseas ide
Ġrecur ring
Ġdomin ant
Ġgir ly
ĠToy s
Ġunatt ended
Ġindirect ly
atis fied
ĠHug hes
Ġdolph ins
Ġminim um
ĠDoes n
ĠOlymp ics
ĠCher yl
Ġquant ity
Ġbatt les
Ġming ling
Ġclipp ings
ĠBern ard
ĠGard ner
ĠKore an
Ġmosquit o
Ġpamp hlets
Ġrins ing
Ġslush y
ogen ic
Ġinterpre ted
Ġdealers hip
Ġprivile ge
Ġsacri fice
ez ers
Ġther m
orig inal
Ġrefere nces
ĠFur ther
ĠChop ra
Ġinher it
uls ively
Ġbrat wurst
Ġsadd ened
Ġcripp led
Ġrumm aging
ĠMem orial
Ġexasper ated
Ġflatt ened
ĠLin us
ĠPL U
Ġsouven ir
Ġmasc ara
Ġpel vis
Ġprick ly
Ġsentiment al
Ġdestro ying
Ġcruc ifix
ĠQuin cy
Ġintrud ers
Ġtwe ezers
Ġintertw ined
Ġbelief s
Ġartif acts
ĠSec ret
Ġtechnic ian
Ġinconsp icuous
Ġgur u
Ġkay ak
neighb or
Ġpretz els
Ġcaf Ã©
Ġze bra
ĠMaf ia
Ġoverse as
Ġflabb ergasted
Ġdisfig ured
Ġrelo ad
Ġfairground s
ĠStarb ucks
zene gger
inci ples
Ġdoorkn ob
ĠKee gan
Ġcres cent
Ġextingu isher
Ġhairst yle
Ġthri ft
Ġcamoufl age
Ġcasser ole
Ġrecipro c
Dex ter
heum at
Ġoli ves
Ġfoli age
Ġdub ious
Ġinco herent
ĠTram mell
Ġeclip se
ĠHaring ton
ĠCze ch
Ġchiff on
Ġscrun ched
Ġproduc ers
Ġsteplad der
ĠUrs ula
3 7
4 8
9 6
A CH
B B
C E
D is
D an
F red
F uck
H old
I nt
J e
K E
L ord
L isten
M ag
M ark
N OW
O ver
P er
R on
S weet
V is
] "
a fe
a had
b en
b ted
c ore
c ame
c hen
c ade
c row
c ings
c ans
d am
d iving
e or
e mb
f rey
g us
g room
h ound
h ips
i w
j ud
k est
l ane
m at
m art
m outhed
n ames
n amed
o lyn
p burn
r one
s ure
s ince
s cience
s orry
t il
u ve
v ant
v ak
w ash
x ious
Ġ eter
Ġ iced
Ġt ac
Ġt ides
Ġa il
Ġa ura
Ġw impy
Ġs ow
Ġs ly
Ġs hing
Ġs ust
Ġs ought
ĠI ow
nd es
nd rome
re ne
Ġb ung
Ġb erry
Ġb attered
Ġm ont
Ġm ering
Ġm unted
Ġm uttering
Ġto te
Ġc oo
Ġc ad
Ġc oop
Ġc ada
Ġc inder
er ty
Ġf ou
Ġf ame
Ġd aring
Ġd ah
Ġd uct
ou ch
Ġl ament
om hoff
is ation
Ġg le
Ġg ist
Ġg ag
Ġg ush
Ġg urney
Ġin ning
Ġin land
Ġin ept
Ġin cap
on ic
on est
en ger
ar ant
or ange
Ġh unch
Ġh oses
Ġha ze
an na
et ers
es cend
Ġon stage
ot ap
ot ional
id y
id al
ĠT all
ĠT ae
ĠT esar
ĠT ARD
at chers
Ġn in
Ġn ets
Ġbe wild
us cious
us ively
ac iously
ac ula
ĠThe ory
Ġst ature
Ġst aged
Ġmy th
Ġme ek
Ġr aked
Ġre att
Ġre new
ke w
ome ver
im on
im al
Ġu h
Ġu ng
ver ty
al ou
al ow
al isa
ent a
st ring
ad ian
ad der
ĠS em
ĠS ester
ĠS aid
ĠS orry
ĠS weet
Ġli zards
ĠA ce
Ġgo ats
Ġgo ggles
ri on
ri ve
ri ff
ur p
Ġk eros
ĠH ers
Ġdo omed
ĠW A
ĠW iat
Ġsa ves
Ġsa int
ĠM A
ĠM un
ĠM iles
ĠM aur
ĠM oose
ĠM ae
Ġget away
Ġy ogurt
ĠHe ar
ĠHe alth
ĠHe pburn
Ġab normal
Ġso lic
Ġso aps
Ġfr ayed
ge mite
Ġsh in
Ġsh ipped
Ġsh rap
Ġthem ed
Ġthem es
ra k
Ġj umble
Ġj aunt
ry stal
Ġle ant
Ġle ase
Ġle gged
Ġam id
Ġback p
Ġback side
Ġcl u
Ġcl en
Ġcl utter
il ation
ĠB O
ĠB ever
ĠB erry
ĠB elle
ĠB unny
ĠB etsy
Ġta le
Ġta bs
Ġfe nd
Ġfe isty
Ġdown wards
end ers
Ġdre ary
Ġpe g
Ġpe ered
Ġpe aks
ĠC A
ĠC ut
ĠC hat
ĠC atherine
ĠC uba
Ġcom a
Ġcar cass
mb les
Ġ( ?),
Ġsu ede
Ġwal nut
Ġjust ify
ĠD y
ĠD al
ĠD ie
ĠD irty
ĠD EL
ĠD ixie
ass y
ort on
ort al
Ġde ed
qu il
ul as
ul ative
Ġex iting
Ġex ists
Ġcon es
Ġdon ating
Ġsp awn
Ġsp orting
Ġsp raw
Ġby e
Ġtim er
Ġfl aps
Ġfl ute
Ġfl ops
Ġfl orist
ĠN AS
ĠN ittles
ĠN ikki
Ġma im
Ġma iled
Ġma ids
Ġma uve
ĠJ D
Ġv iny
Ġv ans
ĠO F
ĠO k
fe ll
ess es
Ġany time
ine es
ĠF est
ĠF unny
ĠF inn
ĠF arell
ĠF landers
Ġsm ugg
Ġcha mbers
ĠL ive
ĠL ara
ĠL ucky
Ġbu mmer
Ġbu ms
Ġco il
Ġco co
Ġlo cale
Ġag on
Ġag ony
ĠR en
ĠR ice
ĠR anc
ĠR ead
ĠR iley
ud a
Ġch ili
ĠP age
ĠP ere
ĠP enny
ĠP uffy
ĠP erk
ĠP rison
ĠP izza
ous ands
ne ar
pl ing
ven ues
Ġpo inter
Ġpo verty
Ġbr isk
Ġpre mon
Ġpre historic
Ġlook out
ru ary
ap y
Ġsc i
Ġsc all
Ġsc ooped
Ġturn st
Ġhand rail
ĠG ore
ĠG ian
ĠG iles
ĠG host
ĠG uten
ĠG ilda
Ġaf loat
Ġun used
Ġun related
Ġsl aps
Ġsl eds
Ġsl anting
Ġdis he
Ġdis per
Ġwater bed
Ġdec re
Ġlong ing
ose mite
Ġac oust
int h
Ġhel mets
th inking
Ġend anger
Ġend urance
Ġsw an
iss ance
Ġfo ster
Ġdif f
Ġtow ering
co ld
co al
Ġwork out
Ġwind storm
Ġhu ff
Ġatt racting
Ġfloor ing
Ġhead line
Ġhead first
ish ly
ĠAs ked
ĠAs cot
ĠK au
ĠK ip
ĠK ait
Ġim itation
Ġwall ed
Ġcont ext
gg s
oy le
Ġlight ening
Ġgr ating
ĠSt at
ĠSt ory
ĠSt acy
ĠSt acey
Ġgl aring
Ġgl oss
Ġgl ittery
Ġdes irable
Ġsupp orts
ple ase
Ġtr ot
Ġsk its
ĠAt l
Ġcomp at
Ġcor ro
Ġbeg s
Ġrec har
Ġap ocaly
Ġrest art
Ġrel ates
Ġsleep ily
Ġsn ip
Ġres isted
Ġem pha
Ġem erald
Ġgi ants
Ġarm our
Ġpar a
Ġpar ad
Ġcol t
ock work
ĠV a
ĠV ar
ĠV isa
ĠY OU
ĠY osemite
Ġmust n
Ġmust ard
Ġhit ched
Ġred uce
Ġred uced
Ġcare free
Ġimp ly
Ġimp olite
Ġmet aphor
Ġmet eor
app ers
Ġret al
Ġinst inct
Ġcre st
Ġinv aders
ions hip
Ġmin es
Ġacc idents
Ġair con
ise xual
Ġpast ries
iv ities
Ġfire wood
Ġfire cr
sh ots
sh oes
Ġinter l
Ġinter ned
Ġsqu ash
Ġsqu atted
Ġtrain ers
Ġser ves
ob iles
Ġev icted
Ġbar ge
Ġgun fire
ah oe
ĠChar ley
Ġcra bby
Ġpat ting
Ġpat ty
ord ered
Ġtre acher
Ġtre llis
Ġtre mble
Ġtre mbling
Ġtre mor
sw orth
Ġpres erve
Ġeyes had
Ġstra ined
te ch
te ous
Ġfell a
ĠWh oop
Ġbody guard
uc ent
ric hes
Ġcur se
Ġcur ving
Ġtall est
Ġrep orters
Ġass uring
rist y
the m
the ir
Ġref in
Ġaud itions
uss ed
Ġsnow ed
Ġcomm ute
Ġrow ing
Ġtoilet ries
ĠMar vin
Ġsy n
Ġmot ive
Ġmot iv
Ġcop e
Ġgar g
Ġsub stit
wh om
Ġdisapp rove
Ġ10 1
ram a
Ġprop ose
Ġz ig
Ġcamp fire
ĠChrist ians
Ġins ight
Ġins erting
Ġve ins
Ġcons cience
Ġru gged
Ġdep ends
Ġ9 4
ĠNe umann
Ġfish y
uff olk
ĠGrand pas
Ġpor ches
Ġmad der
Ġappro ves
Ġsun rise
Ġpan eling
Ġvide otap
Ġshut tle
ĠSe as
ĠSe abird
Ġspot ting
Ġhat red
Ġcontinu ation
Ġcomplain ts
Ġrad ar
Ġcoll ide
Ġcoll ision
Ġvar ieties
Ġsick ly
Ġsick ening
Ġband ana
Ġeye balls
itor ies
urb an
not iced
Ġoffic ially
Ġterri fying
Ġsal vage
Ġtun es
Ġsecret s
Ġsecret aries
Ġnervous ness
Ġdet ox
Ġworld s
ĠCl ay
ĠCl are
ĠCl ockwork
Ġagree able
ĠMel bourne
Ġdef ined
Ġburn ers
Ġaut hent
Ġcond os
Ġcond escend
Ġgrow led
Ġgrow ls
Ġbill fold
Ġsmo kest
Ġmag ically
ien cy
Ġ19 80
ĠCar a
ĠCar olyn
Ġtrack ed
Ġmil ky
Ġvac cine
Ġbull ies
Ġpop ulation
Ġsurround s
Ġphys ician
Ġbur row
Ġbur rit
ĠRe v
ĠDr acula
Ġamaz ingly
str icken
Ġtight en
Ġweek ly
Ġpet rified
Ġpian ist
Ġhol ster
Ġplat ters
Ġalarm s
Ġteen y
Ġlower ing
Ġble ah
Ġcapt ion
Ġweight ed
ĠTo gether
Ġoper ations
ĠGe off
Ġfright en
Ġpsych otic
Ġhorses h
ĠEd mond
Ġprom ises
Ġaff lic
fl akes
Ġeffect ively
Ġep ic
Ġstorm s
Ġblind fold
Ġprint out
Ġbread s
Ġconcert s
Ġteleph ones
ĠAd el
Ġwhis ked
Ġwhis kers
Ġcap abilities
Ġlim estone
Ġpin ball
ĠIs abel
Ġmis ery
Ġanxious ly
Ġthr usting
ĠMcD owell
Ġcause way
Ġscen ic
Ġsuccess ion
ĠTim othy
ĠFred a
Ġval id
Ġval entine
Ġpow ered
ĠMexic ans
Ġfavor ites
ĠSee ing
Ġmel ts
Ġframe work
Ġdu el
Ġappoint ed
Do ctor
min ator
Ġcudd les
Ġuns afe
Ġmotion less
Ġjud ging
Ġtail ored
hor se
Ġweak ness
ĠHar riet
Ġeight h
Ġamb ig
Ġbul ge
Ġharm less
Ġvers es
ĠSuper ior
ĠGo llum
Ġtrash can
Ġmast ers
Ġtheat rical
Ġscrat chie
Ġangri er
Ġpurs ues
Ġtemp ting
Ġvo ca
Ġboun cer
Ġunlo aded
Ġaccount s
Ġresearch ing
mm m
Ġrehears ed
Ġeffort lessly
Ġdemonstr ates
Ġshif ty
Ġcommunic ated
com mitt
AL L
ĠQu ick
Ġappreci ation
ĠCle ese
Ġscar ce
Ġexpress ions
Be autiful
Ġexhib its
Ġdoub led
Ġwrest ler
reg ard
ĠArm and
Ġhood s
Ġfort unate
ĠEv idently
ĠRos well
Ġslipp er
Ġmurd ers
pper ware
Ġtender ness
Ġimpl ication
Ġest imate
Ġgravel ed
ĠRoc hester
_____ .
Ġfrequ ency
ĠGu ard
Ġinnoc uous
Ġpier cings
Ġfork lift
Ġplot ting
ĠRose anne
ĠKat y
Ġsett ling
Ġscru bs
pr ot
Ġsque aky
Ġworkshop s
Ġmush y
Not hing
Ġcaps ules
Ġejac ulation
Ġfed eral
Ġscan ned
Ġ________________ __
ĠCath olics
Ġgrave ly
Ġfunction al
Ġsubst antial
Ġswims uits
Ġbound ed
ĠUp stairs
Ġunw rap
Ġfav ors
Ġgross ed
Ġjelly fish
Ġcritic ize
ĠTra vol
ĠKay lee
Ġbund les
Ġnarr ation
ĠBus iness
Ġblast s
Ġimpro ving
ĠJes se
EN T
ĠBell ick
Ġmanip ulated
Ġmanip ulative
Ġthunder storm
Ġpron unci
Ġpred omin
Ġpred icted
Ġhut ch
Ġcomfor ter
ĠNor thern
Ġrum or
ĠLu is
Ġpict uring
Ġclever ly
Ġspect acular
Ġproduct ive
ĠArab ic
Ġfauc ets
Ġfoam y
Ġeyel ids
Ġsculpt ures
inse l
Ġreview ing
Ġwerew olves
ĠStud ent
ĠStud io
Ġcondu cted
Ġvictim s
kn ife
Ġsac risty
Ġflop ping
Ġfinanc ially
Ġmisunder standing
Ġadminist rators
Ġut ility
Ġlens es
Ġtemperature s
Ġbou quets
Ġcult ural
Ġchains aw
Ġappe al
Ġappe aling
ĠMarc os
Ġvisual ize
Ġstubborn ly
Char lie
ĠHam ilton
ĠCourt lyn
Ġwed ge
Ġpony tail
Ġpros pective
Ġaccommod ation
ĠJun iper
Ġneighbour hood
Ġtransl ucent
Ġner d
Ġwatersl ides
ĠSky pe
ĠBrand o
Ġstim ulation
Ġdepth s
ravel ing
Ġdread ful
Ġdupl ic
did n
ĠCre ep
Ġprem ises
Ġdism ayed
Ġsurre ndered
Ġast ounded
ĠClo verfield
ĠFo xt
Ġcraz ies
Ġcraz ily
Ġshoo ed
ĠCars on
ĠGret chen
Ġhighlight ed
Ġwigg les
Sp ace
ĠAss n
Ġswift ly
Ġbarbe cue
aza ar
Ġruff les
Ġdiver ted
Ġstyl ist
Ġloos en
ĠCy nthia
Ġblo ated
Ġrecur rent
Ġshred s
Ġpla usible
Ġgrou ped
ĠEs pecially
Ġholl ered
Ġiv ory
ĠHol mes
ĠWalk er
ĠDen ise
Ġspi ky
Ġspont aneously
fr ame
Ġreject ing
ĠBurn s
ĠBern ice
ĠDog s
ĠKore a
Ġconsist ency
Ġstrang led
Ly dia
TER S
Ġrins ed
ĠMust ang
Ġantagon istic
Ġferret s
Ġrecept ive
Ġplun ge
Ġflick ering
spons ible
Ġrollerbl ades
Ġecst atic
Ġfulf ill
Ġwhit ish
Ġpod ium
Ġcontr ary
ĠUP S
Ġsunburn ed
ĠColl ins
Ġdescript ions
Ġsuffoc ate
ĠIng ram
Ġwag ons
itan ic
Ġlan tern
Ġsynt hes
ĠIntern et
Ġredecor ating
ĠfiancÃ© e
lif ting
Ġliber ty
ĠAma z
ĠGall ahad
rane an
Ġperce ived
Ġdepart ure
Ġmurm ur
Ġseduct ive
pher d
Ġbraid s
Ġger ms
Ġhaught y
Ġlod ged
ĠViv ian
ĠEduc ation
ĠBoard walk
Ġsophom ore
ĠAlf red
Ġorch id
ĠEskim o
ĠFR OM
Ġunz ipped
Ġlollip op
Ġost riches
Ġfren zy
Ġamput ated
Ġvoy age
Ġcoh ort
Ġbron ze
Ġunhe althy
Ġdaydream ing
Ġflirtat ious
Ġmannequ in
Ġclums ily
Ġscand al
Ġrefurb ished
Ġsunb athing
ĠFeb ruary
Ġsanct uary
App arently
gre ens
Ġcact us
Ġrab id
ĠBey ond
ĠFull er
Ġsideburn s
Ġade quate
Ġconstrict or
Ġsuperv ise
Ġportfol io
ĠIra q
ĠShat ner
ĠWise au
Ġsauc ers
ĠMich igan
ĠMads en
Ġcocon ut
Ġimmin ent
Ġcomprom ise
ĠFranken stein
Ġsecl uded
Ġmiscell aneous
Ġculp rit
heumat oid
Ġmont age
Ġmering ue
ĠTARD IS
ĠSester o
Ġkeros ene
ĠMae by
Ġshrap nel
Ġviny l
ĠRanc her
ĠPerk ins
ĠGian na
ĠGuten berg
Ġdisper se
Ġfirecr acker
ĠEdmond son
ĠTravol ta
! ).
" ?
( ?)
9 00
A ndy
B Y
B oth
C or
C indy
D A
D onald
E d
E ar
F re
F lying
G r
G u
G ran
H an
I P
I V
I nd
I ON
J es
J ack
J asmine
L aura
M iss
M ake
M aking
O r
P ORT
R ay
R ose
S qu
S har
S ex
S OCI
T O
T raveling
W atch
W elcome
Y ay
Z E
Z ena
a ite
a ffe
a que
b i
b ot
b ear
b its
b ottom
c re
c laim
c otch
c kered
d one
d ered
f our
f lo
f ollow
g um
g les
g ically
h im
h uman
k iss
l ow
l ost
l ower
l eness
m ine
m iddle
m onth
m istry
n als
o ved
p ic
p op
p ink
p ole
r us
r ich
r ather
s n
s om
s ac
s igh
s leep
s ometimes
s mo
s imilar
t ra
t el
t rying
t ico
u x
u ated
u ah
w ire
w ives
w alls
w atch
w estern
z ie
Ġ era
Ġt ilt
Ġt weed
Ġt haw
Ġt insel
Ġw izard
in qu
ĠI B
Ġb ases
Ġb isc
Ġm ating
Ġm uc
Ġm ule
Ġm ousy
Ġto ken
Ġto uring
it re
Ġc el
Ġc omet
Ġc aged
Ġf ir
Ġf umb
Ġf umes
Ġf aze
Ġd at
Ġd row
Ġd ork
Ġd azz
ou ri
ou ble
ou bted
Ġl ac
Ġl ag
Ġl int
Ġl az
Ġl ana
Ġl inks
Ġl agging
Ġl oser
Ġl uscious
Ġg ird
Ġg ash
Ġg ems
Ġp ac
Ġp um
Ġp iling
Ġp ertain
Ġp umps
on ce
ar c
ar ial
Ġh ooking
Ġha n
Ġha irl
Ġha zard
ut ional
an za
Ġwe ep
Ġwe ary
ot hel
Ġth ie
Ġth ump
ĠT een
ĠT roy
ĠT ahoe
Ġn i
Ġn ub
Ġn ib
le ader
Ġbe ater
ac iated
ĠThe o
Ġr ou
Ġr ic
Ġr ake
Ġr attle
ay a
Ġe g
Ġe up
oo ge
ir it
ir al
se cut
Ġse rene
ad os
ĠS M
ĠS id
ĠS ter
ĠS aul
ĠS ays
ĠS kin
ĠS ewing
ĠS uffolk
Ġli v
Ġli ver
ly mouth
ĠA k
ĠA v
ri p
ri um
Ġup ro
Ġup gr
ur re
Ġk imon
Ġwh ines
Ġwh omever
ĠH y
ĠH ig
ĠH um
ĠH ost
ĠH istory
Ġdo ot
ĠW a
ĠW at
ĠW ish
ĠW ord
ĠW atch
ĠW ERE
op en
Ġsa gging
Ġsa ber
ch man
ch wood
ch icken
as ures
as semb
ĠM ant
ĠM au
ĠM ets
Ġy uck
Ġy ield
Ġshe ds
if ted
ter ns
ind e
Ġro am
Ġro ared
Ġsh immer
Ġne ur
ĠWe re
Ġj ams
el ope
Ġpl ight
Ġpl ast
Ġpl iers
Ġpl owing
Ġam ple
Ġam oe
Ġback track
pp ost
Ġkn o
un es
un cle
Ġcl ung
Ġint est
il ize
ca ge
ĠB uck
ĠB acon
ĠB ali
Ġpe p
Ġpe ars
Ġpe cking
Ġman s
ĠShe en
ĠC O
ĠC P
ĠC e
ĠC AR
Ġcom fy
ig er
ig ra
Ġte asingly
Ġus able
and ah
ck y
ck le
ĠD O
ĠD avey
ĠD omhoff
Ġbo b
Ġbo bby
Ġbo bber
Ġover re
Ġover sized
Ġover power
Ġover tones
ass o
Ġthing y
Ġcan n
Ġcan als
Ġde hy
Ġde leg
Ġcon ve
Ġcon verse
Ġsp icy
Ġbl u
Ġbl ushing
Ġtim id
Ġtim ber
Ġfl aw
Ġfl akes
irl ift
ĠN V
ĠN ur
ĠN est
ĠN ike
ĠN isa
ĠN OW
Ġma itre
ĠJ a
ĠJ ude
Ġwom b
Ġv antage
urn ing
ĠO B
ĠO L
ĠO per
ess a
are l
pt ure
ist ine
ist inct
ĠF lying
ĠF EM
ĠF BI
Ġsm eared
Ġcha irlift
ĠL iqu
Ġbu rial
Ġbu bbly
est ed
est ant
Ġco des
Ġco coon
ach i
Ġlo ot
Ġlo ans
Ġreal m
Ġag hast
ĠR u
ĠR ub
ĠR ingo
Ġhow l
ab ase
ud gy
Ġch ug
ĠP ull
ĠP lymouth
pl er
hed on
pe lling
Ġbr an
Ġcou pe
Ġpre cious
Ġqu aint
Ġsc otch
hen s
Ġbed ding
Ġhand outs
ĠG ate
ĠG ates
ĠG oth
ĠG ossip
Ġun ner
Ġun set
Ġun sha
Ġun know
Ġun friendly
Ġun belie
Ġun noticed
Ġsl ate
Ġsl um
Ġsl iver
Ġsl ams
Ġsl inky
hes ive
Ġdis repair
Ġdis regard
Ġdec ay
Ġlong est
Ġsmall ish
Ġac res
Ġpro b
Ġfront s
Ġfront al
Ġwo bbled
ear ly
ear ch
th ink
Ġstu b
Ġgood ies
Ġen han
Ġen vy
Ġen rolled
Ġend ings
Ġsw at
Ġsw ans
Ġsw orn
Ġclass ified
ning s
be fore
Ġbefore hand
Ġfo oth
Ġstand off
Ġ1 10
Ġunder clothes
Ġbuild s
Ġstre ak
Ġpic n
Ġho g
Ġatt itudes
orm an
Ġhead lines
ish op
Ġfin s
Ġbus ses
ĠAs ia
ner y
ĠK id
ĠK iller
ĠSo ft
Ġsha ven
Ġim ped
Ġlarge ly
Ġel ves
Ġel ope
Ġjo vial
Ġgre edy
Ġcont ented
Ġcont aminated
gg ling
Ġblack mail
Ġche ered
Ġsur ve
Ġran ked
Ġkeep er
Ġgr udge
ĠSt alk
ĠSt aite
Ġgl ac
Ġgl ided
Ġgl ared
Ġgl ob
Ġcle avage
Ġdes cent
ĠAn alisa
Ġwhite board
ren al
Ġtr icking
Ġtr action
ert ies
ian o
Ġchild like
per or
Ġcat ap
Ġfather s
Ġper for
Ġpass ers
Ġrec ited
Ġrec onnect
Ġap iece
wn y
Ġname ly
Ġsn ar
Ġsn ail
Ġsn ooping
Ġlast s
Ġkid ney
Ġres umed
Ġ3 3
Ġem an
Ġem aciated
Ġpar cel
ĠCh r
ĠCh ih
Ġlove making
ĠV er
ĠV ague
ĠV ideo
ĠY eller
Ġad mon
Ġad renal
anc er
Ġred neck
Ġfollow ers
Ġcut out
Ġreason ing
Ġcr ook
Ġcr ushes
Ġcr icket
Ġimp ul
Ġimp rint
Ġread ily
Ġdra st
Ġfun ctions
ĠU h
ars ity
ars cape
Ġtri als
ush i
ug al
Ġpast ing
ons ider
sh ort
Ġinter mediate
Ġunt ie
Ġunt ied
Ġdist ances
Ġclean sing
aut y
Ġ4 00
Ġvis ually
Ġconf use
Ġconf ided
Ġconf essed
Ġear nest
Ġbar ns
oc iation
Ġhill b
Ġmiddle aged
aw ake
ĠJo ss
Ġwar riors
Ġcra zed
ters cotch
Ġpat s
Ġpat ience
Ġtre sp
Ġtre asures
Ġ5 9
sw ick
ĠAfter ward
az er
Ġed ition
Ġchar coal
Ġpur ring
right eous
Ġcur ren
Ġass ort
ĠBill man
Ġple x
the se
Ġref ers
Ġelev ation
Ġwheel ing
Ġreco very
uss ion
My self
Ġdisc reet
Ġdisc ourage
Ġter r
Ġind ent
cha ng
eter ans
Ġrecogn ise
Ġ6 4
Ġ6 9
Ġ6 00
Ġsy nch
Ġreg ional
Ġla unched
Ġgar lic
Ġsub du
Ġsand al
... '
Ġprop erties
Ġra ving
Ġra ven
ĠNo ah
Ġpleas es
Ġwin ks
Ġfore ground
Ġfore finger
Ġve er
Ġve ered
Ġcons ume
Ġcons ulting
Ġage nda
ĠSp ar
Ġdi ved
Ġcold ly
eth od
Ġfing ert
Ġdep ended
ĠDo ors
Ġ9 1
ĠGrand dad
Ġtired ly
Ġever greens
Ġsun s
ĠAr ch
Ġposs ibilities
Ġshut ter
ĠSe ction
ĠSe attle
Ġhat chet
Ġbusiness men
Ġbow ed
lo ss
Ġlear ns
Ġmon ologue
Ġcoll ars
Ġmed ian
Ġmed itation
Ġless er
ĠKe ep
sy lvan
Ġcomment ary
Ġeng ra
Ġorgan iz
Ġorgan ised
ĠCo x
Ġsal iva
Ġinstru ct
Ġinstru cting
Ġtun ed
Ġsepar ation
ĠRo lly
Ġrail way
Ġbal oney
ĠAndrew s
ĠWill y
Ġbill board
Ġmir ac
Ġpost age
ffe red
oun cing
Ġpot ted
ĠCar ib
ĠCar rey
Ġtrans mission
Ġtrans vest
vent ure
ĠBl uth
Ġequ ipped
Ġmonth ly
Ġpet tico
rop olis
ĠInd y
Ġmembers hip
Ġcommun ist
Ġdisplay ing
Ġheart broken
Ġble nder
rem e
Ġsuper vis
ĠSh it
ĠSh ining
Ġoppos ites
Ġspl ashes
Ġtu fts
ĠEl m
ĠSc ot
ĠSc otch
Ġlie utenant
uit ar
Ġstom ped
ĠIndian a
ik a
Ġport ray
Ġaff ir
Ġtext ured
Ġtext books
fl ower
Ġforest ed
Ġsurf aces
Ġsens ations
Ġund es
Ġsol ar
Ġpublic ation
Ġer as
ĠFrench man
ĠPat sy
Ġhost ility
Ġcats up
Ġbaseball s
Ġrob in
Ġrelax ation
ĠAd vice
Ġalley way
Ġvol umes
Ġuniform ed
ĠBu gs
Ġadv ant
Ġviol ated
Ġflower ing
Ġprodu ces
Ġorig in
Ġmass es
Ġmass aging
Ġmis placed
Ġinterrupt ions
Ġinj ection
Ġdisab ilities
Ġcru cial
Ġnon committ
ĠFl ag
Ġwaist line
ĠHill ston
Ġtent ative
Ġrequ esting
Ġmod ified
Ġward en
ĠFred die
girl s
Ġrespons ibilities
Ġfac ade
Ġval ues
Ġpow dered
Ġrap ist
ĠWith in
Ġneg ro
Ġjour nals
rim med
Ġmel od
ĠCan adian
cul es
Ġappre hend
Ġbeha ves
Ġencoura ges
Ġquart z
Ġsales men
Ġdish onest
Ġbend ed
ĠWar ner
Ġmotion ing
Ġurin als
Ġinf uri
ĠSus se
ĠAm anda
ĠBet ter
Ġremo ves
Ġtrick le
Ġtan ning
Ġped aling
Ġfro ze
ĠCha mp
ĠCha kotay
Ġremark able
Ġcord less
Ġvers us
Ġdeterm ination
Ġver andah
Ġremar king
ĠPer forming
Ġtrash y
Ġtrash cans
ĠEx act
Ġemerg es
Ġsoap y
15 00
Ġdumb founded
Ġtar ant
ĠCam bod
ĠSha ll
Ġsquir ming
Ġinvest ment
Ġopportun ities
ĠMan ager
Ġexplos ive
Ġexpress es
AR AC
ĠJer amy
Ġsequ ins
Ġchop py
ĠPet ers
ĠSl ope
Be v
Ġden ies
Ġwrest led
Ġsteam y
Ġgall op
Ġslee ved
ĠPr ot
Ġgymn ast
Ġ200 1
Ġ200 2
Ġreass urance
hold s
Ġwitch craft
ĠSmith s
IS M
Ġwha les
Ġmagn ets
AT ED
some body
ĠGu ys
Ġpolit ician
Ġcrou ching
Ġassemb le
Ġmut ters
Ġjun iors
Ġeld er
ĠPhil ipp
ĠAut o
ĠJill ian
wr iting
Ġscoot ed
Ġcalcul us
Ġfle eting
ĠTw in
ĠDick ie
Ġcommercial s
Ġreb els
Ġlif es
ĠSch ne
Ġsymbol ism
ios k
Ġinstit ute
Ġinstit utional
Ġexplan ations
Ġfunction ing
Ġnightmare s
Ġbound s
Ġbroom s
Ġbroom stick
ĠTH AT
Ġwhist les
Ġwhist led
Ġvibr ation
Ġlas ers
Ġmob ster
Ġdeliber ate
Ġswirl ed
dra wing
Ġdisag rees
Ġfond ling
Ġemp ire
Ġemp athetic
Ġowners hip
Ġcritic izes
Ġjournal ism
ament al
ĠEast man
ĠEast port
Ġjer ks
wor ld
Ġsch oo
ĠWhe at
ĠWhe ther
Ġeleg antly
Ġpatter ned
Ġtarget s
Ġweb cam
Ġpartition ed
Ġcaress ed
Ġfest ive
Ġfest ivities
Ġenthusi astically
ET Y
ET ED
dri ving
Ġopt im
ĠTuesday s
Ġdisappro ves
Ġdough nut
Ġchamp ionship
Ġsecure ly
ES S
Ġanaly ze
Ġproced ures
Ġdang le
ĠMil ton
Ġ_______ .
ĠArab ian
Ġcivil ization
ĠSub ject
ĠSub urban
Ġoct aves
Ġmal icious
ĠKend ra
Ġaccur acy
ĠSteven s
Ġlect ured
Ġmeas ures
Ġnovel s
Ġdecl are
Ġcongrat ulate
Ġcongrat ulations
ĠMet ropolis
Ġunlock s
Ġsweatshirt s
Ġdefec ated
Ġgor illas
Ġconce aled
Ġapprehen sion
Ġcooper ating
sm ith
ĠMur ray
Ġimprove ments
Ġsatisf ying
US A
ĠSur vey
Ġjig gle
Ġreprimand ing
Ġsty lish
Ġsum mon
ĠUnder neath
Ġindign antly
ĠHoll and
Ġwasher s
Ġresign ation
Ġunfold s
Ġphotographer s
Ġpepper mint
ĠNaz is
Ġacceler ate
Ġbedspread s
Ġinqu ire
Ġmarvel ous
ĠCH ARAC
Ġsurviv or
Ġastr al
ĠTob ias
Ġna ive
ĠMat hew
ĠMat rix
Ġmarsh y
ĠBrand y
ĠRE PORT
Ġeyeb row
Ġurg ently
Ab ner
Ġstim ulate
Ġclar inet
Ġpassport s
Ġinstall ation
Ġoblig ation
ĠCross ing
ĠStrange ly
Ġskim ming
Ġincom plete
Ġexpand ing
ĠCart man
Ġfund raiser
rofess ional
Ġtut orial
Ġupd ate
Ġhumming bird
Ġexecut ives
ĠTu pperware
acc id
ctic ut
Ġnostal gia
ĠRebe cca
Ġcheerle ading
Ġcontempl ate
ĠMik hail
Ġrecru it
Ġtend ency
Ġreno v
Ġcoax ed
grand mother
Ġanal ysis
Ex cuse
Ġturb an
Ġlam ppost
Ġgir affe
ĠSV S
ĠBur ger
ĠNARR ATIVE
Ġpreced ing
Ġgrind ing
Ġrein force
ĠSF I
ĠWin frey
ros se
Ġknick knacks
Ġtram ple
Ġminim al
ĠDev il
ĠOlymp ic
Rob ert
squ are
Ġquant ities
Ġaccus ation
ĠIsa ac
ĠLoren z
Ġtumb les
Ġwrigg le
Ġoverd ose
Ġstrang ling
Ġnavig ate
Ġmosquit oes
Ly nn
Ġrasp berries
ĠWW II
Ġcomple cted
Ġquizz es
Ġquizz ically
Ġinterpre ting
ĠBrun swick
Ġvarn ish
Ġextraord inarily
Ġunsuccess fully
bul ary
Ġfri lly
Ġplun ger
ĠChop in
Ġinterven e
Ġecst asy
ĠMuri elle
Ġcontribut e
Ġgroo ve
Ġfacil itator
Ġsympath ize
Ġlitt lest
Ġpione er
Ġpione ers
ĠCong ress
Ġves sel
Ġappet izers
Ġnegot iate
Ali ens
Ġcitiz en
ĠAS SOCI
Ġexagger ated
ĠEgypt ian
Ġspecim ens
Ġfatig ues
ĠArk ansas
Ġmarshmall ows
Ġcav ity
Ġgul p
Ġphe asant
ĠMey er
Ġmanufact uring
Ġovers lept
ĠLab rad
Ġscur rying
Ġgras ping
Ġreced es
Ġscaffold ing
Ġirre sponsible
Ġracquet ball
Ġunemploy ed
Ġbri be
Ġmoth s
Ġsevent h
ĠAA A
Ġcant alou
Ġchandel ier
Ġbure au
Ġqui eter
Ġresour ces
Ġstrad dling
Ġsnee ze
ĠGovern ment
Aud rey
Ġphen omen
Ġhench men
Ġthw arted
Ġanest hesia
unct ious
Ġcarving s
ĠDol ores
Ġunnecess ary
Ġtranspl ant
Er nie
Ent ourage
Ġtipt oe
Ġmul ch
Ġonlook er
Ġshiver ing
ĠBroad way
ĠPay less
Ġdisarr ay
Ġeloqu ent
Ġreclin er
Ġcrossroad s
ĠSeem ed
Ġlegit imate
Ġillum inated
Ġchipm unk
Ġhypn osis
Ġoy sters
arran ged
Ġplung ed
Ġteap ot
Ġsurm ised
Ġdraper ies
Ġphall ic
Ġnugget s
Ġramb unctious
Ġkang aroo
Ġchau ffe
ĠGunn ar
Ġunfort unate
Ġsnoo ze
Ġcounterfe it
Ġcollab or
ĠConne cticut
ĠFrustr ated
Ġethn ic
Ġtherm ometer
Ġinherit ance
ĠIow a
Ġbung alow
Ġcada ver
Ġfou led
ĠDEL ETED
ĠNAS A
ĠPere z
Ġpremon ition
Ġdishe veled
ĠKait lyn
ĠAtl antic
Ġtreacher ous
Ġeyeshad ow
ĠAdel bert
Ġpronunci ation
Ġbisc uit
Ġcel ery
Ġdat abase
Ġdrow sy
oubted ly
Ġlana i
Ġkimon o
Ġdehy d
ĠFEM ALE
ĠChih uah
Ġtresp ass
ĠCambod ia
ĠCHARAC TERS
ĠASSOCI ATED
! ?"
" :
% ,
) "
2 50
4 2
4 3
4 6
5 3
6 9
7 7
8 00
A ha
A ng
A ny
B ox
B rad
B attlestar
C ha
D mitri
E w
E le
E ATIVE
E EP
F r
F all
F riend
F rench
F ragment
G ay
G etting
H o
H ome
H ang
I AN
I RE
J ames
J udy
K enneth
L ove
M en
M ad
M any
O O
O US
P oint
P robably
R ead
R udy
R ec
S u
S aw
T V
T ed
U L
W aiting
b ang
c ous
c aring
c ute
c opter
d im
d el
d ies
d rew
d rug
f man
f usion
f itting
f amiliar
f rog
g m
g as
g ree
g row
g han
g ently
g ym
h um
h irt
h ipp
h ov
i ance
i ator
j i
j ointed
l ob
l ished
l iness
l ooked
l isher
m i
m uch
m ilk
n ails
n iest
p ong
p ine
p ike
p ots
p ainted
r um
r ates
r ope
s ic
s ke
s il
s ub
s weet
t ie
t age
u zzy
v ader
w ere
w atched
y ah
z ers
Ġ ie
Ġt ant
Ġt ens
Ġt rolling
Ġa le
he e
Ġw oo
Ġw itty
in ked
in stein
in ogenic
Ġs ir
Ġs ins
Ġs ighed
ĠI vy
Ġo ars
Ġb a
Ġb ir
Ġb ore
Ġb ong
Ġb isexual
Ġb azaar
Ġm m
Ġm ow
Ġm unch
Ġm uck
Ġm utter
Ġm ummy
Ġm und
Ġto us
Ġwa ges
it he
Ġc iv
Ġc uc
Ġc ashed
Ġc askets
Ġc ortisone
er ia
Ġf att
Ġf izz
Ġf idget
Ġd inky
Ġd udes
Ġl ust
Ġl apping
Ġl ousy
is chman
Ġg ala
Ġp es
Ġp int
Ġp iv
Ġp oth
Ġp rank
Ġp ester
Ġin ad
Ġin set
Ġin ability
en es
ar ish
or ated
Ġh ust
Ġh ull
Ġha rem
Ġha lt
an ine
et ian
es hy
es que
Ġwe lf
Ġhe n
Ġhe ctic
ot el
ĠT ut
ĠT up
ĠT rit
ĠT ER
ĠT rick
ĠT attoo
at o
hat tan
Ġn omin
Ġn oodle
Ġn agging
Ġn ieces
Ġn udged
Ġn anny
le ah
le vard
Ġbe eping
ac a
ac cess
ĠThe l
ĠThe ater
Ġst en
Ġst inking
Ġst ats
Ġst alking
Ġst amm
ld a
ic ts
Ġme zz
Ġr iv
Ġr uck
Ġr ates
Ġr ics
Ġr ams
Ġr oug
Ġr uth
Ġre nd
Ġre ne
Ġre els
Ġre jo
Ġre enact
im ax
Ġu g
am ine
am boy
Ġwith drew
al ity
al ty
al ysis
her s
ir ie
ir rel
ir cular
se em
se xual
Ġse ized
ent in
st een
st udent
ĠS ig
ĠS OCI
all e
Ġli ar
Ġli ly
Ġli vest
ĠA K
ĠA OL
Ġgo sp
ri ver
Ġbut terscotch
Ġan ore
Ġk ings
Ġout standing
Ġout raged
Ġwh ine
ĠH ut
ĠH and
ĠH itch
ĠH omer
ĠH ilda
ĠH ogan
ĠH ulk
Ġdo om
Ġdo cking
ĠW ife
ĠW oke
ĠW inc
ĠW aves
ĠW inter
ĠW itness
ĠW ii
ĠW hedon
op ath
op ened
Ġsa ils
Ġsa bot
Ġher oes
ch i
ch urch
as ive
as leep
ĠM D
ĠM t
ĠM ind
ĠM os
ĠM ile
ĠM aced
ĠM icha
ĠM alley
ĠM amma
ĠM ethod
Ġy r
Ġy ak
Ġlike wise
if ies
ĠHe ights
Ġab du
Ġso les
Ġso bs
Ġfr action
Ġro cked
Ġsh ri
Ġsh itty
ĠWe iss
ra bble
Ġj ut
Ġj utting
Ġnot ing
ry s
Ġpl ac
Ġle vers
Ġle ashes
Ġle eches
Ġle gend
Ġam end
Ġback door
ct urn
un iversity
Ġall ergy
ight y
ight ed
ce iling
Ġcl ings
Ġcl imax
Ġint uit
il et
il son
ain ts
ĠB A
ĠB ic
ĠB ark
ĠB ere
ĠB ars
ĠB aut
ĠB arr
ĠB erm
ĠB apt
Ġta ps
Ġroom ies
Ġpe ers
Ġpe ppers
Ġman iac
ĠC J
ĠC V
ĠC er
ĠC ou
ĠC ust
ĠC ard
ĠC od
ĠC ertain
ĠC ON
ig i
ig gy
Ġcar riages
Ġsu l
Ġsu ffered
ĠD ur
ĠD ue
ĠD irk
ĠD NA
ĠD inner
Ġbo ister
Ġover board
Ġover time
Ġover look
Ġwor ding
Ġhouse mother
Ġcan v
Ġcan ister
ood y
qu ely
ul u
Ġex ert
ĠE xt
ĠE ls
Ġcon ver
Ġcon ception
Ġdon ated
ol in
ol ve
Ġgu ided
Ġsp ied
Ġsp lend
Ġstart er
Ġstart les
Ġbl essing
Ġbl adder
Ġmo ons
Ġmo bs
Ġmo ccas
Ġfl in
Ġfl unk
Ġfl eshy
Ġfl amboy
ĠN ame
ĠN ap
ĠN umber
ĠN iro
ĠN BA
Ġma x
Ġma fia
ĠJ Q
ĠJ our
ĠJ ana
ĠJ ama
Ġv ind
Ġv ista
Ġv arsity
ĠO N
fe et
ess ive
ant ime
ant ino
Ġany place
pt u
ist ening
ĠF i
ĠF ut
ĠF ine
ĠF act
ĠF ork
ĠF rog
ĠF ringe
ĠF IRE
Ġsm g
ĠL il
Ġno ble
Ġno dding
Ġno ndes
Ġbu ds
Ġlo oming
Ġlo yal
ĠR ing
ĠR ail
ĠR anger
ĠR CA
ĠR ye
ment ing
ure tor
Ġch is
Ġch imp
Ġch rome
ĠP le
ĠP ack
ĠP ors
ĠP ars
ĠP iven
ĠP ieces
ĠMy space
ne cks
pl ied
ven ile
Ġold ish
Ġpre jud
Ġqu ail
Ġqu ilts
Ġplay room
Ġplay list
ru ff
Ġsc orn
Ġsc off
Ġsc uffle
Ġop aque
Ġhand out
ĠG ina
ĠG ym
ĠG ray
ĠG uitar
Ġaf ar
Ġun ob
Ġun important
Ġun seen
Ġschool room
ell ers
Ġsl ash
Ġsl ashed
Ġdis hing
Ġwater proof
Ġlong ingly
Ġsmall mouth
Ġpro cra
Ġpro visions
od a
th ru
th ose
th ought
th ouse
Ġen erg
Ġen vision
Ġen amel
Ġend ure
Ġsw arming
be an
be hind
Ġpr am
Ġpr one
Ġpr inciples
Ġunder pass
Ġneed y
Ġapp arel
fere nces
Ġstre aked
Ġwork room
Ġwork book
ped o
Ġmay onna
Ġatt ribut
Ġfloor boards
Ġhead light
Ġhead master
Ġph oned
Ġtra gic
ĠK ong
ĠK ne
ĠK line
ĠK oles
ĠK itty
ĠSo ld
Ġwindow ed
Ġwall eye
Ġthan king
Ġcont orted
gg ae
Ġche ckered
oy ed
Ġsur geon
Ġsur plus
Ġlight house
li brary
li gee
Ġgr at
Ġgr ant
Ġhappen ings
ĠSt ash
ĠSt alled
Ġgl im
our ing
Ġstore front
Ġtr aces
Ġtr aced
ird re
Ġsk ier
Ġsk ids
ert ime
Ġhold ers
Ġcor porate
Ġcat ac
Ġrec ipes
Ġrest s
Ġrest rict
Ġbel oved
Ġsleep er
Ġsn ort
Ġsn ag
Ġsn ug
Ġkid die
Ġres urre
vers ive
og y
Ġmar qu
Ġent ice
Ġent angled
Ġpar ake
Ġpar ading
ĠCh i
ink le
ĠV A
ĠV K
ĠV R
ĠV e
ĠV el
ĠV ick
ĠV ER
ĠV acation
Ġseat belt
Ġsex es
Ġad ore
Ġad vers
Ġad hesive
Ġaw ed
Ġred headed
Ġbox ed
Ġcut ter
Ġcr acking
Ġcr amps
ail ing
Ġcare taker
Ġste ered
Ġste aks
Ġste aming
Ġinc ensed
Ġimp ending
Ġimp rom
Ġimp ersonal
Ġmet icul
app s
Ġfun gus
idd ing
Ġret reated
Ġcre m
Ġinv ading
Ġtri via
Ġmin ing
ult ed
ug ar
Ġfar ms
Ġbook ie
Ġbook cases
Ġblue berry
Ġblue bird
ond ra
sh op
sh oot
Ġlay ed
Ġlay ered
Ġsqu arish
Ġ4 7
Ġfast est
Ġkitchen s
Ġconf ron
Ġear ned
Ġev ident
Ġbar bell
Ġbar rack
Ġbar bers
to e
aw ning
Ġclos ure
Ġemb oss
Ġemb lem
Ġquick est
Ġwar ped
Ġmus sed
Ġmess aged
Ġtrou bled
Ġ5 2
Ġ5 4
Ġsound ly
Ġcour thouse
bo ats
Ġed its
Ġsca ven
Ġchar ms
Ġpolice woman
ĠAll ie
ract ed
Ġrock er
arr ing
ĠBe autiful
ric ian
ric ted
Ġthrow er
ĠHow ie
Ġfight ers
Ġass um
Ġple ads
Ġcompl iments
Ġsnow pl
Ġcomm iser
Ġind istinct
ĠCal c
Ġforg iven
Ġexcept ionally
ĠMar cy
ĠMar iah
ĠMar garita
Ġ6 6
Ġreg ulations
Ġtw os
Ġswe ats
ĠFran ces
ĠHer b
ony m
Ġart sy
Ġhur l
Ġhur ling
Ġexp osure
Ġrain storm
oke y
old s
Ġprop elled
Ġz ipped
Ġsec re
ster dam
Ġ8 6
Ġ8 8
Ġpleas ing
Ġins ol
Ġins ults
Ġfree ing
Ġfore igner
Ġve ggie
Ġcons cient
ĠSp orts
Ġru mbling
ced es
Ġdi ab
Ġunc ooper
Ġcover t
Ġdep icted
Ġdep ressing
Ġexam ines
cl ose
cl osed
Ġpos es
Ġtran quil
gu ndy
Ġadd s
Ġpor ter
Ġever green
Ġmad ly
ĠAr ty
Ġposs ession
Ġchas m
ĠSe a
ĠSe ven
Ġ7 1
lo ver
lo ving
ĠFor rest
BL E
Ġbra very
Ġbra ided
Ġmon itors
asket ball
ĠMe et
ĠMe aning
ĠMe antime
Ġtravel er
Ġtravel ers
Ġexpl ored
Ġbird cage
Ġcal ves
Ġcal ico
ĠDe irdre
Ġblond ish
not hing
cri be
Ġstair ways
Ġsky line
Ġorgan ic
Ġorgan ist
Ġdou che
ĠCo ca
Ġsal oon
Ġcraw ly
Ġsecret ive
Ġfit ness
ĠAnn oyed
Ġdet ention
Ġcool ing
Ġdef ends
Ġnur sed
Ġaut umn
Ġword ed
Ġbill boards
Ġsmo othed
ific ant
read ing
Ġpost man
Ġ19 00
Ġhar ming
Ġcry ptic
ĠWell ington
Ġsne ering
Ġrece ives
Ġproject ing
Ġinformation al
Ġattack er
Ġur ged
Ġur ging
Ġbur d
Ġbur den
Ġbur gundy
ĠRe x
Ġrelie ve
Ġchat ter
Ġpub lish
Ġtight ened
Ġpet ite
Ġpet ition
Ġcream y
Ġcream er
Ġrese ar
ĠAny thing
Ġcommun al
ĠNew s
Ġargu ments
Ġsweet heart
Ġfinger nails
Ġentran ced
Ġsuper man
Ġsuper natural
ĠSand ie
Ġspir als
Ġtu ition
Ġtu gging
Ġ____ .
ĠEl ana
ĠEl ena
Ġcast s
Ġknowing ly
ĠSc rubs
ĠSc rabble
Ġextra v
ĠJe hov
ole on
Ġgay s
ĠEd gar
Ġbrief s
Ġprom ising
Ġtub ing
Ġport ions
Ġport als
Ġtast y
ÂłÂłÂłÂł Âł
Ġant ics
Ġdesign ated
ĠApp le
Ġori ented
Ġcow ard
Ġnews room
Ġcounse led
Ġdiv ider
Ġpublic ity
Ġrelax es
Ġgreet ings
empt y
Ġcollect or
miss ions
Ġcomb ining
ĠCharl eston
Ġsou ls
Ġscra wny
ĠLe aving
ĠLe opard
Ġviol ins
sing ing
Ġpin ning
ĠJames on
ĠEm erson
___ .
Ġrich ly
Ġcreep s
Ġdig s
Ġment or
ĠFl int
ĠFl ash
Ġhon ked
Ġmeaning less
Ġpurpose fully
Ġthro ats
Ġdem o
Ġdem ol
Ġsched ules
Ġsharp ened
Ġassist ants
Ġneg ligee
Ġju ices
Ġju venile
Ġcent ri
Ġcent uries
Ġlu kew
ĠOr ville
Ġloves eat
Ġluck ily
Ġbeha lf
ĠGre gg
Ġrefriger ated
ndred s
Ġmedic ations
Ġuns cat
Ġinf inite
ĠAm sterdam
Ġped dling
ĠChe mistry
Ġbathtub s
Ġstraw s
Ġdial og
ĠPal ider
Ġbul ging
oph one
Ġcub s
het to
het ically
Ġtech no
ĠEx pl
ĠEx press
Ġrot ted
ĠMo ving
ĠDel ores
Ġskill ful
ĠBo omer
Ġrub y
ĠSil ence
ĠCor ps
ĠCor vette
Ġpresident ial
Ġconsider ation
ĠMiss ouri
Ġregister s
Ġmer ged
ĠRed wood
ĠRed ford
ĠSha un
ĠSha ne
ĠSaturday s
Ġagg ression
Ġimm oral
Ġimm ortal
Ġsquir ms
clock wise
Ġgigg les
ĠMan hattan
Ġbene ficial
Ġfart s
Ġshel tered
Ġrefle ctions
Ġfab ulous
Ġspr ung
ĠJer sey
Ġsequ ences
Ġboo gie
Ġstock taking
ĠEst imated
Ġpadd les
Ġpadd ock
Ġpal ms
ĠSl iders
Ġincred ulous
Ġden ying
Ġpit iful
Ġconfident ial
Ġcloud ed
ĠDis c
Ġx mas
Ġprov o
Ġgener ation
Ġdum mies
ĠRos lin
Ġ200 6
ĠPo ison
Ġtrap door
Ġkidn apping
Ġkidn appers
Ġrac ial
bow l
Ġwha cking
Ġwha cko
Ġjoy stick
ĠGu ess
Ġdetect ed
ĠTr uman
Ġdisp ose
Ġpowder y
Ġexclaim s
ta pe
pr int
Ġtruth fully
Ġartist ically
Ġtransform ation
Ġcalcul ate
Ġbay on
ĠMont e
Ġdrill s
ĠReyna ult
Ġmood s
Ġaltern ated
Ġaltern ating
Ġshovel s
ĠSpace y
Ġresult ed
Ġexhibit ors
Ġenth ralled
Ġbrand y
Ġsew ers
Ġbound ary
Ġvalley s
Ġmob ility
St ar
ON E
Ġsour ces
ĠTra il
ĠTra vel
Ġque er
Ġjournal ist
Ġid le
Ġathlet es
ĠEast wood
odd ie
Ġflashlight s
ĠCR EATIVE
Ġsprink le
Ġsprink ling
inter pre
Ġblast ed
Ġleaf ing
jo king
Ġmold s
Ġimpress es
pret ty
ĠHu ge
ĠBeck er
Ġinstrument al
ĠWednesday s
Ġsaving s
Ġstumb les
Ar thur
Ġaward ed
dri ve
Ġstir red
ĠCec ilia
ĠNathan iel
ĠChic ano
ĠRoy ale
Ġprec ision
Ġhonor able
yes terday
ste ady
Ġunp ainted
put er
Ġcany ons
ĠNor way
Ġcolle ges
Ġilleg ally
Ġrh yme
lene ck
Ġted ious
Ġpops icle
Al right
Al though
Ġcul vert
Ġadop t
Ġeyel id
Ġeyel ash
Ġreprim ands
Ġshr ine
Ġshr ink
Ġbuck le
Ġmeas ured
Ġprotr udes
Ġsquirt s
Un iversity
ĠAnge ls
EL L
ĠHay leigh
Ġornam ental
ĠBel ie
Ġpenet rated
Ġdisagree able
Ġcris py
ĠWhit ney
ĠMarc ie
atter ing
______ .
Ġrescu ing
Ġburg l
Ġcircum ference
ĠAli ens
Every thing
Ġsixt een
Ġber th
ĠHam pton
Ġunfold ing
Ġlandsca ped
ĠOl ive
Ġincor por
Ġrefresh ment
Ġweigh s
Ġnational ity
Ġyouth ful
Ġmaintain ing
Ġinha bit
ĠCH RIS
Ġspat ial
Ġreminis ce
Ġcoord inating
ĠVan essa
Ġtransl ate
Ġner dy
Ġvirgin ity
Ġrecre ational
Ġreceipt s
Ġpursu ers
Ġ+ +
ĠAN ACH
ĠBrand on
ĠDu ke
Ġesc orted
Ġflav ored
Ġharmon izing
ĠOly phant
Ġuncertain ty
Ġbould er
ĠTurn s
ĠTurn ed
Ġups cale
opard y
ĠDer rick
Ġcavern ous
ĠCommun ications
Ġrebu ilt
ĠLaure ns
OM E
Ġnav al
ĠSoph ie
ĠCass ie
Ġgrape f
Ġdict ator
Ġinspe ctor
Ġsto ves
Ġsto ically
Ġstrict ly
Ġcarb uretor
Ġrecru iting
ĠSpring steen
Ġtwirl ing
Ġblend ed
Ġdynam ic
norm ally
psy ch
Ġapplaud s
inet een
Ġpend ant
ĠToy ota
ĠMort on
ĠOli ver
Ġunatt ract
Ġunmar ked
Ġdischar ge
ĠPeru v
Ġtuxed os
ĠCamp bell
Ġsumm ers
Ġsumm ertime
Ġrecommend ation
Ġcos metic
Ġprow ess
Ġbeck oned
Ġhalluc inogenic
ĠIsa ak
Ġmim ing
Ġult ra
Ġclipp ers
ĠDew ey
Ġinvolve ment
ĠPhill ips
Ġnavig ating
Ġachieve ment
Ġic on
Ġic ons
ĠTrou ble
Ġrehab il
Ġpoly ester
cam era
atu ated
ĠSa fe
ĠMob y
Ġunravel ing
Ġslither ing
Ġprostit ution
ĠStand ing
spons ive
Ġgossip ing
Pl aying
Ġinex pensive
Ġbearing s
ĠDec ide
ĠĠĠĠĠĠĠĠĠĠĠĠĠĠĠĠĠĠĠĠĠĠĠĠĠĠĠĠĠĠĠĠĠĠĠĠĠĠĠĠĠĠĠĠĠĠĠĠĠĠĠĠĠĠĠĠĠĠĠĠĠĠĠĠ ĠĠĠĠĠĠĠĠĠĠĠĠĠĠĠĠĠĠĠĠĠĠĠĠĠĠĠĠĠĠĠĠĠĠĠĠĠĠĠĠĠĠĠĠĠĠĠĠĠĠĠĠĠĠĠĠĠĠĠĠĠĠĠĠ
Ġwithdraw s
ba um
Ġves sels
ĠPower Point
ĠPenn sylvan
Ġcareless ness
Ġprovoc ative
Ġprovoc atively
ĠIntern ational
Ġredecor ated
Te aching
Ġtamp on
Ġtamp ons
Ġcitiz ens
Ġgam ble
Ġpent house
Ġreapp eared
ĠHon or
ĠWon kers
ĠBB Q
Ġglam orous
ĠInc identally
Ġspecim en
Ġstereoty pe
Ġmarshmall ow
Que er
every one
pol ice
Ġgel atin
Ġrebell ious
ĠSound s
ĠEver green
ĠLem mon
ĠPast or
ĠPub lisher
Ġengulf ed
ĠGeor gia
Ke ep
Ġdar ned
ĠTurk ish
Ġknuck les
Ġscant ily
Ġinsign ificant
Ġprompt ly
Ġdiscipl ine
Sl uuu
Ġster ile
ĠSyl ar
ĠBC B
Ġpell ets
Ġwholes ome
ĠPapp as
Ġacrob atic
Ġrhinest ones
RON ISM
ĠDam on
ĠJem ma
ĠLO VE
Ġcobb lest
ĠPatt inson
Ġtrink ets
Ġperm its
Ġconfig uration
Ġstradd led
Ġinsens itive
Ġhumil iated
ĠEnter prise
count er
iag ara
Ġwaff les
ĠMoo re
ĠFle ischman
Ġbrist les
Ġbreat hed
Ġskidd ed
Ġdiscard ed
ĠBron co
Ġindec ision
Ġsemic ircle
gra vity
Ġtum or
Ġsomers ault
Ġdand ruff
Ġlib eral
ĠHou ston
Ġsass y
ĠMI USA
ĠHend erson
Ġleprecha un
Ġgoth ic
ĠEth ics
ĠJav ier
ĠLim its
ĠSpider man
Ġthumbt acks
ĠBrend an
Ġconspir acy
Ġeter nity
Ġail ment
Ġincap able
ĠWiat rak
ĠMun son
Ġsolic it
ĠChat sworth
Ġcoco a
Ġbrisk ly
ĠKau fman
Ġgloss y
Ġapocaly pse
ĠSeas ide
Ġauthent ic
Ġcondescend ing
Ġafflic tion
Ġambig uous
Ġvoca bulary
prot ected
Ġpredomin ant
ĠFoxt el
Ġsynthes izer
Fre aks
Jes us
Ġmuc us
Ġthie ves
Ġnib ble
Ġliv id
ĠVer ity
Ġcurren cy
Ġsubdu ed
Ġfingert ips
Ġengra ved
ĠCarib bean
Ġsupervis ors
Ġadvant ages
Ġnoncommitt al
ĠProt estant
ĠSchne ider
ĠSVS DC
Ġphenomen on
ĠChihuah ua
Ġmund ane
Ġwelf are
ĠTrit on
Ġstamm ered
Ġmezz anine
ĠSOCI ETY
Ġlivest ock
Ġgosp el
ĠMaced on
ĠMethod ist
ĠBaut sch
Ġboister ous
ĠNap oleon
ĠFork ville
Ġnondes cript
ĠRail road
ĠPors che
Ġprocra st
Ġmayonna ise
Ġresurre cted
Ġimprom ptu
Ġconfron ting
Ġbarbers hop
Ġemboss ed
Ġuncooper ative
ĠJehov ah
Ġlukew arm
Ġunscat hed
ĠANACH RONISM
ĠPennsylvan ia
* .
. ;
. ?
. ),
2 000
3 3
4 1
6 4
7 6
7 8
? ?"
? !'
B re
B ad
C ard
C oming
E arl
F ind
F ive
F our
F arscape
G ary
G old
H al
H ank
H urry
J ennifer
L R
L ee
M a
M et
M ic
M oving
N ick
O H
O w
O nce
P r
P eter
P acking
P res
P ER
R o
R es
R os
R uss
S ay
S her
S ally
S ub
S outh
S ometimes
S hall
T y
T ry
U I
V al
W omen
W ouldn
W AY
Y uck
a is
a ways
b on
b il
b ab
b ud
b ath
b rew
b omb
b irth
b ott
b elly
b ugs
c ow
c ly
c ity
c ence
c rop
c ode
c uts
c eled
c alled
d ig
d ale
e em
f ro
f ound
f ake
f ishing
f arm
f using
f inder
f ixed
g one
g roup
g ling
g lasses
g gered
h on
h ide
i ard
i pl
j u
j or
j ob
j oke
k new
m l
m us
m oo
m ie
m ile
m usic
n ake
n ically
n ows
p us
p ile
p ull
p ins
p ron
p ilot
r ish
r iting
r ints
s ent
s uper
t one
t est
t ml
u pp
v ance
v io
w ake
w aiting
w rapped
z s
z el
z il
z oid
z uel
Ġ ;
Ġ ..
Ġt ad
Ġt ier
Ġt ending
Ġt roll
Ġt ends
Ġa h
he ment
Ġw ink
in os
in um
in arian
Ġs ushi
ĠI G
ĠI Q
ĠI so
Ġthe ories
Ġo un
Ġo mel
Ġb acter
Ġb aff
Ġb achelor
Ġm erc
Ġm owed
Ġm amm
Ġwa dd
Ġwa gged
ha ra
ha ckle
it ol
it os
it les
it ious
it urgy
Ġc um
Ġc uss
Ġc uff
Ġc ider
Ġc unning
Ġf aked
Ġf aul
Ġf ails
Ġf ifties
Ġd ia
Ġd ink
Ġd ank
Ġd ys
Ġd illy
ou ched
ou cher
Ġl is
Ġl acking
Ġl aced
Ġl agged
Ġl asso
is ive
Ġg our
Ġg ifted
Ġp att
Ġp aces
Ġp ounce
Ġp oodles
Ġp umped
Ġp omp
Ġin case
Ġin acc
Ġin wardly
Ġin access
on ial
on cert
en cer
en za
en zie
ar an
ar oid
ar ians
or ph
Ġh ump
Ġh tml
Ġha lo
Ġha cking
Ġha cks
Ġha pha
Ġha bits
an ey
et ry
Ġwe alth
Ġhe ms
Ġhe eled
ot o
ot hing
Ġth o
Ġth ud
id ay
id ian
id ery
ĠT R
ĠT ro
ĠT ru
ĠT we
ĠT any
ĠT ears
ĠT aco
ĠT ela
ĠT MM
ĠT itanic
at ters
Ġn inth
le i
le ine
Ġbe ak
us on
us an
us etts
ac ie
Ġst am
Ġst ance
Ġst uttering
ld ing
ic as
ic hed
ic ulate
ic kered
Ġr ated
Ġr iff
Ġr uts
Ġre ver
Ġre inde
Ġre ggae
ay o
Ġe ffe
Ġe els
im i
im m
im ately
ith ing
am i
am an
se ater
se par
ent on
ent ines
st ock
st range
ad ult
ĠS O
ĠS up
ĠS AT
ĠS cient
ĠS inat
Ġli able
ly ard
ĠA R
ĠA g
ĠA im
ĠA st
ĠA very
ĠA head
ĠA va
ĠA DD
ĠA venues
Ġbut ch
Ġfor wards
ur g
ur ate
ur ous
Ġk o
Ġk its
Ġk inky
Ġk iosk
Ġthere by
Ġout burst
Ġwh iz
ĠH onda
Ġdo cked
Ġdo gged
Ġdo ilies
ĠW ool
ĠW ash
ĠW AT
op ped
op ets
nt able
Ġsa u
Ġsa sh
as ants
ĠM C
ĠM as
ĠM ess
ĠM ap
ĠM ake
ĠM ia
ĠM aking
ĠM ilt
Ġy e
Ġy o
Ġy el
Ġshe ars
if est
ĠHe ad
ĠHe art
ĠHe ath
ĠHe lo
ĠHe igl
ĠHe brew
Ġso ar
Ġso res
Ġor b
Ġfr anch
Ġfr othy
ge bra
Ġro iling
Ġsh rie
Ġne cking
ĠWe e
ra z
ra gm
Ġj olt
own s
Ġpl ums
Ġpl ops
ust omed
Ġkn acks
Ġkn aps
un ction
un ches
Ġall ies
ight on
ce ans
Ġcl amps
Ġcl uster
Ġint ensive
il ized
ca ve
ca fe
ca ps
Ġal umn
Ġal gebra
ĠB M
ĠB its
ĠB uff
ĠB ale
Ġta ut
Ġdown stream
Ġman ure
Ġman made
Ġman ifest
ĠC ro
ĠC ell
ĠC ran
ĠC ash
ĠC ove
ĠC omes
ĠC ivil
ĠC uckoo
ie re
ie ved
Ġte ary
Ġsu g
and ering
Ġjust ice
Ġoff line
ong ed
ong ru
ck led
ĠD ist
ĠD air
ĠD elt
ĠD har
ĠD anger
ĠD umb
ĠD ON
ĠD ivision
Ġover turned
ass ed
ort hy
ard on
." ...
Ġcan es
Ġcan celed
Ġde fic
Ġde cap
qu al
qu ite
qu ette
Ġex ca
Ġex ited
Ġex pelled
ĠE M
ĠE iff
Ġcon co
Ġcon ferences
ol ving
ol han
Ġgu ll
Ġgu mb
Ġgu ms
Ġgu arant
Ġsp ade
Ġsp inal
Ġsp rained
os uction
Ġwhere by
Ġrem n
Ġbl ed
Ġbl aring
Ġbl ink
Ġbl otch
Ġbl obs
Ġmo at
Ġfl are
Ġfl inch
Ġfl inging
ĠN A
ĠN on
ĠN ell
ĠN aked
ĠN ations
ĠN iagara
Ġma ker
ks on
Ġv ital
Ġv ows
Ġv owed
Ġv odka
urn iture
ĠO w
ĠO val
Ġgirl ish
ess ment
ĠF al
ĠF erg
ĠF lew
ĠF inal
Ġsm ug
Ġsm irk
Ġcha ise
Ġcha gr
ĠL E
ĠL R
ĠL S
ĠL Z
ĠL ent
ĠL ies
ĠL ock
ĠL ives
ĠL odge
Ġbu mble
Ġco er
Ġco ed
ach usetts
Ġlo ads
Ġreal ise
ĠR at
ĠR ap
ĠR oose
ĠR abb
ĠR osen
ab ama
ab ilia
Ġch ir
Ġch inese
ĠP all
ĠP oe
ĠP aff
ĠP IN
ĠP ushing
ĠP rior
ĠMy st
ne xt
pl an
Ġhas h
ff ant
Ġpo x
Ġpo ign
Ġpo ndered
Ġpo ndering
ag ar
Ġbr us
Ġcou pled
Ġpre st
Ġqu ot
Ġqu icks
Ġdri ps
Ġdri zz
ound ing
ull s
Ġkind ness
Ġthought ful
Ġhome coming
Ġar cha
Ġtake away
ĠG y
ĠG or
ĠG ay
ĠG age
ĠG em
ĠG lass
ĠG uns
ĠTh inking
ĠTh ousands
Ġun ac
Ġun imp
Ġun iqu
Ġun bal
Ġun protected
Ġsl o
Ġsl ings
Ġsl ums
Ġsl ugg
Ġdis ple
Ġdis cer
Ġdis jointed
au x
Ġshow case
Ġac re
Ġac ne
Ġpro ves
Ġpro ducing
od o
od s
od ied
fore st
Ġstu bs
Ġen light
Ġend e
Ġend lessly
Ġend earing
Ġwill ingly
be en
Ġunder way
Ġunder grad
Ġtow ed
Ġtow ers
co ons
co ats
Ġact ively
Ġho lly
ty pes
Ġwind screen
Ġwind mill
Ġwr ithing
Ġph leg
Ġfin ale
Ġtra iled
ĠK y
ĠK ell
ĠK irst
ĠK app
ĠK rue
ĠK nox
ĠK ILL
ook y
ered ith
Ġeven ings
Ġsha res
get ically
Ġbet ting
Ġbet rot
Ġim ple
Ġjo ck
Ġjo ker
Ġnight y
Ġnight stand
Ġcont rad
gg ies
Ġblack top
Ġche ers
Ġperson a
Ġwell s
li able
Ġgr its
ĠSt ra
ĠSt olhan
Ġgl or
Ġgl ory
Ġgl itch
ĠNow ak
Ġgra ins
Ġgra zing
Ġdes ires
Ġdes igning
Ġtr acking
Ġtr ashed
ign ed
bb ers
bb ies
ird s
ps ies
Ġsk ins
per ing
Ġcomp ose
ris oned
Ġper vert
Ġper ipher
ress es
Ġsn ub
Ġsn appy
Ġsn atches
Ġres ched
vel t
Ġmar ches
Ġmar chers
Ġarm ies
Ġent w
em ort
ect or
ĠV ul
ĠV oy
ĠV old
ĠV eterans
ĠY ol
ĠY ank
ĠY vonne
ĠY ellow
Ġfall out
Ġred necks
ub ert
Ġcr ummy
Ġele cted
Ġcare lessly
Ġhot dogs
Ġste amed
Ġlea ver
Ġlea vers
Ġinc ub
Ġinc ense
Ġinc ongru
Ġimp ulsively
Ġimp risoned
Ġread j
Ġread ings
Ġcount down
Ġfun niest
Ġret iring
Ġtri ggered
av is
Ġmin eral
Ġmin nows
-- "
-- '
mer ized
Ġacc uses
Ġacc ustomed
Ġca j
Ġca ved
Ġpick et
Ġpick le
cond ition
Ġpast ry
Ġsecond ary
sh ould
Ġinter cept
up ting
Ġsqu aw
Ġhands hake
Ġclean up
Ġvis ibility
Ġser vers
Ġdin ks
br al
br ushes
Ġconf etti
ower ing
Ġexc re
Ġclimb er
Ġnu zz
Ġev ap
Ġev ading
Ġev olved
oc ated
oc ratic
Ġhill top
Ġhang out
Ġgreen ery
Ġfour teen
Ġland mark
Ġfly er
Ġemb ers
Ġball ed
Ġquest s
Ġwar p
Ġwar med
Ġmus cly
Ġtre stle
Ġmess enger
Ġ5 7
Ġweird ly
Ġpres enter
Ġpres umed
Ġpres idents
az zy
bo oth
by es
ĠAl ma
ĠAl ondra
ĠAl abama
Ġeyes ight
ract ion
med ium
Ġpay ments
ci um
arr hea
Ġbreak er
ib les
uc he
sp ring
ĠBe es
ĠBe aver
ĠBe auty
Ġcur bs
Ġstr ides
Ġass umes
ĠBill ie
Ġref ill
There sa
Ġaud ios
udd led
Ġdisc s
Ġdisc ont
Ġdisc oncert
Ġsnow m
Ġsnow storm
Ġcomm ode
Ġcomm itting
la id
Ġind eter
Ġind ict
Ġind uction
Ġexcept ion
Ġmat ured
Ġmind ing
Ġmind ed
Ġpartic les
ĠMar ines
ĠMar ci
ĠMar ib
Ġrecogn ised
Ġ6 1
Ġsy ndrome
Ġmot if
Ġbegin ner
Ġsim pl
Ġsub sided
Ġrecall ing
Ġfact ors
ĠHer o
Ġbrown ie
Ġhur led
ier ra
Ġcomplet ion
Ġyellow s
Ġcamp ers
Ġra king
Ġra fting
Ġattract iveness
Ġpa using
Ġ8 4
Ġice berg
Ġins inu
Ġwin ked
Ġcab s
Ġve hement
Ġcertain ty
Ġstru ct
Ġtouch y
Ġcons istent
ĠSp rite
ĠSp irit
Ġdi aph
Ġdi arrhea
Ġcold er
Ġdel inqu
Ġfing ering
cl ick
ĠNe opets
Ġgrass hop
ipp i
uff ins
ĠGrand mother
ĠGrand mom
Ġappro ved
Ġquestion able
Ġboard er
ĠSe x
nel s
Ġ7 9
Ġ7 00
Ġconvers ed
Ġhat ched
Ġfre estyle
Ġfur y
Ġsent enced
lo cked
ĠJust ice
Ġpower less
walk er
sit ting
Ġmon ks
Ġcoll ie
Ġblank ly
Ġvar i
Ġsick ness
Ġneck ties
Ġmed itate
Ġexpl o
Ġsell er
Ġspecial ist
Ġcal cium
Ġinform ally
Ġsky light
Ġlow ers
Ġprot ocol
Ġpink ish
Ġsoft ness
ograph s
Ġsal ute
Ġinstru cts
Ġflat ter
Ġtun er
Ġpu ps
Ġfil my
Ġfil ament
Ġgas ped
ĠRo llie
do ing
Ġbal es
Ġemploy ers
Ġdet on
Ġdet ained
Ġcart ridge
ĠCl ose
ĠCl int
Ġdorm itories
Ġje an
Ġsimilar ly
Ġcool ness
Ġthick ness
Ġdef le
Ġaut os
Ġaut ob
ĠWill ingham
Ġmix es
Ġbat hed
Ġcond omin
ffic er
Ġbill owing
Ġcook out
Ġlab eling
Ġperform s
oun s
oun ge
Ġpot ion
vert ently
Ġtor pedo
Ġtrans mit
Ġtrans mitted
Ġow ning
Ġow ls
Ġvac ated
Ġapolog ies
Ġur n
Ġur ges
Ġbur ly
ĠRe id
.... ...
Ġchest nut
bed s
bed room
Ġrepe lled
ĠAny ways
ĠBar rett
zz ie
Ġplate au
rest aurant
Ġplat inum
Ġworks he
Ġargu es
Ġhunt s
Ġfinger prints
Ġble ak
Ġcapt ives
ĠSand ler
Ġban ners
Ġprotect s
ĠRob inson
ĠEl mo
Some body
Ġ15 0
ĠSc en
ĠGe ology
rit z
rit ical
Ġpsych other
ĠEd in
Ġstom p
Ġbasketball s
Ġprom oted
Ġprom oting
Ġbutton ed
Ġrepl ica
Ġstupid ly
Ġstupid ity
fl owers
Ġbother some
oot ball
roll er
Ġsens ing
Ġund oubtedly
Ġer upting
me h
ĠPat ients
Ġclub house
Ġrob otic
ĠPh i
ĠPh oen
jam as
Ġimag ery
ĠAd venture
eng ine
Ġrect um
Ġscra per
ĠBu y
ĠBu ick
ĠLe vi
ĠLe ighton
she ll
Ġflower pots
Ġflood s
bl ah
inc om
Ġsucc umb
Ġawak ens
Ġrout ines
ĠHill s
Ġhon k
oop y
Ġcompet e
Ġstar red
Ġ18 0
Ġpriest ess
for ward
Ġfac et
Ġval ves
ĠSunday s
Ġcrew s
sha d
Ġpig tails
Ġflash backs
ĠPark er
ĠRiver ton
Ġpoison ing
Ġbreath s
Ġstring er
Ġdeb ts
Ġshallow s
Ġinterse cted
Ġdu h
Ġbas in
Ġtur ret
Ġtur ntable
Ġlength s
Ġrespect able
Ġdeter gent
Ġhy br
Ġune as
Ġuns crew
Ġurin ates
Ġinf irm
ĠRobert s
Ġweak er
Ġped iat
Ġped dle
ĠChe f
Ġmoder ate
ĠJan elle
Ġlog ically
Ġautom obiles
Ġbul k
ĠWal ked
Ġintim id
Ġintim acy
Ġintim idate
Ġgolf ing
Ġspin ner
Ġcrit ters
Ġcrit ically
Ġtransp orting
ĠPl aying
af raid
Ġmatt ed
Ġrode o
Ġdev iled
Ġtheat ers
Ġtheat res
ĠEx p
Ġchem ist
Ġrot ate
ĠBo otsie
Ġfloat ation
Ġdumb bell
ĠPart s
Wh ose
Ġregister ing
Ġmer maids
ĠTy rion
Ġresist ant
Ġmajor ly
ino is
Ġconv ul
Ġweekend s
Ġinit i
Ġinit iate
Ġimm ig
Ġimm une
Ġdevelop s
Ġquarter back
Ġrod ents
ĠQu entin
Ġmasturb ation
Ġmasturb ated
Ġlip osuction
ĠRet a
Ġappreci ating
Ġinvest ed
Ġnic est
ĠCle m
Ġraft s
Ġchop per
Ġboo b
Ġstock take
ĠCla ud
Ġsocial ize
Ġincred ulously
Ġoccup ying
ĠSw amp
ĠSw itch
ĠMass achusetts
Ġjail er
Ġmemor izing
ĠBetty e
Ġgall oping
Ġprov iding
Ġprov ides
Ġfort ies
Ġcoast al
Ġcomed ic
ĠEv il
Ġcock tails
ĠRos etti
ĠGr ass
Ġmaid en
Ġslop p
Ġ200 3
Ġ200 5
Ġreass ures
Ġjoy ous
Ġemail ing
AN K
AN T
AT H
esb ian
Ġbudd ing
ĠPar ade
ĠGu idance
Ġdetect ives
Ġbin oc
Ġassemb ling
Ġentertain ed
Ġmut ually
Ġplot ted
Ġbehav iors
ĠTr ade
ĠTr ina
Ġdisp osed
Ġridicul ed
Ġaccompl ices
Ġturt leneck
ĠKat z
cream s
ĠBack country
Ġprotest s
Ġpump kins
Ġoverhe ars
Ġsib ling
arn et
Ġdiss u
Ġdiss atisfied
Ġsque aked
Ġscoot ing
Ġwitness ing
Ch urch
ĠJen nings
Ġtransform ing
For ward
Ġejac ulated
Ġdesp ise
Ġdesp ond
Ġcalcul ating
Ġrat ty
Ġdrill ed
Ġincre ases
Ġlif eless
Ġconvention al
lar ge
ĠSch n
Ġ_____ ,
Ġadjust s
Ġsymbol ize
Ġsymbol izes
ĠYes terday
Ġprogress ively
ĠInt ro
Ġplu gging
Ġenth used
ĠGood will
Ġmultip urp
Ġvibr ated
Ġvibr ators
Ġmyster ies
ĠHil ton
St ay
dra wn
Ġwre cking
Ġspoon ful
ĠBarry more
Ġfond led
Ġcritic ism
ĠDream s
Ġid i
Ġmas quer
isc op
ĠSal t
ĠSal z
ĠSol o
Ġmicroph ones
Ġske let
Ġsprink led
Ġcate red
umin ous
umin ating
Ġsnap shot
Ġleaf y
OW N
ĠWhe el
ĠHu ndreds
Ġgraph s
ĠTere sa
ĠBell a
ĠPol aroid
Ġmidget s
Ġintrigu ing
Ġda isies
Ġdisgu ises
Ġhelpless ness
Ġmile age
Sh ould
fact ly
ĠMa ori
des k
des ert
Ġdawn s
wind ow
Ġchamp ion
Ġhero in
Ġarrog antly
Ġmurdere rs
ĠMal achi
ĠMal ika
Ġhomosexual s
Ġhomosexual ity
Ġmead ows
ĠLore lei
Ġoct agon
ĠTar antino
Ġsear ches
Ġgroom ing
Ġbuck led
Ġquad rant
Ġgru esome
Ġash ore
Ġloaf ing
Ġenvelop ed
spe aking
ĠWonder ful
ĠBay front
ĠDra ger
Ġvul va
Ġapplic ations
Ġimmense ly
Bl ack
je ctions
Ġcass ettes
Ġpy thon
Ġconcl ude
Ġindepend ently
Ġtort uring
Ġparach uted
Ġimprove ment
Ġpenet ration
Ġbou ffant
ĠSur round
Ġbetray ing
CH S
Ġhing ed
Ġsty rofoam
ĠCr unch
Ġrust ling
Ġrevers ing
Ġrevers ible
ĠNich ols
ĠGar rison
ĠGrey hound
Ġelectro de
Ġbanister s
Ġeffic iently
Ġshield s
Ġacade my
Ġincor porate
Ġaccommod ations
Ġinqu ired
Ġinha led
ĠCH V
Ġspat ula
Ġreminis cing
Ġcoord inate
Ġsettle ment
ĠJung ian
Ġbon fire
ĠSky walker
ĠRE ALLY
Ġaccomplish ments
Ġbaw ling
Ġfaith ful
Ġling ering
Ġconsequ ence
Ġdiag nosed
Ġ198 6
Ġharmon ica
Ġtoothp ick
Ġtoothp icks
Ġoblig ed
Ġgadget s
Ġclaw ing
Ġexpand ed
Ġzipp ers
Ġabsent minded
Ġhitchh iker
Ġbrill iantly
Ġdread locks
ĠGee z
Ġrebu ild
Ġrebu ilding
bre ak
Ġpra ised
Ġinsp iration
ĠCre agar
ĠGal axy
Ġdism ant
Ġsurre pt
ĠPlay house
Ġtoler ant
Ġgy psies
Ġvig orous
Ġoppon ents
Ġrecru ited
Ġwigg led
Ġhast en
ĠAss ociation
ĠDes mond
Ġanimated ly
Ġsuspic ions
Ġdynam ics
Ġmart y
Ġstyl ized
Ġseas hell
ĠPers ian
Ġcontempt uously
Ġdiscrim in
Ġreassuring ly
Ġfierce ly
Ġturb ulent
Ġbeep ed
Ġpla que
Ġpla ques
ĠBow ie
Ġunre liable
Barb ara
xx xx
hearted ly
Ġgrou chy
ĠWin ston
Ġascend ed
ĠBlo om
ĠBlo oming
ĠPitt s
Ġtrape zoid
Ġdiplom a
Ġprospect s
Rob in
haw k
Ġcos mos
Ġgaze bo
Ġhudd le
Ġbeck ons
ĠMah orn
ĠCher ry
ĠRome o
ĠGill en
Ġabsor b
fr amed
Ġtumb ling
Ġming le
Ġmound s
Ġtomb stone
Ġpige ons
Ġult imate
ĠSun shine
Ġoverd ue
ĠPass ing
ĠGard en
Ġdistribut ed
Ġdevast ating
Ġpamp hlet
Ġratt les
Ġratt ling
sec ret
Ġremorse ful
Ġretain er
ĠBrun ero
Ġprivile ged
ĠSwed en
ĠEuchar ist
Ġsacri fic
Ġarchitect ural
Ġpall et
Ġpall ets
ĠTor chwood
Ġrecept acle
ĠMob ility
Ġmoist ure
Ġvand al
Ġcrunch y
Ġrais in
help ful
Ġwis dom
isha ble
ĠMuri el
ĠFound ation
ĠLang ton
Ġdisorder ly
Ġgroo ves
ĠVis itor
Ġassass ination
Ġsubd ivision
Ġdescript ive
Ġgroan ed
Ġcripp le
Ġaer ob
Ġlan terns
Ġlitt ered
ĠAren a
ĠDi ab
Ġmole cules
ĠPrim ary
Ġunin vited
Ġelim inating
[...]
